{
  "</s>": 0,
  "<unk>": 1,
  "\u2581": 2,
  "\u3001": 3,
  ",": 4,
  "\u2581the": 5,
  ".": 6,
  "\u3002": 7,
  "s": 8,
  "\u306e": 9,
  "\u2581of": 10,
  "\u2581and": 11,
  "\u2581to": 12,
  "\u2581a": 13,
  "\u306f": 14,
  "\u2581in": 15,
  "\u3092": 16,
  "\u304c": 17,
  "\u2581is": 18,
  "-": 19,
  "\u306b": 20,
  ")": 21,
  "\u3068": 22,
  "\u2581for": 23,
  "\u2581that": 24,
  "\u3067": 25,
  "'": 26,
  "\u2581with": 27,
  "\u2581on": 28,
  "\u2581The": 29,
  "\u2581you": 30,
  "(": 31,
  "\u2581it": 32,
  "\u30fb": 33,
  "\u2581(": 34,
  "\u2581as": 35,
  "\u2581are": 36,
  "?": 37,
  "\u2581be": 38,
  "ing": 39,
  "\u2581by": 40,
  "\u2581was": 41,
  ":": 42,
  "t": 43,
  "\u2581from": 44,
  "\u2019": 45,
  "\u3084": 46,
  "ed": 47,
  "\u2581an": 48,
  "\u2581can": 49,
  "\u2581at": 50,
  "\u2581A": 51,
  "\u304b\u3089": 52,
  "\u2581or": 53,
  "\u2581this": 54,
  "\u2581I": 55,
  "\u300d": 56,
  "d": 57,
  "\u3059\u308b": 58,
  "\u2581have": 59,
  "\u3082": 60,
  "\u2581we": 61,
  "\u3057\u305f": 62,
  "\u3057": 63,
  "\u2581not": 64,
  "\u2581will": 65,
  "\u3067\u3059": 66,
  "\u2581has": 67,
  "\u5e74": 68,
  "\u2581which": 69,
  "\u300c": 70,
  "\u2581In": 71,
  "\u2581your": 72,
  "2": 73,
  "!": 74,
  "1": 75,
  "\u2581\"": 76,
  "\u306a": 77,
  "er": 78,
  "\"": 79,
  "\u2581but": 80,
  "\u305f": 81,
  "\u2581i": 82,
  "ly": 83,
  "\u2581all": 84,
  "\u3067\u3042\u308b": 85,
  "\u2581also": 86,
  "\u2581one": 87,
  "\u2581their": 88,
  "in": 89,
  "\u2581he": 90,
  "\u2581more": 91,
  "y": 92,
  "\u3067\u306f": 93,
  "/": 94,
  "\u306b\u306f": 95,
  "\u2581its": 96,
  "\u2581they": 97,
  "3": 98,
  "e": 99,
  "\u2581our": 100,
  "re": 101,
  "\u2581new": 102,
  "\u2581It": 103,
  "m": 104,
  "\u2581his": 105,
  "\u2581time": 106,
  "\u3068\u3057\u3066": 107,
  "\u2581about": 108,
  "\u308b": 109,
  "\u307e\u3059": 110,
  "\u304b": 111,
  "\u2581\u3053\u306e": 112,
  "\u2581so": 113,
  "a": 114,
  "\u2581other": 115,
  "\u3057\u3066": 116,
  "\u3055\u308c\u305f": 117,
  "\u3060": 118,
  "S": 119,
  "\u2581up": 120,
  "\u2581were": 121,
  "\u2581We": 122,
  "\u2581like": 123,
  "\u6708": 124,
  "\u2581been": 125,
  "\u2581S": 126,
  "\u305d\u306e": 127,
  "\u2581out": 128,
  "al": 129,
  "\u2581there": 130,
  "\u3053\u306e": 131,
  "\u2581do": 132,
  "\u2581when": 133,
  "\u2581This": 134,
  "\u2581people": 135,
  "\u2581use": 136,
  "\u2581who": 137,
  "\u3068\u3044\u3046": 138,
  "\u65e5": 139,
  "\u2581\u201c": 140,
  "\u2581what": 141,
  "\u2581into": 142,
  "\u2581no": 143,
  "\u304a\u3088\u3073": 144,
  "r": 145,
  "\u201d": 146,
  "\u3066": 147,
  "o": 148,
  "D": 149,
  "\u3057\u307e\u3059": 150,
  "n": 151,
  "\u2581such": 152,
  "\u306a\u3069": 153,
  "\u2581if": 154,
  "\u3057\u3066\u3044\u308b": 155,
  "\u2581first": 156,
  "4": 157,
  "A": 158,
  "i": 159,
  "...": 160,
  "C": 161,
  "\u2581data": 162,
  "\u2581had": 163,
  "\u2581used": 164,
  "\u2581only": 165,
  "\u2581than": 166,
  "\u30b9": 167,
  "\u2581over": 168,
  "5": 169,
  "\u2581my": 170,
  "\u306b\u3088\u308b": 171,
  "\u2581He": 172,
  "es": 173,
  "\u2581some": 174,
  "th": 175,
  "\u2581work": 176,
  "\u3066\u3044\u308b": 177,
  "\u2581just": 178,
  "\u2581two": 179,
  "\u2581any": 180,
  "\u4eba": 181,
  "\u2581information": 182,
  "\u306b\u304a\u3051\u308b": 183,
  "\u2581Japanese": 184,
  ";": 185,
  "\u2581well": 186,
  "\u2581company": 187,
  "\u2581me": 188,
  "\u306b\u3088\u3063\u3066": 189,
  "\u2581using": 190,
  "\u2581system": 191,
  "\u25812": 192,
  "\u2581them": 193,
  "\u2581would": 194,
  "\u2581make": 195,
  "\u6027": 196,
  "\u2581how": 197,
  "\u2581where": 198,
  "\u2581-": 199,
  "or": 200,
  "\u308a": 201,
  "\u3055\u308c\u308b": 202,
  "ve": 203,
  "\u2581man": 204,
  "\u2581after": 205,
  "\u25813": 206,
  "B": 207,
  "]": 208,
  "\u2581now": 209,
  "\u307e\u305f\u306f": 210,
  "\u30c8": 211,
  "\u2581through": 212,
  "\u2581these": 213,
  "\u2581most": 214,
  "\u2581get": 215,
  "to": 216,
  "\u2581\u300c": 217,
  "\u2581many": 218,
  "\u2581high": 219,
  "\u2581To": 220,
  "\u2581Japan": 221,
  "\u2581C": 222,
  "\u3066\u3044\u307e\u3059": 223,
  "\u25811": 224,
  "\u2581her": 225,
  "\u3078\u306e": 226,
  "\u306b\u3064\u3044\u3066": 227,
  "\u2581years": 228,
  "\u7684\u306a": 229,
  ").": 230,
  "\u2581re": 231,
  "ll": 232,
  "\u3088\u308a": 233,
  "\u3057\u3066\u3044\u307e\u3059": 234,
  "\u307e\u3057\u305f": 235,
  "\u2581world": 236,
  "),": 237,
  "c": 238,
  "\u3044": 239,
  "10": 240,
  "T": 241,
  "\u2581\u307e\u305f": 242,
  "\u30ea": 243,
  "\u2581very": 244,
  "\u2581between": 245,
  "\u30b5\u30fc\u30d3\u30b9": 246,
  "\u2581way": 247,
  "6": 248,
  "\u30a2": 249,
  "\u2581Google": 250,
  "\u2581then": 251,
  "ation": 252,
  "\u2581may": 253,
  "\u7684": 254,
  "F": 255,
  "\u5927": 256,
  "\u3067\u304d\u308b": 257,
  "G": 258,
  "\u2581said": 259,
  "\u2581made": 260,
  "\u2581business": 261,
  "E": 262,
  "\u3053\u3068": 263,
  "\u306b\u3088\u308a": 264,
  "\u5316": 265,
  "I": 266,
  "\u2581E": 267,
  "\u2581If": 268,
  "b": 269,
  "\u2581year": 270,
  "k": 271,
  "g": 272,
  "\u2581B": 273,
  "\u3063\u3066": 274,
  "M": 275,
  "\u2581P": 276,
  "p": 277,
  "\u2581need": 278,
  "\u3055\u308c": 279,
  "\u2581You": 280,
  "\u2581even": 281,
  "\u2581each": 282,
  "\u2581For": 283,
  "\u2581see": 284,
  "x": 285,
  "\u2581while": 286,
  "\u2581service": 287,
  "\u2581could": 288,
  "\u2581same": 289,
  "P": 290,
  "\u307e\u3067": 291,
  "\u2581F": 292,
  "\u2581because": 293,
  "7": 294,
  "\u30c9": 295,
  "\u5e74\u306b": 296,
  "able": 297,
  "\u2581us": 298,
  "\u2581part": 299,
  "\u3055\u308c\u3066\u3044\u308b": 300,
  "\u30b7\u30b9\u30c6\u30e0": 301,
  "\u2581want": 302,
  "\u306a\u3044": 303,
  "\u2581There": 304,
  "K": 305,
  "\u65b0\u3057\u3044": 306,
  "8": 307,
  "\u2581don": 308,
  "\u30c7\u30fc\u30bf": 309,
  "\u2581back": 310,
  "\u2581different": 311,
  "\u2581know": 312,
  "\u3067\u3042\u308a": 313,
  "\u30af": 314,
  "\u2581being": 315,
  "\u2581number": 316,
  "\u3089": 317,
  "N": 318,
  "\u2581[": 319,
  "\u2581she": 320,
  "\u2581take": 321,
  "on": 322,
  "\u2581And": 323,
  "\u6a5f\u80fd": 324,
  "\u2581go": 325,
  "\u672c": 326,
  "\u304f": 327,
  "\u2581\u3057\u304b\u3057": 328,
  "\u2581support": 329,
  "\u2581\u305d\u306e": 330,
  "\u2581As": 331,
  "\u304c\u3042\u308b": 332,
  "\u2581T": 333,
  "\u2581right": 334,
  "\u3064\u306e": 335,
  "ers": 336,
  "\u4e2d": 337,
  "\u3055": 338,
  "\u3063\u305f": 339,
  "\u2581around": 340,
  "\u30e9": 341,
  "\u2581U": 342,
  "\u2581good": 343,
  "\u2581de": 344,
  "\u3067\u3082": 345,
  "\u7528": 346,
  "en": 347,
  "\u258118": 348,
  "\u2581Re": 349,
  "\u305f\u3081\u306b": 350,
  "\u2581including": 351,
  "\u2581should": 352,
  "the": 353,
  "\u2581O": 354,
  "\u2581R": 355,
  "\u2581D": 356,
  "O": 357,
  "ic": 358,
  "\u2581under": 359,
  "\u306b\u3082": 360,
  "\u2581development": 361,
  "\u3078": 362,
  "\u2581products": 363,
  "\u2581both": 364,
  "\u6cd5": 365,
  "\u3088": 366,
  "\u306b\u95a2\u3059\u308b": 367,
  "\u60c5\u5831": 368,
  "ion": 369,
  "\u56fd": 370,
  "\u2581much": 371,
  "\u305f\u3081": 372,
  "\u2581set": 373,
  "\u2581those": 374,
  "9": 375,
  "l": 376,
  "\u304a": 377,
  "\u306a\u3069\u306e": 378,
  "f": 379,
  "\u3060\u3063\u305f": 380,
  "\u6c34": 381,
  "\u2581down": 382,
  "\u2581provide": 383,
  "\u2581here": 384,
  "\u2581M": 385,
  "\u2581day": 386,
  "\u2581team": 387,
  "\u307f": 388,
  "h": 389,
  "ity": 390,
  "\u258110": 391,
  "an": 392,
  "\u3064": 393,
  "\u30ca": 394,
  "\u3059": 395,
  "\u2581before": 396,
  "R": 397,
  "\u2581G": 398,
  "\u2581long": 399,
  "\u2581water": 400,
  "\u2581called": 401,
  "\u306e\u305f\u3081\u306e": 402,
  "\u306b\u304a\u3044\u3066": 403,
  "\u304d": 404,
  "\u6642\u9593": 405,
  "\u2581based": 406,
  "\u3057\u307e\u3057\u305f": 407,
  "\u30bf": 408,
  "\u2581three": 409,
  "\u2581own": 410,
  "\u30de": 411,
  "\u2581\u2013": 412,
  "\u578b": 413,
  "\u2581without": 414,
  "\u30ab": 415,
  "\u2581design": 416,
  "\u2581model": 417,
  "19": 418,
  "\u2581available": 419,
  "\u25815": 420,
  "\u3046": 421,
  "\u2581K": 422,
  "H": 423,
  "\u958b\u767a": 424,
  "\u2581during": 425,
  "\u2581think": 426,
  "\u2581order": 427,
  "\u30fc": 428,
  "X": 429,
  "\u30ba": 430,
  "\u8005": 431,
  "\u306b\u5bfe\u3059\u308b": 432,
  "\u3001\u300c": 433,
  "\u4e0a": 434,
  "\u2581But": 435,
  "\u25814": 436,
  "\u2581name": 437,
  "\u74b0\u5883": 438,
  "\u7ba1\u7406": 439,
  "\u2581process": 440,
  "\u2581help": 441,
  "\u2581New": 442,
  "le": 443,
  "\u2581him": 444,
  "\u65e5\u672c": 445,
  "\u6280\u8853": 446,
  "\u305d\u3057\u3066": 447,
  "\u306b\u3042\u308b": 448,
  "\u2581product": 449,
  "\u4e00": 450,
  "\u30e2\u30c7\u30eb": 451,
  "\u2581So": 452,
  "V": 453,
  "\u304c\u3042\u308a\u307e\u3059": 454,
  "\u2581Apple": 455,
  "\u2581When": 456,
  "L": 457,
  "\u2581still": 458,
  "\u4eba\u306e": 459,
  "\u2581services": 460,
  "\u3082\u306e": 461,
  "\u591a\u304f\u306e": 462,
  "\u2581Co": 463,
  "W": 464,
  "ne": 465,
  "\u2581code": 466,
  "\u2581large": 467,
  "\u3088\u3046\u306b": 468,
  "\u300f": 469,
  "\u30eb": 470,
  "\u2581\u3053\u308c\u306f": 471,
  "\u2581technology": 472,
  "\u2581going": 473,
  "\u2581last": 474,
  "\u2581life": 475,
  "\u2581On": 476,
  "\u2581un": 477,
  "\u308f": 478,
  "\u30b7": 479,
  "\u30b3": 480,
  "\u2581users": 481,
  "\u2581open": 482,
  "\u2581H": 483,
  "\u2581\u79c1\u306f": 484,
  "\u5f8c": 485,
  "\u2581power": 486,
  "\u2581group": 487,
  "\u5185": 488,
  "\u2581within": 489,
  "12": 490,
  ">": 491,
  "\u4ed6\u306e": 492,
  "man": 493,
  "\u2581area": 494,
  "\u2581end": 495,
  "\u88fd\u54c1": 496,
  "\u2581control": 497,
  "\u3042\u308b": 498,
  "\u30ed": 499,
  "\u2581N": 500,
  "\u65b9\u6cd5": 501,
  "\u3044\u305f": 502,
  "\u9ad8": 503,
  "\u2581place": 504,
  "\u306d": 505,
  "\u2581change": 506,
  "\u306e\u305f\u3081\u306b": 507,
  "\u2581best": 508,
  "\u3044\u307e\u3059": 509,
  "\u306e\u3067": 510,
  "\u2581project": 511,
  "ra": 512,
  "\u5bb6": 513,
  "\u2581did": 514,
  "\u2581An": 515,
  "\u2581small": 516,
  "\u2581application": 517,
  "\u2581next": 518,
  "\u53ca\u3073": 519,
  "u": 520,
  "\u30d0": 521,
  "it": 522,
  "\u3053\u3068\u3092": 523,
  "\u7814\u7a76": 524,
  "\u2581quality": 525,
  "\u540d": 526,
  "\u30e0": 527,
  "20": 528,
  "\u2581software": 529,
  "\u2581woman": 530,
  "\u2581off": 531,
  "\u2581:": 532,
  "\u2581every": 533,
  "\u6642": 534,
  "\u6570": 535,
  "\u2581J": 536,
  "\u2581does": 537,
  "\u2581since": 538,
  "\u2581important": 539,
  "\u6c0f\u306f": 540,
  "\u2581come": 541,
  "\u624b": 542,
  "\u529b": 543,
  "\u30ec": 544,
  "\u2581car": 545,
  "\u2581home": 546,
  "\u30d5": 547,
  "\u4f53": 548,
  "us": 549,
  "\u7269": 550,
  "\u4f01\u696d": 551,
  "\u3093\u3060": 552,
  "Google": 553,
  "\u306b\u5bfe\u3057\u3066": 554,
  "\u2581find": 555,
  "The": 556,
  "\u2581example": 557,
  "J": 558,
  "\u2581\u5f7c\u306f": 559,
  "el": 560,
  "\u90e8": 561,
  "\u2581able": 562,
  "\u2581free": 563,
  "\u2581today": 564,
  "\u2581performance": 565,
  "ta": 566,
  "\u30ea\u30fc": 567,
  "\u2581look": 568,
  "\u2581What": 569,
  "\u2581&": 570,
  "ive": 571,
  "\u2581case": 572,
  "\u2581various": 573,
  "\u2581\u305d\u3057\u3066": 574,
  "\u5730": 575,
  "\u2581working": 576,
  "\u2581features": 577,
  "\u51e6\u7406": 578,
  "ment": 579,
  "na": 580,
  "\u3059\u3079\u3066\u306e": 581,
  "\u7b49": 582,
  "\u30c6\u30b9\u30c8": 583,
  "co": 584,
  "\u2581person": 585,
  "ro": 586,
  "st": 587,
  "\u2581possible": 588,
  "no": 589,
  "\u2581method": 590,
  "\u2581\u2014": 591,
  "\u5206": 592,
  "\u2581something": 593,
  "\u2581Hotel": 594,
  "\u9577": 595,
  "\u306b\u306a\u308b": 596,
  "\u5c71": 597,
  "\u2581app": 598,
  "z": 599,
  "\u30c4\u30fc\u30eb": 600,
  "\u2581They": 601,
  "\u2581companies": 602,
  "\u2581real": 603,
  "ar": 604,
  "11": 605,
  "and": 606,
  "\u30c0": 607,
  "\u2581e": 608,
  "\u3068\u306a\u308b": 609,
  "\u30df": 610,
  "\u306e\u3067\u3059": 611,
  "\u2581At": 612,
  "\u7684\u306b": 613,
  "\u2581user": 614,
  "ch": 615,
  "\u2581really": 616,
  "\u2581With": 617,
  "\u307e\u305f": 618,
  "\u2581customers": 619,
  "\u3044\u308b": 620,
  "\u3067\u304d\u307e\u3059": 621,
  "\u30b5": 622,
  "\u2581management": 623,
  "ri": 624,
  "\u2581family": 625,
  "ma": 626,
  "\u7b2c": 627,
  "\u306a\u3089": 628,
  "\u2581access": 629,
  "\u2581state": 630,
  "v": 631,
  "\u30cb": 632,
  "\u2581better": 633,
  "\u3054": 634,
  "\u2581market": 635,
  "\u30a4\u30f3": 636,
  "\u2581create": 637,
  "\u300e": 638,
  "\u30a4": 639,
  "\u554f\u984c": 640,
  "\u56de": 641,
  "\u2581type": 642,
  "\u2581another": 643,
  "\u2581period": 644,
  "18": 645,
  "\u2581things": 646,
  "Y": 647,
  "\u25816": 648,
  "\u2581experience": 649,
  "\u2581little": 650,
  "\u2581making": 651,
  "\u3066\u3044\u305f": 652,
  "&": 653,
  "\u2581point": 654,
  "\u304b\u3089\u306e": 655,
  "\u30a8": 656,
  "\u2581However": 657,
  "\u2581W": 658,
  "se": 659,
  "\u2581production": 660,
  "go": 661,
  "\u2581lot": 662,
  "\u2581few": 663,
  "\u2581L": 664,
  "\u2581space": 665,
  "\u30ad": 666,
  "\u524d": 667,
  "\u2581found": 668,
  "\u4e0d": 669,
  "ate": 670,
  "ry": 671,
  "\u2581Facebook": 672,
  "\u2581X": 673,
  "\u70b9": 674,
  "\u306e\u306f": 675,
  "\u2581too": 676,
  "30": 677,
  "\u30d0\u30fc": 678,
  "\u5927\u304d\u306a": 679,
  "\u2581city": 680,
  "\u2581video": 681,
  "\u30aa": 682,
  "\u30a2\u30d7\u30ea\u30b1\u30fc\u30b7\u30e7\u30f3": 683,
  "\u5ea6": 684,
  "\u2581following": 685,
  "ter": 686,
  "\u2581Microsoft": 687,
  "\u2581Java": 688,
  "\u2581personal": 689,
  "\u3093": 690,
  "\u4e0b": 691,
  "\u2581great": 692,
  "\u30a6": 693,
  "be": 694,
  "son": 695,
  "\u2581After": 696,
  "\u2581InfoQ": 697,
  "\u6a5f": 698,
  "\u76ee": 699,
  "\u65b0": 700,
  "\u2581line": 701,
  "at": 702,
  "\u30cd\u30c3\u30c8\u30ef\u30fc\u30af": 703,
  "\u3067\u306e": 704,
  "is": 705,
  "\u306e\u304b": 706,
  "\u6d3b\u52d5": 707,
  "\u2581future": 708,
  "\u2581become": 709,
  "\u7dda": 710,
  "\u306e\u3088\u3046\u306a": 711,
  "\u51fa": 712,
  "\u2581value": 713,
  "\u9762": 714,
  "\u2581local": 715,
  "\u2581network": 716,
  "\u2014": 717,
  "\u2581top": 718,
  "w": 719,
  "\u25818": 720,
  "\u2581learning": 721,
  "\u258119": 722,
  "ness": 723,
  "\u258120": 724,
  "me": 725,
  "\u25817": 726,
  "\u2581building": 727,
  "\u30d6": 728,
  "\u2581applications": 729,
  "\u2581addition": 730,
  "\u2581V": 731,
  "\u2581why": 732,
  "\u898b": 733,
  "\u30c7": 734,
  "\u2581She": 735,
  "\u3042\u306a\u305f\u306e": 736,
  "age": 737,
  "\u4f8b": 738,
  "\u2581room": 739,
  "\u2581De": 740,
  "\u30b8": 741,
  "\u7d04": 742,
  "\u2581per": 743,
  "\u2581systems": 744,
  "\u2581show": 745,
  "ary": 746,
  "\u4e0a\u306e": 747,
  "\u3092\u6301\u3064": 748,
  "\u2581must": 749,
  "15": 750,
  "de": 751,
  "\u5149": 752,
  "do": 753,
  "\u2581human": 754,
  "\u3060\u308d\u3046": 755,
  "\u2581public": 756,
  "\u9053": 757,
  "\u2581machine": 758,
  "\u2581language": 759,
  "\u3068\u306e": 760,
  "ge": 761,
  "te": 762,
  "\u30ce": 763,
  "\u2581together": 764,
  "\u2581site": 765,
  "\u2581research": 766,
  "\u306a\u304b\u3063\u305f": 767,
  "\u30f3": 768,
  "based": 769,
  "\u65e5\u306b": 770,
  "\u2581children": 771,
  "\u2581device": 772,
  "\u5834\u5408": 773,
  "\u5916": 774,
  "\u753b\u50cf": 775,
  "\u8a08\u753b": 776,
  "\u2581hand": 777,
  "\u2581test": 778,
  "\u6c17": 779,
  "\u30d3\u30b8\u30cd\u30b9": 780,
  "\u2581second": 781,
  "\u2581version": 782,
  "\u2581light": 783,
  "\u4e8b": 784,
  "\u3055\u308c\u307e\u3059": 785,
  "\u2581form": 786,
  "\u4eba\u304c": 787,
  "\u5dde": 788,
  "\u3068\u306f": 789,
  "\u2581having": 790,
  "\u8a2d\u8a08": 791,
  "\u2581China": 792,
  "\u2581means": 793,
  "\u2581side": 794,
  "\u2581That": 795,
  "\u305f\u3081\u306e": 796,
  "\u3057\u3066\u3044\u305f": 797,
  "et": 798,
  "\u2581full": 799,
  "\u2581problem": 800,
  "\u3088\u308a\u3082": 801,
  "\u30d7": 802,
  "ji": 803,
  "\u3067\u3057\u3087\u3046": 804,
  "\u5e74\u306e": 805,
  "\u2581known": 806,
  "\u2581got": 807,
  "\u2581say": 808,
  "up": 809,
  "\u4f1a\u793e": 810,
  "\u2581away": 811,
  "\u2581One": 812,
  "\u305d\u308c": 813,
  "\u30b2\u30fc\u30e0": 814,
  "li": 815,
  "\u6240": 816,
  "\u2581game": 817,
  "\u5229\u7528": 818,
  "\u751f": 819,
  "\u307e": 820,
  "\u2581start": 821,
  "\u30b5\u30a4\u30c8": 822,
  "\u3088\u3046": 823,
  "_": 824,
  "\u2581Our": 825,
  "\u95a2\u4fc2": 826,
  "\u5b50": 827,
  "\u4f1a": 828,
  "\u2581always": 829,
  "\u2581level": 830,
  "il": 831,
  "\u2581Do": 832,
  "\u2581became": 833,
  "\u2581single": 834,
  "\u5b66": 835,
  "\u2581already": 836,
  "\u2581image": 837,
  "ia": 838,
  "\u2581web": 839,
  ",\u201d": 840,
  "\u258115": 841,
  "\u2581All": 842,
  "\u7d44\u7e54": 843,
  "\u88c5\u7f6e": 844,
  "ling": 845,
  "\u884c": 846,
  "\u2581school": 847,
  "\u2581men": 848,
  "\u2581content": 849,
  "\u30a2\u30d7\u30ea": 850,
  "\u2581co": 851,
  "ine": 852,
  "\u4e8b\u696d": 853,
  "\u9593": 854,
  "\u2581Two": 855,
  "\u2581body": 856,
  "\u3067\u3042\u3063\u305f": 857,
  "\u30c7\u30b6\u30a4\u30f3": 858,
  "\u91d1": 859,
  "\u2581'": 860,
  "\u2581old": 861,
  "\u4f5c\u696d": 862,
  "as": 863,
  "\u2581against": 864,
  "\u30b3\u30fc\u30c9": 865,
  "\u2581platform": 866,
  "\u2581paper": 867,
  "ist": 868,
  "\u2581environment": 869,
  "ko": 870,
  "\u2581several": 871,
  "\u3053\u3068\u306f": 872,
  "\u2581results": 873,
  "\u3060\u3051": 874,
  "\u3042\u308b\u3044\u306f": 875,
  "\u30c3": 876,
  "mo": 877,
  "\u2581run": 878,
  "\u30d3\u30c7\u30aa": 879,
  "\u3053\u3068\u304c\u3067\u304d\u307e\u3059": 880,
  "\u2581Web": 881,
  "\u2581often": 882,
  "\u5e02": 883,
  "\u30c1": 884,
  "\u30d5\u30a1\u30a4\u30eb": 885,
  "\u4f7f\u7528": 886,
  "\u4e0a\u3067": 887,
  "\u30de\u30f3": 888,
  "\u2581feature": 889,
  "\u5fc3": 890,
  "\u2581pre": 891,
  "\u8a55\u4fa1": 892,
  "Z": 893,
  "\u2581p": 894,
  "ton": 895,
  "\u8a2d\u5b9a": 896,
  "\u3092\u542b\u3080": 897,
  "\u2581government": 898,
  "\u30c7\u30a3": 899,
  "\u3063\u3066\u3044\u308b": 900,
  "\u540c": 901,
  "\u2581build": 902,
  "\u30bd\u30d5\u30c8\u30a6\u30a7\u30a2": 903,
  "\u30d3": 904,
  "\u5404": 905,
  "\u2581give": 906,
  "\u2581might": 907,
  "\u30d7\u30ed\u30b8\u30a7\u30af\u30c8": 908,
  "\u306e\u3042\u308b": 909,
  "\u2581please": 910,
  "\u2581built": 911,
  "\u2581later": 912,
  "est": 913,
  "\u3053\u3068\u304c": 914,
  "\u2581\u3055\u3089\u306b": 915,
  "\u2581big": 916,
  "ian": 917,
  "\u2581con": 918,
  "\u30e6\u30fc\u30b6\u30fc": 919,
  "\u2581food": 920,
  "\u2581air": 921,
  "\u2581put": 922,
  "\u3059\u308b\u3053\u3068": 923,
  "ki": 924,
  "\u2581minutes": 925,
  "\u3059\u308b\u3068": 926,
  "\u30c1\u30fc\u30e0": 927,
  "\u2581main": 928,
  "\u2581low": 929,
  "\u2581\u305d\u308c\u306f": 930,
  "\u30bb": 931,
  "ent": 932,
  "\u2581view": 933,
  "\u2581days": 934,
  "\u3089\u308c\u305f": 935,
  "\u3068\u306a\u3063\u305f": 936,
  "\u2581early": 937,
  "\u2581until": 938,
  "\u6700\u3082": 939,
  "\u8a9e": 940,
  "\u8eca": 941,
  "\u3092\u4f7f\u3063\u3066": 942,
  "\u2581source": 943,
  "\u2581across": 944,
  "\u2581non": 945,
  "\u30d7\u30e9\u30c3\u30c8\u30d5\u30a9\u30fc\u30e0": 946,
  "\u8272": 947,
  "\u2581left": 948,
  "\u3053\u3068\u304c\u3067\u304d\u308b": 949,
  "\u2581due": 950,
  "\u2581City": 951,
  "com": 952,
  "\u2581study": 953,
  "ur": 954,
  "\u8a00\u8a9e": 955,
  "\u25819": 956,
  "\u2581million": 957,
  "\u5ddd": 958,
  "\u2581country": 959,
  "\u2581industry": 960,
  "\u3092\u884c\u3046": 961,
  "\u304f\u3060\u3055\u3044": 962,
  "\u2581started": 963,
  "\u2581looking": 964,
  "\u2581young": 965,
  "\u5b66\u7fd2": 966,
  "\u2581field": 967,
  "ie": 968,
  "\u2581API": 969,
  "\u3081": 970,
  "\u2581Windows": 971,
  "\u30cd": 972,
  "\u2581provides": 973,
  "\u2581Group": 974,
  "\u30b0": 975,
  "\u3067\u306f\u306a\u3044": 976,
  "\u3067\u3057\u305f": 977,
  "ul": 978,
  "\u2581developers": 979,
  "\u2581--": 980,
  "\u258112": 981,
  "\u2581event": 982,
  "ization": 983,
  "\u308c": 984,
  "ating": 985,
  "\u4e16\u754c": 986,
  "\u2581range": 987,
  "\u2581social": 988,
  "um": 989,
  "\u2581course": 990,
  "\u2581iPhone": 991,
  "\u65b9": 992,
  "\u3053": 993,
  "\u3055\u305b\u308b": 994,
  "\u69cb\u9020": 995,
  "ty": 996,
  "\u30c4": 997,
  "\u793e\u4f1a": 998,
  "\u2581easy": 999,
  "\u2581four": 1000,
  "\u2581No": 1001,
  "\u258117": 1002,
  "\u3055\u308c\u3066\u3044\u307e\u3059": 1003,
  "\u71b1": 1004,
  "ting": 1005,
  "\u3055\u307e\u3056\u307e\u306a": 1006,
  "\u2581include": 1007,
  "\u6c0f": 1008,
  "\u2581program": 1009,
  "\u2581Pro": 1010,
  "\u305d\u308c\u306f": 1011,
  "\u5c0f": 1012,
  "\u5143": 1013,
  "\u2581let": 1014,
  "\u2581thing": 1015,
  "\u3053\u3068\u3067": 1016,
  "\u2581makes": 1017,
  "\u2581security": 1018,
  "\u2581etc": 1019,
  "id": 1020,
  "\u2581hard": 1021,
  "\u2581says": 1022,
  "\u5927\u5b66": 1023,
  "\u2581fact": 1024,
  "\u2581music": 1025,
  "\u2581outside": 1026,
  "Web": 1027,
  "\u2581Please": 1028,
  "\u2581head": 1029,
  "\u2581website": 1030,
  "\u3092\u63d0\u4f9b\u3059\u308b": 1031,
  "\u7530": 1032,
  "ized": 1033,
  "\u2581play": 1034,
  "\u69d8\u3005\u306a": 1035,
  "\u8ca9\u58f2": 1036,
  "\u2581special": 1037,
  "ated": 1038,
  "\u2581women": 1039,
  "\u2581Amazon": 1040,
  "\u56fd\u969b": 1041,
  "\u30d7\u30ed\u30bb\u30b9": 1042,
  "\u2581needs": 1043,
  "\u3053\u308c\u306f": 1044,
  "\u6d77": 1045,
  "da": 1046,
  "\u66f8": 1047,
  "\u2581By": 1048,
  "\u30e1": 1049,
  "\u2581mobile": 1050,
  "\u7cfb": 1051,
  "ba": 1052,
  "\u54c1": 1053,
  "\u751f\u7523": 1054,
  "\u2581kind": 1055,
  "\u6587\u5316": 1056,
  "\u306e\u4e2d\u3067": 1057,
  "bo": 1058,
  "\u2581approach": 1059,
  "\u2581front": 1060,
  "\u30b0\u30eb\u30fc\u30d7": 1061,
  "U": 1062,
  "\u2581white": 1063,
  "\u2581key": 1064,
  "\u2581file": 1065,
  "\u30d7\u30ed\u30b0\u30e9\u30e0": 1066,
  "\u3068\u3044\u3063\u305f": 1067,
  "\u2581Con": 1068,
  "\u5236\u5fa1": 1069,
  "less": 1070,
  "\u4f55": 1071,
  "\u975e\u5e38\u306b": 1072,
  "\u524d\u306b": 1073,
  "\u2581Go": 1074,
  "\u30a4\u30d9\u30f3\u30c8": 1075,
  "\u7121": 1076,
  "\u30c6": 1077,
  "of": 1078,
  "\u3059\u308b\u305f\u3081\u306b": 1079,
  "sa": 1080,
  "\u5909\u66f4": 1081,
  "\u2581offer": 1082,
  "\u2581actually": 1083,
  "\u2581current": 1084,
  "jo": 1085,
  "\u30c6\u30a3": 1086,
  "\u2581never": 1087,
  "\u5148": 1088,
  "\u30d1": 1089,
  "\u2581major": 1090,
  "\u306b\u3068\u3063\u3066": 1091,
  "\u30b5\u30dd\u30fc\u30c8": 1092,
  "\u2581United": 1093,
  "\u2581changes": 1094,
  "\u2581along": 1095,
  "ance": 1096,
  "\u3066\u304a\u308a": 1097,
  "\u65b0\u305f\u306a": 1098,
  "\u2581phone": 1099,
  "\u2581child": 1100,
  "\u2581live": 1101,
  "\u2581less": 1102,
  "\u2581customer": 1103,
  "\u2581result": 1104,
  "\u307b\u3069": 1105,
  "\u72b6\u6cc1": 1106,
  "\u2581TV": 1107,
  "\u306b\u306a\u3063\u305f": 1108,
  "\u79c1\u306f": 1109,
  "ex": 1110,
  "\u2581function": 1111,
  "\u5e02\u5834": 1112,
  "\u2581announced": 1113,
  "\u2581third": 1114,
  "\u3048": 1115,
  "\u2581release": 1116,
  "\".": 1117,
  "\u2581devices": 1118,
  "\u91cd\u8981\u306a": 1119,
  "\u2581Android": 1120,
  "\u7279\u306b": 1121,
  "\u6559\u80b2": 1122,
  "\u4e07": 1123,
  "\u2581black": 1124,
  "\u6d41": 1125,
  "ce": 1126,
  "ant": 1127,
  "\u2581again": 1128,
  "\u306e\u307f": 1129,
  "\u793e": 1130,
  ".\"": 1131,
  "os": 1132,
  "16": 1133,
  "\u2581University": 1134,
  "\u5cf6": 1135,
  "\u97f3\u697d": 1136,
  "\u30ab\u30e1\u30e9": 1137,
  "\u3070": 1138,
  "\u2581doing": 1139,
  "\u2581keep": 1140,
  "0": 1141,
  "\u5f8c\u306b": 1142,
  "\u2581models": 1143,
  "\u2581material": 1144,
  "\u2581times": 1145,
  "chi": 1146,
  "\u2581came": 1147,
  "\u2581works": 1148,
  "\u81ea\u5206\u306e": 1149,
  "\u2581given": 1150,
  "\u2581developed": 1151,
  "time": 1152,
  "\u30b9\u30c8": 1153,
  "\u2581contact": 1154,
  "\u2581dis": 1155,
  "\u5834\u6240": 1156,
  "\u2581These": 1157,
  "\u2581/": 1158,
  "\u30e2": 1159,
  "100": 1160,
  "\u3068\u304d": 1161,
  "\u304c\u3042\u308a": 1162,
  "50": 1163,
  "\u5168": 1164,
  "\u53e3": 1165,
  "\u72b6\u614b": 1166,
  "\u2581Sa": 1167,
  "\u30b3\u30f3": 1168,
  "ous": 1169,
  "\u2581Tokyo": 1170,
  "\u306a\u304c\u3089": 1171,
  "lo": 1172,
  "\u2581post": 1173,
  "\u8abf\u67fb": 1174,
  "\u2581according": 1175,
  "\u2581tools": 1176,
  "\u2581simple": 1177,
  "\u3088\u3046\u306a": 1178,
  "\u2581created": 1179,
  "ka": 1180,
  "14": 1181,
  "\u2581energy": 1182,
  "\u3089\u308c\u308b": 1183,
  "\u2581held": 1184,
  "\u5730\u57df": 1185,
  "\u5206\u6790": 1186,
  "\u795e": 1187,
  "\u306b\u3088\u308b\u3068": 1188,
  "\u975e": 1189,
  "\u5024": 1190,
  "\u2581offers": 1191,
  "\u30ea\u30f3\u30b0": 1192,
  "ga": 1193,
  "\u2581cost": 1194,
  "\u3092\u7528\u3044\u305f": 1195,
  "\u3068\u3053\u308d": 1196,
  "+": 1197,
  "out": 1198,
  "\u2581via": 1199,
  "\u6728": 1200,
  "un": 1201,
  "\u3055\u3089\u306b": 1202,
  "\u2581center": 1203,
  "\u4e3b": 1204,
  "\u2581How": 1205,
  "\u30c9\u30eb": 1206,
  "\u2581training": 1207,
  "\u4e09": 1208,
  "\u258111": 1209,
  "\u2581materials": 1210,
  "\u2581running": 1211,
  "\u2581playing": 1212,
  "\u611f": 1213,
  "\u9ad8\u3044": 1214,
  "\u6226": 1215,
  "\u2581allows": 1216,
  "\u5f0f": 1217,
  "\u2581general": 1218,
  "\u2581online": 1219,
  "\u2581provided": 1220,
  "\u258130": 1221,
  "\u4eba\u306f": 1222,
  "\u3042": 1223,
  "\u258116": 1224,
  "\u2581countries": 1225,
  "\u2581far": 1226,
  "\u7a7a\u9593": 1227,
  "\u6642\u306b": 1228,
  "\u2581Ko": 1229,
  "\u88fd\u9020": 1230,
  "\u2581standard": 1231,
  "\u2581took": 1232,
  "\u591a": 1233,
  "\u3053\u308c\u3089\u306e": 1234,
  "\u2581computer": 1235,
  "\u3057\u306a\u3044": 1236,
  "\u5973\u6027": 1237,
  "\u97f3": 1238,
  "\u2581short": 1239,
  "\u2581popular": 1240,
  "\u540c\u3058": 1241,
  "\u2581call": 1242,
  "\u2581size": 1243,
  "}": 1244,
  "ke": 1245,
  "\u2581multi": 1246,
  "\u2581International": 1247,
  "\u2581Q": 1248,
  "\u2581present": 1249,
  "\u2581girl": 1250,
  "\u2581am": 1251,
  "\u307e\u305b\u3093": 1252,
  "\u2581World": 1253,
  "\u2581money": 1254,
  "Fi": 1255,
  "\u6708\u306b": 1256,
  "\u91cf": 1257,
  "\u2581further": 1258,
  "\u77f3": 1259,
  "17": 1260,
  "\u2581required": 1261,
  "\u2581global": 1262,
  "Java": 1263,
  "ies": 1264,
  "13": 1265,
  "\u2581class": 1266,
  "Apple": 1267,
  "\u30da\u30fc\u30b8": 1268,
  "\u30a8\u30cd\u30eb\u30ae\u30fc": 1269,
  "\u2581f": 1270,
  "\u2581designed": 1271,
  "\u2581located": 1272,
  "\u30e9\u30fc": 1273,
  "\u8239": 1274,
  "la": 1275,
  "\u30bd\u30ea\u30e5\u30fc\u30b7\u30e7\u30f3": 1276,
  "\u2581San": 1277,
  "\u2581among": 1278,
  "\u2581screen": 1279,
  "\u2581book": 1280,
  "rs": 1281,
  "\u2581price": 1282,
  "\u2581page": 1283,
  "\u4f4d": 1284,
  "$": 1285,
  "\u5668": 1286,
  "\u201c": 1287,
  "tic": 1288,
  "\u7a7a": 1289,
  "\u2581check": 1290,
  "\u2581activities": 1291,
  "\u52b9\u679c": 1292,
  "\u2581doesn": 1293,
  "\u539f": 1294,
  "\u2581tool": 1295,
  "\u2581community": 1296,
  "\u2581g": 1297,
  "\u2581American": 1298,
  "\u30cf": 1299,
  "\u2581learn": 1300,
  "\u98df": 1301,
  "ck": 1302,
  "\u901a": 1303,
  "\u6587": 1304,
  "\u30ab\u30fc": 1305,
  "\u2581c": 1306,
  "\u3063": 1307,
  "\u305d\u3046": 1308,
  "\u2581search": 1309,
  "\u2581account": 1310,
  "\u2581Al": 1311,
  "\u90fd\u5e02": 1312,
  "con": 1313,
  "\u2581English": 1314,
  "\u8868\u73fe": 1315,
  "\u2581feel": 1316,
  "\u982d": 1317,
  "\u2581film": 1318,
  "\u9078\u629e": 1319,
  "\u2581past": 1320,
  "\u5b9f\u9a13": 1321,
  "\u3044\u3044": 1322,
  "\u2581similar": 1323,
  "\u2581series": 1324,
  "\u5f62": 1325,
  "\u2581red": 1326,
  "\u2581understand": 1327,
  "\u30ac": 1328,
  "\u30c7\u30d0\u30a4\u30b9": 1329,
  "\u8a71": 1330,
  "\u2581taking": 1331,
  "\u8cea": 1332,
  "\u2581list": 1333,
  "\u2581common": 1334,
  "\u3059\u308b\u3053\u3068\u304c\u3067\u304d\u307e\u3059": 1335,
  "\u4e2d\u56fd": 1336,
  "\u2581near": 1337,
  "ol": 1338,
  "In": 1339,
  "\u30c3\u30c8": 1340,
  "\u5909\u5316": 1341,
  "=": 1342,
  "Re": 1343,
  "\u3080": 1344,
  "\u306a\u304f": 1345,
  "\u2581plan": 1346,
  "\u2581above": 1347,
  "\u5199\u771f": 1348,
  "\u826f\u3044": 1349,
  "ad": 1350,
  "\u30bf\u30fc": 1351,
  "\u30a2\u30f3": 1352,
  "\u2581necessary": 1353,
  "\u7740": 1354,
  "\u2581pro": 1355,
  "\u4f4e": 1356,
  "\u7570\u306a\u308b": 1357,
  "\u7d30\u80de": 1358,
  "\u5e73": 1359,
  "\u2581natural": 1360,
  "\u2581age": 1361,
  "\u2581equipment": 1362,
  "\u5c0f\u3055\u306a": 1363,
  "\u2581structure": 1364,
  "\u30ea\u30ea\u30fc\u30b9": 1365,
  "\u30ea\u30f3\u30af": 1366,
  "\u2581once": 1367,
  "\u30ed\u30fc": 1368,
  "\u3060\u3051\u3067\u306a\u304f": 1369,
  "\u6b63": 1370,
  "\u6620\u753b": 1371,
  "\u691c\u7d22": 1372,
  "\u2581original": 1373,
  "gi": 1374,
  "\u2581sub": 1375,
  "\u76f4": 1376,
  "\u5e97": 1377,
  "\u3058": 1378,
  "\u2581done": 1379,
  "\u30af\u30e9\u30b9": 1380,
  "shi": 1381,
  "\u767d": 1382,
  "\u2581comes": 1383,
  "\u2581color": 1384,
  "ha": 1385,
  "\u2581methods": 1386,
  "\u7d50\u679c": 1387,
  "\u2581won": 1388,
  "\u2581Ka": 1389,
  "\u5f7c\u306e": 1390,
  "im": 1391,
  "\u2581multiple": 1392,
  "\u2581private": 1393,
  "ir": 1394,
  "gu": 1395,
  "Q": 1396,
  "\u2581five": 1397,
  "ca": 1398,
  "\u2581While": 1399,
  "\u4eca": 1400,
  "\u8ecd": 1401,
  "\u2581didn": 1402,
  "\u2581His": 1403,
  "\u2581inside": 1404,
  "\u2581improve": 1405,
  "\u2581specific": 1406,
  "\u2581parts": 1407,
  "\u2581night": 1408,
  "\u2581love": 1409,
  "\u2581released": 1410,
  "\u305f\u3044": 1411,
  "\u2581\u3067\u3082": 1412,
  "\u7248": 1413,
  "\u2581art": 1414,
  "\u6761\u4ef6": 1415,
  "ted": 1416,
  "\u305d\u308c\u3092": 1417,
  "pe": 1418,
  "\u2581Z": 1419,
  "\u2581surface": 1420,
  "\u4e2d\u306e": 1421,
  "\u2581analysis": 1422,
  "\u2581States": 1423,
  "25": 1424,
  "\u5e83\u544a": 1425,
  "\u2581solution": 1426,
  "am": 1427,
  "\u91ce": 1428,
  "Facebook": 1429,
  "\u2581amount": 1430,
  "\u3067\u304d\u306a\u3044": 1431,
  "\u2581problems": 1432,
  "\u91cd": 1433,
  "\u3067\u306f\u306a\u304f": 1434,
  "\u5c64": 1435,
  "\u2581speed": 1436,
  "\u624b\u6cd5": 1437,
  "ism": 1438,
  "\u2581sure": 1439,
  "\u2581seen": 1440,
  "\u3068\u3068\u3082\u306b": 1441,
  "\u30a2\u30e1\u30ea\u30ab": 1442,
  "ku": 1443,
  "\u8868\u793a": 1444,
  "\u8907\u6570\u306e": 1445,
  "\u3088\u304f": 1446,
  "\u53f0": 1447,
  "\u2581cloud": 1448,
  "\u2581boy": 1449,
  "bi": 1450,
  "\u2581read": 1451,
  "ish": 1452,
  "sh": 1453,
  "\u5834": 1454,
  "\u2581enough": 1455,
  "\u2581week": 1456,
  "\u5185\u306e": 1457,
  "po": 1458,
  "\u2581\u3053\u308c\u3089\u306e": 1459,
  "\u901a\u4fe1": 1460,
  "mon": 1461,
  "\u3068\u3082": 1462,
  "\u2581house": 1463,
  "\u30b4": 1464,
  "\u2581enjoy": 1465,
  "\u2581least": 1466,
  "\u30bb\u30f3\u30bf\u30fc": 1467,
  "40": 1468,
  "\u306e\u958b\u767a": 1469,
  "\u90e8\u5206": 1470,
  "\u2581care": 1471,
  "\u53ef\u80fd\u306a": 1472,
  "\u6771": 1473,
  "\u2581related": 1474,
  "\u2581others": 1475,
  "\u9867\u5ba2": 1476,
  "\u2581$": 1477,
  "\u767a": 1478,
  "ya": 1479,
  "\u2581went": 1480,
  "\u2581May": 1481,
  "\u2581Me": 1482,
  "OS": 1483,
  "\u2581close": 1484,
  "\u2581address": 1485,
  "min": 1486,
  "\u2581history": 1487,
  "\u2581US": 1488,
  "\u6a5f\u68b0": 1489,
  "\u30dc": 1490,
  "\u30ad\u30fc": 1491,
  "ster": 1492,
  "\u98a8": 1493,
  "ho": 1494,
  "\u99c5": 1495,
  "\u2581Le": 1496,
  "\u2581airport": 1497,
  "\u767b\u9332": 1498,
  "\u2581yet": 1499,
  "\u2581property": 1500,
  "\u80fd\u529b": 1501,
  "\u306e\u3088\u3046\u306b": 1502,
  "\u6539\u5584": 1503,
  "\u3055\u3093": 1504,
  "\u30a2\u30af\u30bb\u30b9": 1505,
  "\u5b9f": 1506,
  "\u2581m": 1507,
  "\u2581international": 1508,
  "one": 1509,
  "\u5bfe\u5fdc": 1510,
  "ang": 1511,
  "ally": 1512,
  "\u30de\u30fc": 1513,
  "\u516c": 1514,
  "\u30ea\u30f3": 1515,
  "\u2581share": 1516,
  "\u65bd\u8a2d": 1517,
  "ci": 1518,
  "\u2581move": 1519,
  "mm": 1520,
  "\u2581areas": 1521,
  "\u901a\u308a": 1522,
  "24": 1523,
  "\u30c8\u30f3": 1524,
  "\u4ed8\u3051": 1525,
  "iPhone": 1526,
  "\u2581Cloud": 1527,
  "\u3055\u305b": 1528,
  "\u884c\u52d5": 1529,
  "\u2581Data": 1530,
  "\u2581App": 1531,
  "\u2581apps": 1532,
  "\u5ba4": 1533,
  "\u7537": 1534,
  "\u2581wearing": 1535,
  "\u2581position": 1536,
  "di": 1537,
  "\u2581wide": 1538,
  "\u2581thought": 1539,
  "\u2581report": 1540,
  "\u2581whole": 1541,
  "\u3059\u308b\u305f\u3081\u306e": 1542,
  "\u6210\u9577": 1543,
  "\u2581established": 1544,
  "\u30d9": 1545,
  "\u5b9f\u884c": 1546,
  "mi": 1547,
  "\u2581My": 1548,
  "\u2581though": 1549,
  "\u2581ever": 1550,
  "ni": 1551,
  "\u2581getting": 1552,
  "\u2581face": 1553,
  "\u82f1\u8a9e\u7248": 1554,
  "\u2581idea": 1555,
  "\u2581members": 1556,
  "\u3044\u304f\u3064\u304b\u306e": 1557,
  "\u4f5c": 1558,
  "\u2581b": 1559,
  "\u2581processing": 1560,
  "\u2581media": 1561,
  "land": 1562,
  "\u30d7\u30ed": 1563,
  "\u2581health": 1564,
  "\u2581includes": 1565,
  "\u4e2d\u306b": 1566,
  "\u2581hours": 1567,
  "ize": 1568,
  "\u2581drive": 1569,
  "ap": 1570,
  "\u2581War": 1571,
  "\u2581hotel": 1572,
  "ru": 1573,
  "\u2581dog": 1574,
  "\u308d": 1575,
  "\u30b6": 1576,
  "\u305a": 1577,
  "\u30d0\u30fc\u30b8\u30e7\u30f3": 1578,
  "\u611b": 1579,
  "\u2581months": 1580,
  "\u652f\u63f4": 1581,
  "\u5165": 1582,
  "\u2581La": 1583,
  "\u2581existing": 1584,
  "\u2581text": 1585,
  "\u64cd\u4f5c": 1586,
  "\u5f79": 1587,
  "\u5de5\u5834": 1588,
  "\u63d0\u4f9b": 1589,
  "\u2581station": 1590,
  "\u2581tell": 1591,
  "\u7406\u89e3": 1592,
  "\u2581students": 1593,
  "\u2581\u79c1\u305f\u3061\u306f": 1594,
  "\u7d4c\u6e08": 1595,
  "\u6700\u521d\u306e": 1596,
  "\u2581growth": 1597,
  "\u2581York": 1598,
  "\u89e3\u6790": 1599,
  "nd": 1600,
  "\u7387": 1601,
  "\u7d4c\u9a13": 1602,
  "\u6295\u8cc7": 1603,
  "\u306b\u306a\u308a\u307e\u3059": 1604,
  "\u306b\u3066": 1605,
  "\u2581Company": 1606,
  "line": 1607,
  "\u79c1\u306e": 1608,
  "\u2581war": 1609,
  "\u2581add": 1610,
  "\u7523\u696d": 1611,
  "\u6765": 1612,
  "\u56f3": 1613,
  "\u7279\u5b9a\u306e": 1614,
  "\u30e6\u30fc\u30b6": 1615,
  "\u2581bit": 1616,
  "ability": 1617,
  "\u3059\u308b\u3053\u3068\u3067": 1618,
  "ner": 1619,
  "\u3044\u3066": 1620,
  "\u2581itself": 1621,
  "\u753a": 1622,
  "\u2581continue": 1623,
  "\u2581object": 1624,
  "\u2581store": 1625,
  "\u3068\u3059\u308b": 1626,
  "\u2581Twitter": 1627,
  "\u63a5\u7d9a": 1628,
  "\u7528\u306e": 1629,
  "gen": 1630,
  "\u2581System": 1631,
  "\u2581100": 1632,
  "\u30bd": 1633,
  "\u2581Some": 1634,
  "\u2581testing": 1635,
  "\u2581types": 1636,
  "\u30af\u30e9\u30a6\u30c9": 1637,
  "\u3057\u305f\u308a": 1638,
  "\u3057\u305f\u3044": 1639,
  "\u2581From": 1640,
  "\u95a2\u9023": 1641,
  "\u2581\u5f7c\u5973\u306f": 1642,
  "\u30d4": 1643,
  "\u2581Now": 1644,
  "\u4fdd\u8b77": 1645,
  "\u2581recent": 1646,
  "\u2581directly": 1647,
  "\u2581meet": 1648,
  "\u5165\u529b": 1649,
  "\u3092\u901a\u3058\u3066": 1650,
  "\u2581effect": 1651,
  "\u2581Service": 1652,
  "\u2581however": 1653,
  "\u2581operation": 1654,
  "\u3067\u3059\u304b": 1655,
  "\u4e88\u6e2c": 1656,
  "\u8003\u3048": 1657,
  "\u2581whether": 1658,
  "\u738b": 1659,
  "\u3061": 1660,
  "\u2581stop": 1661,
  "\u7a2e": 1662,
  "\u2581allow": 1663,
  "io": 1664,
  "\u2581base": 1665,
  "\u2581clear": 1666,
  "\u30da": 1667,
  "\u5bfe": 1668,
  "\u30db\u30c6\u30eb": 1669,
  "\u5225\u306e": 1670,
  "\u2581unique": 1671,
  "\u2581Mo": 1672,
  "\u2581office": 1673,
  "\u30bf\u30b9\u30af": 1674,
  "\u2581Can": 1675,
  "\u2581individual": 1676,
  "\u2581sound": 1677,
  "\u2581images": 1678,
  "\u7279\u5fb4": 1679,
  "\u304b\u3064": 1680,
  "\u5b9a": 1681,
  "\u5f7c\u306f": 1682,
  "\u30b1": 1683,
  "\u5065\u5eb7": 1684,
  "\u4e8c": 1685,
  "\u2581\u672c": 1686,
  "\u653b\u6483": 1687,
  "\u3063\u3066\u3044\u307e\u3059": 1688,
  "\u5929": 1689,
  "\u5357": 1690,
  "\u3005": 1691,
  "\u2581Since": 1692,
  "style": 1693,
  "end": 1694,
  "\u30bb\u30ad\u30e5\u30ea\u30c6\u30a3": 1695,
  "\u2581cases": 1696,
  "\u258113": 1697,
  "\u306b\u3064\u3044\u3066\u306f": 1698,
  "\u2581treatment": 1699,
  "\u5546\u54c1": 1700,
  "\u5317": 1701,
  "\u2581increase": 1702,
  "\u2581stay": 1703,
  "om": 1704,
  "\u2581camera": 1705,
  "\u2581easily": 1706,
  "\u2581told": 1707,
  "AI": 1708,
  "\u8eab": 1709,
  "\u30d0\u30b9": 1710,
  "\u30ab\u30fc\u30c9": 1711,
  "\u6c7a\u5b9a": 1712,
  "\u2581ability": 1713,
  "\u2581try": 1714,
  "\u2581talk": 1715,
  "\u2581percent": 1716,
  "\u2581teams": 1717,
  ",\"": 1718,
  "\u52a0\u5de5": 1719,
  "\u2581\u7537\u306f": 1720,
  "\u2581began": 1721,
  "den": 1722,
  "\u2581added": 1723,
  "\u3067\u3059\u304c": 1724,
  "\u2581taken": 1725,
  "\u2581below": 1726,
  "\u3092\u4f7f\u7528\u3057\u3066": 1727,
  "bu": 1728,
  "\u73fe\u5728": 1729,
  "j": 1730,
  "\u30ec\u30d9\u30eb": 1731,
  "\u30b7\u30fc": 1732,
  "\u2581develop": 1733,
  "\u5834\u5408\u306f": 1734,
  "\u2581sales": 1735,
  "\u30aa\u30f3\u30e9\u30a4\u30f3": 1736,
  "\u2581self": 1737,
  "\u2581culture": 1738,
  "\u2581Po": 1739,
  "\u85ac": 1740,
  "\u82b1": 1741,
  "wa": 1742,
  "\u3057\u3066\u304f\u3060\u3055\u3044": 1743,
  "\u2581High": 1744,
  "\u2581region": 1745,
  "\u2581variety": 1746,
  "\u2581server": 1747,
  "\u3042\u3089\u3086\u308b": 1748,
  "\u2581father": 1749,
  "\u6a19\u6e96": 1750,
  "\u30ea\u30b9\u30c8": 1751,
  "\u4ee5\u4e0a": 1752,
  "\u2581Su": 1753,
  "\u30bb\u30c3\u30c8": 1754,
  "\u2581strong": 1755,
  "dy": 1756,
  "\u30c7\u30b8\u30bf\u30eb": 1757,
  "\u2581month": 1758,
  "\u30c7\u30fc\u30bf\u30d9\u30fc\u30b9": 1759,
  "\u2581Kyoto": 1760,
  "\u2581land": 1761,
  "\u3051": 1762,
  "\u2581ago": 1763,
  "\u2581role": 1764,
  "\u8868": 1765,
  "\u7c73\u56fd": 1766,
  "\u6700\u5927": 1767,
  "\u258114": 1768,
  "\u30b3\u30b9\u30c8": 1769,
  "\u2581Man": 1770,
  "\u3082\u306e\u3067\u3059": 1771,
  "ler": 1772,
  "\u2581traditional": 1773,
  "\u2581uses": 1774,
  "\u2581isn": 1775,
  "\u8a18\u9332": 1776,
  "\u81ea": 1777,
  "\u7279\u6027": 1778,
  "IT": 1779,
  "\u5951\u7d04": 1780,
  "\u2581terms": 1781,
  "\u30c0\u30fc": 1782,
  "\u8aac\u660e": 1783,
  "\u66f2": 1784,
  "\u2581pay": 1785,
  "\u518d": 1786,
  "\u6ce2": 1787,
  "\u516c\u958b": 1788,
  "ac": 1789,
  "\u2581blue": 1790,
  "\u2581projects": 1791,
  "\u2581display": 1792,
  "\u5e74\u9593": 1793,
  "\u2581believe": 1794,
  "\u3053\u3068\u306b": 1795,
  "\u2581unit": 1796,
  "\u30d2": 1797,
  "\u2581shall": 1798,
  "\u2581reason": 1799,
  "\u79fb\u52d5": 1800,
  "\u81ea\u7136": 1801,
  "ite": 1802,
  "\u89aa": 1803,
  "\u2581North": 1804,
  "\u5f53": 1805,
  "per": 1806,
  "\u5473": 1807,
  "\u2581either": 1808,
  "\u2581focus": 1809,
  "\u30a4\u30f3\u30bf\u30fc\u30cd\u30c3\u30c8": 1810,
  "\u2581knowledge": 1811,
  "\u30e9\u30f3": 1812,
  "ial": 1813,
  "\u2581bar": 1814,
  "\u3059\u308b\u3053\u3068\u304c\u3067\u304d\u308b": 1815,
  "\u30d5\u30ec\u30fc\u30e0\u30ef\u30fc\u30af": 1816,
  "\u2581Ha": 1817,
  "\u8db3": 1818,
  "\u2581party": 1819,
  "\u2581Air": 1820,
  "\u7406\u7531": 1821,
  "\u8a66\u9a13": 1822,
  "\u30b3\u30df\u30e5\u30cb\u30c6\u30a3": 1823,
  "\u30e2\u30d0\u30a4\u30eb": 1824,
  "\u7d20\u6674\u3089\u3057\u3044": 1825,
  "API": 1826,
  "\u2581Ma": 1827,
  "\u76f8": 1828,
  "\u2581Be": 1829,
  "\u53cd\u5fdc": 1830,
  "\u2581bring": 1831,
  "Android": 1832,
  "\u307e\u3060": 1833,
  "\u30e1\u30c3\u30bb\u30fc\u30b8": 1834,
  "\u2581modern": 1835,
  "\u4f5c\u54c1": 1836,
  "\u2581Y": 1837,
  "\u30b3\u30f3\u30c6\u30f3\u30c4": 1838,
  "\u3053\u3068\u3067\u3059": 1839,
  "\u2581soon": 1840,
  "\u30c6\u30ec\u30d3": 1841,
  "\u53d6\u308a": 1842,
  "\u2581half": 1843,
  "\u308c\u3070": 1844,
  "\u2581issues": 1845,
  "\",": 1846,
  "\u2581rooms": 1847,
  "\u30ef": 1848,
  "\u30c6\u30af\u30ce\u30ed\u30b8\u30fc": 1849,
  "\u2581cannot": 1850,
  "\u512a\u308c\u305f": 1851,
  "\u2581turn": 1852,
  "\u2581Li": 1853,
  "\u2581March": 1854,
  "\u2581behind": 1855,
  "\u8ab2\u984c": 1856,
  "\u2581technologies": 1857,
  "\u2581deep": 1858,
  "\u2581Ra": 1859,
  "\u53d6\u5f15": 1860,
  "\u82f1\u8a9e": 1861,
  "\u3092\u7528\u3044\u3066": 1862,
  "\u753b\u9762": 1863,
  "\u2581card": 1864,
  "\u2581framework": 1865,
  "\u4ee3": 1866,
  "\u7c21\u5358\u306b": 1867,
  "\u30c8\u30ec\u30fc\u30cb\u30f3\u30b0": 1868,
  "\u6bcd": 1869,
  "side": 1870,
  "\u30e1\u30fc\u30eb": 1871,
  "\u2581walk": 1872,
  "\u2581question": 1873,
  "\u81ea\u52d5": 1874,
  "\u751f\u6d3b": 1875,
  "\u5b89\u5168": 1876,
  "\u2581National": 1877,
  "\u2581complete": 1878,
  "\u3082\u3063\u3068": 1879,
  "\u9818\u57df": 1880,
  "\u2581currently": 1881,
  "\u2581board": 1882,
  "\u2581son": 1883,
  "\u3060\u3068": 1884,
  "\u2581location": 1885,
  "\u4ed5\u4e8b": 1886,
  "\u65e5\u672c\u306e": 1887,
  "\u96fb\u6c17": 1888,
  "\u691c\u51fa": 1889,
  "\u3057\u3066\u304a\u308a": 1890,
  "\u2581stage": 1891,
  "\u2581=": 1892,
  "ful": 1893,
  "\u30aa\u30d7\u30b7\u30e7\u30f3": 1894,
  "\u30ed\u30dc\u30c3\u30c8": 1895,
  "\u2581Chinese": 1896,
  "\u2581street": 1897,
  "\u8fd1": 1898,
  "\u2581rate": 1899,
  "\u2581almost": 1900,
  "\u7fa4": 1901,
  "\u3057\u304b": 1902,
  "\u30ca\u30fc": 1903,
  "\u2581events": 1904,
  "\u2581ground": 1905,
  "\u7523": 1906,
  "\u308b\u3053\u3068": 1907,
  "\u2581recently": 1908,
  "\u770c": 1909,
  "\u2581professional": 1910,
  "\u30e1\u30fc\u30ab\u30fc": 1911,
  "\u30a2\u30d7\u30ed\u30fc\u30c1": 1912,
  "80": 1913,
  "\u2581St": 1914,
  "\u30a2\u30ab\u30a6\u30f3\u30c8": 1915,
  "\u2581\u2018": 1916,
  "\u30dd": 1917,
  "\u304c\u3042\u3063\u305f": 1918,
  "60": 1919,
  "\u2581total": 1920,
  "\u2581member": 1921,
  "\u2581friends": 1922,
  "\u2581especially": 1923,
  "\u2581mother": 1924,
  "\u60c5\u5831\u3092": 1925,
  "\u2581digital": 1926,
  "\u6709": 1927,
  "\u2581law": 1928,
  "\u2581instead": 1929,
  "\u30b3\u30f3\u30d4\u30e5\u30fc\u30bf": 1930,
  "\u2581Open": 1931,
  "\u2581En": 1932,
  "\u2581iOS": 1933,
  "\u2581job": 1934,
  "ak": 1935,
  "\u2581providing": 1936,
  "\u30bd\u30f3": 1937,
  "\u3059\u3079\u3066": 1938,
  "\u2581higher": 1939,
  "\u305b": 1940,
  "\u5b98": 1941,
  "\u3059\u308c\u3070": 1942,
  "\u4ee5\u4e0a\u306e": 1943,
  "\u2581latest": 1944,
  "\u7ba1": 1945,
  "\u2581\u4f8b\u3048\u3070": 1946,
  "ward": 1947,
  "\u5171\u6709": 1948,
  "\u767a\u8868": 1949,
  "\u2581\u304a": 1950,
  "\u897f": 1951,
  "\u2581led": 1952,
  "\u2581\u3042\u306a\u305f\u306f": 1953,
  "\u30b9\u30bf\u30fc": 1954,
  "\u4e16": 1955,
  "\u2581Ca": 1956,
  "\u2581safety": 1957,
  "\u2581safe": 1958,
  "21": 1959,
  "\u2581death": 1960,
  "\u2581lower": 1961,
  "\u2581Wi": 1962,
  "\u2581Internet": 1963,
  "\u2581fire": 1964,
  "\u2581style": 1965,
  "\u8981\u7d20": 1966,
  "\u6750\u6599": 1967,
  "\u2581received": 1968,
  "\u2581written": 1969,
  "\u5831\u544a": 1970,
  "\u30dd\u30a4\u30f3\u30c8": 1971,
  "\u2581Center": 1972,
  "\u2581certain": 1973,
  "\u3068\u547c\u3070\u308c\u308b": 1974,
  "\u2581details": 1975,
  "\u54c1\u8cea": 1976,
  "\u30a2\u30eb\u30b4\u30ea\u30ba\u30e0": 1977,
  "\u2581mean": 1978,
  "\u6b8b": 1979,
  "\u5bb6\u65cf": 1980,
  "\u2581sitting": 1981,
  "\u691c\u67fb": 1982,
  "\u2581di": 1983,
  "\u6e2c\u5b9a": 1984,
  "\u99ac": 1985,
  "\u2581sense": 1986,
  "\u2581date": 1987,
  "\u30d1\u30d5\u30a9\u30fc\u30de\u30f3\u30b9": 1988,
  "\u8a08\u7b97": 1989,
  "\u30a2\u30fc\u30ad\u30c6\u30af\u30c1\u30e3": 1990,
  "\u2581beautiful": 1991,
  "\u95a2\u6570": 1992,
  "\u2581\u5f7c\u3089\u306f": 1993,
  "\u88fd": 1994,
  "\u2581late": 1995,
  "\u2581leading": 1996,
  "\u2581Ro": 1997,
  "\u2581difficult": 1998,
  "\u5fc5\u8981": 1999,
  "\u2581complex": 2000,
  "\u571f": 2001,
  "\u2581Bar": 2002,
  "\u2581action": 2003,
  "\u30b5\u30fc": 2004,
  "\u2581\u79c1\u306e": 2005,
  "\u30a2\u30eb": 2006,
  "\u306b\u57fa\u3065\u304f": 2007,
  "\u5bfa": 2008,
  "\u696d\u52d9": 2009,
  "\u2581Ho": 2010,
  "\u2581\u305d\u308c": 2011,
  "\u6226\u7565": 2012,
  "Windows": 2013,
  "\u90e1": 2014,
  "\u7acb": 2015,
  "\u3068\u305d\u306e": 2016,
  "\u2581story": 2017,
  "\u30af\u30e9\u30a4\u30a2\u30f3\u30c8": 2018,
  "\u2581entire": 2019,
  "\u2581someone": 2020,
  "\u5264": 2021,
  "PC": 2022,
  "\u2581impact": 2023,
  "\u3060\u304c": 2024,
  "\u2581heart": 2025,
  "by": 2026,
  "\u2581rather": 2027,
  "\u2581everything": 2028,
  "\u2581files": 2029,
  "\u548c": 2030,
  "vo": 2031,
  "ow": 2032,
  "\u76ee\u6a19": 2033,
  "\u96fb\u8a71": 2034,
  "\u2581anything": 2035,
  "\u6b21\u306e": 2036,
  "\u2581trying": 2037,
  "\u2581policy": 2038,
  "\u2581Development": 2039,
  "op": 2040,
  "\u2581April": 2041,
  "\u2581request": 2042,
  "\u96fb": 2043,
  "\u2581table": 2044,
  "\u6599\u7406": 2045,
  "\u60aa": 2046,
  "em": 2047,
  "\u2581coming": 2048,
  "\u2581takes": 2049,
  "\u2581lead": 2050,
  "\u706b": 2051,
  "\u2581employees": 2052,
  "\u2581conditions": 2053,
  "\u2581quickly": 2054,
  "\u2581train": 2055,
  "\u6cbb\u7642": 2056,
  "\u2581send": 2057,
  "\u62e1\u5f35": 2058,
  "\u30e9\u30a4\u30f3": 2059,
  "yo": 2060,
  "\u904b\u52d5": 2061,
  "\u3092\u898b": 2062,
  "\u2581oil": 2063,
  "\u8a18\u4e8b": 2064,
  "\u2581Car": 2065,
  "\u2581mind": 2066,
  "sen": 2067,
  "\u751f\u6210": 2068,
  "\u306e\u4e00\u90e8": 2069,
  "va": 2070,
  "\u91d1\u5c5e": 2071,
  "\u3055\u308c\u307e\u3057\u305f": 2072,
  "\u533b\u7642": 2073,
  "\u4eba\u9593": 2074,
  "\u30e4": 2075,
  "\u30b7\u30e5": 2076,
  "for": 2077,
  "\u78ba\u8a8d": 2078,
  "\u307e\u3057\u3087\u3046": 2079,
  "\u2581communication": 2080,
  "\u2581Mac": 2081,
  "\u591c": 2082,
  "\u2581deal": 2083,
  "\u304b\u3082\u3057\u308c\u306a\u3044": 2084,
  "\u2581particular": 2085,
  "\u7d19": 2086,
  "\u306a\u308b": 2087,
  "\u3042\u308a\u307e\u3059": 2088,
  "\u7b49\u306e": 2089,
  "\u2581South": 2090,
  "\u2581ensure": 2091,
  "\u2581living": 2092,
  "\u2581construction": 2093,
  "\u958b\u59cb": 2094,
  "\u2581included": 2095,
  "\u2581step": 2096,
  "\u306e\u3060": 2097,
  "\u30d5\u30a3": 2098,
  "\u3068\u306a\u308a": 2099,
  "\u30c7\u30fc\u30bf\u3092": 2100,
  "\u00e9": 2101,
  "\u2581buy": 2102,
  "\u30ec\u30fc": 2103,
  "lic": 2104,
  "\u7c73": 2105,
  "\u2581risk": 2106,
  "\u52d5": 2107,
  "\u5b66\u751f": 2108,
  "\u2581According": 2109,
  "\u6a5f\u95a2": 2110,
  "\u2581launch": 2111,
  "\u2581hot": 2112,
  "\u30aa\u30d6\u30b8\u30a7\u30af\u30c8": 2113,
  "he": 2114,
  "der": 2115,
  "\u2581solutions": 2116,
  "tsu": 2117,
  "\u2581cut": 2118,
  "\u5c40": 2119,
  "ID": 2120,
  "\u2581Ni": 2121,
  "\u2581\u4eca": 2122,
  "\u30a8\u30f3\u30b8\u30f3": 2123,
  "ron": 2124,
  "\u904b\u7528": 2125,
  "ium": 2126,
  "Microsoft": 2127,
  "sho": 2128,
  "\u2581technical": 2129,
  "\u2581ball": 2130,
  "\u2581Ar": 2131,
  "que": 2132,
  "\u2581Se": 2133,
  "\u8a8d\u8b58": 2134,
  "\u00ae": 2135,
  "\u30ac\u30b9": 2136,
  "\u25811.": 2137,
  "\u2581June": 2138,
  "\u2581en": 2139,
  "\u30b7\u30ea\u30fc\u30ba": 2140,
  "\u6b7b": 2141,
  "\u30e2\u30b8\u30e5\u30fc\u30eb": 2142,
  "\u2581anti": 2143,
  "\u305d\u308c\u304c": 2144,
  "\u2581medical": 2145,
  "\u6027\u80fd": 2146,
  "\u2581People": 2147,
  "\u2581shows": 2148,
  "\u6b4c": 2149,
  "\u2581temperature": 2150,
  "ot": 2151,
  "\u2581sea": 2152,
  "\u53f7": 2153,
  "\u30bf\u30a4\u30d7": 2154,
  "\u9593\u306e": 2155,
  "\u2581needed": 2156,
  "\u30ec\u30f3": 2157,
  "men": 2158,
  "\u54e1": 2159,
  "\u89e3": 2160,
  "\u96fb\u5b50": 2161,
  "\u2581national": 2162,
  "\u3053\u3046": 2163,
  "\u30d9\u30fc\u30b9\u306e": 2164,
  "tra": 2165,
  "\u30b0\u30e9\u30d5": 2166,
  "\u25810": 2167,
  "\u73fe\u5728\u306e": 2168,
  "\u258150": 2169,
  "\u2581purpose": 2170,
  "\u2581manufacturing": 2171,
  "\u2581organization": 2172,
  "\u2581Bo": 2173,
  "\u30d1\u30fc": 2174,
  "\u5973": 2175,
  "\u2581scale": 2176,
  "so": 2177,
  "\u3078\u3068": 2178,
  "\u2581supply": 2179,
  "\u79c1\u305f\u3061\u306e": 2180,
  "\u2581quite": 2181,
  "\u671f\u9593": 2182,
  "\u4f5c\u6210": 2183,
  "\u79c1\u305f\u3061\u306f": 2184,
  "\u30db": 2185,
  "\u2581operations": 2186,
  "\u30c6\u30ad\u30b9\u30c8": 2187,
  "\u6210": 2188,
  "\u79d1\u5b66": 2189,
  "tin": 2190,
  "\u5074": 2191,
  "\u5b9f\u88c5": 2192,
  "\u3059\u3050\u306b": 2193,
  "\u2581six": 2194,
  "\u2581Na": 2195,
  "\u30d5\u30a1": 2196,
  "\u2581prevent": 2197,
  "\u2581heat": 2198,
  "ger": 2199,
  "\u2581looks": 2200,
  "\u30c3\u30af": 2201,
  "\u30d6\u30e9\u30f3\u30c9": 2202,
  "\u2581fast": 2203,
  "\u2581resources": 2204,
  "\u57ce": 2205,
  "\u2581flow": 2206,
  "\u2581\u3082\u3057": 2207,
  "\u2581bad": 2208,
  "\u3069\u3046": 2209,
  "\u2581plant": 2210,
  "\u2581issue": 2211,
  "ors": 2212,
  "\u2581email": 2213,
  "-1": 2214,
  "les": 2215,
  "\u2581architecture": 2216,
  "\u2581society": 2217,
  "\u2581seems": 2218,
  "ities": 2219,
  "ning": 2220,
  "\u2581September": 2221,
  "\u6751": 2222,
  "\u30d5\u30e9\u30f3\u30b9": 2223,
  "\u5bfe\u8c61": 2224,
  "\u2581creating": 2225,
  "\u2581Ta": 2226,
  "\u2581published": 2227,
  "\u2581changed": 2228,
  "\u3093\u3067\u3059": 2229,
  "\u2581matter": 2230,
  "\u2581green": 2231,
  "\u2581brand": 2232,
  "\u2581storage": 2233,
  "\u3042\u306a\u305f\u304c": 2234,
  "\u30ea\u30b9\u30af": 2235,
  "\u2581Studio": 2236,
  "\u610f\u5473": 2237,
  "art": 2238,
  "\u2581components": 2239,
  "\u2581\u305d\u3046": 2240,
  "\u2581July": 2241,
  "\u2581words": 2242,
  "\u5e38\u306b": 2243,
  "\u30bf\u30a4": 2244,
  "\u2581generation": 2245,
  "\u2581return": 2246,
  "ti": 2247,
  "\u4e88\u5b9a": 2248,
  "\u3044\u305f\u3057\u307e\u3059": 2249,
  "\u2581cell": 2250,
  "\u2581town": 2251,
  "\u2581\u3053\u308c": 2252,
  "\u8005\u306e": 2253,
  "\u30b5\u30f3": 2254,
  "\u3068\u3066\u3082": 2255,
  "\u2581proposed": 2256,
  "\u2581delivery": 2257,
  "\u2581potential": 2258,
  "\u6771\u4eac": 2259,
  "\u2581x": 2260,
  "\u2581choose": 2261,
  "\u2581Using": 2262,
  "\u30d1\u30bf\u30fc\u30f3": 2263,
  "\u2581blood": 2264,
  "\u2581Design": 2265,
  "\u2581January": 2266,
  "\u4fa1\u683c": 2267,
  "\u6b21": 2268,
  "\u2581points": 2269,
  "way": 2270,
  "\u5168\u3066\u306e": 2271,
  "ther": 2272,
  "\u30b8\u30a7": 2273,
  "\u2581charge": 2274,
  "\u6a29": 2275,
  "\u52d5\u753b": 2276,
  "\u8857": 2277,
  "\u2581distribution": 2278,
  "\u2581French": 2279,
  "\u2581true": 2280,
  "mb": 2281,
  "\u304b\u3069\u3046\u304b": 2282,
  "500": 2283,
  "\u2581hair": 2284,
  "ab": 2285,
  "\u76ee\u7684": 2286,
  "\u2581considered": 2287,
  "\u2581century": 2288,
  "\u5909": 2289,
  "\u3088\u3044": 2290,
  "\u3093\u3067": 2291,
  "\u2581core": 2292,
  "\u2581additional": 2293,
  "\u7d71\u5408": 2294,
  "\u2581everyone": 2295,
  "\u58f0": 2296,
  "\u30cf\u30a4": 2297,
  "\u30d7\u30ed\u30c0\u30af\u30c8": 2298,
  "\u2581pressure": 2299,
  "\u30a2\u30c3\u30d7": 2300,
  "\u3067\u304d": 2301,
  "\u305f\u3061": 2302,
  "\u30b9\u30da\u30fc\u30b9": 2303,
  "\u7121\u6599": 2304,
  "\u2581Mi": 2305,
  "ence": 2306,
  "\u4f1a\u8b70": 2307,
  "\u2581Emperor": 2308,
  "\u306e\u305f\u3081": 2309,
  "\u2581domain": 2310,
  "\u3075": 2311,
  "q": 2312,
  "\u500b\u4eba": 2313,
  "\u5b87\u5b99": 2314,
  "\u2581word": 2315,
  "\u7701": 2316,
  "mer": 2317,
  "\u2581sent": 2318,
  "ig": 2319,
  "\u2581news": 2320,
  "\u81ea\u52d5\u8eca": 2321,
  "\u2581Europe": 2322,
  "\u2581largest": 2323,
  "\u653f\u5e9c": 2324,
  "\u2581Di": 2325,
  "\u69cb\u6210": 2326,
  "\u30b5\u30fc\u30d0": 2327,
  "\u2581propose": 2328,
  "\u2581longer": 2329,
  "\u2581Is": 2330,
  "\u5411\u4e0a": 2331,
  "\u2581walking": 2332,
  "\u5185\u3067": 2333,
  "\u4f55\u304b": 2334,
  "\u2581Spring": 2335,
  "mp": 2336,
  "\u2581box": 2337,
  "\u3082\u306e\u3060": 2338,
  "\u2581functions": 2339,
  "\u2581photo": 2340,
  "\u901f\u5ea6": 2341,
  "\u2581\u4f55": 2342,
  "ut": 2343,
  "\u307b\u3068\u3093\u3069": 2344,
  "\u2581fine": 2345,
  "\u90e8\u54c1": 2346,
  "\u30b9\u30dd\u30fc\u30c4": 2347,
  "\u30c0\u30a6\u30f3\u30ed\u30fc\u30c9": 2348,
  "\u2581October": 2349,
  "\u3068\u5171\u306b": 2350,
  "\u5b66\u6821": 2351,
  "\u305d": 2352,
  "\u304a\u5ba2\u69d8": 2353,
  "\u2581August": 2354,
  "\u72ec\u81ea\u306e": 2355,
  "\u305f\u308a": 2356,
  "\u2581metal": 2357,
  "\u5e74\u306b\u306f": 2358,
  "\u6a4b": 2359,
  "\u2581visit": 2360,
  "\u2581Vi": 2361,
  "ology": 2362,
  "\u4ee5\u4e0b": 2363,
  "\u8d64": 2364,
  "\u2581\u305d\u306e\u5f8c": 2365,
  "\u6b73": 2366,
  "\u8981\u6c42": 2367,
  "\u2581First": 2368,
  "\u696d\u754c": 2369,
  "\u2581probably": 2370,
  "\u2581watch": 2371,
  "\u30cb\u30e5\u30fc\u30b9": 2372,
  "ard": 2373,
  "hi": 2374,
  "\u7d4c": 2375,
  "\u2581ways": 2376,
  "\u2581AI": 2377,
  "za": 2378,
  "\u53ef\u80fd": 2379,
  "\u305d\u306e\u4ed6\u306e": 2380,
  "we": 2381,
  "\u2581km": 2382,
  "\u2581ask": 2383,
  "\u30011": 2384,
  "\u3089\u308c": 2385,
  "\u30ae": 2386,
  "\u30d5\u30a7": 2387,
  "[": 2388,
  "\u5411\u3051": 2389,
  "\u30ab\u30eb": 2390,
  "\u306b\u306a\u3063\u3066": 2391,
  "\u2581basic": 2392,
  "\u958b\u767a\u8005": 2393,
  "day": 2394,
  "\u2581floor": 2395,
  "\u2581highly": 2396,
  "\u8133": 2397,
  "\u2581reduce": 2398,
  "\u9aa8": 2399,
  "\u534a": 2400,
  "\u3092\u53d7\u3051": 2401,
  "\u3055\u308c\u3066": 2402,
  "\u2581simply": 2403,
  "\u2581Park": 2404,
  "\u2581goal": 2405,
  "tro": 2406,
  "<": 2407,
  "\u51fa\u529b": 2408,
  "red": 2409,
  "\u4e21": 2410,
  "ise": 2411,
  "ator": 2412,
  "\u2581America": 2413,
  "\u77e5\u8b58": 2414,
  "\u30b5\u30a4\u30ba": 2415,
  "\u30e1\u30c7\u30a3\u30a2": 2416,
  "\u2581standing": 2417,
  "\u6d77\u5916": 2418,
  "\u2581response": 2419,
  "\u2581task": 2420,
  "\u30c6\u30fc\u30d6\u30eb": 2421,
  "\u2581v": 2422,
  "ible": 2423,
  "\u2581round": 2424,
  "\u2581Prefecture": 2425,
  "AL": 2426,
  "\u30e9\u30a4": 2427,
  "\u2581Also": 2428,
  "\u72ac": 2429,
  "cho": 2430,
  "\u671f\u5f85": 2431,
  "\u2581limited": 2432,
  "\u2581skin": 2433,
  "\u5f37\u3044": 2434,
  "\u2581engine": 2435,
  "board": 2436,
  "\uff5e": 2437,
  "\u30c9\u30e1\u30a4\u30f3": 2438,
  "\u2581final": 2439,
  "\u2581attention": 2440,
  "\u2581billion": 2441,
  "\u7dcf": 2442,
  "ship": 2443,
  "\u2581{\\": 2444,
  "\u2581official": 2445,
  "\u9662": 2446,
  "\u2581target": 2447,
  "ze": 2448,
  "\u3059\u3067\u306b": 2449,
  "\u5206\u985e": 2450,
  "\u2581CEO": 2451,
  "\u2581cells": 2452,
  "\u7fa9": 2453,
  "\u72b6": 2454,
  "\u8def": 2455,
  "\u62e1\u5927": 2456,
  "\u4fa1\u5024": 2457,
  "\u2581rest": 2458,
  "\u5186": 2459,
  "\u2581wanted": 2460,
  "\u2581effective": 2461,
  "\u2581games": 2462,
  "\u2581named": 2463,
  "\u30d1\u30fc\u30c8\u30ca\u30fc": 2464,
  "\u2581gas": 2465,
  "\u2581download": 2466,
  "\u2581trade": 2467,
  "\u2581died": 2468,
  "\u2581button": 2469,
  "\u2581forward": 2470,
  "like": 2471,
  "\u9577\u3044": 2472,
  "\u6700\u9ad8": 2473,
  "pa": 2474,
  "\u2581operating": 2475,
  "\u2581\u3042\u306a\u305f\u306e": 2476,
  "tal": 2477,
  "\u2581input": 2478,
  "\u306a\u308a": 2479,
  "\u75c5": 2480,
  "\u697d": 2481,
  "\u2581items": 2482,
  "\u2581database": 2483,
  "\u2581School": 2484,
  "\u968a": 2485,
  "\u8a2d\u5099": 2486,
  "\u2581click": 2487,
  "\u304e": 2488,
  "\u969c\u5bb3": 2489,
  "\u611f\u3058": 2490,
  "\u2581perform": 2491,
  "Amazon": 2492,
  "ure": 2493,
  "\u6226\u4e89": 2494,
  "\u8cfc\u5165": 2495,
  "\u30d3\u30eb": 2496,
  "\u2581saw": 2497,
  "ide": 2498,
  "\u2581couple": 2499,
  "\u2581developing": 2500,
  "\u258125": 2501,
  "\u306f\u3053\u306e": 2502,
  "\u6839": 2503,
  "\u30c9\u30a4\u30c4": 2504,
  "\u3082\u3042\u308b": 2505,
  "\u2581financial": 2506,
  "\u5225": 2507,
  "\u2581memory": 2508,
  "ING": 2509,
  "\u3044\u306a\u3044": 2510,
  "\u9069\u5207\u306a": 2511,
  "\u2581exchange": 2512,
  "\u2581House": 2513,
  "\u8cde": 2514,
  "\u2581Ltd": 2515,
  "\u2581likely": 2516,
  "\u8d85": 2517,
  "\u2581receive": 2518,
  "\u30ed\u30c3\u30af": 2519,
  "\u2581Station": 2520,
  "\u2581park": 2521,
  "\u53f3": 2522,
  "\u306b\u306a\u308a": 2523,
  "\u2581court": 2524,
  "\u2581road": 2525,
  "\u5c4b": 2526,
  "\u2581plans": 2527,
  "\u2581usually": 2528,
  "\u682a\u5f0f\u4f1a\u793e": 2529,
  "\u2581client": 2530,
  "\u2581capital": 2531,
  "\u52d5\u4f5c": 2532,
  "\u3066\u3044\u306a\u3044": 2533,
  "\u8449": 2534,
  "ging": 2535,
  "\u2581asked": 2536,
  "\u2581section": 2537,
  "\u2581super": 2538,
  "Wi": 2539,
  "\u2581produced": 2540,
  "\u30c7\u30fc\u30bf\u30bb\u30c3\u30c8": 2541,
  "bit": 2542,
  "\u3066\u304d\u305f": 2543,
  "\u6a5f\u5668": 2544,
  "\u5b50\u4f9b": 2545,
  "\u5c02\u9580": 2546,
  "\u2581track": 2547,
  "ny": 2548,
  "\u9854": 2549,
  "\u53c2\u52a0": 2550,
  "\u5c55\u958b": 2551,
  "\u6587\u5b57": 2552,
  "\u2581message": 2553,
  "\u2581term": 2554,
  "\u4fdd\u5b58": 2555,
  "\u2581Temple": 2556,
  "\u30a2\u30fc": 2557,
  "\u767a\u898b": 2558,
  "\u2581properties": 2559,
  "\u2581activity": 2560,
  "ase": 2561,
  "\u96c6": 2562,
  "\u2581Inc": 2563,
  "\u2581picture": 2564,
  "\u30cb\u30fc": 2565,
  "\u2581fun": 2566,
  "\u3051\u3069": 2567,
  "\u6ce8\u610f": 2568,
  "\u30dc\u30bf\u30f3": 2569,
  "\u2581success": 2570,
  "\u2581Although": 2571,
  "\u2581record": 2572,
  "\u9ed2": 2573,
  "ver": 2574,
  "\u2581meeting": 2575,
  "\u2581former": 2576,
  "*": 2577,
  "\u660e": 2578,
  "\u2581player": 2579,
  "\u2581Mr": 2580,
  "#": 2581,
  "\u30e9\u30a4\u30d6\u30e9\u30ea": 2582,
  "\u2581requirements": 2583,
  "\u5206\u91ce": 2584,
  "\u306b\u57fa\u3065\u3044\u3066": 2585,
  "\u5fc5\u8981\u306a": 2586,
  "\u305d\u308c\u305e\u308c": 2587,
  "\u2581OF": 2588,
  "\u2581k": 2589,
  "\u64ae\u5f71": 2590,
  "\u8cac\u4efb": 2591,
  "\u2581\u65e5\u672c": 2592,
  "\u30d5\u30eb": 2593,
  "\u4fe1\u53f7": 2594,
  "IP": 2595,
  "\u2581nature": 2596,
  "\u2581environmental": 2597,
  "\u2581transfer": 2598,
  "\u6210\u529f": 2599,
  "\u30e9\u30a4\u30c8": 2600,
  "\u2581commercial": 2601,
  "\u2581Services": 2602,
  "\u2581direct": 2603,
  "\u8a18": 2604,
  "\u2581loss": 2605,
  "\u6c0f\u304c": 2606,
  "ley": 2607,
  "\u5fc5\u8981\u304c\u3042\u308a\u307e\u3059": 2608,
  "\u677f": 2609,
  "\u30b3\u30f3\u30dd\u30fc\u30cd\u30f3\u30c8": 2610,
  "\u2581holding": 2611,
  "\u2581European": 2612,
  "\u2581foreign": 2613,
  "\u2581nothing": 2614,
  "tion": 2615,
  "\u2581decided": 2616,
  "\u3068\u540c\u3058": 2617,
  "\u76f4\u63a5": 2618,
  "\u2581staff": 2619,
  "\u258124": 2620,
  "old": 2621,
  "\u5b89": 2622,
  "22": 2623,
  "\u2581fully": 2624,
  "\u6e29\u5ea6": 2625,
  "\u2581Ki": 2626,
  "use": 2627,
  "\u2581involved": 2628,
  "\u2581John": 2629,
  "\u2581travel": 2630,
  "\u2581conference": 2631,
  "\u30a4\u30e1\u30fc\u30b8": 2632,
  "\u3072": 2633,
  "\u65c5\u884c": 2634,
  "\u2581automatically": 2635,
  "\u5370\u5237": 2636,
  "\u306b\u95a2\u3057\u3066": 2637,
  "\u2581Pre": 2638,
  "\u81ea\u7531": 2639,
  "ient": 2640,
  "\u2581During": 2641,
  "\u2581Pi": 2642,
  "\u2581attack": 2643,
  "\u69d8": 2644,
  "\u2581significant": 2645,
  "\u3067\u306f\u3042\u308a\u307e\u305b\u3093": 2646,
  "\u3053\u308c": 2647,
  "\u904e": 2648,
  "\u2581novel": 2649,
  "\u5b58\u5728": 2650,
  "IC": 2651,
  "\u2581season": 2652,
  "\u2581article": 2653,
  "\u7f8e\u3057\u3044": 2654,
  "23": 2655,
  "\u5bae": 2656,
  "\u89d2": 2657,
  "\u2581OS": 2658,
  "izing": 2659,
  "\u2581lost": 2660,
  "ative": 2661,
  "zu": 2662,
  "\u2581ex": 2663,
  "\u305d\u306e\u5f8c": 2664,
  "\u2581London": 2665,
  "\u7537\u6027": 2666,
  "\u2581cross": 2667,
  "\u2581active": 2668,
  "\u2581cause": 2669,
  "\u2581President": 2670,
  "\u2581economic": 2671,
  "\u30d3\u30fc": 2672,
  "\u2581achieve": 2673,
  "\u30012": 2674,
  "\u6700\u9ad8\u306e": 2675,
  "\u2581manage": 2676,
  "\u6838": 2677,
  "\u2581produce": 2678,
  "\u2581wait": 2679,
  "\u2581steel": 2680,
  "\u5236": 2681,
  "led": 2682,
  "\u2581worked": 2683,
  "\u671d": 2684,
  "\u30a4\u30ae\u30ea\u30b9": 2685,
  "\u671f": 2686,
  "\u2581born": 2687,
  "\u52d5\u7269": 2688,
  "\u305e": 2689,
  "\u2581clan": 2690,
  "\u2581launched": 2691,
  "\u2581interest": 2692,
  "\u6642\u4ee3": 2693,
  "let": 2694,
  "\u2581Tom": 2695,
  "\u2581layer": 2696,
  "\u2581upon": 2697,
  "our": 2698,
  "\u2581Sho": 2699,
  "28": 2700,
  "\u2581useful": 2701,
  "\u2581Asia": 2702,
  "\u30b1\u30fc\u30b9": 2703,
  "\u9280\u884c": 2704,
  "\u2581Free": 2705,
  "\u5408\u6210": 2706,
  "\u30d5\u30a3\u30fc\u30eb\u30c9": 2707,
  "\u2581option": 2708,
  "\u306b\u3042\u308a\u307e\u3059": 2709,
  "\u521d": 2710,
  "\\": 2711,
  "\u2581introduced": 2712,
  "\u2581Hi": 2713,
  "\u2581December": 2714,
  "\u5b9a\u7fa9": 2715,
  "\u2581Store": 2716,
  "\u3058\u3083\u306a\u3044": 2717,
  "\u304c\u306a\u3044": 2718,
  "si": 2719,
  "\u2581processes": 2720,
  "\u30a8\u30f3": 2721,
  "\u2581leave": 2722,
  "\u5354\u529b": 2723,
  "\u2581rules": 2724,
  "\u30d6\u30e9\u30a6\u30b6": 2725,
  "\u3060\u3051\u3067": 2726,
  "\u2581February": 2727,
  "\u2581hands": 2728,
  "\u30a2\u30b8\u30a2": 2729,
  "\u304a\u5ba2\u69d8\u306e": 2730,
  "\u2581touch": 2731,
  "\u5229\u76ca": 2732,
  "\u985e": 2733,
  "\u819c": 2734,
  "\u2013": 2735,
  "\u2581demand": 2736,
  "\u2581interesting": 2737,
  "\u533a": 2738,
  "lu": 2739,
  "lin": 2740,
  "\u696d": 2741,
  "\u30d5\u30a1\u30f3": 2742,
  "\u2581hope": 2743,
  "\u306e\u4f7f\u7528": 2744,
  "\u2581interface": 2745,
  "\u2581previous": 2746,
  "\u5408": 2747,
  "\u30b7\u30b9\u30c6\u30e0\u306e": 2748,
  "\u2581force": 2749,
  "\u2581concept": 2750,
  "\u5de6": 2751,
  "\u8b70\u8ad6": 2752,
  "\u672a": 2753,
  "\u2581reach": 2754,
  "\u2581November": 2755,
  "\u3092\u884c\u3063\u305f": 2756,
  "\u6975": 2757,
  "\u2581Art": 2758,
  "\u8a8d\u8a3c": 2759,
  "\u2581tea": 2760,
  "\u30b5\u30fc\u30d0\u30fc": 2761,
  "\u2581protect": 2762,
  "\u5fa1": 2763,
  "\u8ad6": 2764,
  "\u2581Bi": 2765,
  "\u2581facilities": 2766,
  "\u2581pretty": 2767,
  "\u4ee5\u4e0b\u306e": 2768,
  "\u2581hit": 2769,
  "\u2581micro": 2770,
  "\u3068\u304d\u306b": 2771,
  "\u2581advanced": 2772,
  "port": 2773,
  "\u2581collection": 2774,
  "gg": 2775,
  "\u2581Here": 2776,
  "\u2581protection": 2777,
  "\u2581starting": 2778,
  "\u5f8c\u306e": 2779,
  "zo": 2780,
  "ions": 2781,
  "form": 2782,
  "\u2581Jo": 2783,
  "ana": 2784,
  "\u2581Team": 2785,
  "\u2581IT": 2786,
  "\u30ea\u30bd\u30fc\u30b9": 2787,
  "\u4eba\u6c17": 2788,
  "\u6e90": 2789,
  "ran": 2790,
  "\u8cc7\u91d1": 2791,
  "\u5ea7": 2792,
  "\u2581Ex": 2793,
  "\u2581expected": 2794,
  "\u8a00\u3046": 2795,
  "\u4f4d\u7f6e": 2796,
  "\u6025": 2797,
  "\u661f": 2798,
  "\u30d8": 2799,
  "\u8005\u306f": 2800,
  "\u3092\u793a\u3059": 2801,
  "sion": 2802,
  "\u9244": 2803,
  "\u306b\u5bfe\u3057": 2804,
  "\u2581bus": 2805,
  "\u3073": 2806,
  "\u6b6f": 2807,
  "\u5236\u9650": 2808,
  "\u4f9b\u7d66": 2809,
  "\u540c\u793e\u306e": 2810,
  "\u3042\u308a": 2811,
  "ft": 2812,
  "\u2581objects": 2813,
  "\u30a6\u30a7\u30d6\u30b5\u30a4\u30c8": 2814,
  "\u2581\u6211\u3005\u306f": 2815,
  "\u2581practice": 2816,
  "\u7b54\u3048": 2817,
  "\u60a3\u8005": 2818,
  "\u30b3\u30f3\u30c8\u30ed\u30fc\u30eb": 2819,
  "\u2581networks": 2820,
  "\u691c\u8a0e": 2821,
  "AR": 2822,
  "\u521d\u3081\u3066": 2823,
  "\u30a2\u30b8\u30e3\u30a4\u30eb": 2824,
  "\u2581State": 2825,
  "\u6587\u66f8": 2826,
  "\u2581subject": 2827,
  "\u7d39\u4ecb": 2828,
  "\u65e2\u5b58\u306e": 2829,
  "\u9ad8\u901f": 2830,
  "\u98df\u54c1": 2831,
  "yl": 2832,
  "\u8cea\u554f": 2833,
  "\u6700": 2834,
  "\u2581hardware": 2835,
  "TM": 2836,
  "\u6d3b\u7528": 2837,
  "qui": 2838,
  "\u2581completely": 2839,
  "off": 2840,
  "\u2581update": 2841,
  "\u90e8\u9580": 2842,
  "\u2581Pa": 2843,
  "\u8077": 2844,
  "\u30bc": 2845,
  "\u2581AND": 2846,
  "PS": 2847,
  "display": 2848,
  "\u2581behavior": 2849,
  "\u8840": 2850,
  "\u300d\u300c": 2851,
  "\u9001\u4fe1": 2852,
  "MS": 2853,
  "\u2581weight": 2854,
  "We": 2855,
  "\u63d0\u6848": 2856,
  "\u65b9\u5411": 2857,
  "\u2581shirt": 2858,
  "\u30fc\u30eb": 2859,
  "year": 2860,
  "\u2581PC": 2861,
  "\u9244\u9053": 2862,
  "\u2581contract": 2863,
  "\u30b3\u30df\u30e5\u30cb\u30b1\u30fc\u30b7\u30e7\u30f3": 2864,
  "\u30a6\u30a7\u30d6": 2865,
  "\u4f53\u9a13": 2866,
  "\u6700\u9069\u5316": 2867,
  "\u7de8\u96c6": 2868,
  "\u2581applied": 2869,
  "\u30de\u30eb\u30c1": 2870,
  "\u3068\u3057\u3066\u306e": 2871,
  "\u306b\u3088\u308c\u3070": 2872,
  "\u2581Lo": 2873,
  "\u2581factory": 2874,
  "\u7f8e": 2875,
  "\u2581select": 2876,
  "\u306e\u5f71\u97ff": 2877,
  "\u3092\u884c\u3044": 2878,
  "\u3069\u3093\u306a": 2879,
  "\u30e1\u30bd\u30c3\u30c9": 2880,
  "\u2581situation": 2881,
  "\u5728": 2882,
  "\u8ffd\u52a0": 2883,
  "\u2581themselves": 2884,
  "au": 2885,
  "\u2581ready": 2886,
  "\u5c11\u3057": 2887,
  "\u3057\u3066\u3044\u306a\u3044": 2888,
  "\u2581decision": 2889,
  "\u6700\u5927\u306e": 2890,
  "\u6761": 2891,
  "\u57fa\u6e96": 2892,
  "\u4e0a\u306b": 2893,
  "\u5909\u63db": 2894,
  "\u308b\u3068": 2895,
  "\u30b9\u30de\u30fc\u30c8\u30d5\u30a9\u30f3": 2896,
  "\u4ed8\u304d": 2897,
  "NET": 2898,
  "\u50cf": 2899,
  "\u2581break": 2900,
  "\u30c3\u30af\u30b9": 2901,
  "\u53cb\u4eba": 2902,
  "US": 2903,
  "Co": 2904,
  "\u30eb\u30fc\u30e0": 2905,
  "DA": 2906,
  "\u30c8\u30c3\u30d7": 2907,
  "yama": 2908,
  "\u2581...": 2909,
  "\u2581browser": 2910,
  "\u30b3\u30fc\u30b9": 2911,
  "\u4ed8": 2912,
  "\u89e3\u6c7a": 2913,
  "\u5727": 2914,
  "\u5e74\u304b\u3089": 2915,
  "\u5185\u5bb9": 2916,
  "\u3068\u601d\u3044\u307e\u3059": 2917,
  "\u30ec\u30b9": 2918,
  "\u2581path": 2919,
  "\u2581output": 2920,
  "\u653f": 2921,
  "\u30ea\u30a2": 2922,
  "\u2581Mar": 2923,
  "\u4ea4\u63db": 2924,
  "Twitter": 2925,
  "\u2581clean": 2926,
  "\u30d6\u30ed\u30c3\u30af": 2927,
  "\u8349": 2928,
  "ren": 2929,
  "ee": 2930,
  "\u2581morning": 2931,
  "\u2581Technology": 2932,
  "\u2581\u7b2c": 2933,
  "\u2581moment": 2934,
  "\u5316\u5b66": 2935,
  "\u3066\u304f\u3060\u3055\u3044": 2936,
  "\u2581Business": 2937,
  "\u306f\u305d\u306e": 2938,
  "\u690d\u7269": 2939,
  "\u2581expect": 2940,
  "\u3082\u3046": 2941,
  "\u30d9\u30fc\u30b9": 2942,
  "29": 2943,
  "\u3053\u3068\u3060": 2944,
  "\u4e00\u756a": 2945,
  "99": 2946,
  "Me": 2947,
  "\u30a4\u30f3\u30b9\u30c8\u30fc\u30eb": 2948,
  "\u6b21\u5143": 2949,
  "\u884c\u70ba": 2950,
  "\u2581Research": 2951,
  "\u2581\u672c\u7a3f\u3067\u306f": 2952,
  "\u2581easier": 2953,
  "\u25812019": 2954,
  "\u6642\u306e": 2955,
  "\u2581questions": 2956,
  "\u2581effects": 2957,
  "\u2581gave": 2958,
  "\u3092\u4f5c\u308b": 2959,
  "\u2581command": 2960,
  "\u2581shape": 2961,
  "\u2581writing": 2962,
  "\u7d4c\u55b6": 2963,
  "\u58c1": 2964,
  "\u30aa\u30f3": 2965,
  "\u2581fish": 2966,
  "\u3042\u306a\u305f\u306f": 2967,
  "26": 2968,
  "\u4ed5\u69d8": 2969,
  "\u30a2\u30a4": 2970,
  "\u2581perfect": 2971,
  "ber": 2972,
  "\u9580": 2973,
  "\u958b": 2974,
  "\u5404\u7a2e": 2975,
  "\u30c1\u30fc\u30e0\u306f": 2976,
  "\u30f4\u30a3": 2977,
  "\u30b5\u30f3\u30d7\u30eb": 2978,
  "\u2581setting": 2979,
  "\u7570": 2980,
  "fi": 2981,
  "\u2581Ri": 2982,
  "RE": 2983,
  "net": 2984,
  "\u2581vehicle": 2985,
  "\u2581Province": 2986,
  "\u2581developer": 2987,
  "shu": 2988,
  "\u5236\u4f5c": 2989,
  "\u2581brain": 2990,
  "\u63a1\u7528": 2991,
  "ong": 2992,
  "\u3092\u6301\u3061": 2993,
  "\u30c8\u30e9": 2994,
  "\u2581General": 2995,
  "\u2581mode": 2996,
  "\u6559": 2997,
  "\u30ed\u30f3": 2998,
  "\u2581\u5f7c\u306e": 2999,
  "\u2581Agile": 3000,
  "\u2581Many": 3001,
  "\u25812.": 3002,
  "\u7269\u8cea": 3003,
  "\u5b9f\u73fe": 3004,
  "Mo": 3005,
  "\u3068\u304b": 3006,
  "\u2581write": 3007,
  "\u30ec\u30b9\u30c8\u30e9\u30f3": 3008,
  "\u2581education": 3009,
  "\u2581II": 3010,
  "\u79d1": 3011,
  "\u2581Server": 3012,
  "\u77e5": 3013,
  "\u2581British": 3014,
  "\u2581answer": 3015,
  "00": 3016,
  "\u307e\u305a": 3017,
  "\u2581hold": 3018,
  "\u2581throughout": 3019,
  "light": 3020,
  "\u81ea\u5df1": 3021,
  "\u4f8b\u3048\u3070": 3022,
  "\u53ef\u80fd\u6027": 3023,
  "\u6e96\u5099": 3024,
  "\u2581integration": 3025,
  "\u2581blog": 3026,
  "\u5206\u6563": 3027,
  "\u5f71\u97ff": 3028,
  "ified": 3029,
  "ring": 3030,
  "\u2581offering": 3031,
  "\u2581tasks": 3032,
  "\u5dee": 3033,
  "\u5efa\u7269": 3034,
  "ja": 3035,
  "\u8089": 3036,
  "\u7ffb\u8a33": 3037,
  "\u2581review": 3038,
  "\u6a2a": 3039,
  "\u5f37": 3040,
  "\u6bb5\u968e": 3041,
  "\u65e5\u306e": 3042,
  "\u904b\u8ee2": 3043,
  "kin": 3044,
  "\u2581wall": 3045,
  "\u672b": 3046,
  "\u2581science": 3047,
  "\u30a8\u30ea\u30a2": 3048,
  "\u30de\u30b7\u30f3": 3049,
  "\u2581shown": 3050,
  "\u2581Because": 3051,
  "\u30d6\u30eb": 3052,
  "\u771f": 3053,
  "\u82f1": 3054,
  "\u53c8\u306f": 3055,
  "vi": 3056,
  "\u9054": 3057,
  "\u4e57": 3058,
  "\u4e88\u7d04": 3059,
  "\u2581central": 3060,
  "\u3069\u306e\u3088\u3046\u306b": 3061,
  "\u3055\u308c\u3066\u3044\u305f": 3062,
  "\u2581{": 3063,
  "\u4fe1": 3064,
  "\u2581reached": 3065,
  "\u6c0f\u306e": 3066,
  "\u306b\u95a2\u3059\u308b\u7814\u7a76": 3067,
  "can": 3068,
  "70": 3069,
  "\u2581military": 3070,
  "\u79c1": 3071,
  "\u2015": 3072,
  "\u30b7\u30f3": 3073,
  "Net": 3074,
  "\u3092\u901a\u3057\u3066": 3075,
  "CEO": 3076,
  "\u30aa\u30fc\u30d7\u30f3": 3077,
  "200": 3078,
  "\u30c1\u30e3": 3079,
  "\u88fd\u54c1\u306e": 3080,
  "\u969b": 3081,
  "\u2581distance": 3082,
  "\u3068\u306a\u308a\u307e\u3059": 3083,
  "IN": 3084,
  "\u2581internal": 3085,
  "\u53cd": 3086,
  "\u25812017": 3087,
  "\u6cd5\u5f8b": 3088,
  "\u306e\u4e2d\u306b": 3089,
  "\u4e16\u754c\u306e": 3090,
  "\u9b5a": 3091,
  "\u3055\u305b\u305f": 3092,
  "\u2581Information": 3093,
  "\u2581German": 3094,
  "\u2581moving": 3095,
  "\u30ac\u30f3": 3096,
  "\u2581Street": 3097,
  "\u2581startup": 3098,
  "\u2581Or": 3099,
  "\u2581sign": 3100,
  "\u2581voice": 3101,
  "CO": 3102,
  "ng": 3103,
  "\u2581efforts": 3104,
  "\u6cb9": 3105,
  "\u9078\u624b": 3106,
  "\u2581electric": 3107,
  "\u3092\u63d0\u6848\u3059\u308b": 3108,
  "\u258140": 3109,
  "\u2581connection": 3110,
  "\u2581press": 3111,
  "\u5f53\u793e": 3112,
  "\u2581talking": 3113,
  "\u2581famous": 3114,
  "tu": 3115,
  "\u6a5f\u4f1a": 3116,
  "\u4f01\u696d\u306e": 3117,
  "\u3044\u307e\u3057\u305f": 3118,
  "\u8fbc\u307f": 3119,
  "\u30dc\u30c3\u30af\u30b9": 3120,
  "\u76e3\u8996": 3121,
  "\u30e1\u30fc\u30c8\u30eb": 3122,
  ")\u300d": 3123,
  "\u2581\u73fe\u5728": 3124,
  "\u2581purchase": 3125,
  "\u30b0\u30ed\u30fc\u30d0\u30eb": 3126,
  "\u9178": 3127,
  "ten": 3128,
  "\u89b3": 3129,
  "\u7d20\u6750": 3130,
  "fer": 3131,
  "ier": 3132,
  "\u2581languages": 3133,
  "\u2581\u5f53\u793e\u306f": 3134,
  "\u2581East": 3135,
  "\u8abf\u6574": 3136,
  "\u2581moved": 3137,
  "ries": 3138,
  "\u8a18\u8ff0": 3139,
  "\u2581\u79c1\u304c": 3140,
  "\u5217": 3141,
  "\u56e3": 3142,
  "\u5185\u306b": 3143,
  "\u2581inter": 3144,
  "\u30d1\u30f3": 3145,
  "\u2581internet": 3146,
  "\u2581Management": 3147,
  "\u258121": 3148,
  "\u7aef": 3149,
  "\u5fc5\u8981\u304c\u3042\u308b": 3150,
  "\u2581Not": 3151,
  "\u2581ship": 3152,
  "\u97f3\u58f0": 3153,
  "\u3092\u6301\u3063\u3066": 3154,
  "\u90e8\u5c4b": 3155,
  "\u4e2d\u592e": 3156,
  "\u2581caused": 3157,
  "27": 3158,
  "\u2581link": 3159,
  "\u2581Azure": 3160,
  "\u2581Of": 3161,
  "\u30a4\u30f3\u30c9": 3162,
  "ven": 3163,
  "\u3050": 3164,
  "\u30d5\u30ea\u30fc": 3165,
  "\u2581follow": 3166,
  "\u5ca9": 3167,
  "\u69cb\u7bc9": 3168,
  "\u2581iPad": 3169,
  "hu": 3170,
  "\u2581relationship": 3171,
  "\u6700\u65b0\u306e": 3172,
  "\u3092\u6301\u3063\u3066\u3044\u308b": 3173,
  "\u2581compared": 3174,
  "\u2581AWS": 3175,
  "\u767a\u5c55": 3176,
  "\u2581choice": 3177,
  "\u5efa\u8a2d": 3178,
  "\u2581served": 3179,
  "\u30eb\u30fc": 3180,
  "\u2581apply": 3181,
  "\u9ce5": 3182,
  "\u5e83\u304f": 3183,
  "han": 3184,
  "\u8005\u304c": 3185,
  "\u2581band": 3186,
  "\u795e\u7d4c": 3187,
  "\u2581towards": 3188,
  "\u2581lines": 3189,
  "\u2581acid": 3190,
  "\u2581maintain": 3191,
  "\u6750": 3192,
  "\u2581beginning": 3193,
  "\u2581Ga": 3194,
  "ray": 3195,
  "\u30ac\u30e9\u30b9": 3196,
  "iOS": 3197,
  "\u30d1\u30c3\u30b1\u30fc\u30b8": 3198,
  "\u2581n": 3199,
  "\u30d9\u30c3\u30c9": 3200,
  "\u2581\u3042\u306a\u305f\u304c": 3201,
  "\u2581patients": 3202,
  "\u300d(": 3203,
  "\u3068\u3057\u3066\u3082": 3204,
  "ical": 3205,
  "ping": 3206,
  "rd": 3207,
  "\u2581traffic": 3208,
  "\u8abf": 3209,
  "\u3068\u306a\u3063\u3066\u3044\u308b": 3210,
  "ham": 3211,
  "\u2581groups": 3212,
  "\u984d": 3213,
  "\u30ac\u30fc": 3214,
  "\u4ed6": 3215,
  "\u9032": 3216,
  "\u2581physical": 3217,
  "\u305f\u3089": 3218,
  "king": 3219,
  "\u7d20": 3220,
  "\u2581sites": 3221,
  "\u2581connected": 3222,
  "\u2581fields": 3223,
  "\u25812010": 3224,
  "\u2581\u305d\u3053\u3067": 3225,
  "\u3063\u3066\u3044\u305f": 3226,
  "MA": 3227,
  "\u2581Let": 3228,
  "\u306e\u5834\u5408": 3229,
  "\u2581shared": 3230,
  "\u5c0e\u5165": 3231,
  "\u25812012": 3232,
  "\u547d": 3233,
  "\u2581signal": 3234,
  "\u2581com": 3235,
  "\u2581River": 3236,
  "\u2581Imperial": 3237,
  "\u2581driving": 3238,
  "\u2581+": 3239,
  "\u30bf\u30f3": 3240,
  "\u2581investment": 3241,
  "\u30a8\u30eb": 3242,
  "\u2581options": 3243,
  "\u2581direction": 3244,
  "\u2581Power": 3245,
  "\u56fd\u306e": 3246,
  "\u2581daily": 3247,
  "\u306f\u306a\u3044": 3248,
  "\u2581grow": 3249,
  "\u2581Museum": 3250,
  "\u30cd\u30c3\u30c8": 3251,
  "\u7a2e\u985e\u306e": 3252,
  "\u2581Study": 3253,
  "\u2581Dr": 3254,
  "\u30e2\u30fc\u30c9": 3255,
  "\u2581basis": 3256,
  "\u307b\u307c": 3257,
  "\u8868\u9762": 3258,
  "\u2581advantage": 3259,
  "\u2581tests": 3260,
  "\u52b9\u7387": 3261,
  "\u5922": 3262,
  "\u30c8\u30ea": 3263,
  "\u4e00\u822c": 3264,
  "\u2581difference": 3265,
  "\u2581clients": 3266,
  "\u2581library": 3267,
  "\u2581increased": 3268,
  "\u4fe1\u983c": 3269,
  "\u2581understanding": 3270,
  "ological": 3271,
  "\u2581Your": 3272,
  "\u3057\u3066\u304a\u308a\u307e\u3059": 3273,
  "\u30cf\u30f3": 3274,
  "\u5c11\u306a\u304f\u3068\u3082": 3275,
  "\u2581race": 3276,
  "\u2581disease": 3277,
  "300": 3278,
  "\u907a\u4f1d\u5b50": 3279,
  "\u2581Three": 3280,
  "\u2581stand": 3281,
  "\u2581values": 3282,
  "\u540d\u524d": 3283,
  "\u7d50\u5408": 3284,
  "\u3057\u304b\u3057": 3285,
  "\u2581condition": 3286,
  "\u2581load": 3287,
  "\u8907\u96d1\u306a": 3288,
  "ek": 3289,
  "\u2581status": 3290,
  "\u2581handle": 3291,
  "\u2581act": 3292,
  "\u2581population": 3293,
  "\u5f7c\u3089\u306e": 3294,
  "\u30c8\u30e9\u30c3\u30af": 3295,
  "\u3048\u308b": 3296,
  "\u2581summer": 3297,
  "\u53e4": 3298,
  "\u2581star": 3299,
  "\u2581normal": 3300,
  "\u306b\u3064\u3044\u3066\u306e": 3301,
  "house": 3302,
  "\u843d": 3303,
  "\u6599\u91d1": 3304,
  "\u25812008": 3305,
  "\u5b9f\u969b\u306b": 3306,
  "\u53e4\u3044": 3307,
  "\u3092\u898b\u3066": 3308,
  "\u2581d": 3309,
  "\u5916\u90e8": 3310,
  "\u2581ad": 3311,
  "\u306e\u7814\u7a76": 3312,
  "ju": 3313,
  "\u81ea\u8eab\u306e": 3314,
  "\u2581Even": 3315,
  "\u2581Then": 3316,
  "\u30c7\u30fc\u30bf\u306e": 3317,
  "\u2581Ad": 3318,
  "\u5b9f\u65bd": 3319,
  "\u2581implementation": 3320,
  "\u2581require": 3321,
  "\u2581consider": 3322,
  "\u2581Most": 3323,
  "\u306e\u306a\u3044": 3324,
  "\u2581powerful": 3325,
  "\u6b74\u53f2": 3326,
  "\u2581excellent": 3327,
  "\u3092\u4f7f\u3046": 3328,
  "\u2581opened": 3329,
  "\u2581Red": 3330,
  "\u30e1\u30e2\u30ea": 3331,
  "\u57fa": 3332,
  "\u66f4\u65b0": 3333,
  "\u5104\u30c9\u30eb": 3334,
  "\u2581Dis": 3335,
  "\u2581Model": 3336,
  "\u5b8c\u5168\u306b": 3337,
  "source": 3338,
  "\u5897": 3339,
  "\u3076": 3340,
  "\u2581enter": 3341,
  "\u3068\u3057\u305f": 3342,
  "\u2581rich": 3343,
  "\u2581stock": 3344,
  "\u3092\u63d0\u4f9b\u3057\u307e\u3059": 3345,
  "ken": 3346,
  "ph": 3347,
  "pi": 3348,
  "\u2581glass": 3349,
  "\u56db": 3350,
  "\u2581Project": 3351,
  "\u30b5\u30fc\u30d3\u30b9\u306e": 3352,
  "\u2581goes": 3353,
  "\u30dc\u30fc\u30eb": 3354,
  "fu": 3355,
  "\u51fa\u3059": 3356,
  "\u306e\u4e2d": 3357,
  "\u3068\u3057\u3066\u306f": 3358,
  "\u30d3\u30e5\u30fc": 3359,
  "\u305f\u3061\u306f": 3360,
  "\u7c73\u56fd\u6642\u9593": 3361,
  "\u5175": 3362,
  "\u2581document": 3363,
  "\u80fd": 3364,
  "\u2581strength": 3365,
  "\u304b\u3063\u305f": 3366,
  "\u518d\u751f": 3367,
  "\u2581infrastructure": 3368,
  "\u3092\u3059\u308b": 3369,
  "\u30d9\u30eb": 3370,
  "\u7d50": 3371,
  "\u2581selected": 3372,
  "\u25812014": 3373,
  "\u610f": 3374,
  "\u2581lives": 3375,
  "\u2581described": 3376,
  "\u2581tech": 3377,
  "\u2581rights": 3378,
  "</": 3379,
  "\u6700\u8fd1": 3380,
  "\u30e6\u30fc\u30b6\u30fc\u304c": 3381,
  "\u2581algorithm": 3382,
  "\u2581growing": 3383,
  "\u6a5f\u69cb": 3384,
  "\u2581smart": 3385,
  "\u30d1\u30e9\u30e1\u30fc\u30bf": 3386,
  "\u4eac\u90fd": 3387,
  "\u2581Shi": 3388,
  "Pro": 3389,
  "\u52d5\u304d": 3390,
  "\u30bf\u30a4\u30e0": 3391,
  "\u25812016": 3392,
  "\u2581Her": 3393,
  "\u30c1\u30a7\u30c3\u30af": 3394,
  "\u2581custom": 3395,
  "her": 3396,
  "\u4e16\u7d00": 3397,
  "work": 3398,
  "oc": 3399,
  "\u2581huge": 3400,
  "\u81ea\u8ee2\u8eca": 3401,
  "ino": 3402,
  "\u2581theory": 3403,
  "\u3089\u308c\u3066\u3044\u308b": 3404,
  "ding": 3405,
  "\u2581avoid": 3406,
  "\u4e8b\u4ef6": 3407,
  "\u7d75": 3408,
  "31": 3409,
  "\u2581Fa": 3410,
  "\u2581Sun": 3411,
  "\u30eb\u30fc\u30eb": 3412,
  "\u2581West": 3413,
  "\u5927\u304d\u304f": 3414,
  "\u5f53\u793e\u306e": 3415,
  "\u6559\u4f1a": 3416,
  "De": 3417,
  "\u2581Office": 3418,
  "\u2581map": 3419,
  "\u624b\u6bb5": 3420,
  "\u30cf\u30fc\u30c9\u30a6\u30a7\u30a2": 3421,
  "\u2581reference": 3422,
  "\u2581mission": 3423,
  "\u2581appropriate": 3424,
  "\u2581costs": 3425,
  "\u8a31\u53ef": 3426,
  "\u2581LED": 3427,
  "term": 3428,
  "val": 3429,
  "\u25812013": 3430,
  "\u2581instance": 3431,
  "\u2581planning": 3432,
  "\u2581\u65b0\u3057\u3044": 3433,
  "\u2581elements": 3434,
  "oma": 3435,
  "\u9053\u8def": 3436,
  "\u2581sometimes": 3437,
  "\u9928": 3438,
  "\u2581skills": 3439,
  "\u2581sell": 3440,
  "\u2581la": 3441,
  "\u306a\u3051\u308c\u3070\u306a\u3089\u306a\u3044": 3442,
  "\u8131": 3443,
  "\u2581meters": 3444,
  "\u2581corporate": 3445,
  "\u610f\u898b": 3446,
  "\u6d3e": 3447,
  "\u8aac": 3448,
  "mit": 3449,
  "\u6e80": 3450,
  "\u756a": 3451,
  "\u79c1\u304c": 3452,
  "To": 3453,
  "90": 3454,
  "\u6bce\u65e5": 3455,
  "\u2581Sea": 3456,
  "\u3069": 3457,
  "\u2581snow": 3458,
  "\u8f38\u9001": 3459,
  "tor": 3460,
  "\u91cd\u8981": 3461,
  "\u3092\u4f7f\u7528\u3059\u308b": 3462,
  "\u30e8\u30fc\u30ed\u30c3\u30d1": 3463,
  "\u53d6": 3464,
  "\u2581enterprise": 3465,
  "\u2581guests": 3466,
  "\u2581\u305f\u3060\u3057": 3467,
  "\u2581spring": 3468,
  "\u30b2": 3469,
  "\u30ed\u30b7\u30a2": 3470,
  "\u5185\u90e8": 3471,
  "\u3082\u306e\u3067\u3042\u308b": 3472,
  "\u7403": 3473,
  "\u9023\u7d9a": 3474,
  "\u30a2\u30fc\u30c8": 3475,
  "\u2581Day": 3476,
  "\u2581saying": 3477,
  "\u2581effort": 3478,
  "It": 3479,
  "\u2581mo": 3480,
  "\u30aa\u30fc": 3481,
  "\u2581character": 3482,
  "\u672c\u5f53\u306b": 3483,
  "\u30b9\u30bf\u30a4\u30eb": 3484,
  "\u591a\u304f": 3485,
  "\u4fee\u6b63": 3486,
  "\u6db2": 3487,
  "\u2581sold": 3488,
  "\u2581agile": 3489,
  "\u9006": 3490,
  "\u65e5\u672c\u8a9e": 3491,
  "\u308c\u308b": 3492,
  "\u5c45": 3493,
  "\u2581El": 3494,
  "\u2581opportunity": 3495,
  "\u5168\u3066": 3496,
  "\u2581CO": 3497,
  "\u2581legal": 3498,
  "\u30e9\u30a4\u30bb\u30f3\u30b9": 3499,
  "ight": 3500,
  "\u2581format": 3501,
  "\u2581businesses": 3502,
  "\u2581friend": 3503,
  "\u96fb\u529b": 3504,
  "\u3057\u3044": 3505,
  "\u2581\u3042\u306e": 3506,
  "set": 3507,
  "\u2581himself": 3508,
  "\u2581brought": 3509,
  "\u4e00\u822c\u7684\u306a": 3510,
  "\u2581middle": 3511,
  "\u6e29": 3512,
  "ware": 3513,
  "\u2581eat": 3514,
  "\u5b88": 3515,
  "\u30d1\u30b9": 3516,
  "\u2581ten": 3517,
  "\u8a3a\u65ad": 3518,
  "\u2581extra": 3519,
  "\u2581wife": 3520,
  "pro": 3521,
  "\u2581police": 3522,
  "\u30b8\u30e7\u30f3": 3523,
  "\u2581organizations": 3524,
  "over": 3525,
  "\u58f2": 3526,
  "\u30a2\u30c3\u30d7\u30c7\u30fc\u30c8": 3527,
  "\u6620\u50cf": 3528,
  "\u2581eye": 3529,
  "\u2581industrial": 3530,
  "\u500d": 3531,
  "\u2581numbers": 3532,
  "py": 3533,
  "\u5104": 3534,
  "\u30ec\u30a4": 3535,
  "\u2581Gra": 3536,
  "san": 3537,
  "%": 3538,
  "\u30b7\u30e3": 3539,
  "\u2581performed": 3540,
  "che": 3541,
  "\u305d\u3046\u3067\u3059": 3542,
  "\u7406\u8ad6": 3543,
  "\u30b8\u30e3": 3544,
  "\u2581save": 3545,
  "\u3069\u306e": 3546,
  "\u2581piece": 3547,
  "...\u3002": 3548,
  "\u3092\u6709\u3059\u308b": 3549,
  "\u2581window": 3550,
  "\u2581techniques": 3551,
  "\u2581wrote": 3552,
  "\u2581India": 3553,
  "\u96ea": 3554,
  "\u5f7c\u3089\u306f": 3555,
  "\u2581thinking": 3556,
  "\u51fa\u3057": 3557,
  "\u305a\u3063\u3068": 3558,
  "\u2581gives": 3559,
  "\u2581\u3064\u307e\u308a": 3560,
  "DS": 3561,
  "\u65b9\u6cd5\u3067": 3562,
  "\u2581Code": 3563,
  "\u65ad": 3564,
  "\u4fdd\u8a3c": 3565,
  "\u2581Ne": 3566,
  "\u30d6\u30e9": 3567,
  "ound": 3568,
  "\u9752": 3569,
  "\u306b\u306a\u3063\u3066\u3044\u308b": 3570,
  "\u2581measures": 3571,
  "\u601d\u3044": 3572,
  "\u72ec\u7acb": 3573,
  "\u30dd\u30fc\u30c8": 3574,
  "\u7a7a\u6c17": 3575,
  "\u5973\u6027\u304c": 3576,
  "\u8a13\u7df4": 3577,
  "\u2581Korea": 3578,
  "\u756a\u53f7": 3579,
  "\u767a\u58f2": 3580,
  "\u30d7\u30fc\u30eb": 3581,
  "\u7406": 3582,
  "\u4efb": 3583,
  "\u2581restaurant": 3584,
  "\u597d": 3585,
  "\u96e8": 3586,
  "ell": 3587,
  "\u2581else": 3588,
  "\u8a08": 3589,
  "\u5206\u5e03": 3590,
  "\u2581double": 3591,
  "\u2581progress": 3592,
  "\u2581France": 3593,
  "\u9020": 3594,
  "\u2581earlier": 3595,
  "\u82b8\u8853": 3596,
  "\u3055\u308c\u3066\u3044\u306a\u3044": 3597,
  "\u2581battle": 3598,
  "Al": 3599,
  "\u671b": 3600,
  "\u2581\u5973\u6027\u306f": 3601,
  "\u2581cars": 3602,
  "\u4e0a\u3052": 3603,
  "35": 3604,
  "\u5229": 3605,
  "\u2581partner": 3606,
  "\u6301\u3061": 3607,
  "\u306a\u3093\u3066": 3608,
  "\u2581Foundation": 3609,
  "\u2581machines": 3610,
  "\u2581political": 3611,
  "\u2581regular": 3612,
  "\u4ea4\u901a": 3613,
  "\u2581formed": 3614,
  "km": 3615,
  "\u2581levels": 3616,
  "\u2581strategy": 3617,
  "\u9000": 3618,
  "\u2581supported": 3619,
  "\u2581Mu": 3620,
  "\u9069\u7528": 3621,
  "\u2581Control": 3622,
  "\u4eca\u65e5": 3623,
  "MP": 3624,
  "\u541b": 3625,
  "\u30bd\u30fc\u30b9": 3626,
  "pl": 3627,
  "\u2581initial": 3628,
  "\u2581respect": 3629,
  "\u2581bi": 3630,
  "tri": 3631,
  "\u2581Thanks": 3632,
  "\u30e1\u30cb\u30e5\u30fc": 3633,
  "\u30b9\u30c6\u30c3\u30d7": 3634,
  "\u2581larger": 3635,
  "\u2581Today": 3636,
  "\u2581becomes": 3637,
  "\u5730\u65b9": 3638,
  "\u2581chance": 3639,
  "\u3092\u53d6\u308a": 3640,
  "\u30af\u30e9\u30d6": 3641,
  "\u9031\u9593": 3642,
  "\u5bfe\u7b56": 3643,
  "\u4e8b\u6545": 3644,
  "\u3059\u3079\u304d": 3645,
  "\u5927\u7d71\u9818": 3646,
  "\u2581videos": 3647,
  "\u5f15\u304d": 3648,
  "ear": 3649,
  "\u2581contribute": 3650,
  "\u9803": 3651,
  "\u2581giving": 3652,
  "\u306e\u9593": 3653,
  "\u2581studies": 3654,
  "\u2581pool": 3655,
  "\u2581daughter": 3656,
  "\u6e56": 3657,
  "\u2581damage": 3658,
  "\u2581lack": 3659,
  "\u3092\u6301\u3063\u3066\u3044\u307e\u3059": 3660,
  "\u3056": 3661,
  "\u63a8\u5b9a": 3662,
  "RO": 3663,
  "\u2581mass": 3664,
  "\u2581kids": 3665,
  "\u2581weeks": 3666,
  "\u8eca\u4e21": 3667,
  "\u53d6\u5f97": 3668,
  "ina": 3669,
  "\u52a0": 3670,
  "\u30aa\u30d5\u30a3\u30b9": 3671,
  "\u2581reported": 3672,
  "\u7a7a\u6e2f": 3673,
  "\u2581places": 3674,
  "\u2581efficiency": 3675,
  "\u524a\u9664": 3676,
  "\u2581JavaScript": 3677,
  "\u2581highest": 3678,
  "app": 3679,
  "ice": 3680,
  "\u682a": 3681,
  "\u5f3e": 3682,
  "\u8ef8": 3683,
  "\u2581Ruby": 3684,
  "\u2581tree": 3685,
  "\u2581accuracy": 3686,
  "\u2581whose": 3687,
  "\u25812015": 3688,
  "lan": 3689,
  "{": 3690,
  "car": 3691,
  "\u5224\u65ad": 3692,
  "\u30d1\u30cd\u30eb": 3693,
  "\u5730\u7403": 3694,
  "\u2581anyone": 3695,
  "\u30b3\u30e1\u30f3\u30c8": 3696,
  "\u6575": 3697,
  "\u3082\u3057\u304f\u306f": 3698,
  "\u4e3b\u306b": 3699,
  "\u8a00\u8449": 3700,
  "\u2581climate": 3701,
  "\u5f62\u72b6": 3702,
  "\u2581combination": 3703,
  "\u2581engineering": 3704,
  "amp": 3705,
  "\u306a\u306e\u3067": 3706,
  "65": 3707,
  "\u2581Pe": 3708,
  "\u2581finally": 3709,
  "\u2581contains": 3710,
  "\u304a\u308a": 3711,
  "\u2581host": 3712,
  "\u2581books": 3713,
  "\u5897\u52a0": 3714,
  "\u30ad\u30e3": 3715,
  "\u2581configuration": 3716,
  "\u8a66": 3717,
  "\u4ee5\u964d": 3718,
  "\u7247": 3719,
  "\u2581credit": 3720,
  "\u2581Learning": 3721,
  "\u2581average": 3722,
  "\u901a\u77e5": 3723,
  "\u2581\\": 3724,
  "\u2581nice": 3725,
  "\u2581Da": 3726,
  "\u8cb7\u53ce": 3727,
  "\u2581Ku": 3728,
  "32": 3729,
  "\u7acb\u3061": 3730,
  "\u30cb\u30a2": 3731,
  "Con": 3732,
  "\u3068\u3044\u3046\u3053\u3068": 3733,
  "\u2581background": 3734,
  "\u898f\u5236": 3735,
  "\u30b8\u30e5": 3736,
  "\u2581Line": 3737,
  "\u2581ma": 3738,
  "\u2581remember": 3739,
  "ER": 3740,
  "\u6e1b": 3741,
  "SE": 3742,
  "\u2581yourself": 3743,
  "\u2581shop": 3744,
  "sis": 3745,
  "\u306e\u9593\u306b": 3746,
  "\u2581photos": 3747,
  "\u30d0\u30a4": 3748,
  "\u3088\u3046\u3060": 3749,
  "AC": 3750,
  "ction": 3751,
  "\u30cb\u30e5\u30fc\u30e8\u30fc\u30af": 3752,
  "\u2581mis": 3753,
  "\u2581virtual": 3754,
  "\u2581separate": 3755,
  "\u6e1b\u5c11": 3756,
  "\u30d0\u30f3": 3757,
  "\u3067\u3057\u3087\u3046\u304b": 3758,
  "\u59d4\u54e1\u4f1a": 3759,
  "\u7279\u5225\u306a": 3760,
  "\u3052": 3761,
  "\u2581Lu": 3762,
  "\u30c6\u30fc\u30de": 3763,
  "\u6bdb": 3764,
  "\u524d\u306e": 3765,
  "\u2581cable": 3766,
  "\u2581actual": 3767,
  "\u30b3\u30f3\u30c6\u30ca": 3768,
  "\u7236": 3769,
  "\u30013": 3770,
  "\u5e73\u5747": 3771,
  "\u7834": 3772,
  "ification": 3773,
  "\u2581wind": 3774,
  "\u4eba\u9593\u306e": 3775,
  "\u4e94": 3776,
  "\u4e2d\u56fd\u306e": 3777,
  "\u9996": 3778,
  "GA": 3779,
  "\u3092\u63d0\u4f9b\u3057": 3780,
  "\u2581Ju": 3781,
  "\u2581allowed": 3782,
  "my": 3783,
  "\u307e\u3067\u306e": 3784,
  "\u2581promote": 3785,
  "\u2581associated": 3786,
  "ped": 3787,
  "\u30d0\u30f3\u30c9": 3788,
  "\u25812011": 3789,
  "\u5206\u96e2": 3790,
  "\u2581beach": 3791,
  "\u4eba\u3005": 3792,
  "\u2581classes": 3793,
  "\u2581improved": 3794,
  "\u2581enable": 3795,
  "\u2581Minister": 3796,
  "\u75c7": 3797,
  "if": 3798,
  "\u306e\u4e00\u3064": 3799,
  "\u2581Hu": 3800,
  "\u2581detection": 3801,
  "su": 3802,
  "\u30e9\u30f3\u30c9": 3803,
  "\u2581sun": 3804,
  "\u2581laws": 3805,
  "\u8fbc\u3080": 3806,
  "\u5730\u533a": 3807,
  "\u3057\u3066\u304d\u305f": 3808,
  "\u25812018": 3809,
  "\u30b3\u30fc\u30d2\u30fc": 3810,
  "dic": 3811,
  "\u30b9\u30bf\u30fc\u30c8\u30a2\u30c3\u30d7": 3812,
  "\u2581manufacturers": 3813,
  "\u3055\u308c\u3066\u304a\u308a": 3814,
  "ES": 3815,
  "64": 3816,
  "\u201d.": 3817,
  "\u53ef\u80fd\u6027\u304c\u3042\u308b": 3818,
  "\u30b3\u30a2": 3819,
  "\u2581Act": 3820,
  "\u5206\u3067\u3059": 3821,
  "\u2581trust": 3822,
  "\u8a00": 3823,
  "\u30af\u30e9": 3824,
  "\u2581yes": 3825,
  "\u2581Yoshi": 3826,
  "\u3042\u308a\u307e\u305b\u3093": 3827,
  "\u2581thus": 3828,
  "du": 3829,
  "RA": 3830,
  "ST": 3831,
  "\u2581Play": 3832,
  "\u958b\u50ac": 3833,
  "tter": 3834,
  "\u5e74\u4ee3": 3835,
  "\u793e\u54e1": 3836,
  "\u2581Home": 3837,
  "\u2581Network": 3838,
  "\u2581happy": 3839,
  "box": 3840,
  "\u2581<": 3841,
  "\u2581Un": 3842,
  "\u5efa\u7bc9": 3843,
  "\u5f93\u696d\u54e1": 3844,
  "tain": 3845,
  "\u2581movement": 3846,
  "\u2581reading": 3847,
  "\u306a\u306e\u3067\u3059": 3848,
  "\u2581dead": 3849,
  "\u2581allowing": 3850,
  "\u515a": 3851,
  "\u2581\u7279\u306b": 3852,
  "\u2581successful": 3853,
  "\u2581eyes": 3854,
  "Ma": 3855,
  "\u2581More": 3856,
  "TA": 3857,
  "\u3059\u308b\u3053\u3068\u306f": 3858,
  "\u306e\u4e0a": 3859,
  "back": 3860,
  "\u2581heard": 3861,
  "\u2581component": 3862,
  "\u2581Gu": 3863,
  "ual": 3864,
  "ile": 3865,
  "\u2581mainly": 3866,
  "\u4eba\u53e3": 3867,
  "\u3068\u601d\u3046": 3868,
  "\u7537\u304c": 3869,
  "\u2581alone": 3870,
  "\u30b3\u30f3\u30d4\u30e5\u30fc\u30bf\u30fc": 3871,
  "\u5c55\u793a": 3872,
  "\u2581responsible": 3873,
  "\u56de\u8ee2": 3874,
  "\u2581Per": 3875,
  "\u2581wrong": 3876,
  "\u30b9\u30bf": 3877,
  "\u53cb\u9054": 3878,
  "\u2581although": 3879,
  "\u2581meaning": 3880,
  "\u65cf": 3881,
  "\u30ab\u30f3": 3882,
  "\u2581killed": 3883,
  "~": 3884,
  "\u304b\u3089\u3067\u3059": 3885,
  "\u7b2c\u4e00": 3886,
  "\u51b7": 3887,
  "\u304c\u5fc5\u8981\u3067\u3059": 3888,
  "\u88cf": 3889,
  "\u8ee2": 3890,
  "\u3066\u308b": 3891,
  "\u2581worth": 3892,
  "\u30b7\u30e7\u30fc": 3893,
  "\u2581guide": 3894,
  "\u2581raised": 3895,
  "\u3092\u767a\u8868\u3057\u305f": 3896,
  "\u8b66\u5bdf": 3897,
  "\u2581Earth": 3898,
  "\u2581Other": 3899,
  "\u2581fit": 3900,
  "EL": 3901,
  "\u2581programming": 3902,
  "\u2581battery": 3903,
  "\u8d77": 3904,
  "\u2581oh": 3905,
  "\u2581documents": 3906,
  "\u65c5": 3907,
  "\u2581cancer": 3908,
  "\u2581Shin": 3909,
  "\u670d": 3910,
  "\u8a00\u3063\u305f": 3911,
  "\u2581error": 3912,
  "\u304b\u3082\u3057\u308c\u307e\u305b\u3093": 3913,
  "\u3068\u4e00\u7dd2\u306b": 3914,
  "\u3060\u304b\u3089": 3915,
  "\u9001": 3916,
  "\u2581Sp": 3917,
  "\u2581Use": 3918,
  "kan": 3919,
  "\u2581welcome": 3920,
  "\u2581yeah": 3921,
  "\u643a\u5e2f\u96fb\u8a71": 3922,
  "\u30ea\u30fc\u30c0\u30fc": 3923,
  "\u2581continued": 3924,
  "\u306e\u3046\u3061": 3925,
  "\u2581players": 3926,
  "\u2581vision": 3927,
  "\u5f7c\u5973\u306e": 3928,
  "\u306e\u4e21\u65b9": 3929,
  "\u2581tax": 3930,
  "\u2581plants": 3931,
  "\u2581standards": 3932,
  "\u2581beyond": 3933,
  "\u2581length": 3934,
  "\u6625": 3935,
  "\u30d3\u30fc\u30c1": 3936,
  "\u2581challenge": 3937,
  "\u6709\u52b9": 3938,
  "\u6b63\u3057\u3044": 3939,
  "\u2581female": 3940,
  "\u6307\u5b9a": 3941,
  "\u30cb\u30e5\u30fc": 3942,
  "\u2581returned": 3943,
  "\u2581cold": 3944,
  "\u6d88\u8cbb\u8005": 3945,
  "\u4ea4": 3946,
  "\u2581survey": 3947,
  "\u2581County": 3948,
  "\u2581plastic": 3949,
  "\u3058\u3083": 3950,
  "\u3044\u307e\u305b\u3093": 3951,
  "\u30b9\u30de\u30fc\u30c8": 3952,
  "\u2581programs": 3953,
  "ip": 3954,
  "\u4eba\u306b": 3955,
  "\u2581deliver": 3956,
  "\u2581installed": 3957,
  "\u6295\u7a3f": 3958,
  "\u2581YouTube": 3959,
  "\u5341": 3960,
  "\u2581cutting": 3961,
  "\u2581Visual": 3962,
  "\u2581faster": 3963,
  "\u2581exactly": 3964,
  "ple": 3965,
  "\u2581fall": 3966,
  "\u610f\u8b58": 3967,
  "\u65e7": 3968,
  "\u2581\u5927": 3969,
  "\u2581increasing": 3970,
  "ving": 3971,
  "\u75c5\u9662": 3972,
  "\u30d5\u30a9\u30fc\u30e0": 3973,
  "\u2581president": 3974,
  "\u2581\u3082\u3046": 3975,
  "\u3059\u308b\u3053\u3068\u3092": 3976,
  "\u2581wish": 3977,
  "\u30b5\u30d6": 3978,
  "\u2581supports": 3979,
  "\u2581context": 3980,
  "\u2581prior": 3981,
  "\u306e\u30b5\u30dd\u30fc\u30c8": 3982,
  "\u7a0e": 3983,
  "\u6700\u521d\u306b": 3984,
  "\u2581immediately": 3985,
  "\u2581improvement": 3986,
  "NO": 3987,
  "\u5e83": 3988,
  "\u30de\u30eb": 3989,
  "\u2581master": 3990,
  "\u2581efficient": 3991,
  "\u2581ideas": 3992,
  "\u2581visual": 3993,
  "\u2581cover": 3994,
  "\u754c": 3995,
  "\u8853": 3996,
  "fe": 3997,
  "\u2581Com": 3998,
  "\u2581pattern": 3999,
  "\u306f\u307e\u3060": 4000,
  "\u3042\u307e\u308a": 4001,
  "\u305d\u3053\u306b": 4002,
  "\u9805\u76ee": 4003,
  "\u2581Science": 4004,
  "\u2581competition": 4005,
  "\u30a2\u30d7\u30ea\u30b1\u30fc\u30b7\u30e7\u30f3\u306e": 4006,
  "born": 4007,
  "\u30c1\u30fc\u30e0\u304c": 4008,
  "\u2581creation": 4009,
  "pp": 4010,
  "\u2581door": 4011,
  "\u2581Chi": 4012,
  "ens": 4013,
  "cy": 4014,
  "\u2581played": 4015,
  "\u30c6\u30f3": 4016,
  "\u3057\u306a\u304c\u3089": 4017,
  "\u3092\u5229\u7528\u3059\u308b": 4018,
  "\u2581Music": 4019,
  "\u30b7\u30fc\u30c8": 4020,
  "\u30ec\u30dd\u30fc\u30c8": 4021,
  "\u2581requires": 4022,
  "\u2581brother": 4023,
  "\u73fe": 4024,
  "\u304b\u306a\u308a": 4025,
  "\u56fd\u5bb6": 4026,
  "\u2581bed": 4027,
  "\u3067\u304d\u305f": 4028,
  "\u2581native": 4029,
  "wi": 4030,
  "\u30d7\u30e9\u30f3": 4031,
  "Le": 4032,
  "ue": 4033,
  "\u767a\u751f": 4034,
  "\u2581kinds": 4035,
  "\u96e3": 4036,
  "\u6211\u3005\u306f": 4037,
  "\u7bc4\u56f2": 4038,
  "\u2581external": 4039,
  "\u5bb6\u306e": 4040,
  "37": 4041,
  "CD": 4042,
  "\u904b\u55b6": 4043,
  "\u5343": 4044,
  "\u8996": 4045,
  "\u304b\u306a": 4046,
  "\u7d44": 4047,
  "\u2581enables": 4048,
  "\u2581waiting": 4049,
  "\u2581river": 4050,
  "\u2581bike": 4051,
  "\u2581correct": 4052,
  "\u2581rice": 4053,
  "\u2581transport": 4054,
  "\u30db\u30fc\u30e0": 4055,
  "38": 4056,
  "\u5207\u308a": 4057,
  "\u56fd\u5185": 4058,
  "\u56fa\u5b9a": 4059,
  "34": 4060,
  "\u3053\u3068\u3082": 4061,
  "\u2581Ba": 4062,
  "\u3046\u307e\u304f": 4063,
  "\u2581Tri": 4064,
  "\u59bb": 4065,
  "\u30e6\u30fc\u30b6\u30fc\u306e": 4066,
  "\u5f93": 4067,
  "\u2581\u4eba\u3005\u306f": 4068,
  "\u2581placed": 4069,
  "\u5168\u4f53": 4070,
  "\u5c06\u6765": 4071,
  "\u53ce\u96c6": 4072,
  "\u2581wood": 4073,
  "ps": 4074,
  "\u2581port": 4075,
  "\u677e": 4076,
  "\u6210\u5206": 4077,
  "\u2581conduct": 4078,
  "\u2581edge": 4079,
  "\u8cc7\u6e90": 4080,
  "@": 4081,
  "\u2581taste": 4082,
  "Ro": 4083,
  "\u2581install": 4084,
  "\u2581benefits": 4085,
  "\u8056": 4086,
  "\u30d0\u30c3\u30af": 4087,
  "\u3059\u308b\u5fc5\u8981\u304c\u3042\u308a\u307e\u3059": 4088,
  "\u2581IP": 4089,
  "\u2581secret": 4090,
  "\u5fdc\u7528": 4091,
  "\u25812007": 4092,
  "\u53d7": 4093,
  "\u5e2b": 4094,
  "EC": 4095,
  "\u2581package": 4096,
  "\u6483": 4097,
  "\u25812009": 4098,
  "\u98db\u884c": 4099,
  "\u6bd4": 4100,
  "\u5236\u5ea6": 4101,
  "\u2581Corporation": 4102,
  "\u2581drop": 4103,
  "\u2581influence": 4104,
  "LE": 4105,
  "nes": 4106,
  "\u2581flat": 4107,
  "\u2581girls": 4108,
  "\u2581widely": 4109,
  "\u2581$1": 4110,
  "\u2581capabilities": 4111,
  "\u2581neural": 4112,
  "\u30ef\u30a4\u30f3": 4113,
  "\u3082\u3042\u308a\u307e\u3059": 4114,
  "\u4e38": 4115,
  "\u30ec\u30d9\u30eb\u306e": 4116,
  "\u2581cool": 4117,
  "\u2581changing": 4118,
  "\u2581capable": 4119,
  "\u4e00\u7dd2\u306b": 4120,
  "vis": 4121,
  "\u7d50\u5a5a": 4122,
  "\u4e00\u4eba": 4123,
  "\u30d7\u30ec\u30a4": 4124,
  "\u2581passed": 4125,
  "\u5206\u5b50": 4126,
  "\u2581menu": 4127,
  "\u3092\u53d7\u3051\u305f": 4128,
  "\u2581solve": 4129,
  "\u8336": 4130,
  "\u76e3\u7763": 4131,
  "rin": 4132,
  "\u2581block": 4133,
  "\u2581hear": 4134,
  "\u2581opening": 4135,
  "\u4e0b\u3055\u3044": 4136,
  "dai": 4137,
  "\u30de\u30fc\u30b1\u30c6\u30a3\u30f3\u30b0": 4138,
  "\u4f7f\u3048\u308b": 4139,
  "\u305d\u3046\u3060": 4140,
  "\u2581accept": 4141,
  "\u3092\u5099\u3048\u305f": 4142,
  "SS": 4143,
  "\u516c\u5712": 4144,
  "\u2581failure": 4145,
  "IS": 4146,
  "\u793a": 4147,
  "\u89b3\u6e2c": 4148,
  "\u5e45": 4149,
  "ast": 4150,
  "\u5929\u7687": 4151,
  "\u653f\u7b56": 4152,
  "\u30ec\u30fc\u30b9": 4153,
  "\u2581sort": 4154,
  "\u2581capacity": 4155,
  "\u8ddd\u96e2": 4156,
  "\u306e\u3072\u3068\u3064": 4157,
  "\u627f\u8a8d": 4158,
  "\u3092\u3057\u3066\u3044\u307e\u3059": 4159,
  "\u2581\u3060\u304b\u3089": 4160,
  "\u6307": 4161,
  "cha": 4162,
  "\u305d\u308c\u3089\u306e": 4163,
  "\u2581selection": 4164,
  "\u2581spread": 4165,
  "\u5546": 4166,
  "\u2581mountain": 4167,
  "\u2581completed": 4168,
  "\u2581rain": 4169,
  "\u25812005": 4170,
  "\u2581license": 4171,
  "low": 4172,
  "\u2581integrated": 4173,
  "\u7559": 4174,
  "ff": 4175,
  "\u500b\u4eba\u60c5\u5831": 4176,
  "\u4e73": 4177,
  "\u2581fuel": 4178,
  "\u2581God": 4179,
  "-2": 4180,
  "rate": 4181,
  "\u30e9\u30d9\u30eb": 4182,
  "\u2581implement": 4183,
  "\u3092\u304a": 4184,
  "\u2581baby": 4185,
  "\u2581names": 4186,
  "\u3059\u308b\u304b": 4187,
  "\u65b9\u5f0f": 4188,
  "\u2581Software": 4189,
  "\u2581volume": 4190,
  "\u2581figure": 4191,
  "\u30b3\u30fc": 4192,
  "\u4e0a\u6607": 4193,
  "\u8fd1\u304f": 4194,
  "\u2581\u3053\u306e\u3088\u3046\u306a": 4195,
  "\u2581Just": 4196,
  "\u2581suitable": 4197,
  "ker": 4198,
  "\u2581mechanism": 4199,
  "\u30c1\u30fc\u30e0\u306e": 4200,
  "GB": 4201,
  "\u2581director": 4202,
  "\u6a5f\u80fd\u3092": 4203,
  "\u97d3\u56fd": 4204,
  "\u3089\u306a\u3044": 4205,
  "\u2581\u30db\u30c6\u30eb": 4206,
  "\u2581waste": 4207,
  "\u751f\u307e\u308c": 4208,
  "\u6b66": 4209,
  "\u2581Ten": 4210,
  "\u2581Du": 4211,
  "\u5e45\u5e83\u3044": 4212,
  "Mac": 4213,
  "\u2581speak": 4214,
  "\u2581win": 4215,
  "\u4f53\u5236": 4216,
  "\u2581appear": 4217,
  "\u3064\u304f": 4218,
  "\u9055\u3044": 4219,
  "\u2581j": 4220,
  "\u30bb\u30eb": 4221,
  "\u751f\u304d": 4222,
  "\u2581Machine": 4223,
  "\u2581se": 4224,
  "\u30b3\u30d4\u30fc": 4225,
  "\u6a29\u5229": 4226,
  "\u306f\u975e\u5e38\u306b": 4227,
  "\u2581bank": 4228,
  "\u306f\u3042\u308a\u307e\u305b\u3093": 4229,
  "\u7279\u5225": 4230,
  "\u3092\u3057\u3066\u3044\u308b": 4231,
  "\u4ee3\u8868": 4232,
  "\u884c\u304f": 4233,
  "TV": 4234,
  "\u5e8a": 4235,
  "\u5411\u3051\u306e": 4236,
  "\u2581\u3053\u308c\u304c": 4237,
  "\u5f93\u6765\u306e": 4238,
  "\u4e2d\u5fc3": 4239,
  "\u30e1\u30f3": 4240,
  "\u30a8\u30e9\u30fc": 4241,
  "\u30dd\u30ea": 4242,
  "ration": 4243,
  "\u884c\u3046": 4244,
  "\u2581title": 4245,
  "\u4e16\u754c\u4e2d\u306e": 4246,
  "\u2581seven": 4247,
  "\u2581learned": 4248,
  "\u2581particularly": 4249,
  "\u3053\u308c\u3092": 4250,
  "\u826f\u304f": 4251,
  "\u65b0\u898f": 4252,
  "\u2581balance": 4253,
  "mal": 4254,
  "\u7d30": 4255,
  "\u500b": 4256,
  "ev": 4257,
  "\u968e": 4258,
  "\u2581Analysis": 4259,
  "\u2581obtained": 4260,
  "\u2581adding": 4261,
  "\u7279\u8a31": 4262,
  "\u2581coffee": 4263,
  "gar": 4264,
  "level": 4265,
  "\u30e2\u30c7\u30eb\u306e": 4266,
  "\u6e21": 4267,
  "\u2581platforms": 4268,
  "\u2581dark": 4269,
  "ever": 4270,
  "\u5206\u306e": 4271,
  "\u3059\u308b\u305f\u3081": 4272,
  "\u306a\u3069\u3092": 4273,
  "\u2581offered": 4274,
  "\u62e0\u70b9": 4275,
  "\u4ee5\u6765": 4276,
  "\u2581\u4ed6\u306e": 4277,
  "\u2581Am": 4278,
  "\u25811,": 4279,
  "\u6295\u8cc7\u5bb6": 4280,
  "\u306e\u9ad8\u3044": 4281,
  "\u56e3\u4f53": 4282,
  "\u611f\u67d3": 4283,
  "ung": 4284,
  "\u2581\u30a2": 4285,
  "\u2581appointed": 4286,
  "\u764c": 4287,
  "\u2581smaller": 4288,
  "\u884c\u304d": 4289,
  "\u8981": 4290,
  "\u2581fresh": 4291,
  "\u306e\u4e0a\u306b": 4292,
  "\u2581privacy": 4293,
  "\u2581Light": 4294,
  "\u65e9\u304f": 4295,
  "\u2581happened": 4296,
  "all": 4297,
  "\u2581states": 4298,
  "\u2581distributed": 4299,
  "\u5207": 4300,
  "\u2581Application": 4301,
  "\u2581payment": 4302,
  "nce": 4303,
  "\u9032\u5316": 4304,
  "\u30b6\u30fc": 4305,
  "\u7834\u58ca": 4306,
  "\u3067\u3059\u306d": 4307,
  "\u2581rule": 4308,
  "\u306b\u5fdc\u3058\u3066": 4309,
  "\u5869": 4310,
  "MO": 4311,
  "SA": 4312,
  "\u2581Court": 4313,
  "\u3053\u308c\u3089": 4314,
  "lar": 4315,
  "bar": 4316,
  "\u2581agreement": 4317,
  "\u2581pass": 4318,
  "\u30e2\u30f3": 4319,
  "\u2581Wa": 4320,
  "\u2581w": 4321,
  "res": 4322,
  "\u2581Ti": 4323,
  "\u5b89\u5b9a": 4324,
  "\u2581secure": 4325,
  "\u2581Each": 4326,
  "ach": 4327,
  "\u2581ID": 4328,
  "\u2581characteristics": 4329,
  "\u2581parents": 4330,
  "\u9055\u3046": 4331,
  "\u2581resistance": 4332,
  "\u2581toward": 4333,
  "ake": 4334,
  "\u822a\u7a7a": 4335,
  "\u30ed\u30f3\u30c9\u30f3": 4336,
  "\u535a\u7269\u9928": 4337,
  "\u7aef\u672b": 4338,
  "\u4eba\u305f\u3061": 4339,
  "\u2581\u79c1": 4340,
  "\u8a73\u7d30": 4341,
  "\u30b5\u30fc\u30d3\u30b9\u3092": 4342,
  "\u2581chain": 4343,
  "\u3082\u306e\u306e": 4344,
  "\u2581\u7537\u304c": 4345,
  "\u7b4b": 4346,
  "sp": 4347,
  "\u55b6\u696d": 4348,
  "\u2581mid": 4349,
  "\u88fd\u4f5c": 4350,
  "\u5bc6": 4351,
  "\u30d6\u30ed\u30b0": 4352,
  "\u7cbe\u5ea6": 4353,
  "\u3053\u308c\u307e\u3067": 4354,
  "\u258160": 4355,
  "\u2581graph": 4356,
  "\u2581reports": 4357,
  "\u4ed5\u4e8b\u3092": 4358,
  "\u6642\u9593\u3092": 4359,
  "\u2581vehicles": 4360,
  "uck": 4361,
  "\u2581\u3042\u308b": 4362,
  "\u2581note": 4363,
  "mail": 4364,
  "\u2581manager": 4365,
  "\u3079\u304d": 4366,
  "ub": 4367,
  "\u8cbb\u7528": 4368,
  "\u6b27\u5dde": 4369,
  "van": 4370,
  "\u2581auto": 4371,
  "\u6bba": 4372,
  "\u2581generated": 4373,
  "\u2581pick": 4374,
  "\u2581Why": 4375,
  "\u2581Time": 4376,
  "\u30d1\u30ea": 4377,
  "ah": 4378,
  "row": 4379,
  "\u4ee5\u5916\u306e": 4380,
  "\u5e2d": 4381,
  "\u4f1d": 4382,
  "\u2581TC": 4383,
  "sk": 4384,
  "\u2581\u4eca\u65e5": 4385,
  "tan": 4386,
  "SP": 4387,
  "ep": 4388,
  "\u2581wine": 4389,
  "\u592b": 4390,
  "\u2581interested": 4391,
  "\u3053\u3068\u306b\u306a\u308b": 4392,
  "\u2581wants": 4393,
  "\u2581\u306a\u305c": 4394,
  "\u2581remove": 4395,
  "5%": 4396,
  "\u2581overseas": 4397,
  "TS": 4398,
  "\u2581default": 4399,
  "\u79d2": 4400,
  "\u552f\u4e00\u306e": 4401,
  "\u8cc7\u7523": 4402,
  "\u5e2f": 4403,
  "\u2581student": 4404,
  "\u2581marketing": 4405,
  "\u2581happen": 4406,
  "\u30c7\u30f3": 4407,
  "\u2581watching": 4408,
  "\u5165\u308c": 4409,
  "\u2581garden": 4410,
  "\u2581statement": 4411,
  "\u2581founded": 4412,
  "ama": 4413,
  "\u2581heavy": 4414,
  "\u2581\u305f\u3068\u3048\u3070": 4415,
  "\u2581shift": 4416,
  "\u2581ha": 4417,
  "PA": 4418,
  "\u6ce8": 4419,
  "\u5b8c\u5168": 4420,
  "\u2581IN": 4421,
  "\u2581regarding": 4422,
  "\u50b7": 4423,
  "\u30e1\u30f3\u30d0\u30fc": 4424,
  "\u305d\u308c\u305e\u308c\u306e": 4425,
  "\u2581practices": 4426,
  "\u2581reality": 4427,
  "\u2581Don": 4428,
  "\u2581Once": 4429,
  "\u2581\u3082\u3061\u308d\u3093": 4430,
  "\u2581okay": 4431,
  "\u2581guy": 4432,
  "\u53ef": 4433,
  "\u30aa\u30fc\u30d7\u30f3\u30bd\u30fc\u30b9": 4434,
  "\u6709\u540d\u306a": 4435,
  "\u2581hospital": 4436,
  "\u25812000": 4437,
  "\u2581Germany": 4438,
  "\u30bb\u30f3\u30b5\u30fc": 4439,
  "\u308a\u307e\u3059": 4440,
  "\u5b9f\u8df5": 4441,
  "\u691c\u8a3c": 4442,
  "\u2581functionality": 4443,
  "\u2581ice": 4444,
  "\u5b97": 4445,
  "\u2581trip": 4446,
  "\u30c9\u30ad\u30e5\u30e1\u30f3\u30c8": 4447,
  "\u58eb": 4448,
  "\u914d\u7f6e": 4449,
  "\u2581match": 4450,
  "\u4fdd": 4451,
  "\u2581becoming": 4452,
  "\u30b9\u30ad\u30eb": 4453,
  "55": 4454,
  "\u2581positive": 4455,
  "\u9632": 4456,
  "\u2581continuous": 4457,
  "\u30ec\u30d3\u30e5\u30fc": 4458,
  "\u30de\u30c3\u30d7": 4459,
  "\u3067\u3042\u308b\u3053\u3068": 4460,
  "\u30d5\u30ec\u30fc\u30e0": 4461,
  "Mi": 4462,
  "\u2581notice": 4463,
  "\u2581audio": 4464,
  "\u5f37\u529b\u306a": 4465,
  "iPad": 4466,
  "\u308c\u305f": 4467,
  "\u2581tried": 4468,
  "shin": 4469,
  "\u2581phase": 4470,
  "\u5831": 4471,
  "\u6821": 4472,
  "\u2581Space": 4473,
  "36": 4474,
  "\u2581Method": 4475,
  "\u5f62\u5f0f": 4476,
  "down": 4477,
  "\u91d1\u878d": 4478,
  "field": 4479,
  "\u2581sample": 4480,
  "\u95a2\u5fc3": 4481,
  "\u76f8\u624b": 4482,
  "\u30ec\u30fc\u30b6\u30fc": 4483,
  "\u306e\u554f\u984c": 4484,
  "\u4eba\u3005\u304c": 4485,
  "\u00b7": 4486,
  "sha": 4487,
  "BA": 4488,
  "\u5c11\u5e74": 4489,
  "\u4f5c\u308a": 4490,
  "ud": 4491,
  "\u30d5\u30ed\u30fc": 4492,
  "\u2581usage": 4493,
  "\u2581steps": 4494,
  "\u7cbe\u795e": 4495,
  "scale": 4496,
  "\u7bb1": 4497,
  "\u2581soft": 4498,
  "\u2581introduce": 4499,
  "\u3092\u4f7f\u3063\u305f": 4500,
  "\u2581Gi": 4501,
  "\u2581motor": 4502,
  "\u2581shot": 4503,
  "\u30cf\u30fc": 4504,
  "\u640d\u5931": 4505,
  "\u6210\u679c": 4506,
  "\u30c7\u30a3\u30b9\u30d7\u30ec\u30a4": 4507,
  "\u591a\u6570\u306e": 4508,
  "rus": 4509,
  "\u4f1a\u793e\u306e": 4510,
  "\u2581biggest": 4511,
  "point": 4512,
  "\u8b70\u4f1a": 4513,
  "\u30ed\u30fc\u30c9": 4514,
  "\u3054\u3068\u306b": 4515,
  "\u2581o": 4516,
  "\u2581generally": 4517,
  "\u2581liquid": 4518,
  "\u307e\u308a": 4519,
  "\u30b9\u30ad\u30fc": 4520,
  "tr": 4521,
  "\u2581therefore": 4522,
  "\u5206\u89e3": 4523,
  "\u258122": 4524,
  "\u2581aim": 4525,
  "\u796d": 4526,
  "\u2581Water": 4527,
  "TE": 4528,
  "\u2581ideal": 4529,
  "\u5927\u898f\u6a21\u306a": 4530,
  "\u2581Ya": 4531,
  "\u898f\u5247": 4532,
  "\u2581Institute": 4533,
  "\u5bdd": 4534,
  "ations": 4535,
  "\u2581workers": 4536,
  "\u2581helps": 4537,
  "\u306f\u4f55": 4538,
  "\u2581FOR": 4539,
  "\u2581dedicated": 4540,
  "An": 4541,
  "\u2581closed": 4542,
  "\u2581maintenance": 4543,
  "\u2581\u79c1\u305f\u3061\u306e": 4544,
  "\u30dc\u30fc\u30c9": 4545,
  "\u301c": 4546,
  "\u898b\u3066": 4547,
  "\u2581Han": 4548,
  "\u826f": 4549,
  "\u53c2\u7167": 4550,
  "\u5834\u5408\u306b\u306f": 4551,
  "\u3067\u304d\u308b\u3088\u3046\u306b": 4552,
  "\u9283": 4553,
  "\u2581carbon": 4554,
  "\u6c11": 4555,
  "\u2581Si": 4556,
  "fa": 4557,
  "\u2581song": 4558,
  "CA": 4559,
  "\u5c0f\u578b": 4560,
  "lect": 4561,
  "\u3011": 4562,
  "\u5354\u4f1a": 4563,
  "\u2581driver": 4564,
  "wing": 4565,
  "\u3055\u3093\u306f": 4566,
  "\u2581connect": 4567,
  "\u2581maybe": 4568,
  "\u30de\u30a4\u30af\u30ed": 4569,
  "\u52dd": 4570,
  "\u2581turned": 4571,
  "\u2581depending": 4572,
  "\u2581island": 4573,
  "\u30e6\u30fc\u30b6\u30fc\u306f": 4574,
  "\u30b9\u30af\u30ea\u30fc\u30f3": 4575,
  "\u2581north": 4576,
  "\u2581hat": 4577,
  "\u30b0\u30eb": 4578,
  "\u2581independent": 4579,
  "\u30ef\u30fc\u30af": 4580,
  "\u2581managed": 4581,
  "\u306e\u4e00": 4582,
  "\u30da\u30f3": 4583,
  "\u3053\u306e\u3088\u3046\u306a": 4584,
  "\u2581Sch": 4585,
  "\u2581Linux": 4586,
  "\u2581EE": 4587,
  "\u2581cities": 4588,
  "\u592a\u967d": 4589,
  "\u2581200": 4590,
  "\u2581Over": 4591,
  "\u2581quick": 4592,
  "\u2581runs": 4593,
  "\u2581focused": 4594,
  "\u30c3\u30c9": 4595,
  "\u3092\u4f5c\u6210\u3059\u308b": 4596,
  "\u30d7\u30e9\u30b9\u30c1\u30c3\u30af": 4597,
  "\u81ea\u5206": 4598,
  "\u2581Are": 4599,
  "\u5f37\u5316": 4600,
  "\u9818": 4601,
  "\u4e3b\u7fa9": 4602,
  "\u2581technique": 4603,
  "\u2581older": 4604,
  "\u5168\u4f53\u306e": 4605,
  "\u66f8\u304d": 4606,
  "\u2581module": 4607,
  "\u914d": 4608,
  "\u7cbe": 4609,
  "\u2581wear": 4610,
  "\u30d1\u30b9\u30ef\u30fc\u30c9": 4611,
  "45": 4612,
  "\u30a4\u30bf\u30ea\u30a2": 4613,
  "\u2581Ver": 4614,
  "\u653f\u6cbb": 4615,
  "\u2581element": 4616,
  "\u518d\u3073": 4617,
  "\u571f\u5730": 4618,
  "ably": 4619,
  "\u304d\u305f": 4620,
  "\u2581shopping": 4621,
  "\u2581suit": 4622,
  "but": 4623,
  "\u5de5": 4624,
  "\u2581innovation": 4625,
  "ious": 4626,
  "\u96e3\u3057\u3044": 4627,
  "La": 4628,
  "\u30b1\u30fc\u30d6\u30eb": 4629,
  "\u2581met": 4630,
  "\u2581\u305d\u308c\u304c": 4631,
  "\u2581challenges": 4632,
  "\u2581serve": 4633,
  "\u30b5\u30a4": 4634,
  "log": 4635,
  "\u2581joint": 4636,
  "\u4eba\u7269": 4637,
  "\u2581sleep": 4638,
  "\u99c6\u52d5": 4639,
  "cal": 4640,
  "\u8cbb": 4641,
  "\u75c5\u6c17": 4642,
  "AS": 4643,
  "sta": 4644,
  "vers": 4645,
  "type": 4646,
  "\u2581\u5404": 4647,
  "\u767a\u884c": 4648,
  "\u2581movie": 4649,
  "\u30c1\u30f3": 4650,
  "\u4e2d\u3067": 4651,
  "\u2581gets": 4652,
  "\u30ad\u30f3\u30b0": 4653,
  "\u5b8c\u5168\u306a": 4654,
  "\u30c9\u30a2": 4655,
  "\u2581paid": 4656,
  "\u306b\u52a0\u3048\u3066": 4657,
  "\u30e9\u30a4\u30d6": 4658,
  "\u8ad6\u6587": 4659,
  "\u30a8\u30f3\u30b8\u30cb\u30a2": 4660,
  "\u30e1\u30a4\u30f3": 4661,
  "\u4e8b\u5b9f": 4662,
  "He": 4663,
  "\u2581measure": 4664,
  "FA": 4665,
  "\u5931": 4666,
  "\u306e\u5229\u7528": 4667,
  "\u2581recognition": 4668,
  "\u30ce\u30fc\u30c9": 4669,
  "\u2581overall": 4670,
  "\u306b\u5fc5\u8981\u306a": 4671,
  "xi": 4672,
  "\u2581Union": 4673,
  "\u30cc": 4674,
  "\u2581Paris": 4675,
  "400": 4676,
  "\u3069\u306e\u3088\u3046\u306a": 4677,
  "\u2581army": 4678,
  "\u9078\u6319": 4679,
  "\u540c\u793e\u306f": 4680,
  "\u2581limit": 4681,
  "uff": 4682,
  "\u30d7\u30e9": 4683,
  "\u79c1\u305f\u3061": 4684,
  "fin": 4685,
  "ral": 4686,
  "\u5f62\u6210": 4687,
  "that": 4688,
  "\u53d6\u308a\u7d44\u307f": 4689,
  "\u2581critical": 4690,
  "\u5f01": 4691,
  "\u7c21\u5358\u306a": 4692,
  "\u306b\u3044\u308b": 4693,
  "\u3082\u306e\u3067": 4694,
  "\u2581Report": 4695,
  "\u505c\u6b62": 4696,
  "\u3092\u884c\u3044\u307e\u3059": 4697,
  "\u904e\u7a0b": 4698,
  "\u2581monitor": 4699,
  "\u3059\u3050": 4700,
  "\u2581King": 4701,
  "\u7981\u6b62": 4702,
  "\u2581carried": 4703,
  "\u2581parties": 4704,
  "\u306a\u3089\u3070": 4705,
  "\u2581\u304a\u524d": 4706,
  "\u62c5\u5f53": 4707,
  "ct": 4708,
  "\u2581alternative": 4709,
  "\u30a6\u30a4\u30eb\u30b9": 4710,
  "\u7269\u8a9e": 4711,
  "\u2581flowers": 4712,
  "\u2581expand": 4713,
  "\u4eca\u5f8c": 4714,
  "\u2581nearly": 4715,
  "\u4e07\u30c9\u30eb": 4716,
  "\u2581electronic": 4717,
  "\u30c0\u30a4": 4718,
  "\u6559\u6388": 4719,
  "\u7537\u6027\u304c": 4720,
  "\u2581researchers": 4721,
  "\u5165\u308a": 4722,
  "\u2581evaluation": 4723,
  "\u2581Asian": 4724,
  "ei": 4725,
  "\u2581markets": 4726,
  "\u8ca2\u732e": 4727,
  "\u2581cycle": 4728,
  "\u2581translation": 4729,
  "\u2581species": 4730,
  "\u2581Platform": 4731,
  "\u2581Oracle": 4732,
  "\u25812006": 4733,
  "uc": 4734,
  "\u2581remains": 4735,
  "\u30c6\u30a3\u30fc": 4736,
  "\u2581equipped": 4737,
  "\u2581eight": 4738,
  "\u2581Watch": 4739,
  "\u306e\u5f8c": 4740,
  "\u2581container": 4741,
  "\u2581catch": 4742,
  "\u6a5f\u68b0\u5b66\u7fd2": 4743,
  "\u6f14\u594f": 4744,
  "\u4f5c\u7528": 4745,
  "\u2581versions": 4746,
  "\u2581tour": 4747,
  "\u2581express": 4748,
  "\u2581\u305d\u3093\u306a": 4749,
  "AT": 4750,
  "\u2581sp": 4751,
  "\u7af6\u4e89": 4752,
  "\u3059\u306a\u308f\u3061": 4753,
  "\u2581extremely": 4754,
  "\u2581noise": 4755,
  "\u2581Multi": 4756,
  "istic": 4757,
  "star": 4758,
  "\u3042\u306a\u305f": 4759,
  "lit": 4760,
  "\u2581Micro": 4761,
  "\u2581stable": 4762,
  "\u2581appears": 4763,
  "\u3082\u306e\u3092": 4764,
  "\u2581bottom": 4765,
  "\u3057\u3066\u308b": 4766,
  "minute": 4767,
  "\u2581benefit": 4768,
  "\u30d7\u30ed\u30b8\u30a7\u30af\u30c8\u306e": 4769,
  "\u2581bridge": 4770,
  "\u4f1a\u8a71": 4771,
  "\u578b\u306e": 4772,
  "\u30b9\u30c8\u30ec\u30fc\u30b8": 4773,
  "\u3053\u3068\u306b\u3088\u308a": 4774,
  "\u2581Inter": 4775,
  "ita": 4776,
  "\u653e": 4777,
  "\u2581stores": 4778,
  "\u2581revenue": 4779,
  "\u2581carry": 4780,
  "\u3068\u3044\u3046\u3053\u3068\u3067\u3059": 4781,
  "\u2581presented": 4782,
  "\u30c3\u30c1": 4783,
  "\u2581reasons": 4784,
  "\u5b9f\u969b\u306e": 4785,
  "\u4e88\u60f3": 4786,
  "\u306b\u5411\u3051\u3066": 4787,
  "\u30c4\u30a2\u30fc": 4788,
  "\u2581stone": 4789,
  "\u2581count": 4790,
  "\u4ef6": 4791,
  "\u3066\u3044\u304f": 4792,
  "\u2581dance": 4793,
  "\u9593\u306b": 4794,
  "\u2581boat": 4795,
  "\u2581television": 4796,
  "\u3092\u4e0e\u3048": 4797,
  "\u30a2\u30e1\u30ea\u30ab\u306e": 4798,
  "\u2581Association": 4799,
  "\u2581sports": 4800,
  "\u7a93": 4801,
  "\u3084\u3059\u3044": 4802,
  "\u2581stick": 4803,
  "\u2581\u5973\u6027\u304c": 4804,
  "\u70ba": 4805,
  "\u30b8\u30fc": 4806,
  "Go": 4807,
  "\u6700\u5f8c\u306e": 4808,
  "\u2581Fe": 4809,
  "\u2581rock": 4810,
  "\u30bf\u30b0": 4811,
  "\")": 4812,
  "\u8a08\u6e2c": 4813,
  "\u2581Based": 4814,
  "\u2581chemical": 4815,
  "\u9632\u6b62": 4816,
  "\u2581\u591a\u304f\u306e": 4817,
  "DI": 4818,
  "\u2581exhibition": 4819,
  "\u3055\u305b\u3066": 4820,
  "sure": 4821,
  "\u5358": 4822,
  "\u3092\u63d0\u4f9b\u3057\u3066\u3044\u307e\u3059": 4823,
  "\u30d7\u30e9\u30a4\u30d9\u30fc\u30c8": 4824,
  "\u9023": 4825,
  "\u5ba2": 4826,
  "room": 4827,
  "\u592a": 4828,
  "\u2581Advertisement": 4829,
  "\u3092\u5229\u7528\u3057\u3066": 4830,
  "\u6e05": 4831,
  "\u2581determine": 4832,
  "TO": 4833,
  "dis": 4834,
  "\u2581installation": 4835,
  "\u2581era": 4836,
  "\u6ce8\u6587": 4837,
  "\u8a18\u61b6": 4838,
  "\u65b0\u305f\u306b": 4839,
  "\u2581join": 4840,
  "\u632f": 4841,
  "\u7528\u9014": 4842,
  "\u9152": 4843,
  "\u2581Mark": 4844,
  "\u2581Island": 4845,
  "\u2581Bank": 4846,
  "\u307e\u307e": 4847,
  "\u2581wasn": 4848,
  "\u2581Black": 4849,
  "\u25813.": 4850,
  "\u2581goods": 4851,
  "\u6599": 4852,
  "\u306a\u305c": 4853,
  "top": 4854,
  "with": 4855,
  "\u2581agent": 4856,
  "\u5f15": 4857,
  "\u2581primary": 4858,
  "\u2581Mon": 4859,
  "\u2581RE": 4860,
  "\u2581comfortable": 4861,
  "\u2581club": 4862,
  "\u2581firm": 4863,
  "\u306e\u7d50\u679c": 4864,
  "\u8a33": 4865,
  "\u2581Green": 4866,
  "\u30a2\u30fc\u30c6\u30a3\u30b9\u30c8": 4867,
  "\u672a\u6765": 4868,
  "mor": 4869,
  "\u5927\u304d\u3044": 4870,
  "\u4f1a\u54e1": 4871,
  "\u2581patterns": 4872,
  "\u2581monitoring": 4873,
  "App": 4874,
  "ec": 4875,
  "\u2581gain": 4876,
  "\u300118": 4877,
  "aku": 4878,
  "\u305d\u306e\u4ed6": 4879,
  "\u30bd\u30fc": 4880,
  "\u2581Te": 4881,
  "\u30b9\u30bf\u30fc\u30c8": 4882,
  "\u4f01\u696d\u304c": 4883,
  "\u2581Department": 4884,
  "\u2581Well": 4885,
  "\u2581fashion": 4886,
  "\u3057\u304f": 4887,
  "\u30d7\u30ed\u30b0\u30e9\u30df\u30f3\u30b0": 4888,
  "\u307c": 4889,
  "\u81ea\u52d5\u7684\u306b": 4890,
  "\u2581Room": 4891,
  "\u2581thanks": 4892,
  "\u2581essential": 4893,
  "VR": 4894,
  "\u76ae": 4895,
  "\u2581calls": 4896,
  "AP": 4897,
  "\u30af\u30ed": 4898,
  "\u2581defined": 4899,
  "\u6708\u306e": 4900,
  "\u2581radio": 4901,
  "\u5927\u4f1a": 4902,
  "\u52b4\u50cd": 4903,
  "\u30a2\u30a4\u30c7\u30a2": 4904,
  "gan": 4905,
  "\u2581Min": 4906,
  "SC": 4907,
  "\u2581Live": 4908,
  "\u30b5\u30c3\u30ab\u30fc": 4909,
  "\u2581previously": 4910,
  "\u2581Edo": 4911,
  "\u2581Port": 4912,
  "\u307e\u308c": 4913,
  "\u2581HTML": 4914,
  "\u7a74": 4915,
  "\u5e02\u6c11": 4916,
  "ics": 4917,
  "\u2581hour": 4918,
  "\u3082\u3057": 4919,
  "\u5b57": 4920,
  "\u2581experiment": 4921,
  "\u30a2\u30c9\u30ec\u30b9": 4922,
  "\u30ab\u30e9\u30fc": 4923,
  "\u98db\u3073": 4924,
  "\u2581Therefore": 4925,
  "\u65b9\u6cd5\u306f": 4926,
  "\u79c1\u306b": 4927,
  "\u30b7\u30b9\u30c6\u30e0\u306f": 4928,
  "\u6765\u305f": 4929,
  "\u2581Dai": 4930,
  "\u5e03": 4931,
  "\u2581messages": 4932,
  "\u2581cultural": 4933,
  "\u307e\u3067\u306b": 4934,
  "\u6301": 4935,
  "\u8010": 4936,
  "\u2581degree": 4937,
  "onic": 4938,
  "\u30e6\u30cb\u30c3\u30c8": 4939,
  "pre": 4940,
  "\u2581Indian": 4941,
  "kai": 4942,
  "\u8ca0": 4943,
  "\u2581joined": 4944,
  "\u2581tend": 4945,
  "\u983c": 4946,
  "\u2581fair": 4947,
  "\u2581bo": 4948,
  "CR": 4949,
  "\u914d\u4fe1": 4950,
  "EA": 4951,
  "\u2581south": 4952,
  "\u2581Its": 4953,
  "ust": 4954,
  "\u30ac\u30a4\u30c9": 4955,
  "\u5e38": 4956,
  "\u306e\u5909\u5316": 4957,
  "\u30a2\u30e1\u30ea\u30ab\u5408\u8846\u56fd": 4958,
  "\u30a2\u30a6\u30c8": 4959,
  "\u56de\u8def": 4960,
  "\u7a4d": 4961,
  "\u2581Russian": 4962,
  "\u306e\u4e2d\u5fc3": 4963,
  "\u5c11\u306a\u3044": 4964,
  "\u2581Guests": 4965,
  "\u2581partners": 4966,
  "\u2581village": 4967,
  "\u2581solid": 4968,
  "\u3079": 4969,
  "\u2581bath": 4970,
  "code": 4971,
  "\u2581pair": 4972,
  "\u624b\u8853": 4973,
  "\u2581forces": 4974,
  "\u8cc7\u6599": 4975,
  "\u3092\u5f97\u308b": 4976,
  "\u2581die": 4977,
  "\u2581laser": 4978,
  "\u4eba\u751f": 4979,
  "\u2581economy": 4980,
  "\u2581collaboration": 4981,
  "\u30db\u30fc\u30eb": 4982,
  "\u5c0f\u3055\u3044": 4983,
  "\u2581manner": 4984,
  "\u9280": 4985,
  "\u2581\u3059\u3079\u3066\u306e": 4986,
  "CP": 4987,
  "\u30d1\u30ef\u30fc": 4988,
  "\u30de\u30fc\u30af": 4989,
  "\u305b\u308b": 4990,
  "\u2581Mc": 4991,
  "\u597d\u304d\u306a": 4992,
  "\u3088\u3046\u306b\u306a\u308b": 4993,
  "\u6bb5": 4994,
  "\u2581satellite": 4995,
  "\u4f7f\u3046": 4996,
  "\u3059\u308b\u3053\u3068\u304c": 4997,
  "\u2581Taka": 4998,
  "\u2581push": 4999,
  "\u3061\u3087\u3046\u3069": 5000,
  "\u6df1\u3044": 5001,
  "\u2581conducted": 5002,
  "\u7279": 5003,
  "\u5b50\u4f9b\u305f\u3061": 5004,
  "\u2581Mobile": 5005,
  "\u2581spent": 5006,
  "\u56de\u5fa9": 5007,
  "\u2581sensor": 5008,
  "\u2581pain": 5009,
  "\u2581bio": 5010,
  "\u3081\u308b": 5011,
  "CI": 5012,
  "mar": 5013,
  "\u2581responsibility": 5014,
  "pot": 5015,
  "\u2581password": 5016,
  "\u75be\u60a3": 5017,
  "\u3092\u4e0e\u3048\u308b": 5018,
  "\u306e\u6570": 5019,
  "ists": 5020,
  "\u3059\u308b\u306e\u306f": 5021,
  "\u306b\u3059\u308b": 5022,
  "\u2581string": 5023,
  "\u2581showed": 5024,
  "ov": 5025,
  "\u2581forest": 5026,
  "\u5c02\u7528": 5027,
  "\u2581Great": 5028,
  "\u2581chief": 5029,
  "\u5371\u967a": 5030,
  "\u4f4e\u3044": 5031,
  "\u2581\u3069\u3046": 5032,
  "\u30a2\u30af\u30b7\u30e7\u30f3": 5033,
  "\u2581regulations": 5034,
  "\u50be\u5411": 5035,
  "\u2581item": 5036,
  "\u4e95": 5037,
  "\u30bf\u30a4\u30d7\u306e": 5038,
  "ano": 5039,
  "\u2581Yu": 5040,
  "\u2581feed": 5041,
  "\u4efb\u610f\u306e": 5042,
  "\u2581specified": 5043,
  "oid": 5044,
  "\u6e80\u8db3": 5045,
  "\u2581remote": 5046,
  "int": 5047,
  "\u2581automatic": 5048,
  "\u2581planet": 5049,
  "\u6d88\u8cbb": 5050,
  "\u2581du": 5051,
  "\u2581advance": 5052,
  "RS": 5053,
  "\u30b7\u30df\u30e5\u30ec\u30fc\u30b7\u30e7\u30f3": 5054,
  "\u7e4a\u7dad": 5055,
  "\u5b8c\u6210": 5056,
  "\u6982\u5ff5": 5057,
  "av": 5058,
  "\u3092\u30b5\u30dd\u30fc\u30c8\u3059\u308b": 5059,
  "\u30bf\u30fc\u30b2\u30c3\u30c8": 5060,
  "ery": 5061,
  "\u2581author": 5062,
  "\u30d0\u30eb": 5063,
  "ag": 5064,
  "des": 5065,
  "\u5f7c\u5973\u306f": 5066,
  "\u2581yellow": 5067,
  "\u2581Prince": 5068,
  "\u2581ring": 5069,
  "\u2581speech": 5070,
  "\u2581listen": 5071,
  "\u2581Sub": 5072,
  "\u30bd\u30d5\u30c8": 5073,
  "\u68ee": 5074,
  "\u2581consumer": 5075,
  "\u2581Note": 5076,
  "Pa": 5077,
  "ari": 5078,
  "\u2581Security": 5079,
  "\u2581settings": 5080,
  "\u2581demonstrate": 5081,
  "\u2581followed": 5082,
  "\u5411": 5083,
  "\u25812020": 5084,
  "\u30b3\u30ec\u30af\u30b7\u30e7\u30f3": 5085,
  "gin": 5086,
  "\u2581Take": 5087,
  "\u3088\u3046\u3067\u3059": 5088,
  "\u305f\u3061\u304c": 5089,
  "\u306b\u3057\u3066": 5090,
  "33": 5091,
  "\u5f37\u304f": 5092,
  "\u2581Sha": 5093,
  "\u2581felt": 5094,
  "read": 5095,
  "ED": 5096,
  "\u308b\u306e": 5097,
  "\u2581Super": 5098,
  "\u52a9\u3051": 5099,
  "ition": 5100,
  "\u2581audience": 5101,
  "\u98df\u4e8b": 5102,
  "\u2581Support": 5103,
  "\u4eba\u3068": 5104,
  "\u2581sources": 5105,
  "\u3042\u3063\u305f": 5106,
  "\u2581California": 5107,
  "\u2581circuit": 5108,
  "\u73fe\u4ee3": 5109,
  "\u2581displayed": 5110,
  "AWS": 5111,
  "ichi": 5112,
  "\u2581gold": 5113,
  "\u4e3b\u8981\u306a": 5114,
  "\u6d41\u308c": 5115,
  "\u2581seem": 5116,
  "par": 5117,
  "\u2581dynamic": 5118,
  "\u2581robot": 5119,
  "\u9759": 5120,
  "\u30ef\u30f3": 5121,
  "\u2581\u307e\u305a": 5122,
  "\u30c1\u30e3\u30fc": 5123,
  "\u2581spend": 5124,
  "\u2581factor": 5125,
  "\u2581weather": 5126,
  "\u2581eating": 5127,
  "\u2581sharing": 5128,
  "\u7d42\u4e86": 5129,
  "\u30b9\u30fc\u30d1\u30fc": 5130,
  "\u8981\u56e0": 5131,
  "\u2581trading": 5132,
  "\u52aa\u529b": 5133,
  "\u2581showing": 5134,
  "\u6cbb": 5135,
  "\u2581View": 5136,
  "\u7279\u5b9a": 5137,
  "\u306e\u5411\u4e0a": 5138,
  "gn": 5139,
  "\u2581resource": 5140,
  "\u2581expression": 5141,
  "\u6539\u826f": 5142,
  "pt": 5143,
  "\u5148\u751f": 5144,
  "\u8981\u4ef6": 5145,
  "\u2581animals": 5146,
  "\u2581experiments": 5147,
  "\u7c92\u5b50": 5148,
  "pic": 5149,
  "48": 5150,
  "\u65e5\u672c\u4eba": 5151,
  "SI": 5152,
  "ica": 5153,
  "\u767d\u3044": 5154,
  "\u7814\u7a76\u6240": 5155,
  "\u30c0\u30a6\u30f3": 5156,
  "\u5f0a\u793e": 5157,
  "\u4ed5": 5158,
  "\u2581generate": 5159,
  "\u5375": 5160,
  "\u540c\u6642\u306b": 5161,
  "\u653e\u9001": 5162,
  "\u2581plate": 5163,
  "\u57fa\u76e4": 5164,
  "air": 5165,
  "\u2581slow": 5166,
  "LO": 5167,
  "\u6bce\u5e74": 5168,
  "\u5358\u306b": 5169,
  "bin": 5170,
  "\u305f\u3060": 5171,
  "\u306b\u5f93\u3063\u3066": 5172,
  "\u3092\u898b\u308b": 5173,
  "\u2581Furthermore": 5174,
  "\u2581handling": 5175,
  "\u2581maximum": 5176,
  "ON": 5177,
  "\u5927\u578b": 5178,
  "\u2581respond": 5179,
  "load": 5180,
  "\u7d04\u675f": 5181,
  "\u2581begin": 5182,
  "\u30c0\u30f3": 5183,
  "ised": 5184,
  "\u2581perspective": 5185,
  "not": 5186,
  "\u2581fight": 5187,
  "\u2581patient": 5188,
  "gra": 5189,
  "\u30ed\u30fc\u30de": 5190,
  "\u258123": 5191,
  "\u8eab\u4f53": 5192,
  "\u2581wire": 5193,
  "\u2581poor": 5194,
  "\u2581aren": 5195,
  "EN": 5196,
  "\u2581copy": 5197,
  "\u904e\u53bb": 5198,
  "\u30cb\u30fc\u30ba": 5199,
  "\u304c\u5fc5\u8981": 5200,
  "\u2581algorithms": 5201,
  "\u30a2\u30eb\u30d0\u30e0": 5202,
  "\u2581feeling": 5203,
  "\u30fc\u30f3": 5204,
  "\u9aea": 5205,
  "\u2581\u305f\u3060": 5206,
  "\u2581male": 5207,
  "\u751f\u7269": 5208,
  "\u2581factors": 5209,
  "\u30ec\u30f3\u30ba": 5210,
  "don": 5211,
  "ert": 5212,
  "\u79cb": 5213,
  "\u2581warm": 5214,
  "\u2581referred": 5215,
  "\u2581\u305d\u306e\u305f\u3081": 5216,
  "\u901f": 5217,
  "\u9069": 5218,
  "ug": 5219,
  "\u5de5\u696d": 5220,
  "\u5727\u529b": 5221,
  "\u30ad\u30f3": 5222,
  "\u30a2\u30c3\u30d7\u30eb": 5223,
  "\u2581Chrome": 5224,
  "\u540d\u306e": 5225,
  "\u2581contents": 5226,
  "\u2581Osaka": 5227,
  "\u2581improvements": 5228,
  "\u2581sand": 5229,
  "book": 5230,
  "\u5206\u3051": 5231,
  "\u7d1a": 5232,
  "\u3053\u3068\u304b\u3089": 5233,
  "\u5171": 5234,
  "\u65b9\u91dd": 5235,
  "\u2581comment": 5236,
  "\u30b9\u30bf\u30c3\u30d5": 5237,
  "\u5730\u57df\u306e": 5238,
  "\u2581solar": 5239,
  "\u63a8\u9032": 5240,
  "\u5712": 5241,
  "\u305d\u308c\u3089": 5242,
  "\u306b\u884c\u304f": 5243,
  "ura": 5244,
  "\u80cc\u666f": 5245,
  "ML": 5246,
  "\u2581units": 5247,
  "\u2581album": 5248,
  "\u5168\u56fd": 5249,
  "\u2581earth": 5250,
  "\u7802": 5251,
  "\u2581plays": 5252,
  "\u5229\u7528\u8005": 5253,
  "51": 5254,
  "\u964d": 5255,
  "\u30d5\u30a9": 5256,
  "\u2581selling": 5257,
  "\u2581relevant": 5258,
  "\u5802": 5259,
  "\u8d70": 5260,
  "\u2581origin": 5261,
  "\u30b3\u30de\u30f3\u30c9": 5262,
  "\u2581district": 5263,
  "\u3053\u3053\u3067": 5264,
  "\u2581stories": 5265,
  "\u611f\u60c5": 5266,
  "\u2581THE": 5267,
  "\u53d7\u3051": 5268,
  "\u7167\u660e": 5269,
  "\u30af\u30b9": 5270,
  "\u306a\u3069\u304c": 5271,
  "VC": 5272,
  "\u201d,": 5273,
  "\u2581Systems": 5274,
  "\u306e\u3067\u3057\u3087\u3046\u304b": 5275,
  "chan": 5276,
  "\u2581covered": 5277,
  "\u7d76": 5278,
  "\u30f6\u6708": 5279,
  "\u8178": 5280,
  "RT": 5281,
  "\u2581feedback": 5282,
  "\u2581fixed": 5283,
  "\u3060\u3088": 5284,
  "eg": 5285,
  "\u4e00\u90e8": 5286,
  "\u2581Check": 5287,
  "\u7b11": 5288,
  "\u2581par": 5289,
  "fo": 5290,
  "quality": 5291,
  "\u30df\u30f3": 5292,
  "\u2581switch": 5293,
  "\u5fc3\u914d": 5294,
  "\u30d7\u30ec\u30a4\u30e4\u30fc": 5295,
  "\u2581leader": 5296,
  "\u3066\u3044\u307e\u3057\u305f": 5297,
  "\u2581Star": 5298,
  "space": 5299,
  "\u2581identify": 5300,
  "od": 5301,
  "II": 5302,
  "\u2581kitchen": 5303,
  "\u2581Central": 5304,
  "\u9078": 5305,
  "\u2581importance": 5306,
  "\u9069\u5fdc": 5307,
  "\u2581ancient": 5308,
  "\u3057\u307e\u305b\u3093": 5309,
  "\u4f55\u3092": 5310,
  "\u652f\u914d": 5311,
  "\u9650\u308a": 5312,
  "\u30c3\u30b7\u30e5": 5313,
  "\u2581IBM": 5314,
  "nu": 5315,
  "\u81ea\u8eab": 5316,
  "\u2581flight": 5317,
  "\u3053\u3053": 5318,
  "\u2581obtain": 5319,
  "\u59cb\u307e\u308a": 5320,
  "\u306a\u3093\u3060": 5321,
  "\u53ce": 5322,
  "\u2581\u306a\u304a": 5323,
  "\u5c3e": 5324,
  "\u2581updates": 5325,
  "IL": 5326,
  "\u30d3\u30eb\u30c9": 5327,
  "\u4e00\u3064": 5328,
  "\u5c02\u9580\u5bb6": 5329,
  "\u30ea\u30af\u30a8\u30b9\u30c8": 5330,
  "\u8a66\u307f": 5331,
  "\u660e\u6cbb": 5332,
  "\u2581SE": 5333,
  "\u30a4\u30f3\u30b9\u30bf\u30f3\u30b9": 5334,
  "\u304c\u53ef\u80fd": 5335,
  "\u2581UK": 5336,
  "\u2581Ru": 5337,
  "\u2581Airport": 5338,
  "vert": 5339,
  "\u958b\u793a": 5340,
  "\u30ec\u30fc\u30c8": 5341,
  "\u3044\u3064": 5342,
  "\u2581METHOD": 5343,
  "\u30cf\u30a6\u30b9": 5344,
  "free": 5345,
  "\u25812004": 5346,
  "\u2581Fo": 5347,
  "\u2581Beach": 5348,
  "\u2581Life": 5349,
  "\u306e\u3053\u3068": 5350,
  "\u2581seat": 5351,
  "\u5dfb": 5352,
  "\u52a9": 5353,
  "\u2581500": 5354,
  "\u2581adopted": 5355,
  "\u8a00\u3063\u3066": 5356,
  "\u30aa\u30fc\u30b9\u30c8\u30e9\u30ea\u30a2": 5357,
  "\u30ed\u30fc\u30eb": 5358,
  "\u5341\u5206": 5359,
  "\u2581views": 5360,
  "\u52b4\u50cd\u8005": 5361,
  "\u4e00\u822c\u7684\u306b": 5362,
  "ble": 5363,
  "\u88fd\u54c1\u3092": 5364,
  "\u2581regions": 5365,
  "\u81ea\u52d5\u5316": 5366,
  "\u2581foot": 5367,
  "\u901a\u5e38": 5368,
  "\u2581interview": 5369,
  "\u25811)": 5370,
  "\u708e": 5371,
  "\u2581Har": 5372,
  "\u2581manufacturer": 5373,
  "\u2581Ge": 5374,
  "ix": 5375,
  "\u2581drink": 5376,
  "\u56f0\u96e3": 5377,
  "\u2581draw": 5378,
  "\u2581improving": 5379,
  "\u306e\u4e16\u754c": 5380,
  "\u2581mentioned": 5381,
  "\u2581greater": 5382,
  "\u8aad\u307f": 5383,
  "\u2581evidence": 5384,
  "\u30ab\u30ca\u30c0": 5385,
  "lip": 5386,
  "\u2581\u4e00\u65b9": 5387,
  "ick": 5388,
  "\u306a\u306e\u304b": 5389,
  "\u2581Capital": 5390,
  "\u306e\u65b0\u3057\u3044": 5391,
  "++": 5392,
  "?\"": 5393,
  "\u306a\u3051\u308c\u3070": 5394,
  "\u30ce\u30fc": 5395,
  "\u30b8\u30e7": 5396,
  "\u30b8\u30f3": 5397,
  "\u9577\u671f": 5398,
  "\u2581Bay": 5399,
  "2000": 5400,
  "\u5fdc\u7b54": 5401,
  "DC": 5402,
  "\u2581Ben": 5403,
  "\u2581riding": 5404,
  "\u2581stress": 5405,
  "\u2581Fire": 5406,
  "\u30c1\u30c3\u30d7": 5407,
  "\u793e\u306e": 5408,
  "oo": 5409,
  "\u539f\u56e0": 5410,
  "\u2581Enterprise": 5411,
  "\u4eca\u56de\u306e": 5412,
  "\u2581onto": 5413,
  "serv": 5414,
  "\u2581performing": 5415,
  "len": 5416,
  "kyo": 5417,
  "\u82f1\u56fd": 5418,
  "\u521d\u306e": 5419,
  "\u8b1b\u6f14": 5420,
  "\u2581Ja": 5421,
  "\u30b7\u30fc\u30f3": 5422,
  "\u62bd\u51fa": 5423,
  "\u2581Eclipse": 5424,
  "\u305d\u306e\u3088\u3046\u306a": 5425,
  "\u2581scene": 5426,
  "CC": 5427,
  "\u2581kill": 5428,
  "pan": 5429,
  "\u30b3\u30fc\u30eb": 5430,
  "\u30d5\u30a3\u30fc\u30c9\u30d0\u30c3\u30af": 5431,
  "\u308b\u3053\u3068\u304c\u3067\u304d\u308b": 5432,
  "\u753b": 5433,
  "\u92fc": 5434,
  "\u2581forms": 5435,
  "\u2581lock": 5436,
  "\u2581significantly": 5437,
  "mu": 5438,
  "\u2581actions": 5439,
  "\u2581functional": 5440,
  "\u2581Grand": 5441,
  "which": 5442,
  "\u304c\u591a\u3044": 5443,
  "\u2581apartment": 5444,
  "\u2581panel": 5445,
  "\u2581print": 5446,
  "\u2581museum": 5447,
  "\u8907\u6570": 5448,
  "\u3082\u306a\u3044": 5449,
  "\u308f\u305a\u304b": 5450,
  "EE": 5451,
  "\u4f4f\u5b85": 5452,
  "\u30ed\u30fc\u30ab\u30eb": 5453,
  "\u2581Image": 5454,
  "\u53d7\u4fe1": 5455,
  "\u2581cr": 5456,
  "\u2581em": 5457,
  "\u2581Health": 5458,
  "LED": 5459,
  "\u56fd\u6c11": 5460,
  "\u2581Core": 5461,
  "\u2581Test": 5462,
  "ged": 5463,
  "\u2581raise": 5464,
  "\u30e2\u30fc": 5465,
  "\u590f": 5466,
  "\u2581frame": 5467,
  "\u62b5\u6297": 5468,
  "ties": 5469,
  "\u30df\u30fc": 5470,
  "\u2581wave": 5471,
  "ography": 5472,
  "\u5973\u306e\u5b50": 5473,
  "\u30f4\u30a1": 5474,
  "dle": 5475,
  "\u2581Media": 5476,
  "aki": 5477,
  "\u2581cap": 5478,
  "MI": 5479,
  "\u2581department": 5480,
  "\u2581campaign": 5481,
  "\u2581Site": 5482,
  "\u5275": 5483,
  "\u3068\u8a00\u3046": 5484,
  "\u2581investors": 5485,
  "\u6848": 5486,
  "75": 5487,
  "\u2581\u3042\u306a\u305f": 5488,
  "\u7a2e\u985e": 5489,
  "\u53ce\u76ca": 5490,
  "vent": 5491,
  "\u8033": 5492,
  "\u2581domestic": 5493,
  "TER": 5494,
  "\u526f": 5495,
  "right": 5496,
  "\u30ab\u30b9\u30bf\u30e0": 5497,
  "lock": 5498,
  "\u2581desk": 5499,
  "\u8fba": 5500,
  "jin": 5501,
  "\u2581winter": 5502,
  "\u30cb\u30e5\u30fc\u30e9\u30eb\u30cd\u30c3\u30c8\u30ef\u30fc\u30af": 5503,
  "\u2581SOA": 5504,
  "SM": 5505,
  "\u2581purposes": 5506,
  "\u59cb\u3081": 5507,
  "\u2581thin": 5508,
  "\u8a8d\u5b9a": 5509,
  "\u2581Sc": 5510,
  "\u2581requests": 5511,
  "\u2581drug": 5512,
  "\u2581corner": 5513,
  "\u3059\u308b\u306b\u306f": 5514,
  "\u30d0\u30c3\u30c6\u30ea\u30fc": 5515,
  "DO": 5516,
  "\u2581rise": 5517,
  "\u30ed\u30b0": 5518,
  "\u3067\u304d\u307e\u305b\u3093": 5519,
  "\u3070\u304b\u308a": 5520,
  "rn": 5521,
  "\u2581VR": 5522,
  "\u8af8": 5523,
  "\u2581Gen": 5524,
  "\u71c3\u6599": 5525,
  "ami": 5526,
  "\u7d66": 5527,
  "\u2581cho": 5528,
  "\u7b2c\u4e09\u8005": 5529,
  "\u2581Global": 5530,
  "\u2581colors": 5531,
  "()": 5532,
  "\u2581examples": 5533,
  "\u2581gonna": 5534,
  "\u25814.": 5535,
  "mark": 5536,
  "\u2581characters": 5537,
  "\u2581festival": 5538,
  "\u9375": 5539,
  "\u2581Another": 5540,
  "\u30b9\u30c8\u30a2": 5541,
  "\u4eba\u3092": 5542,
  "\u2581registered": 5543,
  "\u305f\u304f\u3055\u3093\u306e": 5544,
  "\u2581Photo": 5545,
  "\u306e\u6b74\u53f2": 5546,
  "\u2581smartphone": 5547,
  "\u30a6\u30a3": 5548,
  "\u2581TechCrunch": 5549,
  "\u306a\u3055\u3044": 5550,
  "\u2581accurate": 5551,
  "\u5927\u624b": 5552,
  "\u2581Ch": 5553,
  "\u2581Apache": 5554,
  "\u9ad8\u5ea6\u306a": 5555,
  "\u2581ocean": 5556,
  "\u2581sex": 5557,
  "\u30b7\u30c6\u30a3": 5558,
  "\u2581Type": 5559,
  "\u2581classification": 5560,
  "\u307b\u3068\u3093\u3069\u306e": 5561,
  "\u51fa\u3057\u305f": 5562,
  "\u7570\u5e38": 5563,
  "cc": 5564,
  "\u606f\u5b50": 5565,
  "\u3057\u307e\u3057\u3087\u3046": 5566,
  "\u2581mini": 5567,
  "\u2581Under": 5568,
  "\u9178\u5316": 5569,
  "\u2581Australia": 5570,
  "Do": 5571,
  "\u2581eventually": 5572,
  "\u2581Inn": 5573,
  "\u30d3\u30c3\u30c8": 5574,
  "\u2581sale": 5575,
  "\u2581Trump": 5576,
  "44": 5577,
  "\u2581favorite": 5578,
  "\u90e8\u968a": 5579,
  "\u2581parameters": 5580,
  "\u3084\u3063\u3066": 5581,
  "\u2581remain": 5582,
  "\u30ef\u30fc": 5583,
  "\u79f0": 5584,
  "53": 5585,
  "\u30a6\u30a7\u30a4": 5586,
  "\u30d5\u30a1\u30a4\u30eb\u3092": 5587,
  "\u30bb\u30c3\u30b7\u30e7\u30f3": 5588,
  "\u2581stored": 5589,
  "\u5f62\u614b": 5590,
  "press": 5591,
  "\u4eba\u3005\u306e": 5592,
  "\u2581counter": 5593,
  "\u2581serious": 5594,
  "\u2581crowd": 5595,
  "\u6b63\u78ba\u306a": 5596,
  "\u30d7\u30e9\u30b0\u30a4\u30f3": 5597,
  "\u5c5e": 5598,
  "\u5229\u7528\u3067\u304d\u308b": 5599,
  "\u2581career": 5600,
  "MC": 5601,
  "\u5168\u304f": 5602,
  "\u2581hey": 5603,
  "\u8ee2\u9001": 5604,
  "\u2581ho": 5605,
  "\u2581GitHub": 5606,
  "\u306b\u304a\u3044\u3066\u306f": 5607,
  "\u2581appearance": 5608,
  "\u9650\u5b9a": 5609,
  "\u63a5": 5610,
  "\u683c": 5611,
  "\u696d\u8005": 5612,
  "\u2581dogs": 5613,
  "\u96fb\u6e90": 5614,
  "\u2581realize": 5615,
  "\u691c": 5616,
  "\u6642\u306b\u306f": 5617,
  "\u773c": 5618,
  "\u3092\u3088\u308a": 5619,
  "\u3057\u3066\u3044\u304f": 5620,
  "\u65e5\u9593": 5621,
  "\u2581stream": 5622,
  "\u2581Hong": 5623,
  "Be": 5624,
  "JavaScript": 5625,
  "\u2581Series": 5626,
  "No": 5627,
  "nt": 5628,
  "\u2581thank": 5629,
  "\u3064\u307e\u308a": 5630,
  "\u2581deployment": 5631,
  "\u5468\u8fba": 5632,
  "\u30d0\u30a4\u30aa": 5633,
  "\u308b\u305f\u3081\u306b": 5634,
  "\u2581combined": 5635,
  "\u30d8\u30c3\u30c9": 5636,
  "ture": 5637,
  "\u3082\u306e\u306f": 5638,
  "\u2581practical": 5639,
  "\u2581pieces": 5640,
  "lon": 5641,
  "ef": 5642,
  "\u3086": 5643,
  "ants": 5644,
  "\u2581reduction": 5645,
  "\u30cb\u30f3\u30b0": 5646,
  "\u2581Product": 5647,
  "\u30b9\u30b1\u30fc\u30eb": 5648,
  "\u2581doctor": 5649,
  "\u3059\u308b\u65b9\u6cd5": 5650,
  "\u2581square": 5651,
  "\u30a4\u30f3\u30bf\u30fc\u30d5\u30a7\u30fc\u30b9": 5652,
  "49": 5653,
  "\u2581Club": 5654,
  "iz": 5655,
  "\u5145\u96fb": 5656,
  "\u30eb\u30fc\u30c8": 5657,
  "cing": 5658,
  "\u2581trouble": 5659,
  "\u2581News": 5660,
  "\u2581pop": 5661,
  "rt": 5662,
  "\u2581Samsung": 5663,
  "\u2581fail": 5664,
  "\u2581tank": 5665,
  "\u2581acquired": 5666,
  "\u30b9\u30c6": 5667,
  "\u30df\u30cb": 5668,
  "\u884c\u3063\u305f": 5669,
  "\u7dad\u6301": 5670,
  "\u2581announcement": 5671,
  "\u2581Any": 5672,
  "\u2581Cha": 5673,
  "\u2581foundation": 5674,
  "\u3092\u898b\u3064\u3051\u308b": 5675,
  "\u304a\u305d\u3089\u304f": 5676,
  "\u529b\u3092": 5677,
  "\u2581Post": 5678,
  "\u53c2\u52a0\u8005": 5679,
  "EP": 5680,
  "\u2581presentation": 5681,
  "\u2581motion": 5682,
  "\u523a\u6fc0": 5683,
  "\u4e8b\u9805": 5684,
  "\u5a18": 5685,
  "\u2581originally": 5686,
  "\u3057\u3066\u3082": 5687,
  "\u2581Like": 5688,
  "\u307b\u304b": 5689,
  "\u2581Cal": 5690,
  "\u2581buildings": 5691,
  "\u30a8\u30a2": 5692,
  "\u5931\u6557": 5693,
  "ada": 5694,
  "class": 5695,
  "\u2581raw": 5696,
  "\u732b": 5697,
  "\u30d6\u30ea": 5698,
  "\u306b\u5ea7\u3063\u3066\u3044\u307e\u3059": 5699,
  "\u4fe1\u983c\u6027": 5700,
  "\u2581Part": 5701,
  "\u304c\u3067\u304d\u308b": 5702,
  "\u2581birth": 5703,
  "\u30ea\u30b9": 5704,
  "\u83cc": 5705,
  "\u2581effectively": 5706,
  "\u25812)": 5707,
  "cu": 5708,
  "\u2581agree": 5709,
  "\u2581approaches": 5710,
  "\u2581arm": 5711,
  "\u751f\u307e\u308c\u305f": 5712,
  "\u7de8": 5713,
  "\u8fb2\u696d": 5714,
  "\u8f38\u51fa": 5715,
  "dia": 5716,
  "\u2581wireless": 5717,
  "ned": 5718,
  "\u2581thousands": 5719,
  "\u30b3\u30f3\u30bb\u30d7\u30c8": 5720,
  "ify": 5721,
  "85": 5722,
  "\u3092\u3082\u305f\u3089\u3059": 5723,
  "\u6bd4\u8f03": 5724,
  "\u2581White": 5725,
  "\u2581capture": 5726,
  "\u5171\u540c": 5727,
  "\u6570\u5024": 5728,
  "\u2581sister": 5729,
  "\u306e\u8a2d\u8a08": 5730,
  "related": 5731,
  "\u63a8\u5968": 5732,
  "\u3053\u308c\u304c": 5733,
  "\u5358\u4f4d": 5734,
  "\u2581HTTP": 5735,
  "\u2581schools": 5736,
  "\u30b9\u30d4\u30fc\u30c9": 5737,
  "\u3060\u3063\u3066": 5738,
  "\u30e6": 5739,
  "\u65b0\u805e": 5740,
  "\u306a\u308a\u307e\u3059": 5741,
  "\u521d\u671f": 5742,
  "aw": 5743,
  "\u2581Up": 5744,
  "\u5b9d": 5745,
  "\u4e00\u5ea6": 5746,
  "\u6e2f": 5747,
  "\u2581sequence": 5748,
  "\u3066\u304d\u307e\u3057\u305f": 5749,
  "\u30a2\u30f3\u30c9": 5750,
  "\u2581upper": 5751,
  "nn": 5752,
  "\u4fbf": 5753,
  "\u2581letter": 5754,
  "\u306e\u304a": 5755,
  "\u89b3\u5bdf": 5756,
  "\u5b66\u8005": 5757,
  "\u5546\u696d": 5758,
  "\u3068\u8003\u3048": 5759,
  "\u4fdd\u967a": 5760,
  "\u2581Uber": 5761,
  "\u258126": 5762,
  "\u9054\u6210": 5763,
  "\u6c37": 5764,
  "\u2581hall": 5765,
  "\u2581animal": 5766,
  "\u898f\u6a21": 5767,
  "\u5e0c\u671b": 5768,
  "\u6570\u5b57": 5769,
  "\u3064\u304d": 5770,
  "\u2581printing": 5771,
  "\u2581facility": 5772,
  "\u4e3b\u306a": 5773,
  "\u30d7\u30e9\u30a4\u30d0\u30b7\u30fc": 5774,
  "DB": 5775,
  "mic": 5776,
  "\u6027\u306e": 5777,
  "\u30b9\u30da\u30a4\u30f3": 5778,
  "\u6765\u308b": 5779,
  "sub": 5780,
  "\u8a2d\u7f6e": 5781,
  "\u899a": 5782,
  "\u516b": 5783,
  "\u2581dream": 5784,
  "\u2581Cor": 5785,
  "\u2581aircraft": 5786,
  "\u5074\u9762": 5787,
  "\u2581Non": 5788,
  "\u2581Italian": 5789,
  "39": 5790,
  "\u2581desktop": 5791,
  "\u2581imp": 5792,
  "\u96e2": 5793,
  "\u5177": 5794,
  "\u2581aims": 5795,
  "\u547d\u4ee4": 5796,
  "\u3082\u3063\u3068\u3082": 5797,
  "\u901a\u5e38\u306e": 5798,
  "\u2581collect": 5799,
  "\u30de\u30a4\u30eb": 5800,
  "matic": 5801,
  "\u4f53\u306e": 5802,
  "\u9023\u90a6": 5803,
  "\u30a2\u30d5\u30ea\u30ab": 5804,
  "\u2581Auto": 5805,
  "\u554f\u984c\u306f": 5806,
  "\u30f4": 5807,
  "\u2581pages": 5808,
  "\u2581reduced": 5809,
  "\u2581opportunities": 5810,
  "har": 5811,
  "\u306e\u30c7\u30fc\u30bf": 5812,
  "\u2581\u3053\u3053\u3067": 5813,
  "\u30de\u30a4": 5814,
  "\u5fd8\u308c": 5815,
  "\u30b5\u30a4\u30c9": 5816,
  "\u30c7\u30b9\u30af\u30c8\u30c3\u30d7": 5817,
  "\u6cb3": 5818,
  "\u5b97\u6559": 5819,
  "\u2581poly": 5820,
  "\u7d42": 5821,
  "\u2581historical": 5822,
  "\u524a\u6e1b": 5823,
  "unt": 5824,
  "\u2581achieved": 5825,
  "\u258128": 5826,
  "\u9078\u629e\u80a2": 5827,
  "\u8996\u70b9": 5828,
  "\u2581supporting": 5829,
  "700": 5830,
  "IA": 5831,
  "\u2581broad": 5832,
  "\u2581Western": 5833,
  "act": 5834,
  "\u2581quarter": 5835,
  "\u2581individuals": 5836,
  "\u306b\u3044\u307e\u3059": 5837,
  "\u2581bright": 5838,
  "ses": 5839,
  "\u2581route": 5840,
  "\u4e0b\u306e": 5841,
  "\u3001\u300e": 5842,
  "\u6295\u7968": 5843,
  "ene": 5844,
  "\u2581extension": 5845,
  "\u5e97\u8217": 5846,
  "\u306e\u3067\u3059\u304c": 5847,
  "\u2581reflect": 5848,
  "\u2581engineers": 5849,
  "\u2581follows": 5850,
  "\u6559\u5e2b": 5851,
  "moto": 5852,
  "\u2581pictures": 5853,
  "\u7bc0": 5854,
  "\u30de\u30a6\u30b9": 5855,
  "\u306e\u691c\u8a0e": 5856,
  "\u3057\u3088\u3046": 5857,
  "\u50cd\u304d": 5858,
  "\u30d9\u30f3": 5859,
  "\u2581pen": 5860,
  "\u2581refer": 5861,
  "\u2581sa": 5862,
  "\u2581cur": 5863,
  "LC": 5864,
  "\u2581stands": 5865,
  "\u5f79\u5272": 5866,
  "\u5fdc": 5867,
  "\u96c6\u56e3": 5868,
  "\u57fa\u672c\u7684\u306a": 5869,
  "\u6d25": 5870,
  "\u6bcd\u89aa": 5871,
  "\u5f7c\u304c": 5872,
  "\u9060": 5873,
  "\u2581description": 5874,
  "\u8d8a": 5875,
  "\u60aa\u3044": 5876,
  "\u2581cards": 5877,
  "\u304a\u91d1": 5878,
  "\u2581married": 5879,
  "\u5909\u6570": 5880,
  "\u2581filter": 5881,
  "\u2581beauty": 5882,
  "\u2581roll": 5883,
  "\u2581symbol": 5884,
  "\u2581consumers": 5885,
  "\u5408\u610f": 5886,
  "\u2581measurement": 5887,
  "\u306b\u5411\u304b\u3063\u3066": 5888,
  "\u2581Add": 5889,
  "\u8272\u306e": 5890,
  "\u3092\u4e2d\u5fc3\u306b": 5891,
  "\u8266": 5892,
  "SD": 5893,
  "\u2581Th": 5894,
  "\u3092\u53d7\u3051\u308b": 5895,
  "\u2581bag": 5896,
  "\u30b7\u30fc\u30ba\u30f3": 5897,
  "\u2581discovered": 5898,
  "gy": 5899,
  "\u65e9": 5900,
  "\u30c7\u30a3\u30f3\u30b0": 5901,
  "\u2581detailed": 5902,
  "ular": 5903,
  "ins": 5904,
  "\u2581families": 5905,
  "\u82e5\u3044": 5906,
  "FC": 5907,
  "\u2581repair": 5908,
  "\u2581iron": 5909,
  "95": 5910,
  "ns": 5911,
  "\u5f31": 5912,
  "\u2581entered": 5913,
  "\u3059\u308b\u5fc5\u8981\u304c\u3042\u308b": 5914,
  "\u76f8\u4e92": 5915,
  "\u2581stuff": 5916,
  "\u5206\u5272": 5917,
  "\u2581Roman": 5918,
  "ey": 5919,
  "\u5727\u7e2e": 5920,
  "\u2581Spanish": 5921,
  "\u5de8\u5927\u306a": 5922,
  "\u8179": 5923,
  "\u6ce8\u76ee": 5924,
  "\u3092\u5b9f\u73fe\u3059\u308b": 5925,
  "\u5b50\u3069\u3082": 5926,
  "\u2581computing": 5927,
  "\u2581funding": 5928,
  "\u2581\u3053\u308c\u306b\u3088\u308a": 5929,
  "CL": 5930,
  "\u7814\u7a76\u8005": 5931,
  "ash": 5932,
  "\u2581experiences": 5933,
  "SF": 5934,
  "\u682a\u5f0f": 5935,
  "\u4f11": 5936,
  "\u2581election": 5937,
  "\u30db\u30b9\u30c8": 5938,
  "\u8155": 5939,
  "\u30b7\u30a7\u30a2": 5940,
  "\u2581Children": 5941,
  "\u2581exist": 5942,
  "\u6c38": 5943,
  "\u52d9": 5944,
  "\u7f6a": 5945,
  "\u2581exercise": 5946,
  "\u5de5\u5b66": 5947,
  "\u2581myself": 5948,
  "\u73fe\u8c61": 5949,
  "\u30b0\u30ea": 5950,
  "\u2581environments": 5951,
  "\u2581seeing": 5952,
  "hr": 5953,
  "\u76ee\u306b": 5954,
  "\u5ead": 5955,
  "\u2581fabric": 5956,
  "2017": 5957,
  "PM": 5958,
  "ik": 5959,
  "LA": 5960,
  "\u30b0\u30e9": 5961,
  "\u2581Col": 5962,
  "\u660e\u3089\u304b\u306b": 5963,
  "\u3057\u305f\u3053\u3068": 5964,
  "\u8cbf\u6613": 5965,
  "\u2581Em": 5966,
  "\u3059\u308b\u3088\u3046\u306b": 5967,
  "\u2581prices": 5968,
  "\u2581ahead": 5969,
  "\u5ef6": 5970,
  "Ruby": 5971,
  "\u89b3\u5149": 5972,
  "\u2581drawing": 5973,
  "\u2581Africa": 5974,
  "\u2581Road": 5975,
  "\u2581Trans": 5976,
  "\u5f7c": 5977,
  "\u2581PDF": 5978,
  "lia": 5979,
  "\u30e2\u30c7\u30eb\u306f": 5980,
  "\u2581export": 5981,
  "\u2581chat": 5982,
  "\u5408\u3044": 5983,
  "\u7fbd": 5984,
  "\u2581log": 5985,
  "\u3089\u3057\u3044": 5986,
  "\u2581Fu": 5987,
  "\u258127": 5988,
  "part": 5989,
  "ara": 5990,
  "\u885b\u661f": 5991,
  "\u3044\u305f\u3060\u304f": 5992,
  "47": 5993,
  "\u30d5\u30a3\u30eb\u30e0": 5994,
  "\u3088\u308a\u591a\u304f\u306e": 5995,
  "\u30af\u30ea\u30c3\u30af": 5996,
  "\u2581editor": 5997,
  "\u306b\u306a\u308a\u307e\u3057\u305f": 5998,
  "\u843d\u3061": 5999,
  "\u2581bill": 6000,
  "\u2581spot": 6001,
  "\u4e7e\u71e5": 6002,
  "\u751f\u5f92": 6003,
  "\u2581Director": 6004,
  "\u2581Long": 6005,
  "tive": 6006,
  "\u5e30": 6007,
  "2015": 6008,
  "\u30aa\u30d5": 6009,
  "\u53ef\u80fd\u3067\u3059": 6010,
  "\u2581medicine": 6011,
  "\u2581football": 6012,
  "\u597d\u304d": 6013,
  "\u3044\u305f\u3060\u3051\u307e\u3059": 6014,
  "ack": 6015,
  "\u2581predict": 6016,
  "pper": 6017,
  "tech": 6018,
  "\u2581Canada": 6019,
  "86": 6020,
  "\u2581trees": 6021,
  "\u8208\u5473\u6df1\u3044": 6022,
  "\u6642\u70b9\u3067": 6023,
  "\u30b7\u30f3\u30b0\u30eb": 6024,
  "\u2581policies": 6025,
  "\u5f53\u8a72": 6026,
  "\u9858": 6027,
  "\u2581Law": 6028,
  "EU": 6029,
  "\u2581convert": 6030,
  "\u30d3\u30b8\u30e7\u30f3": 6031,
  "67": 6032,
  "ero": 6033,
  "\u540c\u671f": 6034,
  "\u52d5\u7684": 6035,
  "\u30e1\u30ea\u30c3\u30c8": 6036,
  "\u306e\u5927": 6037,
  "\u2581kept": 6038,
  "BI": 6039,
  "\u307e\u308b": 6040,
  "\u2581artist": 6041,
  "\u2581mostly": 6042,
  "\u3055\u307e": 6043,
  "\u8f2a": 6044,
  "illa": 6045,
  "\u306e\u6a5f\u80fd": 6046,
  "\u2581sorry": 6047,
  "\u30ad\u30ed": 6048,
  "1000": 6049,
  "TC": 6050,
  "\u2581Language": 6051,
  "\u5409": 6052,
  "ency": 6053,
  "Si": 6054,
  "\u8001": 6055,
  "\u5f62\u3067": 6056,
  "\u2581continues": 6057,
  "\u6297": 6058,
  "play": 6059,
  "\u2581recommend": 6060,
  "\u76ee\u306e": 6061,
  "\u2581rank": 6062,
  "\u2581dishes": 6063,
  "\u2581acquisition": 6064,
  "\u5916\u56fd\u4eba": 6065,
  "\u2581flower": 6066,
  "\u2581artists": 6067,
  "ade": 6068,
  "\u2581reliable": 6069,
  "\u5927\u81e3": 6070,
  "\u2581Every": 6071,
  "\u2581Rooms": 6072,
  "Ca": 6073,
  "\u6709\u6a5f": 6074,
  "\u2581except": 6075,
  "\u5341\u5206\u306a": 6076,
  "ai": 6077,
  "\u30c7\u30a3\u30fc": 6078,
  "\u57fa\u672c": 6079,
  "\u2581appeared": 6080,
  "TH": 6081,
  "\u30a2\u30d7\u30ea\u306e": 6082,
  "CS": 6083,
  "\u30d7\u30ed\u30c8\u30b3\u30eb": 6084,
  "cus": 6085,
  "\u5171\u901a": 6086,
  "\u25812003": 6087,
  "\u6b69\u3044\u3066": 6088,
  "\u306b\u52a0\u3048": 6089,
  "\u2581establish": 6090,
  "\u6d77\u8ecd": 6091,
  "\u8ca0\u8377": 6092,
  "yu": 6093,
  "\u3088\u3046\u306b\u306a\u3063\u305f": 6094,
  "Ho": 6095,
  "\u2581explore": 6096,
  "\u2581Ken": 6097,
  "ult": 6098,
  "\u6797": 6099,
  "\u2581dress": 6100,
  "77": 6101,
  "ons": 6102,
  "\u55b6": 6103,
  "\u3068\u8ff0\u3079\u305f": 6104,
  "\u30d7\u30ea": 6105,
  "\u517c": 6106,
  "\u2581servers": 6107,
  "OP": 6108,
  "\u8a3c\u62e0": 6109,
  "\u4eca\u5e74": 6110,
  "ments": 6111,
  "ches": 6112,
  "\u30b9\u30c8\u30ea\u30fc\u30df\u30f3\u30b0": 6113,
  "und": 6114,
  "\u7686": 6115,
  "\u2581ran": 6116,
  "bal": 6117,
  "tting": 6118,
  "chu": 6119,
  "\u2581finished": 6120,
  "\u4e8c\u4eba": 6121,
  "\u30a2\u30a4\u30c6\u30e0": 6122,
  "\u2581Kubernetes": 6123,
  "\u4e0d\u8db3": 6124,
  "\u2581APIs": 6125,
  "\u2581expensive": 6126,
  "how": 6127,
  "\u2581Lake": 6128,
  "\u6280\u8853\u306e": 6129,
  "\u3066\u304a\u308a\u307e\u3059": 6130,
  "\u2581Second": 6131,
  "For": 6132,
  "\u30b9\u30c6\u30fc\u30b8": 6133,
  "\u30c8\u30e9\u30f3\u30b9": 6134,
  "\u6df1\u304f": 6135,
  "ose": 6136,
  "\u3053\u3068\u306b\u3088\u3063\u3066": 6137,
  "\u5973\u6027\u306e": 6138,
  "\u79d8\u5bc6": 6139,
  "name": 6140,
  "\u2581#": 6141,
  "\u8efd": 6142,
  "\u5927\u5b66\u306e": 6143,
  "\u3055\u308c\u308b\u3053\u3068": 6144,
  "\u99d0\u8eca\u5834": 6145,
  "\u2581transportation": 6146,
  "\u30a8\u30a4": 6147,
  "\u2581decide": 6148,
  "tur": 6149,
  "\u2581channel": 6150,
  "\u3054\u5229\u7528": 6151,
  "\u5e74\u4ee5\u4e0a": 6152,
  "\u2581division": 6153,
  "\u2581horse": 6154,
  "well": 6155,
  "\u30d6\u30e9\u30c3\u30af": 6156,
  "\u30e9\u30a6\u30f3\u30c9": 6157,
  "\u2581Out": 6158,
  "\u308b\u3053\u3068\u304c\u3067\u304d\u307e\u3059": 6159,
  "\u30df\u30c3\u30b7\u30e7\u30f3": 6160,
  "\u2581sit": 6161,
  "\u2581Russia": 6162,
  "iv": 6163,
  "\u2581Video": 6164,
  "\u2581notes": 6165,
  "\u30b7\u30e3\u30fc": 6166,
  "\u8aad": 6167,
  "\u808c": 6168,
  "\u3067\u3082\u3042\u308b": 6169,
  "\u2581Both": 6170,
  "\u2581Work": 6171,
  "\u8a3c\u660e": 6172,
  "\u3092\u3057\u305f": 6173,
  "\u4ecf": 6174,
  "\u639b\u3051": 6175,
  "\u3066\u3057\u307e\u3046": 6176,
  "\u2581sweet": 6177,
  "\u30dd\u30ea\u30b7\u30fc": 6178,
  "\u306e\u6539\u5584": 6179,
  "\u652f\u6301": 6180,
  "\u3057\u305f\u5f8c": 6181,
  "\u73fe\u5730": 6182,
  "\u2581Case": 6183,
  "\u3066\u3082": 6184,
  "\u7121\u7dda": 6185,
  "CM": 6186,
  "\u3057\u3070\u3057\u3070": 6187,
  "\u9045\u308c": 6188,
  "\u30c9\u30e9\u30a4\u30d6": 6189,
  "\u306e\u540d\u524d": 6190,
  "\u2581Program": 6191,
  "\u2581pa": 6192,
  "\u5f53\u521d": 6193,
  "table": 6194,
  "\u6ede\u5728": 6195,
  "\u304d\u307e\u3059": 6196,
  "AD": 6197,
  "ret": 6198,
  "\u2581Show": 6199,
  "\u2581looked": 6200,
  "\u5168\u90e8": 6201,
  "\u2581Blue": 6202,
  "):": 6203,
  "\u30d0\u30b0": 6204,
  "\u2581clearly": 6205,
  "\u2581Che": 6206,
  "cer": 6207,
  "\u3068\u540c\u6642\u306b": 6208,
  "\u2581ones": 6209,
  "\u30b3\u30fc\u30c9\u3092": 6210,
  "2)": 6211,
  "\u2581CD": 6212,
  "\u2581h": 6213,
  "\u3067\u3042\u308b\u3068": 6214,
  "\u30d9\u30b9\u30c8": 6215,
  "\u2581trans": 6216,
  "\u4f7f": 6217,
  "\u5fc5\u305a": 6218,
  "\u30c7\u30e2": 6219,
  "\u306a\u304f\u3066\u3082": 6220,
  "\u2581containing": 6221,
  "\u8a00\u3044": 6222,
  "\u2581\u4e2d\u56fd": 6223,
  "\u30d4\u30fc": 6224,
  "cl": 6225,
  "\u2581recording": 6226,
  "\u53f2": 6227,
  "\u5e74\u307e\u3067": 6228,
  "\u2581Ab": 6229,
  "ctor": 6230,
  "med": 6231,
  "\u2581dry": 6232,
  "\u898b\u308b": 6233,
  "\u2581tri": 6234,
  "\u4ea4\u6d41": 6235,
  "\u2581relatively": 6236,
  "\u2581happens": 6237,
  "\u7dd1": 6238,
  "\u2581humans": 6239,
  "\u2581extract": 6240,
  "\u8d64\u3044": 6241,
  "\u30ab\u30d0\u30fc": 6242,
  "\u2581Education": 6243,
  "\u3063\u3068": 6244,
  "\u8208\u5473": 6245,
  "\u2581\u4e00": 6246,
  "\u30ea\u30a2\u30eb\u30bf\u30a4\u30e0": 6247,
  "\u30b9\u30c8\u30ea\u30fc\u30e0": 6248,
  "\u30d5\u30a9\u30fc\u30de\u30c3\u30c8": 6249,
  "\u7acb\u3066": 6250,
  "cur": 6251,
  "\u4e00\u9023\u306e": 6252,
  "\u4f1d\u7d71\u7684\u306a": 6253,
  "nic": 6254,
  "\u2581definition": 6255,
  "\u5e74\u9f62": 6256,
  "\u2581feet": 6257,
  "inter": 6258,
  "\u3068\u3044\u3046\u306e\u306f": 6259,
  "\u2581giant": 6260,
  "\u4e00\u90e8\u306e": 6261,
  "MB": 6262,
  "\u306a\u3057": 6263,
  "\u2581worldwide": 6264,
  "\u2581lived": 6265,
  "\u679a": 6266,
  "\u2581Docker": 6267,
  "\u30c1\u30e3\u30c3\u30c8": 6268,
  "\u2581schedule": 6269,
  "\u6307\u793a": 6270,
  "\u2581Korean": 6271,
  "ME": 6272,
  "\u3067\u3042\u308c\u3070": 6273,
  "mat": 6274,
  "\u76ae\u819a": 6275,
  "\u2581guarantee": 6276,
  "\u8b58\u5225": 6277,
  "ox": 6278,
  "\u2581branch": 6279,
  "\u2581tube": 6280,
  ");": 6281,
  "\u304c\u3093": 6282,
  "\u6cd5\u4eba": 6283,
  "\u2581smooth": 6284,
  "\u2581enhance": 6285,
  "\u533b\u5e2b": 6286,
  "\u2581surrounding": 6287,
  "\u4ee3\u308f\u308a\u306b": 6288,
  "\u2581David": 6289,
  "\u30d1\u30fc\u30af": 6290,
  "je": 6291,
  "\u89e3\u91c8": 6292,
  "\u632f\u52d5": 6293,
  "\u2581updated": 6294,
  "\u2581presence": 6295,
  "\u2581index": 6296,
  "water": 6297,
  "\u307f\u3093\u306a": 6298,
  "\u7533\u8acb": 6299,
  "\u2581\u305d\u308c\u3067": 6300,
  "\u2581university": 6301,
  "ulation": 6302,
  "eo": 6303,
  "\u2581cat": 6304,
  "\u7d71\u8a08": 6305,
  "kawa": 6306,
  "\u3059\u308b\u3068\u3044\u3046": 6307,
  "\u2581detail": 6308,
  "\u5bfe\u8a71": 6309,
  "\u2581fe": 6310,
  "\u30c3\u30d7": 6311,
  "\u3089\u308c\u307e\u3059": 6312,
  "\u2581teacher": 6313,
  "\u2581consumption": 6314,
  "\u533b\u5b66": 6315,
  "\u30c1\u30a7": 6316,
  "\u6700\u7d42": 6317,
  "\u5275\u9020": 6318,
  "\u2581Big": 6319,
  "\u304c\u53ef\u80fd\u3067\u3059": 6320,
  "\u7a0b\u5ea6": 6321,
  "EM": 6322,
  "YouTube": 6323,
  "\u2581Phone": 6324,
  "\u2581consists": 6325,
  "\u8fbc\u3093\u3067": 6326,
  "\u2581\u65b0": 6327,
  "\u969b\u306b": 6328,
  "\u306e\u4e0b\u3067": 6329,
  "\u4e16\u754c\u3067": 6330,
  "\u3057\u305f\u304c": 6331,
  "head": 6332,
  "\u305d\u308c\u306b": 6333,
  "\u2581sha": 6334,
  "68": 6335,
  "\u3057\u305f\u3082\u306e": 6336,
  "\u306e\u8a73\u7d30": 6337,
  "\u6700\u9069\u306a": 6338,
  "\u5927\u898f\u6a21": 6339,
  "\u5730\u56f3": 6340,
  "\u5c04": 6341,
  "\u2581implemented": 6342,
  "\u2581pipe": 6343,
  "\u6700\u9069": 6344,
  "\u30bb\u30f3": 6345,
  "\u2581optical": 6346,
  "\u9806": 6347,
  "\u306b\u3064\u3044\u3066\u3082": 6348,
  "\u6642\u9593\u306e": 6349,
  "\u30c7\u30b6\u30a4\u30ca\u30fc": 6350,
  "\u2581im": 6351,
  "\u2581nuclear": 6352,
  "\u6642\u4ee3\u306e": 6353,
  "\u30de\u30fc\u30b1\u30c3\u30c8": 6354,
  "\u3082\u306e\u306b": 6355,
  "\u76db": 6356,
  "\u6bd4\u8f03\u7684": 6357,
  "\u2581annual": 6358,
  "\u2581confirmed": 6359,
  "2016": 6360,
  "\u2581owner": 6361,
  "Ar": 6362,
  "ob": 6363,
  "\u2581majority": 6364,
  "\u2581protein": 6365,
  "\u2581Set": 6366,
  "\u2581brings": 6367,
  "\u9664": 6368,
  "46": 6369,
  "\u2581operate": 6370,
  "\u2581terminal": 6371,
  "\u30c8\u30ed": 6372,
  "66": 6373,
  "\u6b62": 6374,
  "\u30a8\u30fc\u30b8\u30a7\u30f3\u30c8": 6375,
  "\u3092\u751f\u6210\u3059\u308b": 6376,
  "\u5370": 6377,
  "\u5f53\u5c40": 6378,
  "\u2581detect": 6379,
  "\u898b\u305f": 6380,
  "\u30af\u30bf\u30fc": 6381,
  "\u2581leaves": 6382,
  "\u306a\u3063\u305f": 6383,
  "\u516c\u5f0f": 6384,
  "IR": 6385,
  "\u2581executive": 6386,
  "\u2581specifically": 6387,
  "\u30a4\u30f3\u30bf\u30d3\u30e5\u30fc": 6388,
  "UI": 6389,
  "\u2581NASA": 6390,
  "\u2581Festival": 6391,
  "\u2581explain": 6392,
  "\u540c\u793e": 6393,
  "\u3088\u306d": 6394,
  "\u8a71\u3092": 6395,
  "sur": 6396,
  "vin": 6397,
  "\u2581\u306f\u3044": 6398,
  "under": 6399,
  "\u2581painting": 6400,
  "flow": 6401,
  "\u3057\u305f\u3089": 6402,
  "\u6307\u5c0e": 6403,
  "gram": 6404,
  "\u8a3c": 6405,
  "\u5f85\u3063\u3066": 6406,
  "\u30ec\u30fc\u30b7\u30e7\u30f3": 6407,
  "\u2581advertising": 6408,
  "ates": 6409,
  "New": 6410,
  "\u2581Kan": 6411,
  "\u2581plane": 6412,
  "-3": 6413,
  "\u3044\u304f\u3064\u304b": 6414,
  "\u2581resulting": 6415,
  "5,000": 6416,
  "\u2581approximately": 6417,
  "list": 6418,
  "\u30bf\u30d6\u30ec\u30c3\u30c8": 6419,
  "\u713c": 6420,
  "\u30b7\u30a2": 6421,
  "\u79c1\u305f\u3061\u304c": 6422,
  "\u79fb\u884c": 6423,
  "\u4e71": 6424,
  "\u643a\u5e2f": 6425,
  "OC": 6426,
  "\u2581helping": 6427,
  "\u2581Ventures": 6428,
  "\u30d6\u30eb\u30fc": 6429,
  "\u60c5\u5831\u306e": 6430,
  "\u2581>": 6431,
  "\u3055\u308c\u306a\u3044": 6432,
  "dimensional": 6433,
  "\u6c7a": 6434,
  "\u2581magazine": 6435,
  "\u2581Washington": 6436,
  "\u304f\u3089\u3044": 6437,
  "\u3053\u3053\u306b": 6438,
  "ms": 6439,
  "\u2581pump": 6440,
  "\u30c7\u30d7\u30ed\u30a4": 6441,
  "\u4f7f\u7528\u3059\u308b": 6442,
  "\u8c37": 6443,
  "\u8535": 6444,
  "\u2581execution": 6445,
  "\u2581Personal": 6446,
  "RI": 6447,
  "\u2581structures": 6448,
  "\u2581collected": 6449,
  "\u8eca\u306e": 6450,
  "\u2581intended": 6451,
  "\u30fb\u30fb\u30fb": 6452,
  "As": 6453,
  "\u2581Tu": 6454,
  "cher": 6455,
  "\u2581Men": 6456,
  "\u30ad\u30e3\u30ea\u30a2": 6457,
  "berg": 6458,
  "\u2581sets": 6459,
  "\u5411\u3051\u306b": 6460,
  "\u2581Studies": 6461,
  "\u2581Kong": 6462,
  "\u2581Framework": 6463,
  "\u3064\u304b": 6464,
  "\u2581phones": 6465,
  "TT": 6466,
  "\u7f8e\u8853\u9928": 6467,
  "\u30a8\u30a2\u30b3\u30f3": 6468,
  "\u9032\u6b69": 6469,
  "\u3092\u8ffd\u52a0": 6470,
  "PE": 6471,
  "\u2581familiar": 6472,
  "\u5019\u88dc": 6473,
  "\u6e7e": 6474,
  "\u7dcf\u5408": 6475,
  "ane": 6476,
  "\u30b0\u30ea\u30fc\u30f3": 6477,
  "43": 6478,
  "\u2581numerous": 6479,
  "\u2581portion": 6480,
  "\u3057\u305f\u5834\u5408": 6481,
  "\u535a\u58eb": 6482,
  "\u2581Adobe": 6483,
  "\u2581prepared": 6484,
  "\u2581partnership": 6485,
  "OL": 6486,
  "\u30b9\u306e": 6487,
  "\u6709\u540d": 6488,
  "\u2581Army": 6489,
  "\u2581Deep": 6490,
  "\u2581discover": 6491,
  "\u304b\u304b\u308b": 6492,
  "ks": 6493,
  "\u2581removed": 6494,
  "\u2581accounts": 6495,
  "\u2581parking": 6496,
  "\u30d5\u30a1\u30fc": 6497,
  "\u306f\u3059\u3079\u3066": 6498,
  "\u2581farm": 6499,
  "\u2581Yama": 6500,
  "\u258180": 6501,
  "\u4e00\u65b9\u3067": 6502,
  "AM": 6503,
  "\u2581medium": 6504,
  "\u2581Will": 6505,
  "\u2581mi": 6506,
  "\u2581temple": 6507,
  "\u8d64\u3061\u3083\u3093": 6508,
  "\u2581See": 6509,
  "\u30c7\u30a3\u30b9\u30af": 6510,
  "\u8ffd\u8de1": 6511,
  "\u4ee4": 6512,
  "\u2581fill": 6513,
  "\u2581venue": 6514,
  "\u5230\u7740": 6515,
  "hal": 6516,
  "\u652f\u6255\u3044": 6517,
  "\u8fd4": 6518,
  "\u5ba3\u8a00": 6519,
  "place": 6520,
  "\u2581lose": 6521,
  "\u30d5\u30a1\u30a4": 6522,
  "\u30a8\u30f3\u30b8\u30cb\u30a2\u30ea\u30f3\u30b0": 6523,
  "72": 6524,
  "ou": 6525,
  "\u30bb\u30f3\u30c8": 6526,
  "\u65e2\u306b": 6527,
  "63": 6528,
  "\u591a\u69d8\u306a": 6529,
  "\u82e6": 6530,
  "\u306b\u5165\u308b": 6531,
  "1%": 6532,
  "\u304b\u3089\u306f": 6533,
  "\u2581Hall": 6534,
  "\u6642\u8a08": 6535,
  "\u2581competitive": 6536,
  "\u7c21\u5358": 6537,
  "\u2581UI": 6538,
  "\u2581inspection": 6539,
  "\u6cd5\u4ee4": 6540,
  "\u2581contain": 6541,
  "\u5909\u52d5": 6542,
  "CT": 6543,
  "\u2581convenient": 6544,
  "\u5bb6\u5ead": 6545,
  "\u2581knew": 6546,
  "\u56fa": 6547,
  "\u2581aspects": 6548,
  "\u2581stated": 6549,
  "\u2581accommodation": 6550,
  "\u6642\u671f": 6551,
  "\u5168\u54e1": 6552,
  "\u2581fund": 6553,
  "\u606f": 6554,
  "\u751f\u547d": 6555,
  "FT": 6556,
  "WA": 6557,
  "GO": 6558,
  "\u2581attempt": 6559,
  "41": 6560,
  "\u2581transition": 6561,
  "Cloud": 6562,
  "\u2581brown": 6563,
  "\u2581lies": 6564,
  "\u2581Award": 6565,
  "\u2581pet": 6566,
  "\u2581Standard": 6567,
  "\u2581peace": 6568,
  "\u30aa\u30e9\u30f3\u30c0": 6569,
  "\u77ed\u3044": 6570,
  "\u984c": 6571,
  "Se": 6572,
  "\u2581Moreover": 6573,
  "\u3067\u304d\u308b\u3053\u3068": 6574,
  "\u2581Tsu": 6575,
  "\u5408\u91d1": 6576,
  "\u300f(": 6577,
  "pping": 6578,
  "\u30c3\u30c4": 6579,
  "\u5358\u8a9e": 6580,
  "\u96a0": 6581,
  "\u2581incident": 6582,
  "lt": 6583,
  "\u8074": 6584,
  "\u2581profile": 6585,
  "Sa": 6586,
  "wise": 6587,
  "\u30e2\u30ce": 6588,
  "\u7832": 6589,
  "\u2581Last": 6590,
  "\u3057\u306a\u304b\u3063\u305f": 6591,
  "\u5bb3": 6592,
  "\u8a2d\u7acb": 6593,
  "\u7d42\u308f\u308a": 6594,
  "\u30dd\u30fc": 6595,
  "\u7d44\u307f\u5408\u308f\u305b": 6596,
  "\u4eba\u985e": 6597,
  "\u2581issued": 6598,
  "\u5f97": 6599,
  "\u2581\u4f55\u304b": 6600,
  "lig": 6601,
  "\u2581label": 6602,
  "\u2581\u5f53\u793e\u306e": 6603,
  "pri": 6604,
  "\u2581Los": 6605,
  "\u306f\u3069\u3046": 6606,
  "\u6a39\u8102": 6607,
  "\u6238": 6608,
  "\u2581Scrum": 6609,
  "ric": 6610,
  "\u2581fear": 6611,
  "\u2581Comp": 6612,
  "\u6700\u8fd1\u306e": 6613,
  "\u5b66\u7684": 6614,
  "56": 6615,
  "\u2581Process": 6616,
  "\u30c8\u30fc": 6617,
  "\u2581Fi": 6618,
  "\u2581Committee": 6619,
  "\u2581sc": 6620,
  "\u2581Sen": 6621,
  "2%": 6622,
  "\u2581EU": 6623,
  "\u306e\u8a2d\u5b9a": 6624,
  "\u30b0\u30eb\u30fc\u30d7\u306e": 6625,
  "\u3072\u3068\u3064": 6626,
  "\u2581Instagram": 6627,
  "ella": 6628,
  "\u2581fundamental": 6629,
  "\u725b": 6630,
  "\u5ba2\u5ba4": 6631,
  "\u3044\u3064\u3082": 6632,
  "rum": 6633,
  "\u2581Ph": 6634,
  "\u30d0\u30e9": 6635,
  "ole": 6636,
  "\u516c\u5171": 6637,
  "\u5468": 6638,
  "\u9577\u304f": 6639,
  "\u30b2\u30b9\u30c8": 6640,
  "\u2581SQL": 6641,
  "\u3067\u6700\u3082": 6642,
  "ney": 6643,
  "\u2581comprehensive": 6644,
  "\u9867\u5ba2\u306e": 6645,
  "\u306b\u5408\u308f\u305b\u3066": 6646,
  "\u6c34\u7d20": 6647,
  "\u2581atmosphere": 6648,
  "RC": 6649,
  "\u65b9\u6cd5\u3092": 6650,
  "\u3053\u3046\u3057\u305f": 6651,
  "\u65b9\u304c": 6652,
  "uri": 6653,
  "\u6279\u5224": 6654,
  "\u305d\u3053\u3067": 6655,
  "\u2581Human": 6656,
  "\u2581dataset": 6657,
  "\u2581amazing": 6658,
  "\u2581pull": 6659,
  "\u59ff": 6660,
  "Mar": 6661,
  "\u30a4\u30aa\u30f3": 6662,
  "pon": 6663,
  "\u30c9\u30e9\u30a4\u30d0\u30fc": 6664,
  "\u306e\u5909\u66f4": 6665,
  "\u4eac": 6666,
  "3%": 6667,
  "\u2581couldn": 6668,
  "\u25811990": 6669,
  "\u2581Connect": 6670,
  "reg": 6671,
  "\u306b\u51fa": 6672,
  "\u306e\u591a\u304f\u306f": 6673,
  "600": 6674,
  "\u4f01\u753b": 6675,
  "\u6df1": 6676,
  "\u2581composition": 6677,
  "\u4fdd\u6301": 6678,
  "\u307e\u305b\u3093\u3067\u3057\u305f": 6679,
  "\u2581gone": 6680,
  "\u4f9d\u5b58": 6681,
  "\u2581URL": 6682,
  "JS": 6683,
  "\u2581300": 6684,
  "\u2581patent": 6685,
  "\u7d50\u3073": 6686,
  "\u2581equal": 6687,
  "\u96c7\u7528": 6688,
  "71": 6689,
  "\u3053\u3068\u304c\u3042\u308b": 6690,
  "\u4eba\u3005\u306f": 6691,
  "\u9285": 6692,
  "\u5de5\u7a0b": 6693,
  "IM": 6694,
  "\u307f\u305f\u3044": 6695,
  "tel": 6696,
  "\u2581SA": 6697,
  "\u554f\u984c\u3092": 6698,
  "cent": 6699,
  "\u2581\u3057\u305f\u304c\u3063\u3066": 6700,
  "\u4f4f": 6701,
  "\u624b\u9806": 6702,
  "\u304b\u3089\u3060": 6703,
  "\u2581sky": 6704,
  "\u2581massive": 6705,
  "\u2581recorded": 6706,
  "\u81ea\u4f53": 6707,
  "\u3092\u898b\u3064\u3051": 6708,
  "\u2581resolution": 6709,
  "pu": 6710,
  "\u2581Next": 6711,
  "62": 6712,
  "NA": 6713,
  "\u2581register": 6714,
  "\u2581rates": 6715,
  "\u30e1\u30ad\u30b7\u30b3": 6716,
  "\u2581VM": 6717,
  "\u7c89": 6718,
  "\u2581Back": 6719,
  "\u5883\u754c": 6720,
  "\u2581\u540c": 6721,
  "\u2581\u30a2\u30e1\u30ea\u30ab": 6722,
  "\u624b\u3092": 6723,
  "\u5272": 6724,
  "\u5236\u7d04": 6725,
  "cept": 6726,
  "\u3053\u3068\u304c\u3067\u304d": 6727,
  "\u2581\u307e\u3060": 6728,
  "\u2581Francisco": 6729,
  "\u2581goals": 6730,
  "\u2581\u3060\u304c": 6731,
  "\u2581sheet": 6732,
  "\u306f\u307e\u305f": 6733,
  "\u2581ride": 6734,
  "tre": 6735,
  "\u3089\u308c\u306a\u3044": 6736,
  "\u2581fiber": 6737,
  "comp": 6738,
  "\u2581na": 6739,
  "\u3092\u8d85\u3048\u308b": 6740,
  "\u85e4": 6741,
  "\u2581guys": 6742,
  "\u8b66\u544a": 6743,
  "\u554f": 6744,
  "\u5ca1": 6745,
  "\u2581meat": 6746,
  "\u306b\u3042\u3063\u305f": 6747,
  "\u2581Paul": 6748,
  "\u3055\u3048": 6749,
  "\u3059\u308b\u3053\u3068\u306b\u3088\u308a": 6750,
  "\u30b1\u30fc": 6751,
  "\u2581\u25a0": 6752,
  "\u304f\u308b": 6753,
  "\u6307\u6a19": 6754,
  "\u8a31": 6755,
  "ez": 6756,
  "\u5ea6\u306e": 6757,
  "\u8ecc\u9053": 6758,
  "\u8003\u3048\u65b9": 6759,
  "\u2581Castle": 6760,
  "\u2581conversation": 6761,
  "\u30f3\u30b0": 6762,
  "Li": 6763,
  "\u30b9\u30d1\u30a4": 6764,
  "\u591a\u6570": 6765,
  "\u2581contrast": 6766,
  "\u2581Foreign": 6767,
  "\u2581delivered": 6768,
  "\u4e3b\u5f35": 6769,
  "\u306f\u73fe\u5728": 6770,
  "\u2581communicate": 6771,
  "\u2581gun": 6772,
  "\u2581100%": 6773,
  "\u7cfb\u306e": 6774,
  "\u2581grand": 6775,
  "hand": 6776,
  "\u4f50": 6777,
  "\u9023\u643a": 6778,
  "PL": 6779,
  "some": 6780,
  "\u6d3b\u6027": 6781,
  "\u5c0e": 6782,
  "\u2581leaving": 6783,
  "\u2581category": 6784,
  "\u305f\u3081\u306b\u306f": 6785,
  "Spring": 6786,
  "\u5f37\u5ea6": 6787,
  "\u2581fee": 6788,
  "\u7121\u6599\u3067": 6789,
  "cm": 6790,
  "88": 6791,
  "\u300d\u3001\u300c": 6792,
  "\u4f7f\u3044": 6793,
  "\u65e5\u304b\u3089": 6794,
  "\u306a\u3069\u3067": 6795,
  "\u767b\u5834": 6796,
  "\u30af\u30ed\u30b9": 6797,
  "burg": 6798,
  "\u30dc\u30fc\u30c8": 6799,
  "\u2581Real": 6800,
  "\u9999": 6801,
  "\u9031": 6802,
  "\u2581confirm": 6803,
  "Bo": 6804,
  "\u5927\u962a": 6805,
  "\u5e95": 6806,
  "\u4f4e\u4e0b": 6807,
  "\u2581ISO": 6808,
  "\u623f": 6809,
  "\u2581artificial": 6810,
  "\u2581truck": 6811,
  "Ra": 6812,
  "\u65b0\u6a5f\u80fd": 6813,
  "\u793e\u5185": 6814,
  "\u306f\u3068\u3066\u3082": 6815,
  "\u306e\u63d0\u4f9b": 6816,
  "\u5dde\u306e": 6817,
  "\u5e74\u5ea6": 6818,
  "cul": 6819,
  "\u88fd\u306e": 6820,
  "\u611f\u899a": 6821,
  "\u3042\u306a\u305f\u306b": 6822,
  "\u2581disaster": 6823,
  "\u2581healthy": 6824,
  "\u85e9": 6825,
  "\u2581links": 6826,
  "\u52dd\u5229": 6827,
  "\u2581England": 6828,
  "ute": 6829,
  "\u2581explained": 6830,
  "\u3061\u3087\u3063\u3068": 6831,
  "FS": 6832,
  "bb": 6833,
  "42": 6834,
  "\u304b\u3051": 6835,
  "\u30e9\u30e0": 6836,
  "\u2581intelligence": 6837,
  "js": 6838,
  "\u2581prepare": 6839,
  "\u2581Cho": 6840,
  "52": 6841,
  "\u3082\u306e\u3068": 6842,
  "\u30c9\u30fc": 6843,
  "\u2581Times": 6844,
  "\u63a5\u89e6": 6845,
  "\u30b7\u30a7": 6846,
  "shima": 6847,
  "\u2581promotion": 6848,
  "\u308b\u3079\u304d": 6849,
  "\u2581records": 6850,
  "\u90fd": 6851,
  "\u2581bringing": 6852,
  "HI": 6853,
  "\u96c6\u4e2d": 6854,
  "\u4ea4\u6e09": 6855,
  "\u2581reducing": 6856,
  "\u306e\u6700\u521d\u306e": 6857,
  "\u306b\u308f\u305f\u3063\u3066": 6858,
  "\u2581expansion": 6859,
  "\u30b9\u30a4\u30c3\u30c1": 6860,
  "\u2581carrying": 6861,
  "\u73fe\u5834": 6862,
  "\u3092\u6301\u3063\u305f": 6863,
  "\u30d7\u30ea\u30f3\u30c8": 6864,
  "\u2581frequency": 6865,
  "\u30a6\u30a7": 6866,
  "MT": 6867,
  "\u2581Their": 6868,
  "\u30c0\u30f3\u30b9": 6869,
  "\u7389": 6870,
  "\u2581representative": 6871,
  "\u5730\u9707": 6872,
  "\u2581studied": 6873,
  "\u306e\u5f79\u5272": 6874,
  "\u8ab0": 6875,
  "\u570f": 6876,
  "\u2581Plus": 6877,
  "\u3068\u304d\u306f": 6878,
  "\u2581instrument": 6879,
  "\u2581lets": 6880,
  "\u2581entry": 6881,
  "\u642d\u8f09": 6882,
  "tz": 6883,
  "You": 6884,
  "\u4eba\u5de5": 6885,
  "\u30bf\u30f3\u30d1\u30af\u8cea": 6886,
  "\u306e\u524d\u306b": 6887,
  "\u2581typically": 6888,
  "\u75c7\u72b6": 6889,
  "\u5efa": 6890,
  "800": 6891,
  "\u2581cash": 6892,
  "\u2581chair": 6893,
  "\u30a4\u30f3\u30c1": 6894,
  "\u6c7a\u3081": 6895,
  "\u697d\u3057\u307f": 6896,
  "\u2581James": 6897,
  "\u306b\u30a2\u30af\u30bb\u30b9": 6898,
  "\u2581theme": 6899,
  "\u2581\u305d\u306e\u7d50\u679c": 6900,
  "\u30e2\u30fc\u30bf\u30fc": 6901,
  "\u2581datasets": 6902,
  "\u82e5": 6903,
  "\u2581investigation": 6904,
  "\u3044\u304f": 6905,
  "\u2581Effect": 6906,
  "\u2581Board": 6907,
  "\u2581recommended": 6908,
  "ld": 6909,
  "\u697d\u3057\u3044": 6910,
  "\u30b9\u30c8\u30fc\u30ea\u30fc": 6911,
  "\u30d7\u30ec": 6912,
  "VM": 6913,
  "\u2581Cu": 6914,
  "\u2581flexible": 6915,
  "\u2581Article": 6916,
  "\u3092\u5229\u7528\u3057\u305f": 6917,
  "\u2581\u3053\u3053": 6918,
  "\u305d\u306e\u307e\u307e": 6919,
  "\u5e73\u548c": 6920,
  "\u30b5\u30fc\u30d3\u30b9\u306f": 6921,
  "\u2581industries": 6922,
  "\u4ee5\u524d\u306e": 6923,
  "\u990a": 6924,
  "\u7b2c\u4e8c": 6925,
  "\u2581mail": 6926,
  "\u6d77\u5cb8": 6927,
  "One": 6928,
  "DP": 6929,
  "\u2581helped": 6930,
  "\u306e\u524d": 6931,
  "\u9023\u7d61": 6932,
  "\u2581da": 6933,
  "\u2581import": 6934,
  "\u767b": 6935,
  "\u2581committed": 6936,
  "\u2581planned": 6937,
  "\u2581suppliers": 6938,
  "\u30cd\u30a4\u30c6\u30a3\u30d6": 6939,
  "\u30af\u30ea": 6940,
  "\u2581cooperation": 6941,
  "\u6642\u9593\u304c": 6942,
  "\u306e\u3088": 6943,
  "\u2581height": 6944,
  "\u2581extensive": 6945,
  "This": 6946,
  "\u30e8": 6947,
  "\u2581believed": 6948,
  "FI": 6949,
  "tar": 6950,
  "\u2581Force": 6951,
  "\u2581\u3044\u3044": 6952,
  "\u2581manufacture": 6953,
  "\u2581spirit": 6954,
  "\u2581\u4ffa": 6955,
  "\u2581Domain": 6956,
  "\u3092\u63d0\u4f9b\u3059\u308b\u3053\u3068": 6957,
  "\u30de\u30cd\u30b8\u30e1\u30f3\u30c8": 6958,
  "58": 6959,
  "\u4eca\u56de": 6960,
  "Po": 6961,
  "link": 6962,
  "\u90e8\u306e": 6963,
  "\u2581sector": 6964,
  "\u6d3b\u8e8d": 6965,
  "\u2581samples": 6966,
  "\u304d\u307e\u3057\u305f": 6967,
  "\u59cb\u3081\u305f": 6968,
  "Japanese": 6969,
  "\u6563": 6970,
  "\u76e4": 6971,
  "\u4f4f\u6c11": 6972,
  "are": 6973,
  "\u2581meant": 6974,
  "61": 6975,
  "var": 6976,
  "\u5f97\u308b": 6977,
  "rap": 6978,
  "\u2581Energy": 6979,
  "\u652f": 6980,
  "\u30bf\u30a4\u30c8\u30eb": 6981,
  "\u2581noted": 6982,
  "\u6fc3\u5ea6": 6983,
  "\u81ea\u5206\u304c": 6984,
  "\u30be": 6985,
  "-19": 6986,
  "\u6570\u306f": 6987,
  "BE": 6988,
  "ising": 6989,
  "\u307e\u3059\u304b": 6990,
  "\u30e1\u30f3\u30c6\u30ca\u30f3\u30b9": 6991,
  "\u6a5f\u80fd\u306f": 6992,
  "\u30ec\u30c3\u30c8": 6993,
  "verse": 6994,
  "\u2581negative": 6995,
  "\u3053\u308c\u304b\u3089": 6996,
  "\u5408\u308f\u305b": 6997,
  "\u2581truth": 6998,
  "\u306b\u3042\u308a": 6999,
  "\u2581SDK": 7000,
  "\u53e4\u4ee3": 7001,
  "cess": 7002,
  "\u3053\u3068\u3067\u3042\u308b": 7003,
  "\u547c": 7004,
  "\u306e\u60c5\u5831": 7005,
  "\u2581cheap": 7006,
  "\u2581Key": 7007,
  "\u3092\u306f\u3058\u3081": 7008,
  "\u2581ca": 7009,
  "\u30c1\u30b1\u30c3\u30c8": 7010,
  "\u6b62\u3081": 7011,
  "\u756a\u7d44": 7012,
  "ay": 7013,
  "bro": 7014,
  "\u3057\u306a\u3051\u308c\u3070\u306a\u3089\u306a\u3044": 7015,
  "\u2581lady": 7016,
  "DM": 7017,
  "\u3082\u306e\u304c": 7018,
  "\u306b\u306a\u308b\u3068": 7019,
  "\u3092\u5b9f\u884c": 7020,
  "\u2581Society": 7021,
  "\u2581Prime": 7022,
  "\u96f2": 7023,
  "\u3067\u306a\u3044": 7024,
  "run": 7025,
  "\u30b0\u30eb\u30fc\u30d7\u306f": 7026,
  "\u4e00\u65b9": 7027,
  "\u2581starts": 7028,
  "\u2581powder": 7029,
  "\u2581straight": 7030,
  "\u30ea\u30e2\u30fc\u30c8": 7031,
  "\u30b9\u30ad\u30e3\u30f3": 7032,
  "\u2581engineer": 7033,
  "ris": 7034,
  "wood": 7035,
  "\u5c11": 7036,
  "\u305a\u306b": 7037,
  "non": 7038,
  "\u306b\u95a2\u3057\u3066\u306f": 7039,
  "\u30a2\u30d7\u30ea\u30b1\u30fc\u30b7\u30e7\u30f3\u3092": 7040,
  "\u56de\u7b54": 7041,
  "\u2581advice": 7042,
  "\u2581Royal": 7043,
  "\u2581perhaps": 7044,
  "\u77e5\u3089\u306a\u3044": 7045,
  "\u30b7\u30ca\u30ea\u30aa": 7046,
  "\u6d88": 7047,
  "\u80f8": 7048,
  "\u305f\u3063\u305f": 7049,
  "\u2581flag": 7050,
  "\u2581angle": 7051,
  "\u2581east": 7052,
  "\u507d": 7053,
  "\u2581putting": 7054,
  "\u2581keeping": 7055,
  "\u2581producing": 7056,
  "\u306b\u3082\u304b\u304b\u308f\u3089\u305a": 7057,
  "\u51fa\u8eab\u306e": 7058,
  "\u30d4\u30f3": 7059,
  "\u4f7f\u308f\u308c": 7060,
  "\u3092\u5b9f\u73fe": 7061,
  "\u98df\u3079": 7062,
  "\u30bf\u30d6": 7063,
  "\u2581Book": 7064,
  "\u2581Va": 7065,
  "\u2581clothes": 7066,
  "\u2581Object": 7067,
  "bs": 7068,
  "TR": 7069,
  "\u30d7\u30ed\u30d1\u30c6\u30a3": 7070,
  "\u2581IoT": 7071,
  "\u2581holds": 7072,
  "MD": 7073,
  "\u3092\u63d0\u4f9b": 7074,
  "\u2581destination": 7075,
  "\u3051\u308b": 7076,
  "\u2581scientific": 7077,
  "\u2581uniform": 7078,
  "\u2581sounds": 7079,
  "\u6700\u65b0": 7080,
  "\u2581Smart": 7081,
  "\u306c": 7082,
  "\u793e\u4f1a\u7684": 7083,
  "\u2581Land": 7084,
  "\u2581claims": 7085,
  "\u2581optimization": 7086,
  "\u9ad8\u5ea6": 7087,
  "\u866b": 7088,
  "\u5b8c\u4e86": 7089,
  "GE": 7090,
  "_{": 7091,
  "\u3092\u5b9f\u884c\u3059\u308b": 7092,
  "sky": 7093,
  "\u2581provider": 7094,
  "\u30ad\u30e3\u30c3\u30b7\u30e5": 7095,
  "\u904a": 7096,
  "\u6ec5": 7097,
  "SO": 7098,
  "OR": 7099,
  "\u30ad\u30e3\u30f3\u30da\u30fc\u30f3": 7100,
  "\u5217\u8eca": 7101,
  "lf": 7102,
  "\u2581yen": 7103,
  "\u888b": 7104,
  "\u7c73\u56fd\u306e": 7105,
  "\u30ca\u30f3": 7106,
  "\u2581replace": 7107,
  "\u6253": 7108,
  "\u2581DNA": 7109,
  "\u7269\u306e": 7110,
  "\u2581Bre": 7111,
  "\u2581otherwise": 7112,
  "\u7ae0": 7113,
  "\u88c1\u5224\u6240": 7114,
  "\u308d\u3046": 7115,
  "\u2581grass": 7116,
  "qu": 7117,
  "\u30b3\u30fc\u30c8": 7118,
  "\u306e\u5834\u5408\u306f": 7119,
  "\u2581bound": 7120,
  "\u30da\u30a2": 7121,
  "stro": 7122,
  "\u30b9\u30bf\u30f3": 7123,
  "\u2581visitors": 7124,
  "\u2581registration": 7125,
  "\u2581border": 7126,
  "\u2581fruit": 7127,
  "\u2581experienced": 7128,
  "\u2581transmission": 7129,
  "\u3066\u304f\u308c\u308b": 7130,
  "\u500b\u3005\u306e": 7131,
  "rk": 7132,
  "\u8907\u96d1": 7133,
  "\u30b7\u30e7\u30c3\u30d7": 7134,
  "\u30bf\u30c3\u30c1": 7135,
  "\u7cd6": 7136,
  "\u30d0\u30c3\u30af\u30a2\u30c3\u30d7": 7137,
  "\u304c\u3053\u306e": 7138,
  "\u2581\u5f7c\u304c": 7139,
  "ato": 7140,
  "\u672c\u793e": 7141,
  "\u305b\u305a": 7142,
  "\u30da\u30c3\u30c8": 7143,
  "\u304a\u554f\u3044\u5408\u308f\u305b": 7144,
  "\u9700\u8981": 7145,
  "\u2581Steel": 7146,
  "\u2581Get": 7147,
  "\u5f7c\u3089": 7148,
  "\u30b5\u30a4\u30af\u30eb": 7149,
  "\u53ef\u80fd\u6027\u304c\u3042\u308a\u307e\u3059": 7150,
  "\u5f7c\u3089\u304c": 7151,
  "\u3001\u201c": 7152,
  "\u5bb9\u91cf": 7153,
  "\u6211\u3005\u306e": 7154,
  "\u767a\u660e": 7155,
  "\u2581administration": 7156,
  "\u8fbc\u3093\u3060": 7157,
  "\u2581availability": 7158,
  "\u4f55\u3082": 7159,
  "ette": 7160,
  "\u2581wouldn": 7161,
  "\u2581Battle": 7162,
  "\u2581determined": 7163,
  "\u4eca\u307e\u3067": 7164,
  "\u61f8\u5ff5": 7165,
  "\u7236\u89aa": 7166,
  "\u2581jump": 7167,
  "\u2581parallel": 7168,
  "\u2581websites": 7169,
  "\u7e01": 7170,
  "\u4ee5\u524d": 7171,
  "\u258170": 7172,
  "\u57df": 7173,
  "\u9593\u3067": 7174,
  "\u3055\u305b\u308b\u3053\u3068": 7175,
  "\u307e\u3063\u305f\u304f": 7176,
  "tric": 7177,
  "\u6539": 7178,
  "\u2581accident": 7179,
  "teen": 7180,
  "\u6975\u3081\u3066": 7181,
  "\u2581User": 7182,
  "\u304f\u306a\u308b": 7183,
  "\u30a4\u30eb": 7184,
  "\u2581Ministry": 7185,
  "\u2581manual": 7186,
  "\u2581participate": 7187,
  "\u2581listed": 7188,
  "\u3092\u53ef\u80fd\u306b\u3059\u308b": 7189,
  "\u2581reservation": 7190,
  "\u8cb7": 7191,
  "\u306a\u304f\u306a\u308b": 7192,
  "\u6db2\u4f53": 7193,
  "\u5f35": 7194,
  "\u3092\u884c\u3063\u3066\u3044\u307e\u3059": 7195,
  "\u2581god": 7196,
  "\u2581magnetic": 7197,
  "VI": 7198,
  "\u2581trial": 7199,
  "\u51fa\u767a": 7200,
  "\u5927\u91cf\u306e": 7201,
  "\u51fa\u6765": 7202,
  "\u2581hyper": 7203,
  "\u57fa\u790e": 7204,
  "\u2581Flash": 7205,
  "VA": 7206,
  "\u2581founder": 7207,
  "\u30d3\u30fc\u30eb": 7208,
  "\u3053\u3061\u3089": 7209,
  "\u81ea\u5206\u3067": 7210,
  "\u3092\u4f7f\u3044": 7211,
  "\u3092\u4f7f\u7528\u3057\u305f": 7212,
  "\u2581finish": 7213,
  "\u2581automated": 7214,
  "\u2581sta": 7215,
  "PP": 7216,
  "\u2581west": 7217,
  "\u2581Conference": 7218,
  "\u30de\u30b9\u30af": 7219,
  "\u7fa9\u52d9": 7220,
  "HTML": 7221,
  "\u2581Film": 7222,
  "\u2581IDE": 7223,
  "\u2581organic": 7224,
  "\u5927\u5909": 7225,
  "\u2581Top": 7226,
  "\u2581vote": 7227,
  "\u2581conventional": 7228,
  "\u258190": 7229,
  "\u30d3\u30f3": 7230,
  "\u2581jobs": 7231,
  "\u2581construct": 7232,
  "\u2581Bra": 7233,
  "\u539a": 7234,
  "\u9577\u5e74": 7235,
  "\u3064\u306f": 7236,
  "\u2581_": 7237,
  "\u7528\u306b": 7238,
  "\u2581spec": 7239,
  "\u2581George": 7240,
  "\u7b97": 7241,
  "ville": 7242,
  "\u30b4\u30fc": 7243,
  "\u4ef2\u9593": 7244,
  "\u83ef": 7245,
  "PI": 7246,
  "\u2581Card": 7247,
  "\u30bc\u30ed": 7248,
  "\u98db\u884c\u6a5f": 7249,
  "\u2581Bu": 7250,
  "\u2581session": 7251,
  "\u8c4a\u304b\u306a": 7252,
  "ect": 7253,
  "\u2581gene": 7254,
  "\u3092\u9078\u629e\u3059\u308b": 7255,
  "\u4eba\u6750": 7256,
  "\u7df4\u7fd2": 7257,
  "\u9999\u6e2f": 7258,
  "\u30a6\u30a3\u30f3": 7259,
  "Open": 7260,
  "\u2581Instead": 7261,
  "zi": 7262,
  "\u2581ratio": 7263,
  "\u306e\u7d4c\u9a13": 7264,
  "\u2581cleaning": 7265,
  "\u2581husband": 7266,
  "\u2581corresponding": 7267,
  "\u30c1\u30e5": 7268,
  "\u5730\u5143\u306e": 7269,
  "\u7cf8": 7270,
  "\u7db2": 7271,
  "\u2581bone": 7272,
  "\u30d9\u30a4": 7273,
  "\u51ac": 7274,
  "\u305d\u3046\u306a": 7275,
  "\u306a\u3051\u308c\u3070\u306a\u308a\u307e\u305b\u3093": 7276,
  "\u305d\u3093\u306a": 7277,
  "\u958b\u767a\u8005\u306f": 7278,
  "\u9003\u3052": 7279,
  "\u30b9\u306f": 7280,
  "\u2581accordance": 7281,
  "57": 7282,
  "\u2581\u3057\u304b\u3057\u306a\u304c\u3089": 7283,
  "\u8996\u899a": 7284,
  "\u2581stack": 7285,
  "\u2581mark": 7286,
  "\u30ef\u30b7\u30f3\u30c8\u30f3": 7287,
  "\u30c1\u30e3\u30f3\u30cd\u30eb": 7288,
  "\u2581Flow": 7289,
  "\u51fa\u3066": 7290,
  "Lo": 7291,
  "Ba": 7292,
  "\u9670": 7293,
  "\u2581USB": 7294,
  "\u6280\u8853\u3092": 7295,
  "PT": 7296,
  "ora": 7297,
  "\u2581principles": 7298,
  "\u3044\u3046": 7299,
  "\u2581creative": 7300,
  "\u98df\u3079\u7269": 7301,
  "\u542b": 7302,
  "\u2581transformation": 7303,
  "\u4ee3\u66ff": 7304,
  "\u2581swimming": 7305,
  "\u2581Food": 7306,
  "\u2581affect": 7307,
  "\u2581clinical": 7308,
  "\u2581transaction": 7309,
  "DNA": 7310,
  "spect": 7311,
  "\u2581representation": 7312,
  "\u5438\u53ce": 7313,
  "\u2581Policy": 7314,
  "\u7720": 7315,
  "54": 7316,
  "\u2581Intel": 7317,
  "\u2581treat": 7318,
  "\u5408\u3046": 7319,
  "\u4e00\u4f53": 7320,
  "\u306b\u95a2\u9023\u3059\u308b": 7321,
  "\u2581College": 7322,
  "\u3053\u305d": 7323,
  "\u8fd1\u3044": 7324,
  "\u30ad\u30c3\u30c1\u30f3": 7325,
  "\u73fe\u5b9f": 7326,
  "\u258129": 7327,
  "\u9ed2\u3044": 7328,
  "\u3064\u3051": 7329,
  "\u2581trend": 7330,
  "\u2581computers": 7331,
  "\u4f5c\u5bb6": 7332,
  "\u2581leads": 7333,
  "\u30c7\u30d9\u30ed\u30c3\u30d1\u30fc": 7334,
  "\u304c\u305d\u306e": 7335,
  "\u2581\u3042\u3042": 7336,
  "\u521d\u671f\u306e": 7337,
  "\u3050\u3089\u3044": 7338,
  "\u30ef\u30fc\u30c9": 7339,
  "\u60f3\u50cf": 7340,
  "\u4e45": 7341,
  "\u6255": 7342,
  "\u306b\u57fa\u3065\u304d": 7343,
  "\u2581Engineering": 7344,
  "\u306e\u65b0": 7345,
  "\u2581locations": 7346,
  "\u5f53\u6642": 7347,
  "\u2581leaders": 7348,
  "put": 7349,
  "\u2581Manager": 7350,
  "\u30bb\u30f3\u30b5": 7351,
  "card": 7352,
  "\u3092\u4ecb\u3057\u3066": 7353,
  "59": 7354,
  "\u8a18\u5ff5": 7355,
  "\u2581\u6b21\u306b": 7356,
  "pped": 7357,
  "\u2581Through": 7358,
  "\u30ed\u30b0\u30a4\u30f3": 7359,
  "\u3092\u62bc\u3057": 7360,
  "dan": 7361,
  "\u305d\u3053": 7362,
  "\u2581Click": 7363,
  "\u2581Republic": 7364,
  "\u2581Tra": 7365,
  "\u2581reaction": 7366,
  "sei": 7367,
  "\u4fee\u7406": 7368,
  "\u2581pan": 7369,
  "\u2581tracking": 7370,
  "\u25811980": 7371,
  "\u2581Area": 7372,
  "\u2581successfully": 7373,
  "pho": 7374,
  "\u2581zone": 7375,
  "\u307e\u3068\u3081": 7376,
  "St": 7377,
  "\u2581root": 7378,
  "\u30ea\u30fc\u30c9": 7379,
  "\u53cd\u5bfe": 7380,
  "\u30d1\u30fc\u30c6\u30a3\u30fc": 7381,
  "\u2581plug": 7382,
  "\u514d\u75ab": 7383,
  "\u898b\u3048": 7384,
  "take": 7385,
  "\u81e8\u5e8a": 7386,
  "\u3088\u3046\u3068": 7387,
  "\u3057\u3066\u304f\u308c\u308b": 7388,
  "Cl": 7389,
  "PO": 7390,
  "ule": 7391,
  "\u4e16\u4ee3": 7392,
  "\u2581\u4eca\u56de\u306e": 7393,
  "vel": 7394,
  "\u3042\u3068": 7395,
  "ook": 7396,
  "tes": 7397,
  "\u2581analyze": 7398,
  "\u30a4\u30ce\u30d9\u30fc\u30b7\u30e7\u30f3": 7399,
  "\u2581decisions": 7400,
  "\u2581experimental": 7401,
  "\u2581boys": 7402,
  "\u306b\u8fd1\u3044": 7403,
  "\u79c1\u9054\u306e": 7404,
  "\u539f\u6599": 7405,
  "\u30bd\u30fc\u30b7\u30e3\u30eb": 7406,
  "\u30ed\u30b4": 7407,
  "\u2581tab": 7408,
  "\u6ca1": 7409,
  "\u2581\u6700\u521d\u306e": 7410,
  "\u3093\u3060\u3088": 7411,
  "\u2581fan": 7412,
  "\u2581haven": 7413,
  "96": 7414,
  "8%": 7415,
  "\u7684\u3067": 7416,
  "\u970a": 7417,
  "\u3092\u5f15\u304d": 7418,
  "\u6b73\u306e": 7419,
  "gon": 7420,
  "\u30a2\u30c3\u30d7\u30b0\u30ec\u30fc\u30c9": 7421,
  "\u30d0\u30c3\u30b0": 7422,
  "\u30a2\u30c3\u30d7\u30ed\u30fc\u30c9": 7423,
  "\u2581controller": 7424,
  "ius": 7425,
  "\u305f\u304f\u3055\u3093": 7426,
  "\u7f8e\u8853": 7427,
  "\u3067\u3042\u308d\u3046": 7428,
  "\u2581Taiwan": 7429,
  "\u3092\u6c42\u3081\u308b": 7430,
  "\u2581\u6700\u5f8c\u306b": 7431,
  "\u30b8\u30e3\u30fc": 7432,
  "\u2581Council": 7433,
  "\u898f\u5b9a": 7434,
  "\u3044\u3064\u3067\u3082": 7435,
  "\u91cf\u5b50": 7436,
  "Ha": 7437,
  "\u3092\u611f\u3058": 7438,
  "\u306e\u4e0b": 7439,
  "\u2581\u6c34": 7440,
  "\u9805": 7441,
  "\u2581superior": 7442,
  "vol": 7443,
  "\u304b\u308c": 7444,
  "\u2581Party": 7445,
  "\u2581possibility": 7446,
  "wel": 7447,
  "\u2581fix": 7448,
  "PDF": 7449,
  "\u30bf\u30eb": 7450,
  "2018": 7451,
  "\u2581forget": 7452,
  "\u2581integrate": 7453,
  "76": 7454,
  "\u30b9\u30c8\u30ea\u30fc\u30c8": 7455,
  "\u2581Digital": 7456,
  "2012": 7457,
  "lay": 7458,
  "\u88fd\u54c1\u306f": 7459,
  "\u25812002": 7460,
  "\u30ed\u30b9": 7461,
  "\u3092\u652f\u63f4\u3059\u308b": 7462,
  "cip": 7463,
  "\u2581Ve": 7464,
  "\u5831\u9053": 7465,
  "\u30e9\u30b9": 7466,
  "\u2581tomorrow": 7467,
  "Vi": 7468,
  "01": 7469,
  "\u5206\u91ce\u3067": 7470,
  "\u7d50\u6676": 7471,
  "\u627f": 7472,
  "cle": 7473,
  "\u304b\u3089\u306a\u308b": 7474,
  "\u2581lighting": 7475,
  "\u2581proper": 7476,
  "\u3089\u305a": 7477,
  "\u306f\u305a": 7478,
  "\u5c06\u6765\u306e": 7479,
  "\u2581zero": 7480,
  "\u2581audit": 7481,
  "\u30d5\u30a1\u30c3\u30b7\u30e7\u30f3": 7482,
  "\u898b\u3048\u308b": 7483,
  "\u2581communities": 7484,
  "98": 7485,
  "\u2581optimal": 7486,
  "\u30e1\u30f3\u30c8": 7487,
  "\u2581introduction": 7488,
  "\u2581Public": 7489,
  "\u2581Best": 7490,
  "\u3093\u3067\u3044\u308b": 7491,
  "\u77ed": 7492,
  "late": 7493,
  "ria": 7494,
  "\u88ab": 7495,
  "\u2581Yo": 7496,
  "\u30b7\u30e7\u30f3": 7497,
  "\u4f01\u696d\u306f": 7498,
  "\u3092\u898b\u305b": 7499,
  "\u2581finding": 7500,
  "\u2581Shrine": 7501,
  "\u8d77\u52d5": 7502,
  "\u2581\u541b": 7503,
  "\u2581mouth": 7504,
  "\u306b\u53c2\u52a0": 7505,
  "ural": 7506,
  "\u5b9f\u7e3e": 7507,
  "\u2581unknown": 7508,
  "\u5341\u5206\u306b": 7509,
  "\u30d6\u30e9\u30b8\u30eb": 7510,
  "\u2581specify": 7511,
  "\u2581attached": 7512,
  "\u30a4\u30fc": 7513,
  "\u30dc\u30fc": 7514,
  "\u25812001": 7515,
  "\u6761\u7d04": 7516,
  "\u2581ta": 7517,
  "\u2581comparison": 7518,
  "\u3068\u540c\u69d8\u306b": 7519,
  "\u306e\u9055\u3044": 7520,
  "\u3092\u9ad8\u3081\u308b": 7521,
  "\u2581Italy": 7522,
  "\u2581diverse": 7523,
  "\u9774": 7524,
  "\u8a71\u984c": 7525,
  "\u6c17\u6301\u3061": 7526,
  "rated": 7527,
  "\u767a\u8868\u3055\u308c\u305f": 7528,
  "\u2581precision": 7529,
  "\u25812.0": 7530,
  "\u2581fell": 7531,
  "\u2581streaming": 7532,
  "\u7565": 7533,
  "\u2581Singapore": 7534,
  "\u2581TO": 7535,
  "\u4f59": 7536,
  "\u5012": 7537,
  "\u2581conflict": 7538,
  "\u5c31": 7539,
  "\u5143\u306e": 7540,
  "\u516d": 7541,
  "\u30de\u30a4\u30af\u30ed\u30b5\u30fc\u30d3\u30b9": 7542,
  "\u2581senior": 7543,
  "\u53f0\u6e7e": 7544,
  "\u30af\u30e9\u30b9\u30bf": 7545,
  "ern": 7546,
  "\u2581certainly": 7547,
  "\u2581operated": 7548,
  "dar": 7549,
  "\u2581miles": 7550,
  "Qu": 7551,
  "\u2581ingredients": 7552,
  "\u30df\u30f3\u30b0": 7553,
  "\u2581\u4e16\u754c": 7554,
  "\u7b56": 7555,
  "\u2581participants": 7556,
  "2014": 7557,
  "\u2581outdoor": 7558,
  "ford": 7559,
  "\u3092\u4f5c\u6210\u3057": 7560,
  "\u2581bond": 7561,
  "SUB": 7562,
  "\u2581signed": 7563,
  "\u2581define": 7564,
  "\u7537\u306e\u5b50": 7565,
  "\u4f55\u304c": 7566,
  "\u3078\u306e\u30a2\u30af\u30bb\u30b9": 7567,
  "\u2581Four": 7568,
  "\u30c6\u30eb": 7569,
  "rie": 7570,
  "LAN": 7571,
  "\u30c7\u30a4": 7572,
  "\u4e88\u9632": 7573,
  "\u7fd2": 7574,
  "\u8abf\u9054": 7575,
  "\u623b": 7576,
  "\u4fc3\u9032": 7577,
  "\u2581beta": 7578,
  "\u30a8\u30f3\u30bf\u30fc\u30d7\u30e9\u30a4\u30ba": 7579,
  "\u2581supposed": 7580,
  "\u2581newly": 7581,
  "\u8005\u306b": 7582,
  "RL": 7583,
  "\u80b2": 7584,
  "text": 7585,
  "lum": 7586,
  "\u6b69": 7587,
  "IO": 7588,
  "\u306e\u3067\u3059\u304b": 7589,
  "\u2581coast": 7590,
  "\u2581kid": 7591,
  "\u91cf\u306e": 7592,
  "\u2581Engine": 7593,
  "\u30b7\u30b9\u30c6\u30e0\u3092": 7594,
  "\u8de1": 7595,
  "\u2581random": 7596,
  "\u2581differences": 7597,
  "long": 7598,
  "\u30a4\u30f3\u30d5\u30e9": 7599,
  "\u751f\u7523\u6027": 7600,
  "2020": 7601,
  "Ex": 7602,
  "\u2581occur": 7603,
  "\u2581concert": 7604,
  "\u5b89\u5168\u306a": 7605,
  "\u5929\u7136": 7606,
  "\u8efd\u91cf": 7607,
  "\u2581mix": 7608,
  "\u5358\u7d14\u306a": 7609,
  "pel": 7610,
  "\u2581interact": 7611,
  "\u610f\u56f3": 7612,
  "\u30dd\u30f3\u30d7": 7613,
  "\u79d8": 7614,
  "\u7591\u554f": 7615,
  "\u2581films": 7616,
  "\u2581XML": 7617,
  "\u304c\u9ad8\u3044": 7618,
  "\u2581Special": 7619,
  "zy": 7620,
  "\u3046\u3061": 7621,
  "\u2581craft": 7622,
  "\u4fee": 7623,
  "\u8a66\u5408": 7624,
  "\u3066\u3044\u3066": 7625,
  "Fe": 7626,
  "\u2581Bio": 7627,
  "\u2581\u3042": 7628,
  "\u56fd\u7acb": 7629,
  "\u3053\u3068\u3092\u793a\u3059": 7630,
  "une": 7631,
  "ign": 7632,
  "\u2581Government": 7633,
  "\u2581\u79c1\u9054\u306f": 7634,
  "\u7d99\u7d9a": 7635,
  "\u958b\u767a\u8005\u304c": 7636,
  "\u30af\u30a8\u30ea": 7637,
  "\u2581pl": 7638,
  "\u30db\u30fc": 7639,
  "\u9752\u3044": 7640,
  "\u88c5": 7641,
  "cast": 7642,
  "\u67f1": 7643,
  "\u2581simulation": 7644,
  "\u2581electrical": 7645,
  "\u78ba\u7387": 7646,
  "\u3055\u3089\u306a\u308b": 7647,
  "\u307b": 7648,
  "screen": 7649,
  "Jo": 7650,
  "\u306a\u3069\u306b": 7651,
  "\u2581su": 7652,
  "\u2581compete": 7653,
  "\u2581aware": 7654,
  "wn": 7655,
  "\u2581ticket": 7656,
  "\u2212": 7657,
  "}}": 7658,
  "\u5357\u90e8": 7659,
  "\u4fa1": 7660,
  "\u2581permission": 7661,
  "^": 7662,
  "\u5834\u6240\u306b": 7663,
  "\u2581Finally": 7664,
  "\u304c\u3044\u308b": 7665,
  "Th": 7666,
  "\u2581score": 7667,
  "cin": 7668,
  "\u30e1\u30bf": 7669,
  "\u2581Search": 7670,
  "2013": 7671,
  "\u6e7f": 7672,
  "\u2581managing": 7673,
  "\u5bff\u547d": 7674,
  "\u629c\u3051": 7675,
  "\u2581bought": 7676,
  "\u2581r": 7677,
  "\u4e8b\u524d": 7678,
  "\u2581MA": 7679,
  "\u52c9\u5f37": 7680,
  "\u63d0\u4f9b\u3059\u308b": 7681,
  "\u2581trained": 7682,
  "\u5c4b\u5916": 7683,
  "\u5bbf\u6cca": 7684,
  "150": 7685,
  "cker": 7686,
  "\u6697\u53f7\u5316": 7687,
  "\u2581tissue": 7688,
  "\u2581Where": 7689,
  "struct": 7690,
  "\u904e\u304e": 7691,
  "gel": 7692,
  "\u4fbf\u5229\u306a": 7693,
  "\u3092\u4f5c\u308a": 7694,
  "\u2581upgrade": 7695,
  "\u2581\u541b\u306f": 7696,
  "\u30c6\u30f3\u30d7\u30ec\u30fc\u30c8": 7697,
  "\u4f5c\u3063\u305f": 7698,
  "\u2581Year": 7699,
  "\u2581seek": 7700,
  "\u77f3\u6cb9": 7701,
  "69": 7702,
  "\u2581Win": 7703,
  "gue": 7704,
  "\u75db": 7705,
  "\u8003\u3048\u308b": 7706,
  "oy": 7707,
  "\u30d7\u30eb": 7708,
  "\u63d0\u4f9b\u3055\u308c\u308b": 7709,
  "\u9593\u9055\u3044": 7710,
  "\u2581arrived": 7711,
  "\u2581controlled": 7712,
  "\u2581ads": 7713,
  "\u30a6\u30a3\u30f3\u30c9\u30a6": 7714,
  "\u30c8\u30a5": 7715,
  "\u6b63\u3057\u304f": 7716,
  "\u6574\u5099": 7717,
  "\u5144": 7718,
  "\u78ba\u7acb": 7719,
  "\u306e\u5b58\u5728": 7720,
  "\u2581hi": 7721,
  "\u30d5\u30a9\u30fc\u30c9": 7722,
  "\u30aa\u30fc\u30c7\u30a3\u30aa": 7723,
  "\u7642\u6cd5": 7724,
  "\u5c06\u8ecd": 7725,
  "\u2581Good": 7726,
  "\u2581Before": 7727,
  "\u2581logic": 7728,
  "\u2581runtime": 7729,
  "\u2581priest": 7730,
  "\u2581ecosystem": 7731,
  "made": 7732,
  "\u2581worry": 7733,
  "\u8cb8": 7734,
  "\u2581church": 7735,
  "cap": 7736,
  "\u2581Christian": 7737,
  "rid": 7738,
  "\u653f\u6a29": 7739,
  "\u306a\u3044\u3088\u3046\u306b": 7740,
  "\u2581college": 7741,
  "\u3068\u3055\u308c\u308b": 7742,
  "Data": 7743,
  "\u81ea\u3089": 7744,
  "\u304c\u3042\u308a\u307e\u3057\u305f": 7745,
  "\u2581split": 7746,
  "\u2581Ji": 7747,
  "\u96a3": 7748,
  "ming": 7749,
  "\u30b9\u30b1\u30b8\u30e5\u30fc\u30eb": 7750,
  "hood": 7751,
  "duce": 7752,
  "\u6050\u308c": 7753,
  "\u2581Only": 7754,
  "\u30e9\u30eb": 7755,
  "\u6291\u5236": 7756,
  "era": 7757,
  "ban": 7758,
  "\u4e3b\u8981": 7759,
  "\u6eb6": 7760,
  "\u4fdd\u7ba1": 7761,
  "\u63d0\u51fa": 7762,
  "\u2581Plan": 7763,
  "\u3092\u53d7\u3051\u3066": 7764,
  "\u8a71\u3059": 7765,
  "\u2581@": 7766,
  "\u2581gear": 7767,
  "\u2581nine": 7768,
  "\u2581slightly": 7769,
  "\u2581guitar": 7770,
  "7%": 7771,
  "\u2581affected": 7772,
  "\u4f1d\u7d71": 7773,
  "ense": 7774,
  "\u30d0\u30e9\u30f3\u30b9": 7775,
  "\u2581Electric": 7776,
  "\u306e\u88fd\u9020": 7777,
  "\u30cf\u30f3\u30c9": 7778,
  "\u9023\u5408": 7779,
  "\u2581recognize": 7780,
  "\u2581sw": 7781,
  "\u793c": 7782,
  "\u2581wild": 7783,
  "\u2581impossible": 7784,
  "\u81ea\u7531\u306b": 7785,
  "\u30b7\u30e3\u30ef\u30fc": 7786,
  "world": 7787,
  "\u2581king": 7788,
  "\u2581Den": 7789,
  "\u2581explains": 7790,
  "arm": 7791,
  "\u2581divided": 7792,
  "\u540c\u610f": 7793,
  "://": 7794,
  "\u2581seconds": 7795,
  "\u8457\u4f5c\u6a29": 7796,
  "\u30d5\u30a3\u30eb\u30bf\u30fc": 7797,
  "\u2581seal": 7798,
  "\u6709\u6599": 7799,
  "\u2581Resort": 7800,
  "\u3068\u547c\u3070\u308c": 7801,
  "\u4e8b\u52d9\u6240": 7802,
  "\u4ffa": 7803,
  "&#39;": 7804,
  "\u2581dinner": 7805,
  "EX": 7806,
  "\u2581AR": 7807,
  "\u5144\u5f1f": 7808,
  "\u5e81": 7809,
  "\u2581MO": 7810,
  "\u2581regard": 7811,
  "\u306e\u9593\u3067": 7812,
  "\u3057\u3088\u3046\u3068": 7813,
  "\u2581accepted": 7814,
  "duct": 7815,
  "ida": 7816,
  "\u30d5\u30ed\u30f3\u30c8": 7817,
  "\u2581telephone": 7818,
  "\u5c0f\u3055\u304f": 7819,
  "ye": 7820,
  "\u308d\u3046\u3068": 7821,
  "\u7af6\u6280": 7822,
  "\u7528\u8a9e": 7823,
  "\u95b2\u89a7": 7824,
  "sca": 7825,
  "\u4e21\u89aa": 7826,
  "\u53d7\u8cde": 7827,
  "\u8acb\u6c42": 7828,
  "\u2581Ste": 7829,
  "\u0430": 7830,
  "\u30ce\u30fc\u30c8": 7831,
  "\u6574": 7832,
  "\u30b7\u30f3\u30ac\u30dd\u30fc\u30eb": 7833,
  "\u53b3\u3057\u3044": 7834,
  "\u4e0b\u3052": 7835,
  "\u5371\u6a5f": 7836,
  "\u2581officer": 7837,
  "\u2581properly": 7838,
  "osis": 7839,
  "\u6df7\u5408": 7840,
  "\u2581laptop": 7841,
  "ony": 7842,
  "stone": 7843,
  "\u306e\u7279\u5fb4": 7844,
  "\u2581depth": 7845,
  "\u3092\u53c2\u7167": 7846,
  "\u2581typical": 7847,
  "\u3092\u7740\u305f": 7848,
  "PR": 7849,
  "\u6a5f\u306e": 7850,
  "\u58f2\u308a": 7851,
  "\u2581Access": 7852,
  "\u2581concerns": 7853,
  "\u3063\u3066\u308b": 7854,
  "\u51fa\u8377": 7855,
  "\u2581rare": 7856,
  "\u2581compliance": 7857,
  "\u2581Social": 7858,
  "\u79fb": 7859,
  "meter": 7860,
  "\u2581forced": 7861,
  "gawa": 7862,
  "\u5f53\u7136": 7863,
  "\u985e\u4f3c": 7864,
  "\u5965": 7865,
  "\u3057\u3066\u3044\u307e\u3057\u305f": 7866,
  "\u2581Pacific": 7867,
  "order": 7868,
  "\u2581Surface": 7869,
  "\u6e96": 7870,
  "\u2581\u9ad8": 7871,
  "\u5e02\u5834\u3067": 7872,
  "\u2581lake": 7873,
  "\u6a5f\u80fd\u304c": 7874,
  "\u2581designated": 7875,
  "site": 7876,
  "\u3068\u3057": 7877,
  "bed": 7878,
  "\u2581roof": 7879,
  "\u2581mu": 7880,
  "\u30aa\u30fc\u30d0\u30fc": 7881,
  "\u73fe\u72b6": 7882,
  "\u2581Hat": 7883,
  "\u30af\u30c8": 7884,
  "\u2581ceremony": 7885,
  "\u2581adoption": 7886,
  "\u30a6\u30f3": 7887,
  "\u306e\u53ef\u80fd\u6027": 7888,
  "\u2581\u7c73": 7889,
  "\u2581l": 7890,
  "\u2581truly": 7891,
  "\u2581complexity": 7892,
  "_2": 7893,
  "\u8a98\u5c0e": 7894,
  "\u6027\u8cea": 7895,
  "\u30db\u30ef\u30a4\u30c8": 7896,
  "\u4f1a\u5834": 7897,
  "ii": 7898,
  "\u7d9a\u304f": 7899,
  "\u30b5\u30a4\u30c8\u306e": 7900,
  "\u3044\u3066\u3044\u308b": 7901,
  "\u3044\u304b": 7902,
  "\u2581fly": 7903,
  "\u56f3\u66f8\u9928": 7904,
  "\u898f\u683c": 7905,
  "\u2581principle": 7906,
  "\u5207\u65ad": 7907,
  "\u2581suite": 7908,
  "\u2581relative": 7909,
  "\u5316\u3055\u308c\u305f": 7910,
  "\u53f8": 7911,
  "og": 7912,
  "\u5834\u5408\u304c\u3042\u308a\u307e\u3059": 7913,
  "\u2581insurance": 7914,
  "\u2581Wall": 7915,
  "\u9769\u547d": 7916,
  "HD": 7917,
  "\u2581honor": 7918,
  "\u2581Nu": 7919,
  "\u2581Ed": 7920,
  "\u2581valve": 7921,
  "\u76d7": 7922,
  "\u2581engaged": 7923,
  "\u878d\u5408": 7924,
  "\u2581libraries": 7925,
  "\u4e00\u3064\u306e": 7926,
  "\u2581estate": 7927,
  "\u6311\u6226": 7928,
  "\u767a\u8868\u3057\u305f": 7929,
  "\u96f0\u56f2\u6c17": 7930,
  "2008": 7931,
  "\u304b\u3082": 7932,
  "\u2581salt": 7933,
  "\u5316\u3059\u308b": 7934,
  "\u68d2": 7935,
  "So": 7936,
  "\u304f\u308c": 7937,
  "\u4ed8\u3051\u308b": 7938,
  "\u3064\u3044\u305f": 7939,
  "1)": 7940,
  "\u3084\u308b": 7941,
  "\u2581scientists": 7942,
  "ific": 7943,
  "\u2581array": 7944,
  "dent": 7945,
  "\u30b0\u30fc\u30b0\u30eb": 7946,
  "\u5bfe\u51e6": 7947,
  "\u2581rapid": 7948,
  "\u2581designs": 7949,
  "\u7f72\u540d": 7950,
  "\u767e": 7951,
  "\u80ba": 7952,
  "\u3092\u3054\u89a7\u304f\u3060\u3055\u3044": 7953,
  "TP": 7954,
  "EV": 7955,
  "\u2581\u3061\u3087\u3063\u3068": 7956,
  "\u3065\u304f\u308a": 7957,
  "\u258131": 7958,
  "from": 7959,
  "\u9178\u7d20": 7960,
  "\u30a4\u30ae\u30ea\u30b9\u306e": 7961,
  "\u4e0d\u52d5\u7523": 7962,
  "\u3092\u898b\u3066\u3044\u307e\u3059": 7963,
  "\u653f\u5e9c\u306f": 7964,
  "\u2581Bro": 7965,
  "\u63a2\u7d22": 7966,
  "\u2581Bur": 7967,
  "\u901a\u8ca8": 7968,
  "itis": 7969,
  "\u2581budget": 7970,
  "\u308b\u3088\u3046\u306b": 7971,
  "UL": 7972,
  "\u65d7": 7973,
  "\u2581ski": 7974,
  "\u25811970": 7975,
  "\u2581imagine": 7976,
  "\u2581failed": 7977,
  "\u9ad8\u304f": 7978,
  "\u88c5\u98fe": 7979,
  "\u53ce\u5165": 7980,
  "\u307e\u3063\u305f": 7981,
  "\u5f93\u6765": 7982,
  "\u2581Spec": 7983,
  "\u306e\u4f5c\u6210": 7984,
  "\u2581bottle": 7985,
  "\u2581documentation": 7986,
  "\u306e\u69cb\u7bc9": 7987,
  "\u6a29\u9650": 7988,
  "\u2581Direct": 7989,
  "\u30e6\u30cb\u30fc\u30af\u306a": 7990,
  "\u2581lots": 7991,
  "LI": 7992,
  "\u2581pin": 7993,
  "\u3092\u5fc5\u8981\u3068\u3059\u308b": 7994,
  "\u8fd1\u304f\u306e": 7995,
  "\u306b\u63a5\u7d9a": 7996,
  "ok": 7997,
  "\u2581extended": 7998,
  "\u2581net": 7999,
  "\u306e\u3059\u3079\u3066\u306e": 8000,
  "\u3053\u3068\u304c\u3042\u308a\u307e\u3059": 8001,
  "\u2581Par": 8002,
  "\u5207\u308c": 8003,
  "\u640d\u50b7": 8004,
  "\u308b\u306e\u306f": 8005,
  "\u2581rapidly": 8006,
  "\u53c2": 8007,
  "\u6e6f": 8008,
  "\u2581causes": 8009,
  "\u2581\u5f53": 8010,
  "\u304b\u3092": 8011,
  "core": 8012,
  "\u2581tag": 8013,
  "\u2581recognized": 8014,
  "zen": 8015,
  "\u3048\u3066": 8016,
  "\u8ffd": 8017,
  "\u306b\u304a\u3044\u3066\u3082": 8018,
  "\u2581newspaper": 8019,
  "\u2581Exchange": 8020,
  "4%": 8021,
  "\u2581Main": 8022,
  "met": 8023,
  "\u2581Max": 8024,
  "\u2581minimum": 8025,
  "\u2581shower": 8026,
  "\u2581shipping": 8027,
  "\u2581Robert": 8028,
  "\u2581increasingly": 8029,
  "\u8a8c": 8030,
  "\u5411\u304d": 8031,
  "pr": 8032,
  "\u6349\u3048": 8033,
  "\u8840\u7ba1": 8034,
  "\u5ec3": 8035,
  "\u2581blow": 8036,
  "5000": 8037,
  "\u5acc": 8038,
  "\u30c1\u30e3\u30cd\u30eb": 8039,
  "\u70ad\u7d20": 8040,
  "key": 8041,
  "shaped": 8042,
  "\u3092\u5909\u66f4": 8043,
  "\u2581camp": 8044,
  "\u2581movies": 8045,
  "\u2581judge": 8046,
  "6%": 8047,
  "\u3092\u5b88\u308b": 8048,
  "\u4eee\u60f3": 8049,
  "\u3092\u898b\u305f": 8050,
  "\u6570\u306e": 8051,
  "\u307e\u3055\u306b": 8052,
  "\u3059\u304e\u308b": 8053,
  "\u30c7\u30fc": 8054,
  "\u5f53\u305f\u308a": 8055,
  "\u672c\u306e": 8056,
  "\u5546\u6a19": 8057,
  "\u306b\u304a": 8058,
  "\u2581teaching": 8059,
  "cat": 8060,
  "\u25813-": 8061,
  "Linux": 8062,
  "uro": 8063,
  "\u640d\u5bb3": 8064,
  "ory": 8065,
  "\u4f4e\u6e1b": 8066,
  "\u51b7\u8535\u5eab": 8067,
  "\u2581specification": 8068,
  "\u306b\u9069\u7528": 8069,
  "\u3057\u305f\u306e\u306f": 8070,
  "\u2581REST": 8071,
  "2010": 8072,
  "\u30b9\u30bf\u30b8\u30aa": 8073,
  "\u2581guess": 8074,
  "\u30a6\u30b9": 8075,
  "\u30015": 8076,
  "\u4e0d\u6b63": 8077,
  "\u2581slide": 8078,
  "lation": 8079,
  "\u30d9\u30fc": 8080,
  "\u30c6\u30a3\u30f3\u30b0": 8081,
  "CH": 8082,
  "\u2581experts": 8083,
  "\u2581List": 8084,
  "NC": 8085,
  "\u304c\u3042\u308c\u3070": 8086,
  "\u8fb2": 8087,
  "\u2581nearby": 8088,
  "\u30d5\u30e9": 8089,
  "test": 8090,
  "\u5916\u56fd": 8091,
  "\u6298": 8092,
  "\u9996\u76f8": 8093,
  "\u2581Sal": 8094,
  "\u2581adopt": 8095,
  "sol": 8096,
  "\u2581formation": 8097,
  "\u6c0f\u3068": 8098,
  "\u5f53\u6642\u306e": 8099,
  "\u821e\u53f0": 8100,
  "bot": 8101,
  "\u2581journey": 8102,
  "\u2581gap": 8103,
  "\u2581calendar": 8104,
  "\u2581leverage": 8105,
  "rea": 8106,
  "\u2581discussion": 8107,
  "\u3068\u3057\u3066\u3044\u308b": 8108,
  "\u76f8\u4e92\u4f5c\u7528": 8109,
  "\u6cd5\u306b\u3088\u308b": 8110,
  "\u2581adapt": 8111,
  "\u30d5\u30e9\u30f3\u30b9\u306e": 8112,
  "\u2581logo": 8113,
  "\u306b\u3068\u3063\u3066\u306f": 8114,
  "\u2581sensors": 8115,
  "\u5c5e\u6027": 8116,
  "\u30b1\u30a2": 8117,
  "\u7269\u3092": 8118,
  "\u2581Para": 8119,
  "\u2581Sony": 8120,
  "\u2581attacks": 8121,
  "\u4e57\u308a": 8122,
  "\u30d7\u30ec\u30fc\u30e4\u30fc": 8123,
  "yn": 8124,
  "\u2581bomb": 8125,
  "\u2581cameras": 8126,
  "\u2581Hill": 8127,
  "ui": 8128,
  "89": 8129,
  "\u2581Kin": 8130,
  "\u540d\u306f": 8131,
  "ike": 8132,
  "\u304b\u3064\u3066": 8133,
  "\u2581pe": 8134,
  "lor": 8135,
  "\u308f\u304b\u308b": 8136,
  "\u30d1\u30e9": 8137,
  "\u816b\u760d": 8138,
  "\u00f6": 8139,
  "\u6226\u95d8": 8140,
  "\u6df7": 8141,
  "\u2581deposit": 8142,
  "\u6253\u3061": 8143,
  "\u306b\u5bfe\u5fdc": 8144,
  "\u306e\u65b9\u304c": 8145,
  "\u2581cluster": 8146,
  "\u2581assets": 8147,
  "\u30d9\u30c8\u30ca\u30e0": 8148,
  "sy": 8149,
  "\u8cc7\u683c": 8150,
  "\u2581Net": 8151,
  "\u2581studio": 8152,
  "\u2581Palace": 8153,
  "\u2581Flex": 8154,
  "get": 8155,
  "\u2581interior": 8156,
  "\u2581represent": 8157,
  "\u30d9\u30eb\u30c8": 8158,
  "\u2581mm": 8159,
  "\u5408\u8a08": 8160,
  "base": 8161,
  "\u30cf\u30fc\u30c9": 8162,
  "\u4e8b\u3092": 8163,
  "\u308b\u3053\u3068\u3067": 8164,
  "\u7814\u7a76\u958b\u767a": 8165,
  "\u2581Head": 8166,
  "\u30c6\u30c3\u30af": 8167,
  "ink": 8168,
  "\u2581script": 8169,
  "\u5fc5\u9808": 8170,
  "\u2581wonder": 8171,
  "\u3059\u304e": 8172,
  "\u2581Gar": 8173,
  "\u2581constant": 8174,
  "\u59cb\u3081\u308b": 8175,
  "\u2581valuable": 8176,
  "\u306b\u3057\u305f": 8177,
  "\u2581spoke": 8178,
  "\u5468\u6ce2\u6570": 8179,
  "\u2581Garden": 8180,
  "?\u300d": 8181,
  "\u5730\u4e0b": 8182,
  "\u2581bear": 8183,
  "\u2581ob": 8184,
  "\u2581Evaluation": 8185,
  "\u305f\u3061\u306e": 8186,
  "\u2581scope": 8187,
  "\u5bb9\u6613\u306b": 8188,
  "\u2581hundreds": 8189,
  "\u2581landscape": 8190,
  "\u2581ended": 8191,
  "\u30c8\u30e9\u30f3\u30b6\u30af\u30b7\u30e7\u30f3": 8192,
  "\u885d\u7a81": 8193,
  "\u30d2\u30c8": 8194,
  "\u629c": 8195,
  "FE": 8196,
  "\u5dee\u3057": 8197,
  "\u2581income": 8198,
  "\u30ab\u30b9\u30bf\u30de\u30a4\u30ba": 8199,
  "\u2581calling": 8200,
  "\u60c5\u5831\u306f": 8201,
  "sup": 8202,
  "\u304a\u5ba2\u69d8\u306b": 8203,
  "\u601d\u3046": 8204,
  "\u2581DevOps": 8205,
  "\u2581Ac": 8206,
  "\u8840\u6db2": 8207,
  "OT": 8208,
  "\u2581replaced": 8209,
  "\u6388\u696d": 8210,
  "\u30ab\u30c3\u30c8": 8211,
  "\u2581labor": 8212,
  "\u2581alloy": 8213,
  "\u30ce\u30a4\u30ba": 8214,
  "\u2581murder": 8215,
  "\u2581severe": 8216,
  "ani": 8217,
  "\u6240\u6709": 8218,
  "\u2581productivity": 8219,
  "\u2581Make": 8220,
  "\u2581\u73fe\u5728\u306e": 8221,
  "\u2581argument": 8222,
  "\u3055\u306a\u3044": 8223,
  "\u2581describe": 8224,
  "CE": 8225,
  "\u2581\u5f7c\u5973\u306e": 8226,
  "\u5feb": 8227,
  "\u2581Graph": 8228,
  "\u2581organ": 8229,
  "oku": 8230,
  "\u2581nation": 8231,
  "\u2581Shu": 8232,
  "\u3059\u308b\u306e\u306b": 8233,
  "\u30b9\u30c8\u30ec\u30b9": 8234,
  "including": 8235,
  "\u2581strip": 8236,
  "new": 8237,
  "\u2581visited": 8238,
  "war": 8239,
  "sum": 8240,
  "\u2581ro": 8241,
  "you": 8242,
  "\u93e1": 8243,
  "\u51b7\u5374": 8244,
  "\u2581Express": 8245,
  "ea": 8246,
  "\u3061\u3083\u3093": 8247,
  "sign": 8248,
  "\u2581observed": 8249,
  "\u3044\u304b\u306a\u308b": 8250,
  "\u8972": 8251,
  "\u3092\u53d6\u308b": 8252,
  "ore": 8253,
  "\u5e1d\u56fd": 8254,
  "\u795e\u793e": 8255,
  "\u7406\u7531\u306f": 8256,
  "\u306e\u5404": 8257,
  "\u65e5\u672c\u3067": 8258,
  "\u30aa\u30d6": 8259,
  "ew": 8260,
  "\u82e5\u8005": 8261,
  "\u2581whatever": 8262,
  "\u2581Cre": 8263,
  "\u2581Master": 8264,
  "ame": 8265,
  "\u2581gate": 8266,
  "\u3092\u958b\u50ac": 8267,
  "DR": 8268,
  "\u5e83\u3044": 8269,
  "tract": 8270,
  "\u30de\u30cd\u30fc\u30b8\u30e3": 8271,
  "\u56db\u534a\u671f": 8272,
  "script": 8273,
  "\u3065\u3051": 8274,
  "\u2581compact": 8275,
  "\u2581boost": 8276,
  "cut": 8277,
  "bus": 8278,
  "\u2581lunch": 8279,
  "\u5fe0": 8280,
  "\u2581tradition": 8281,
  "\u5438": 8282,
  "\u3068\u8a00\u3063\u3066": 8283,
  "hon": 8284,
  "\u6a39": 8285,
  "\u4e88\u7b97": 8286,
  "\u78c1\u6c17": 8287,
  "\u2581sake": 8288,
  "\u4e8b\u4f8b": 8289,
  "\u2581exhibit": 8290,
  "\u2581autonomous": 8291,
  "\u2581carefully": 8292,
  "\u2581receiving": 8293,
  "\u2581tablet": 8294,
  "\u30c1\u30e3\u30f3\u30b9": 8295,
  "\u308f\u308c": 8296,
  "\u306e\u751f\u7523": 8297,
  "ivity": 8298,
  "\u2581Anti": 8299,
  "\u2581br": 8300,
  "tile": 8301,
  "\u306a\u3057\u3067": 8302,
  "\u5f01\u8b77\u58eb": 8303,
  "\u60d1\u661f": 8304,
  "\u3053\u3093\u306a": 8305,
  "\u2581ships": 8306,
  "hara": 8307,
  "\u30de\u30b9\u30bf\u30fc": 8308,
  "\u5c55": 8309,
  "\u3059\u308b\u3088\u3046": 8310,
  "\u2581urban": 8311,
  "\u30fc\u30b7\u30e7\u30f3": 8312,
  "mura": 8313,
  "\u96fb\u5727": 8314,
  "\u816b": 8315,
  "\u5973\u6027\u306f": 8316,
  "\u81ea\u5206\u81ea\u8eab": 8317,
  "\u5358\u4e00\u306e": 8318,
  "rian": 8319,
  "\u2581cha": 8320,
  "\u2581coating": 8321,
  "\u2581CPU": 8322,
  "\u2581innovative": 8323,
  "\u6bbf": 8324,
  "\u30c0\u30eb": 8325,
  "\u30aa\u30ea\u30b8\u30ca\u30eb": 8326,
  "\u8a71\u3057": 8327,
  "\u3059\u308b\u5834\u5408": 8328,
  "ET": 8329,
  "\u2581retail": 8330,
  "oon": 8331,
  "\u2581About": 8332,
  "\u500b\u306e": 8333,
  "\u2581articles": 8334,
  "\u306e\u95a2\u4fc2": 8335,
  "\u542b\u307e\u308c": 8336,
  "\u30b7\u30f3\u30d7\u30eb\u306a": 8337,
  "\u2581mask": 8338,
  "\u30cb\u30f3": 8339,
  "gal": 8340,
  "\u81f4\u3057\u307e\u3059": 8341,
  "\u5fc3\u81d3": 8342,
  "RM": 8343,
  "\u3042\u306e": 8344,
  "\u2581channels": 8345,
  "\u52b9\u7387\u7684\u306a": 8346,
  "Time": 8347,
  "\u884c\u308f\u308c\u305f": 8348,
  "\u30b9\u30d1": 8349,
  "\u2581\u81ea\u5206\u306e": 8350,
  "\u30d7\u30ec\u30b9": 8351,
  "\u30b9\u30af": 8352,
  "87": 8353,
  "\u2581aluminum": 8354,
  "\u6539\u9769": 8355,
  "\u30b3\u30f3\u30d1\u30a4\u30eb": 8356,
  "\u2581\u3053\u3093\u306a": 8357,
  "\u2581lord": 8358,
  "\u2581virus": 8359,
  "\u2581dollars": 8360,
  "InfoQ": 8361,
  "\u2581unless": 8362,
  "\u2581venture": 8363,
  "\u666e\u901a": 8364,
  "\u30ec\u30d9\u30eb\u3067": 8365,
  "\u6700\u7d42\u7684\u306b": 8366,
  "\u30c9\u30a4\u30c4\u306e": 8367,
  "\u306f\u307b\u3068\u3093\u3069": 8368,
  "\u30c8\u30eb": 8369,
  "\u30c9\u30ed\u30fc\u30f3": 8370,
  "\u2581protocol": 8371,
  "\u65e9\u671f": 8372,
  "\u2581providers": 8373,
  "\u2581soil": 8374,
  "ax": 8375,
  "\u3068\u8003\u3048\u3066\u3044\u308b": 8376,
  "\u3060\u308d\u3046\u304b": 8377,
  "\u2581Restaurant": 8378,
  "\u91ce\u83dc": 8379,
  "\u51fa\u6765\u308b": 8380,
  "\u2581topic": 8381,
  "\u8ecd\u306e": 8382,
  "\u2581Market": 8383,
  "AA": 8384,
  "\u2581yesterday": 8385,
  "\u2581\u3054": 8386,
  "\u7206\u767a": 8387,
  "founder": 8388,
  "\u2581Building": 8389,
  "\u2581Motor": 8390,
  "\u3068\u601d\u3063\u305f": 8391,
  "\u8907\u5408": 8392,
  "NI": 8393,
  "\u2581processor": 8394,
  "\u5834\u5408\u306b": 8395,
  "\u30e2\u30c7\u30eb\u3092": 8396,
  "\u697d\u5668": 8397,
  "\u2581Masa": 8398,
  "\u2581certification": 8399,
  "\u304a\u3088\u305d": 8400,
  "\u2581column": 8401,
  "hiro": 8402,
  "\u56e0\u5b50": 8403,
  "\u30ab\u30c3\u30d7\u30eb": 8404,
  "\u77e5\u3089\u308c": 8405,
  "\u8ecd\u4e8b": 8406,
  "\u2581composed": 8407,
  "\u2581Michael": 8408,
  "\u3082\u3042\u308a": 8409,
  "ale": 8410,
  "\u2581considering": 8411,
  "\u2581stability": 8412,
  "active": 8413,
  "\u2581\u3053\u3046\u3057\u305f": 8414,
  "\u2581mine": 8415,
  "\u2581van": 8416,
  "\u3044\u305a\u308c": 8417,
  "\u2581definitely": 8418,
  "\u516c\u8868": 8419,
  "\u2581mar": 8420,
  "\u2581HD": 8421,
  "\u30b8\u30e3\u30f3\u30d7": 8422,
  "\u30ec\u30c3\u30c9": 8423,
  "\u2581architect": 8424,
  "\u5feb\u9069\u306a": 8425,
  "\u7d9a\u3051\u308b": 8426,
  "\u5854": 8427,
  "\u30d5\u30ec": 8428,
  "\u30ad\u30e5\u30fc": 8429,
[...]
