{
  "</s>": 0,
  "<unk>": 1,
  "\u2581": 2,
  "\u3001": 3,
  "\u2581the": 4,
  ".": 5,
  ",": 6,
  "\u3002": 7,
  "s": 8,
  "\u306e": 9,
  "\u2581of": 10,
  "\u2581and": 11,
  "\u2581to": 12,
  "\u2581a": 13,
  "\u306f": 14,
  "\u2581in": 15,
  "\u3092": 16,
  "\u304c": 17,
  "\u2581is": 18,
  "-": 19,
  "\u306b": 20,
  ")": 21,
  "\u3068": 22,
  "\u2581for": 23,
  "'": 24,
  "\u2581that": 25,
  "\u3067": 26,
  "\u2581with": 27,
  "\u2581on": 28,
  "\u2581The": 29,
  "\u2581you": 30,
  "\u30fb": 31,
  "\u2581it": 32,
  "(": 33,
  "\u2581as": 34,
  "\u2581are": 35,
  "\u2581(": 36,
  "ing": 37,
  "\u2581be": 38,
  "?": 39,
  "\u2581by": 40,
  "\u2581was": 41,
  "t": 42,
  "\u2581from": 43,
  "ed": 44,
  "\u2019": 45,
  ":": 46,
  "\u3084": 47,
  "\u2581an": 48,
  "\u2581at": 49,
  "\u2581I": 50,
  "\u2581can": 51,
  "\u2581A": 52,
  "\u3059\u308b": 53,
  "\u304b\u3089": 54,
  "\u2581or": 55,
  "d": 56,
  "\u2581this": 57,
  "\u300d": 58,
  "\u2581have": 59,
  "\u3082": 60,
  "\u3057\u305f": 61,
  "\u2581not": 62,
  "\u3067\u3059": 63,
  "\u2581will": 64,
  "\u3057": 65,
  "\u2581we": 66,
  "\u2581has": 67,
  "\u5e74": 68,
  "w": 69,
  "\u300c": 70,
  "\u2581your": 71,
  "\u2581which": 72,
  "\u2581In": 73,
  "!": 74,
  "\u2581\"": 75,
  "\u306a": 76,
  "2": 77,
  "1": 78,
  "er": 79,
  ">": 80,
  "\u2581one": 81,
  "\u305f": 82,
  "ly": 83,
  "\u2581but": 84,
  "\"": 85,
  "in": 86,
  "\u2581all": 87,
  "\u2581i": 88,
  "y": 89,
  "\u3067\u3042\u308b": 90,
  "\u2581he": 91,
  "\u2581also": 92,
  "\u2581their": 93,
  "\u308b": 94,
  "\u2581more": 95,
  "\u306b\u306f": 96,
  "re": 97,
  "\u3067\u306f": 98,
  "e": 99,
  "\u2581they": 100,
  "/": 101,
  "\u2581its": 102,
  "3": 103,
  "\u2581It": 104,
  "\u2581about": 105,
  "\u307e\u3059": 106,
  "al": 107,
  "\u2581new": 108,
  "\u2581his": 109,
  "\u304b": 110,
  "m": 111,
  "\u2581time": 112,
  "\u2581our": 113,
  "a": 114,
  "\u3068\u3057\u3066": 115,
  "\u2581so": 116,
  "\u2581up": 117,
  "\u3060": 118,
  "\u2581other": 119,
  "\u2581\u3053\u306e": 120,
  "\u3057\u3066": 121,
  "\u2581out": 122,
  "\u2581<": 123,
  "\u2581like": 124,
  "\u2581were": 125,
  "\u6708": 126,
  "\u3055\u308c\u305f": 127,
  "\u2581S": 128,
  "\u2581been": 129,
  "\u2581people": 130,
  "\u2581do": 131,
  "\u305d\u306e": 132,
  "S": 133,
  "\u2581there": 134,
  "\u65e5": 135,
  "\u2581into": 136,
  "\u2581who": 137,
  "\u2581what": 138,
  "\u2581use": 139,
  "\u3053\u306e": 140,
  "\u3068\u3044\u3046": 141,
  "\u2581when": 142,
  "\u2581no": 143,
  "\u2581This": 144,
  "\u2581We": 145,
  "\u2581\u201c": 146,
  "o": 147,
  "n": 148,
  "\u201d": 149,
  "\u304a\u3088\u3073": 150,
  "\u3057\u3066\u3044\u308b": 151,
  "\u3057\u307e\u3059": 152,
  "\u3066": 153,
  "\u2581if": 154,
  "A": 155,
  "r": 156,
  "\u2581first": 157,
  "4": 158,
  "\u306a\u3069": 159,
  "\u2581such": 160,
  "...": 161,
  "C": 162,
  "\u2581had": 163,
  "\u2581my": 164,
  "es": 165,
  "\u4eba": 166,
  "D": 167,
  "\u2581than": 168,
  "i": 169,
  "\u2581He": 170,
  "\u2581over": 171,
  "\u30b9": 172,
  "\u2581only": 173,
  "\u2581used": 174,
  "or": 175,
  "5": 176,
  "\u3066\u3044\u308b": 177,
  "\u2581some": 178,
  "\u2581just": 179,
  "\u306b\u3088\u308b": 180,
  "\u2581work": 181,
  "th": 182,
  "\u2581make": 183,
  "\u2581me": 184,
  "\u2581any": 185,
  "\u2581Japanese": 186,
  "\u2581company": 187,
  "\u3055\u308c\u308b": 188,
  "\u6027": 189,
  "\u2581system": 190,
  "\u2581two": 191,
  "\u2581information": 192,
  "\u2581data": 193,
  "\u306b\u3088\u3063\u3066": 194,
  "\u2581well": 195,
  ";": 196,
  "\u2581would": 197,
  "\u308a": 198,
  "\u2581get": 199,
  "\u2581them": 200,
  "\u25812": 201,
  "ve": 202,
  "\u2581through": 203,
  "\u2581how": 204,
  "\u2581man": 205,
  "\u2581after": 206,
  "to": 207,
  "\u2581-": 208,
  "\u2581where": 209,
  "\u2581now": 210,
  "\u2581Japan": 211,
  "\u2581using": 212,
  "]": 213,
  "\u306b\u304a\u3051\u308b": 214,
  "B": 215,
  "\u2581re": 216,
  "\u7684\u306a": 217,
  "\u307e\u305f\u306f": 218,
  "\u2581most": 219,
  "\u2581\u300c": 220,
  "\u30c8": 221,
  "\u3066\u3044\u307e\u3059": 222,
  "\u2581many": 223,
  "\u2581high": 224,
  "\u3078\u306e": 225,
  "\u306b\u3064\u3044\u3066": 226,
  "\u2581her": 227,
  "\u25813": 228,
  "\u3044": 229,
  "ll": 230,
  "\u2581years": 231,
  "\u2581these": 232,
  "\u25811": 233,
  "\u2581world": 234,
  "\u2581C": 235,
  "\u3057\u3066\u3044\u307e\u3059": 236,
  "\u2581To": 237,
  "\u3053\u3068": 238,
  "\u307e\u3057\u305f": 239,
  "\u2581way": 240,
  "\u3088\u308a": 241,
  ").": 242,
  "\u2581very": 243,
  "\u2581B": 244,
  "\u30b5\u30fc\u30d3\u30b9": 245,
  "T": 246,
  "\u2581between": 247,
  "10": 248,
  "\u7684": 249,
  "6": 250,
  "\u2581business": 251,
  "\u5316": 252,
  "),": 253,
  "\u5927": 254,
  "ation": 255,
  "\u30a2": 256,
  "\u2581\u307e\u305f": 257,
  "\u2581Google": 258,
  "\u2581may": 259,
  "\u2581P": 260,
  "\u2581year": 261,
  "\u2581said": 262,
  "\u2581made": 263,
  "\u2581then": 264,
  "\u3067\u304d\u308b": 265,
  "\u2581If": 266,
  "\u306a\u3044": 267,
  "\u2581see": 268,
  "\u30c9": 269,
  "\u2581You": 270,
  "\u30ea": 271,
  "b": 272,
  "G": 273,
  "\u2581E": 274,
  "\u307e\u3067": 275,
  "\u304f": 276,
  "\u3063\u3066": 277,
  "\u2581take": 278,
  "\u2581need": 279,
  "c": 280,
  "P": 281,
  "7": 282,
  "\u306b\u3088\u308a": 283,
  "able": 284,
  "\u2581service": 285,
  "\u3089": 286,
  "p": 287,
  "I": 288,
  "\u2581even": 289,
  "on": 290,
  "\u2581For": 291,
  "\u2581could": 292,
  "\u2581same": 293,
  "\u30af": 294,
  "k": 295,
  "\u2581because": 296,
  "\u2581go": 297,
  "\u2581\u305d\u306e": 298,
  "x": 299,
  "\u2581part": 300,
  "M": 301,
  "\u304c\u3042\u308b": 302,
  "\u3055\u308c": 303,
  "\u2581want": 304,
  "\u5e74\u306b": 305,
  "\u2581each": 306,
  "\u2581know": 307,
  "\u30b7\u30b9\u30c6\u30e0": 308,
  "\u2581don": 309,
  "\u2581There": 310,
  "\u2581while": 311,
  "ers": 312,
  "\u2581back": 313,
  "\u2581us": 314,
  "8": 315,
  "F": 316,
  "en": 317,
  "\u2581she": 318,
  "\u2581D": 319,
  "\u2581right": 320,
  "\u2581good": 321,
  "\u2581being": 322,
  "\u6a5f\u80fd": 323,
  "\u2581support": 324,
  "\u30e9": 325,
  "\u3063\u305f": 326,
  "\u2581[": 327,
  "g": 328,
  "\u2581And": 329,
  "\u2581T": 330,
  "\u2581number": 331,
  "\u7528": 332,
  "l": 333,
  "\u3055\u308c\u3066\u3044\u308b": 334,
  "\u672c": 335,
  "\u2581around": 336,
  "\u304a": 337,
  "\u3055": 338,
  "\u3067\u3082": 339,
  "E": 340,
  "ion": 341,
  "\u3088": 342,
  "\u2581As": 343,
  "\u258118": 344,
  "\u2581down": 345,
  "\u4e2d": 346,
  "\u2581F": 347,
  "\u6cd5": 348,
  "N": 349,
  "\u2581under": 350,
  "\u3059": 351,
  "\u3067\u3042\u308a": 352,
  "\u3078": 353,
  "\u2581de": 354,
  "\u2581should": 355,
  "\u2581development": 356,
  "\u2581different": 357,
  "ic": 358,
  "K": 359,
  "\u2581U": 360,
  "\u2581\u3057\u304b\u3057": 361,
  "\u56fd": 362,
  "\u306b\u3082": 363,
  "\u2581products": 364,
  "\u2581Re": 365,
  "\u2581R": 366,
  "\u2581much": 367,
  "<": 368,
  "\u65b0\u3057\u3044": 369,
  "\u2581day": 370,
  "9": 371,
  "\u2581including": 372,
  "an": 373,
  "\u6c34": 374,
  "\u3060\u3063\u305f": 375,
  "O": 376,
  "\u2581here": 377,
  "\u305f\u3081": 378,
  "\u305f\u3081\u306b": 379,
  "\u2581water": 380,
  "\u2581those": 381,
  "\u8005": 382,
  "\u2581set": 383,
  "the": 384,
  "\u2581team": 385,
  "\u2581before": 386,
  "\u2581long": 387,
  "\u2581provide": 388,
  "\u2581M": 389,
  "\u60c5\u5831": 390,
  "\u304d": 391,
  "\u30c7\u30fc\u30bf": 392,
  "\u306b\u95a2\u3059\u308b": 393,
  "\u306a\u3069\u306e": 394,
  "\u2581someone": 395,
  "\u30fc": 396,
  "\u2581O": 397,
  "\u2581own": 398,
  "\u3064\u306e": 399,
  "\u2581both": 400,
  "\u30bf": 401,
  "\u3064": 402,
  "\u258110": 403,
  "\u2581think": 404,
  "\u30ba": 405,
  "\u30ab": 406,
  "\u2581G": 407,
  "19": 408,
  "\u2581without": 409,
  "\u2581called": 410,
  "\u307f": 411,
  "\u2581K": 412,
  "\u3057\u307e\u3057\u305f": 413,
  "\u2581name": 414,
  "ity": 415,
  "h": 416,
  "\u2581three": 417,
  "\u65e5\u672c": 418,
  "\u30de": 419,
  "\u6642\u9593": 420,
  "\u2581\u2013": 421,
  "le": 422,
  "f": 423,
  "X": 424,
  "\u2581life": 425,
  "\u578b": 426,
  "\u2581during": 427,
  "\u3001\u300c": 428,
  "\u2581order": 429,
  "\u7ba1\u7406": 430,
  "\u30ca": 431,
  "\u2581help": 432,
  "\u2581him": 433,
  "\u2581But": 434,
  "\u4eba\u306e": 435,
  "\u306b\u3042\u308b": 436,
  "W": 437,
  "\u2581H": 438,
  "\u591a\u304f\u306e": 439,
  "\u25815": 440,
  "\u3088\u3046\u306b": 441,
  "\u2581look": 442,
  "\u958b\u767a": 443,
  "\u3046": 444,
  "\u2581So": 445,
  "\u2581design": 446,
  "\u2581available": 447,
  "\u2581New": 448,
  "\u4e00": 449,
  "\u2581product": 450,
  "\u306b\u5bfe\u3059\u308b": 451,
  "\u2581un": 452,
  "\u3082\u306e": 453,
  "\u30eb": 454,
  "R": 455,
  "\u30ea\u30fc": 456,
  "\u2581Co": 457,
  "\u6280\u8853": 458,
  "\u30b3": 459,
  "\u25814": 460,
  "\u2581process": 461,
  "us": 462,
  "\u305d\u3057\u3066": 463,
  "\u4e0a": 464,
  "\u2581When": 465,
  "\u304c\u3042\u308a\u307e\u3059": 466,
  "H": 467,
  "\u2581still": 468,
  "\u2581going": 469,
  "\u2581last": 470,
  "\u2581Apple": 471,
  "\u258119": 472,
  "\u306b\u304a\u3044\u3066": 473,
  "\u2581services": 474,
  "\u2581technology": 475,
  "\u2581off": 476,
  "\u2581\u79c1\u306f": 477,
  "\u74b0\u5883": 478,
  "\u88fd\u54c1": 479,
  "\u5f8c": 480,
  "\u3053\u3068\u3092": 481,
  "\u2581based": 482,
  "\u3044\u305f": 483,
  "\u300f": 484,
  "\u7269": 485,
  "V": 486,
  "\u624b": 487,
  "\u2581open": 488,
  "\u30ed": 489,
  "\u2581change": 490,
  "\u5185": 491,
  "\u2581place": 492,
  "\u2581group": 493,
  "\u2581code": 494,
  "12": 495,
  "\u4f01\u696d": 496,
  "\u2581area": 497,
  "\u9ad8": 498,
  "\u2581control": 499,
  "\u540d": 500,
  "\u2581\u3053\u308c\u306f": 501,
  "\u529b": 502,
  "\u308f": 503,
  "\u65b9\u6cd5": 504,
  "\u2581On": 505,
  "\u306d": 506,
  "\u2581N": 507,
  "\u4f53": 508,
  "it": 509,
  "\u2581end": 510,
  "\u3044\u307e\u3059": 511,
  "\u5730": 512,
  "\u2581come": 513,
  "\u2581power": 514,
  "\u2581within": 515,
  "\u2581large": 516,
  "ar": 517,
  "\u306e\u3067": 518,
  "\u2581users": 519,
  "\u2581best": 520,
  "ive": 521,
  "\u2581An": 522,
  "\u2581project": 523,
  "el": 524,
  "\u2581next": 525,
  "\u30b7": 526,
  "\u2581did": 527,
  "\u306e\u305f\u3081\u306b": 528,
  "L": 529,
  "\u5bb6": 530,
  "man": 531,
  "ro": 532,
  "na": 533,
  "\u2581\u5f7c\u306f": 534,
  "\u2581person": 535,
  "ra": 536,
  "\u2581small": 537,
  "\u2581every": 538,
  "\u4ed6\u306e": 539,
  "\u3044\u308b": 540,
  "\u2581home": 541,
  "\u3042\u308b": 542,
  "20": 543,
  "\u2581car": 544,
  "\u2581woman": 545,
  "ate": 546,
  "\u53ca\u3073": 547,
  "\u30d0": 548,
  "\u306b\u306a\u308b": 549,
  "\u6c0f\u306f": 550,
  "\u3093\u3060": 551,
  "\u90e8": 552,
  "ta": 553,
  "\u30e0": 554,
  "\u6570": 555,
  "\u2581application": 556,
  "\u306e\u305f\u3081\u306e": 557,
  "\u2581software": 558,
  "\u2581W": 559,
  "\u306b\u5bfe\u3057\u3066": 560,
  "\u2581quality": 561,
  "\u2581find": 562,
  "\u2581What": 563,
  "\u2581does": 564,
  "\u2581free": 565,
  "ment": 566,
  "\u2581since": 567,
  "\u7b49": 568,
  "\u6642": 569,
  "u": 570,
  "J": 571,
  "\u2581important": 572,
  "\u30d5": 573,
  "\u5c71": 574,
  "\u2581something": 575,
  "Google": 576,
  "\u2581app": 577,
  "\u2581today": 578,
  "\u2581:": 579,
  "\u2581working": 580,
  "\u5206": 581,
  "\u9577": 582,
  "\u30c0": 583,
  "no": 584,
  "\u7d04": 585,
  "\u2581J": 586,
  "ne": 587,
  "\u51e6\u7406": 588,
  "\u2581example": 589,
  "The": 590,
  "\u2581case": 591,
  "\u7814\u7a76": 592,
  "\u2581&": 593,
  "\u306e\u3067\u3059": 594,
  "\u3059\u3079\u3066\u306e": 595,
  "\u2581\u305d\u3057\u3066": 596,
  "\u554f\u984c": 597,
  "co": 598,
  "\u2581They": 599,
  "\u2581possible": 600,
  "\u30cb": 601,
  "\u2581able": 602,
  "\u2581really": 603,
  "\u3068\u306a\u308b": 604,
  "\u2581At": 605,
  "\u2581Hotel": 606,
  "\u2581\u2014": 607,
  "\u30b5": 608,
  "\u2581companies": 609,
  "11": 610,
  "\u30ec": 611,
  "\u2581market": 612,
  "\u2581family": 613,
  "\u306e\u306f": 614,
  "ri": 615,
  "go": 616,
  "\u2581management": 617,
  "\u30a2\u30d7\u30ea\u30b1\u30fc\u30b7\u30e7\u30f3": 618,
  "\u2581various": 619,
  "\u2581e": 620,
  "\u2581little": 621,
  "\u2581things": 622,
  "\u30c6\u30b9\u30c8": 623,
  "\u307e\u305f": 624,
  "\u2581customers": 625,
  "\u30c4\u30fc\u30eb": 626,
  "\u2581period": 627,
  "ness": 628,
  "\u2581create": 629,
  "\u2581experience": 630,
  "\u3067\u304d\u307e\u3059": 631,
  "st": 632,
  "30": 633,
  "\u30a4": 634,
  "\u2581another": 635,
  "\u51fa": 636,
  "\u2581lot": 637,
  "\u56de": 638,
  "\u2581L": 639,
  "\u30df": 640,
  "\u2581access": 641,
  "\u2581With": 642,
  "\u2581type": 643,
  "\u30ad": 644,
  "\u2581too": 645,
  "\u2581production": 646,
  "\u30a4\u30f3": 647,
  "\u6a5f": 648,
  "and": 649,
  "do": 650,
  "ist": 651,
  "age": 652,
  "\u2581user": 653,
  "\u300e": 654,
  "\u7684\u306b": 655,
  "\u3066\u3044\u305f": 656,
  "\u7dda": 657,
  "\u2581great": 658,
  "\u2581line": 659,
  "\u3067\u306e": 660,
  "\u7b2c": 661,
  "\u30e2\u30c7\u30eb": 662,
  "is": 663,
  "\u2581point": 664,
  "\u70b9": 665,
  "\u2581become": 666,
  "z": 667,
  "\u9762": 668,
  "\u2581personal": 669,
  "\u30aa": 670,
  "ma": 671,
  "\u30a6": 672,
  "\u2581better": 673,
  "\u3068\u306e": 674,
  "\u2581making": 675,
  "&": 676,
  "\u2581real": 677,
  "\u2581city": 678,
  "\u306a\u3089": 679,
  "ary": 680,
  "\u2581found": 681,
  "\u2581Java": 682,
  "\u2581few": 683,
  "\u2581She": 684,
  "\u2581features": 685,
  "\u751f": 686,
  "\u2581X": 687,
  "Y": 688,
  "\u2581model": 689,
  "se": 690,
  "\u4f8b": 691,
  "\u25816": 692,
  "\u65b0": 693,
  "\u524d": 694,
  "\u2581following": 695,
  "\u2581Facebook": 696,
  "\u2581value": 697,
  "\u304b\u3089\u306e": 698,
  "\u306e\u304b": 699,
  "\u30a8": 700,
  "ry": 701,
  "ine": 702,
  "\u30b8": 703,
  "ch": 704,
  "\u2581Microsoft": 705,
  "\u2581room": 706,
  "\u2581performance": 707,
  "\u5927\u304d\u306a": 708,
  "\u2581After": 709,
  "\u6d3b\u52d5": 710,
  "\u306e\u3088\u3046\u306a": 711,
  "\u2581give": 712,
  "\u2581public": 713,
  "18": 714,
  "\u2581say": 715,
  "\u2581future": 716,
  "\u2581InfoQ": 717,
  "\u2581top": 718,
  "\u258120": 719,
  "\u4e0b": 720,
  "\u3054": 721,
  "\u2581space": 722,
  "\u5ea6": 723,
  "\u2581state": 724,
  "\u76ee": 725,
  "\u2014": 726,
  "\u7d44\u7e54": 727,
  "\u2581building": 728,
  "\u2581why": 729,
  "\u2581per": 730,
  "\u30d0\u30fc": 731,
  "son": 732,
  "\u3042\u306a\u305f\u306e": 733,
  "ji": 734,
  "\u5149": 735,
  "\u2581video": 736,
  "\u3093": 737,
  "\u3060\u308d\u3046": 738,
  "\u2581must": 739,
  "at": 740,
  "\u9053": 741,
  "\u2581children": 742,
  "\u25818": 743,
  "\u3057\u3066\u3044\u305f": 744,
  "\u2581hand": 745,
  "\u2581local": 746,
  "\u25817": 747,
  "\u3067\u3057\u3087\u3046": 748,
  "\u95a2\u4fc2": 749,
  "\u5dde": 750,
  "\u3055\u305b\u308b": 751,
  "\u2581site": 752,
  "\u2581light": 753,
  "\u306a\u304b\u3063\u305f": 754,
  "\u30ce": 755,
  "\u2581together": 756,
  "\u2581method": 757,
  "\u2581put": 758,
  "v": 759,
  "\u2581side": 760,
  "\u4e8b": 761,
  "\u2581away": 762,
  "il": 763,
  "\u4f1a\u793e": 764,
  "\u30d6": 765,
  "\u2581test": 766,
  "15": 767,
  "\u2581V": 768,
  "\u6240": 769,
  "\u4f1a": 770,
  "be": 771,
  "\u2581run": 772,
  "\u30b5\u30a4\u30c8": 773,
  "de": 774,
  "\u2581full": 775,
  "\u2581device": 776,
  "me": 777,
  "\u30c3": 778,
  "\u2581That": 779,
  "\u8a08\u753b": 780,
  "\u2581However": 781,
  "\u88c5\u7f6e": 782,
  "\u5b50": 783,
  "\u2581addition": 784,
  "\u3053\u3068\u304c\u3067\u304d\u307e\u3059": 785,
  "\u2581second": 786,
  "ter": 787,
  "\u2581form": 788,
  "\u2581got": 789,
  "\u2581co": 790,
  "\u65e5\u306b": 791,
  "\u30d3\u30b8\u30cd\u30b9": 792,
  "\u2581school": 793,
  "\u2581start": 794,
  "\u30b2\u30fc\u30e0": 795,
  "\u3092\u6301\u3064": 796,
  "\u30d7": 797,
  "\u2581against": 798,
  "\u2581level": 799,
  "\u4e0a\u306e": 800,
  "\u2581means": 801,
  "\u3068\u306f": 802,
  "\u30c1": 803,
  "te": 804,
  "\u2581China": 805,
  "\u2581having": 806,
  "\u30b0": 807,
  "\u30a2\u30d7\u30ea": 808,
  "\u2581version": 809,
  "\u2581body": 810,
  "\u5e74\u306e": 811,
  "\u2581human": 812,
  "up": 813,
  "\u884c": 814,
  "\u30c7": 815,
  "ia": 816,
  "\u2581con": 817,
  "\u2581game": 818,
  "\u5229\u7528": 819,
  "\u3055\u308c\u307e\u3059": 820,
  "\u4e0d": 821,
  "\u2581always": 822,
  "\u2581research": 823,
  "\u4f7f\u7528": 824,
  "\u2581p": 825,
  "\u30f3": 826,
  "\u2581men": 827,
  "\u305d\u308c": 828,
  "\u4e8b\u696d": 829,
  "\u5834\u5408": 830,
  "\u2581old": 831,
  "\u5b66": 832,
  "\u3088\u3046": 833,
  "\u2581applications": 834,
  "\u898b": 835,
  "\u69cb\u9020": 836,
  "\u2581One": 837,
  "ul": 838,
  "\u2581De": 839,
  "\u2581known": 840,
  "ton": 841,
  "\u2581Do": 842,
  "\u2581All": 843,
  "\u9593": 844,
  "id": 845,
  "\u2581became": 846,
  "\u5834\u6240": 847,
  "\u2581already": 848,
  "\u2581government": 849,
  "\u5916": 850,
  "\u306e\u3042\u308b": 851,
  "\u2581show": 852,
  "\u2581air": 853,
  "ated": 854,
  "ting": 855,
  "\u4eba\u304c": 856,
  "\u2581language": 857,
  "\u5e02": 858,
  "\u30c1\u30fc\u30e0": 859,
  "\u2581content": 860,
  "\u307e": 861,
  "\u258115": 862,
  ",\u201d": 863,
  "\u3053\u3068\u306f": 864,
  "\u305f\u3081\u306e": 865,
  "\u2581view": 866,
  "\u3081": 867,
  "_": 868,
  "\u30de\u30f3": 869,
  "\u30cd": 870,
  "\u2581systems": 871,
  "\u2581food": 872,
  "\u304f\u3060\u3055\u3044": 873,
  "\u4e0a\u3067": 874,
  "\u2581environment": 875,
  "\u2581machine": 876,
  "\u30c7\u30b6\u30a4\u30f3": 877,
  "\u5fc3": 878,
  "ent": 879,
  "\u2581big": 880,
  "ge": 881,
  "\u3092\u884c\u3046": 882,
  "\u2581Two": 883,
  "\u3067\u3042\u3063\u305f": 884,
  "\u30d5\u30a1\u30a4\u30eb": 885,
  "\u8a9e": 886,
  "\u3060\u3051": 887,
  "\u4f5c\u696d": 888,
  "\u6c17": 889,
  "\u2581web": 890,
  "ant": 891,
  "\u30bd\u30d5\u30c8\u30a6\u30a7\u30a2": 892,
  "\u30b3\u30fc\u30c9": 893,
  "\u2581single": 894,
  "\u2581build": 895,
  "\u2581days": 896,
  "\u8a2d\u8a08": 897,
  "\u8eca": 898,
  "\u8a2d\u5b9a": 899,
  "\u2581platform": 900,
  "\u30cd\u30c3\u30c8\u30ef\u30fc\u30af": 901,
  "\u30d3": 902,
  "\u2581country": 903,
  "\u30c7\u30a3": 904,
  "ling": 905,
  "\u2581please": 906,
  "\u3053\u3068\u304c\u3067\u304d\u308b": 907,
  "\u2581Web": 908,
  "\u2581left": 909,
  "ko": 910,
  "\u91d1": 911,
  "\u2581early": 912,
  "\u2581later": 913,
  "\u2581problem": 914,
  "\u2581might": 915,
  "li": 916,
  "\u3088\u308a\u3082": 917,
  "\u2581\u305d\u308c\u306f": 918,
  "\u3042\u308b\u3044\u306f": 919,
  "\u8272": 920,
  "ba": 921,
  "\u2581minutes": 922,
  "\u30d7\u30ed\u30b8\u30a7\u30af\u30c8": 923,
  "\u3053\u3068\u304c": 924,
  "\u2581until": 925,
  "\u2581play": 926,
  "\u540c": 927,
  "\u5ddd": 928,
  "\u2581industry": 929,
  "\u2581several": 930,
  "\u2581built": 931,
  "\u2581keep": 932,
  "\u2581low": 933,
  "um": 934,
  "\u30bb": 935,
  "\u30e6\u30fc\u30b6\u30fc": 936,
  "\u3059\u308b\u3053\u3068": 937,
  "\u2581head": 938,
  "\u2581main": 939,
  "\u2581often": 940,
  "\u2581million": 941,
  "\u2581young": 942,
  "\u30c6": 943,
  "as": 944,
  "ian": 945,
  "\u2581hard": 946,
  "\u3059\u308b\u3068": 947,
  "\u3089\u308c\u305f": 948,
  "\u3092\u4f7f\u3063\u3066": 949,
  "\u30e1": 950,
  "\u30c4": 951,
  "\u2581program": 952,
  "\u2581City": 953,
  "\u2581non": 954,
  "\u3063\u3066\u3044\u308b": 955,
  "mo": 956,
  "\u2581started": 957,
  "\u2581thing": 958,
  "\u2581course": 959,
  "\u66f8": 960,
  "\u2581looking": 961,
  "\u2581let": 962,
  "\u54c1": 963,
  "\u2581source": 964,
  "Z": 965,
  "\u5927\u5b66": 966,
  "\u7cfb": 967,
  ".\"": 968,
  "et": 969,
  "\u5148": 970,
  "\u2581field": 971,
  "\u6700\u3082": 972,
  "\u5c0f": 973,
  "\u6d41": 974,
  "\u2581social": 975,
  "\u4e16\u754c": 976,
  "\u25819": 977,
  "\u611f": 978,
  "\u30c6\u30a3": 979,
  "\u2581security": 980,
  "\u30d7\u30e9\u30c3\u30c8\u30d5\u30a9\u30fc\u30e0": 981,
  "\u2581No": 982,
  "\u2581event": 983,
  "\u65b9": 984,
  "ur": 985,
  "\u2581easy": 986,
  "\u3053": 987,
  "\u2581kind": 988,
  "\u5404": 989,
  "\u2581four": 990,
  "\u3092\u542b\u3080": 991,
  "\u2581Windows": 992,
  "\u2581Group": 993,
  "\u2581due": 994,
  "\u30d7\u30ed\u30bb\u30b9": 995,
  "\u2581API": 996,
  "\u2581range": 997,
  "\u2581says": 998,
  "\u258112": 999,
  "\u2581Please": 1000,
  "ty": 1001,
  "\u2581outside": 1002,
  "\u793e\u4f1a": 1003,
  "\u2581music": 1004,
  "\u2581women": 1005,
  "\u2581across": 1006,
  "\u2581iPhone": 1007,
  "\u2581developers": 1008,
  "\u6587\u5316": 1009,
  "\u2581live": 1010,
  "\u7530": 1011,
  "bo": 1012,
  "\u2581child": 1013,
  "\u305d\u308c\u306f": 1014,
  "\u258117": 1015,
  "\u3068\u306a\u3063\u305f": 1016,
  "com": 1017,
  "est": 1018,
  "\u3067\u306f\u306a\u3044": 1019,
  "\u3067\u3057\u305f": 1020,
  "\u2581front": 1021,
  "\u308c": 1022,
  "\u3048": 1023,
  "\u524d\u306b": 1024,
  "\u2581network": 1025,
  "\u2581special": 1026,
  "\u306b\u3068\u3063\u3066": 1027,
  "\u2581fact": 1028,
  "\u3055\u308c\u3066\u3044\u307e\u3059": 1029,
  "\u30b0\u30eb\u30fc\u30d7": 1030,
  "\u2581include": 1031,
  "\u72b6\u6cc1": 1032,
  "\u8a00\u8a9e": 1033,
  "\u2581offer": 1034,
  "sa": 1035,
  "\u3088\u3046\u306a": 1036,
  "\u307b\u3069": 1037,
  "\u30e2": 1038,
  "\u2581website": 1039,
  "\u6c0f": 1040,
  "\u2581file": 1041,
  "\u2581never": 1042,
  "\u4f55": 1043,
  "ol": 1044,
  "\u751f\u7523": 1045,
  "ization": 1046,
  "\u2581Our": 1047,
  "\u2581call": 1048,
  "\u2581pre": 1049,
  "\u30d7\u30ed\u30b0\u30e9\u30e0": 1050,
  "\u2581white": 1051,
  "un": 1052,
  "\u2581study": 1053,
  "\u8a55\u4fa1": 1054,
  "\u2581dis": 1055,
  "\u2581needs": 1056,
  "\u8ca9\u58f2": 1057,
  "lo": 1058,
  "\u6559\u80b2": 1059,
  "\u3092\u63d0\u4f9b\u3059\u308b": 1060,
  "\u306e\u4e2d\u3067": 1061,
  "\u3053\u3068\u3067": 1062,
  "\u5e02\u5834": 1063,
  "\u4e07": 1064,
  "\u2581etc": 1065,
  "\u3063": 1066,
  "\u30b9\u30c8": 1067,
  "\u2581major": 1068,
  "\u2581makes": 1069,
  "\u2581mobile": 1070,
  "\u2581feature": 1071,
  "Web": 1072,
  "\u2581f": 1073,
  "\u71b1": 1074,
  "\u2581phone": 1075,
  "\u2581Amazon": 1076,
  "\u2581image": 1077,
  "\u30d1": 1078,
  "\u2581United": 1079,
  "\u2581provides": 1080,
  "\u53e3": 1081,
  "\u2581Go": 1082,
  "\u8abf\u67fb": 1083,
  "based": 1084,
  "\u69d8\u3005\u306a": 1085,
  "\u2581Pro": 1086,
  "\u3053\u308c\u306f": 1087,
  "\u79c1\u306f": 1088,
  "\u91cf": 1089,
  "\u2581By": 1090,
  "\u81ea\u5206\u306e": 1091,
  "\u2581material": 1092,
  "ies": 1093,
  "\u2581less": 1094,
  "\u2581along": 1095,
  "\u306b\u306a\u3063\u305f": 1096,
  "\u305f\u3044": 1097,
  "\u2581TV": 1098,
  "\u56fd\u969b": 1099,
  "jo": 1100,
  "\u2581release": 1101,
  "\u2581actually": 1102,
  "ki": 1103,
  "\u2581result": 1104,
  "\u2581again": 1105,
  "\u5236\u5fa1": 1106,
  "\u5909\u66f4": 1107,
  "ie": 1108,
  "\u5730\u57df": 1109,
  "\u6226": 1110,
  "\u2581doing": 1111,
  "\u72b6\u614b": 1112,
  "\u2581customer": 1113,
  "\u2581pro": 1114,
  "\u793e": 1115,
  "\u2581current": 1116,
  "\u3089\u308c\u308b": 1117,
  "\u2581money": 1118,
  "out": 1119,
  "\u2581according": 1120,
  "\u5cf6": 1121,
  "\u2581energy": 1122,
  "\u2581c": 1123,
  "\u2581third": 1124,
  "\u2581face": 1125,
  "\u2581black": 1126,
  "\u30ea\u30f3\u30b0": 1127,
  "\u2581key": 1128,
  "\u7740": 1129,
  "\u5f0f": 1130,
  "\u3068\u3044\u3063\u305f": 1131,
  "\u3080": 1132,
  "\u2581feel": 1133,
  "\u2581contact": 1134,
  "ous": 1135,
  "\u2581--": 1136,
  "\u975e\u5e38\u306b": 1137,
  "\u2581How": 1138,
  "\u2581changes": 1139,
  "\u97f3\u697d": 1140,
  "\u2581post": 1141,
  "\u30b5\u30dd\u30fc\u30c8": 1142,
  "\u2581came": 1143,
  "\u5f8c\u306b": 1144,
  "ke": 1145,
  "\u2581University": 1146,
  "\u6d77": 1147,
  "\u5143": 1148,
  "\u30b3\u30f3": 1149,
  "\u2581announced": 1150,
  "\u307e\u305b\u3093": 1151,
  "os": 1152,
  "\u2581Tokyo": 1153,
  "ized": 1154,
  "less": 1155,
  "\u3055\u307e\u3056\u307e\u306a": 1156,
  "\u2581times": 1157,
  "\u77f3": 1158,
  "\u795e": 1159,
  "\u30a4\u30d9\u30f3\u30c8": 1160,
  "\u2581/": 1161,
  "\u901a": 1162,
  "\u2581am": 1163,
  "\u3068\u304d": 1164,
  "\".": 1165,
  "\u2581Android": 1166,
  "\u2581\u3055\u3089\u306b": 1167,
  "\u2581book": 1168,
  "\u2581function": 1169,
  "\u2581held": 1170,
  "\u3061": 1171,
  "\u30c9\u30eb": 1172,
  "16": 1173,
  "\u65b0\u305f\u306a": 1174,
  "\u30ac": 1175,
  "\u91cd": 1176,
  "\u7121": 1177,
  "\u2581center": 1178,
  "\u30dc": 1179,
  "\u2581countries": 1180,
  "\u306a\u304c\u3089": 1181,
  "\u2581far": 1182,
  "17": 1183,
  "100": 1184,
  "50": 1185,
  "\u4e3b": 1186,
  "\u4e09": 1187,
  "\u2581price": 1188,
  "\u306b\u3088\u308b\u3068": 1189,
  "\u7a7a": 1190,
  "\u2581g": 1191,
  "ga": 1192,
  "\u2581short": 1193,
  "\u2581International": 1194,
  "\u8cea": 1195,
  "14": 1196,
  "\u4eba\u306f": 1197,
  "\u8239": 1198,
  "\u304c\u3042\u308a": 1199,
  "\u2581devices": 1200,
  "\u2581cost": 1201,
  "\u5f62": 1202,
  "\u88fd\u9020": 1203,
  "\u30a8\u30cd\u30eb\u30ae\u30fc": 1204,
  "time": 1205,
  "\u30d3\u30c7\u30aa": 1206,
  "\u2581created": 1207,
  "\u6642\u306b": 1208,
  "\u591a": 1209,
  "\u2581works": 1210,
  "per": 1211,
  "\u30ab\u30e1\u30e9": 1212,
  "\u91cd\u8981\u306a": 1213,
  "la": 1214,
  "\u2581results": 1215,
  "\u30e9\u30fc": 1216,
  "\u2581running": 1217,
  "\u2581took": 1218,
  "\u2581playing": 1219,
  "\u2581Con": 1220,
  "\u2581computer": 1221,
  "\u6728": 1222,
  "\u7279\u306b": 1223,
  "\u258111": 1224,
  "0": 1225,
  "\u305d\u3046": 1226,
  "ca": 1227,
  "da": 1228,
  "\u3059\u308b\u305f\u3081\u306b": 1229,
  "\u2581developed": 1230,
  "\u3055\u3089\u306b": 1231,
  "\u3070": 1232,
  "\u3057\u306a\u3044": 1233,
  "\u258130": 1234,
  "\u2581materials": 1235,
  "\u2581Ko": 1236,
  "\u2581offers": 1237,
  "U": 1238,
  "\u2581check": 1239,
  "\u2581World": 1240,
  "\u3068\u3053\u308d": 1241,
  "\u4f4d": 1242,
  "\u5168": 1243,
  "\u5024": 1244,
  "\u2581tools": 1245,
  "\u258116": 1246,
  "\u2581These": 1247,
  "\u8a71": 1248,
  "\u2581given": 1249,
  "\u52b9\u679c": 1250,
  "\u540c\u3058": 1251,
  "\u2581plan": 1252,
  "gi": 1253,
  "\u3042": 1254,
  "\u30a2\u30f3": 1255,
  "\u2581American": 1256,
  "\u2581girl": 1257,
  "Java": 1258,
  "\u306e\u307f": 1259,
  "\u2581film": 1260,
  "\u7d30\u80de": 1261,
  "ted": 1262,
  "\u8868\u793a": 1263,
  "\u753b\u50cf": 1264,
  "\u30ab\u30fc": 1265,
  "\u6708\u306b": 1266,
  "\u2581red": 1267,
  "\u2581provided": 1268,
  "\u3066\u304a\u308a": 1269,
  "\u9ad8\u3044": 1270,
  "\u2581age": 1271,
  "\u91ce": 1272,
  "\u2581popular": 1273,
  "\u7537": 1274,
  "\u2581screen": 1275,
  "\u6620\u753b": 1276,
  "\u2581simple": 1277,
  "\u2581doesn": 1278,
  "\u5909\u5316": 1279,
  "\u5668": 1280,
  "ance": 1281,
  "+": 1282,
  "ex": 1283,
  "\u30c7\u30d0\u30a4\u30b9": 1284,
  "\u2581activities": 1285,
  "\u2581Ka": 1286,
  "\u2581located": 1287,
  "ck": 1288,
  "\u2581standard": 1289,
  "13": 1290,
  "\u2581page": 1291,
  "ism": 1292,
  "\u2581account": 1293,
  "\u2581online": 1294,
  "\u539f": 1295,
  "\u2581past": 1296,
  "\u2581San": 1297,
  "con": 1298,
  "\u5e97": 1299,
  "\u2581Le": 1300,
  "Fi": 1301,
  "\u2581English": 1302,
  "\u2581Q": 1303,
  "\u97f3": 1304,
  "ful": 1305,
  "Apple": 1306,
  "\u2581love": 1307,
  "\u2581required": 1308,
  "\u2581eyes": 1309,
  "\u2581size": 1310,
  "\u2581community": 1311,
  "\u2581equipment": 1312,
  "ner": 1313,
  "\u98df": 1314,
  "ni": 1315,
  "\u2581among": 1316,
  "di": 1317,
  "\u2581class": 1318,
  "\u90fd\u5e02": 1319,
  "\u2581position": 1320,
  "\u7387": 1321,
  "\u201c": 1322,
  "\u2581list": 1323,
  "line": 1324,
  "\u2581allows": 1325,
  "\u2581global": 1326,
  "\u516c": 1327,
  "\u5206\u6790": 1328,
  "\u30bf\u30fc": 1329,
  "\u2581general": 1330,
  "\u2581house": 1331,
  "\u2581Sa": 1332,
  "\u2581understand": 1333,
  "\u7d4c\u6e08": 1334,
  "\u6b63": 1335,
  "\u5165": 1336,
  "\u2581War": 1337,
  "ka": 1338,
  "\u2581night": 1339,
  "\u6771": 1340,
  "\u2581international": 1341,
  "\u6587": 1342,
  "ir": 1343,
  "\u5199\u771f": 1344,
  "\u2581surface": 1345,
  "shi": 1346,
  "\u4e2d\u56fd": 1347,
  "\u2581art": 1348,
  "\u2581cloud": 1349,
  "\u2581won": 1350,
  "\u3088\u304f": 1351,
  "\u2581similar": 1352,
  "\u2581near": 1353,
  "\u2581tool": 1354,
  "\u2581taking": 1355,
  "ku": 1356,
  "\u8ecd": 1357,
  "ce": 1358,
  "\u2581once": 1359,
  "\u2581common": 1360,
  "\u2581done": 1361,
  "\u3044\u3044": 1362,
  "\u2581care": 1363,
  "\u2581necessary": 1364,
  "\u2581above": 1365,
  "\u5f7c\u306e": 1366,
  "\u2581color": 1367,
  "\u5c64": 1368,
  "\u2581designed": 1369,
  "ating": 1370,
  "chi": 1371,
  "\u2581didn": 1372,
  "\u5834": 1373,
  "\u2581private": 1374,
  "ho": 1375,
  "\u2581Al": 1376,
  "one": 1377,
  "\u2581series": 1378,
  "\u6761\u4ef6": 1379,
  "am": 1380,
  "\u2581improve": 1381,
  "\u53f0": 1382,
  "\u2581five": 1383,
  "\u5ba4": 1384,
  "\u2581inside": 1385,
  "\u2581close": 1386,
  "\u30cf": 1387,
  "\u2581His": 1388,
  "\u2581comes": 1389,
  "\u2581further": 1390,
  "of": 1391,
  "\u2581amount": 1392,
  "\u5e83\u544a": 1393,
  "\u2581sure": 1394,
  "\u2581via": 1395,
  "\u826f\u3044": 1396,
  "\u2581read": 1397,
  "\u30bd\u30ea\u30e5\u30fc\u30b7\u30e7\u30f3": 1398,
  "\u2581week": 1399,
  "\u2581structure": 1400,
  "\u2581States": 1401,
  "\u2581enough": 1402,
  "\u305d\u308c\u3092": 1403,
  "Q": 1404,
  "=": 1405,
  "\u7248": 1406,
  "\u30ea\u30ea\u30fc\u30b9": 1407,
  "\u306e\u3088\u3046\u306b": 1408,
  "\u2581enjoy": 1409,
  "\u30a2\u30e1\u30ea\u30ab": 1410,
  "\u3059\u308b\u3053\u3068\u304c\u3067\u304d\u307e\u3059": 1411,
  "\u2581turn": 1412,
  "\u2581move": 1413,
  "\u3067\u304d\u306a\u3044": 1414,
  "\u2581search": 1415,
  "\u2581released": 1416,
  "\u767a": 1417,
  "\u4eca": 1418,
  "\u2581history": 1419,
  "\u5c0f\u3055\u306a": 1420,
  "\u30ea\u30f3\u30af": 1421,
  "rs": 1422,
  "\u5e73": 1423,
  "\u2581parts": 1424,
  "\u305a": 1425,
  "\u30da\u30fc\u30b8": 1426,
  "25": 1427,
  "ha": 1428,
  "\u982d": 1429,
  "\u5973\u6027": 1430,
  "\u2581others": 1431,
  "\u2581growth": 1432,
  "\u3055\u3093": 1433,
  "\u8003\u3048": 1434,
  "\u2581thought": 1435,
  "24": 1436,
  "\u2581boy": 1437,
  "\u2581original": 1438,
  "\u2581seen": 1439,
  "\u306a\u304f": 1440,
  "\u2581natural": 1441,
  "\u2581My": 1442,
  "\u2581address": 1443,
  "\u2581\u3067\u3082": 1444,
  "\u767b\u9332": 1445,
  "Facebook": 1446,
  "\u2581solution": 1447,
  "\u975e": 1448,
  "\u2581speed": 1449,
  "\u2581war": 1450,
  "\u3057\u305f\u3044": 1451,
  "im": 1452,
  "\u3051": 1453,
  "\u901a\u4fe1": 1454,
  "\u7570\u306a\u308b": 1455,
  "\u3060\u3051\u3067\u306a\u304f": 1456,
  "\u6210\u9577": 1457,
  "\u65bd\u8a2d": 1458,
  "\u2581effect": 1459,
  "\u2581present": 1460,
  "\u2581went": 1461,
  "\u2581specific": 1462,
  "\u30ed\u30fc": 1463,
  "\u2581share": 1464,
  "\u56f3": 1465,
  "\u30de\u30fc": 1466,
  "\u884c\u52d5": 1467,
  "\u2581tell": 1468,
  "\u30b4": 1469,
  "\u2581May": 1470,
  "\u2581report": 1471,
  "\u2581least": 1472,
  "40": 1473,
  "\u3068\u3068\u3082\u306b": 1474,
  "\u30b6": 1475,
  "\u305b": 1476,
  "\u5f79": 1477,
  "\u2581health": 1478,
  "\u2581property": 1479,
  "\u3067\u306f\u306a\u304f": 1480,
  "\u3068\u3082": 1481,
  "\u2581hours": 1482,
  "\u2581drive": 1483,
  "\u6700\u5927": 1484,
  "\u2581idea": 1485,
  "\u2581sense": 1486,
  "\u6765": 1487,
  "\u9867\u5ba2": 1488,
  "tic": 1489,
  "In": 1490,
  "\u30a2\u30af\u30bb\u30b9": 1491,
  "\u2581dog": 1492,
  "\u2581treatment": 1493,
  "\u2581While": 1494,
  "\u99c5": 1495,
  "\u2581ever": 1496,
  "\u4e2d\u306e": 1497,
  "\u7d50\u679c": 1498,
  "\u53cd\u5fdc": 1499,
  "\u3005": 1500,
  "\u80fd\u529b": 1501,
  "\u6a5f\u68b0": 1502,
  "\u2581whole": 1503,
  "mm": 1504,
  "ally": 1505,
  "\u2581Me": 1506,
  "\u3053\u308c\u3089\u306e": 1507,
  "\u2581getting": 1508,
  "\u2581airport": 1509,
  "\u4e2d\u306b": 1510,
  "ence": 1511,
  "\u5b9f\u884c": 1512,
  "\u2581paper": 1513,
  "\u30bb\u30f3\u30bf\u30fc": 1514,
  "\u7d4c\u9a13": 1515,
  "\u652f\u63f4": 1516,
  "\u2581months": 1517,
  "\u5357": 1518,
  "nd": 1519,
  "\u308d": 1520,
  "\u30ad\u30fc": 1521,
  "\u691c\u7d22": 1522,
  "\u30b7\u30fc": 1523,
  "\u2581approach": 1524,
  "\u79c1\u306e": 1525,
  "\u7406\u89e3": 1526,
  "\u7523\u696d": 1527,
  "\u7a2e": 1528,
  "\u2581increase": 1529,
  "land": 1530,
  "\u9078\u629e": 1531,
  "\u30bd": 1532,
  "\u3044\u3066": 1533,
  "\u2581members": 1534,
  "\u5834\u5408\u306f": 1535,
  "\u2581related": 1536,
  "\u306e\u958b\u767a": 1537,
  "\u6295\u8cc7": 1538,
  "\u2581bit": 1539,
  "\u2581display": 1540,
  "\u901a\u308a": 1541,
  "\u2581wide": 1542,
  "\u30ea\u30f3": 1543,
  "\u5de5\u5834": 1544,
  "\u6c7a\u5b9a": 1545,
  "\u2581base": 1546,
  "\u2581station": 1547,
  "\u30c3\u30c8": 1548,
  "OS": 1549,
  "\u2581store": 1550,
  "\u2581meet": 1551,
  "iPhone": 1552,
  "\u2581areas": 1553,
  "\u30b1": 1554,
  "\u2581wearing": 1555,
  "\u5185\u306e": 1556,
  "\u2581yet": 1557,
  "\u2581hotel": 1558,
  "\u2581students": 1559,
  "\u7528\u306e": 1560,
  "\u2581office": 1561,
  "\u98a8": 1562,
  "\u30db\u30c6\u30eb": 1563,
  "\u5065\u5eb7": 1564,
  "\u90e8\u5206": 1565,
  "\u2581stop": 1566,
  "\u2581talk": 1567,
  "\u30c8\u30f3": 1568,
  "\u2581media": 1569,
  "\u2581\u5f7c\u5973\u306f": 1570,
  "ad": 1571,
  "\u2581though": 1572,
  "sh": 1573,
  "ang": 1574,
  "\u2581apps": 1575,
  "\u2581established": 1576,
  "\u5bfe\u5fdc": 1577,
  "\u2581continue": 1578,
  "\u2581sound": 1579,
  "ac": 1580,
  "\u4fdd\u8b77": 1581,
  "\u2581App": 1582,
  "\u8a66\u9a13": 1583,
  "\u753a": 1584,
  "\u2581operation": 1585,
  "\u2581York": 1586,
  "\u2581learn": 1587,
  "io": 1588,
  "\u82f1\u8a9e\u7248": 1589,
  "\u85ac": 1590,
  "\u2581Cloud": 1591,
  "\u2581\u79c1\u305f\u3061\u306f": 1592,
  "\u2581Can": 1593,
  "\u30d9": 1594,
  "\u2581problems": 1595,
  "\u79fb\u52d5": 1596,
  "\u2581US": 1597,
  "\u2581La": 1598,
  "\u5929": 1599,
  "\u2581pay": 1600,
  "\u2581Mo": 1601,
  "\u2581Company": 1602,
  "\u30d7\u30ed": 1603,
  "\u2581add": 1604,
  "\u5546\u54c1": 1605,
  "\u3058": 1606,
  "\u2581sub": 1607,
  "\u2581stay": 1608,
  "\u5b9f": 1609,
  "\u306b\u3064\u3044\u3066\u306f": 1610,
  "\u2581sales": 1611,
  "\u2581includes": 1612,
  "\u5f7c\u306f": 1613,
  "\u4f5c": 1614,
  "\u306b\u306a\u308a\u307e\u3059": 1615,
  "\u3092\u3059\u308b": 1616,
  "\u2581try": 1617,
  "\u2581develop": 1618,
  "\u76f4": 1619,
  "\u306b\u3066": 1620,
  "\u738b": 1621,
  "\u4eba\u9593": 1622,
  "\u2581bring": 1623,
  "\u2581Some": 1624,
  "\u30ea\u30b9\u30c8": 1625,
  "\u2581analysis": 1626,
  "\u78ba\u8a8d": 1627,
  "\u4ed8\u3051": 1628,
  "\u2581Now": 1629,
  "\u3067\u3059\u304b": 1630,
  "\u30d0\u30b9": 1631,
  ",\"": 1632,
  "\u2581allow": 1633,
  "\u2581Ma": 1634,
  "\u2581100": 1635,
  "der": 1636,
  "\u2581multiple": 1637,
  "\u30d4": 1638,
  "\u95a2\u9023": 1639,
  "\u2581itself": 1640,
  "\u2581Z": 1641,
  "\u3057\u3066\u304f\u3060\u3055\u3044": 1642,
  "\u5951\u7d04": 1643,
  "ya": 1644,
  "\u897f": 1645,
  "\u2581Service": 1646,
  "\u64cd\u4f5c": 1647,
  "\u5225\u306e": 1648,
  "\u2581\u672c": 1649,
  "\u30da": 1650,
  "bi": 1651,
  "\u53ef\u80fd\u306a": 1652,
  "\u611b": 1653,
  "\u3055\u305b": 1654,
  "\u2581processing": 1655,
  "\u8db3": 1656,
  "\u2581From": 1657,
  "\u73fe\u5728": 1658,
  "ak": 1659,
  "\u2581Twitter": 1660,
  "\u30ab\u30fc\u30c9": 1661,
  "\u3057\u305f\u308a": 1662,
  "\u5317": 1663,
  "\u2581clear": 1664,
  "\u2581relationship": 1665,
  "\u7d19": 1666,
  "\u5b9a": 1667,
  "\u2581culture": 1668,
  "\u2581System": 1669,
  "dy": 1670,
  "\u63a5\u7d9a": 1671,
  "\u751f\u6d3b": 1672,
  "\u2581testing": 1673,
  "\u6700\u521d\u306e": 1674,
  "\u6539\u5584": 1675,
  "}": 1676,
  "\u52a0\u5de5": 1677,
  "\u767d": 1678,
  "\u2581strong": 1679,
  "\u30bb\u30ad\u30e5\u30ea\u30c6\u30a3": 1680,
  "\u30d2": 1681,
  "\u30af\u30e9\u30b9": 1682,
  "\u2581whether": 1683,
  "\u2581individual": 1684,
  "va": 1685,
  "\u2581told": 1686,
  "\u2581self": 1687,
  "\u81ea\u7136": 1688,
  "\u3059\u308b\u305f\u3081\u306e": 1689,
  "\u2581taken": 1690,
  "style": 1691,
  "\u2581percent": 1692,
  "\u7d20\u6674\u3089\u3057\u3044": 1693,
  "\u3042\u3089\u3086\u308b": 1694,
  "\u2581\u304a": 1695,
  "\u2581half": 1696,
  "\u2581unique": 1697,
  "\u63d0\u4f9b": 1698,
  "\u2581below": 1699,
  "end": 1700,
  "\u3044\u304f\u3064\u304b\u306e": 1701,
  "\u7ba1": 1702,
  "\u9818\u57df": 1703,
  "\u2581however": 1704,
  "\u2581directly": 1705,
  "\u2581\u3053\u308c\u3089\u306e": 1706,
  "\u2581month": 1707,
  "\u5bfe": 1708,
  "\u2581unit": 1709,
  "\u2581job": 1710,
  "\u53d6\u308a": 1711,
  "\u6ce2": 1712,
  "\u2581b": 1713,
  "\u5473": 1714,
  "\u2581bar": 1715,
  "\u2581Ra": 1716,
  "\u258113": 1717,
  "\u5f53": 1718,
  "\u2581party": 1719,
  "\u2581easily": 1720,
  "\u30c0\u30fc": 1721,
  "\u2581began": 1722,
  "\u5b9f\u9a13": 1723,
  "\u2581father": 1724,
  "\u7a7a\u9593": 1725,
  "\u6a29": 1726,
  "\u3067\u3059\u304c": 1727,
  "ap": 1728,
  "\u4ee5\u4e0a": 1729,
  "j": 1730,
  "\u3092\u901a\u3058\u3066": 1731,
  "\u2581role": 1732,
  "\u3068\u3059\u308b": 1733,
  "\u2581teams": 1734,
  "\u2581ability": 1735,
  "\u2581m": 1736,
  "\u2581added": 1737,
  "\u2581region": 1738,
  "\u6cbb\u7642": 1739,
  "\u2581\u7537\u306f": 1740,
  "\u2581Since": 1741,
  "\u30af\u30e9\u30a6\u30c9": 1742,
  "ium": 1743,
  "\u518d": 1744,
  "ti": 1745,
  "ster": 1746,
  "\u5e74\u9593": 1747,
  "\u8868": 1748,
  "for": 1749,
  "\u82b1": 1750,
  "\u2581rate": 1751,
  "\u2581ago": 1752,
  "\u8eab": 1753,
  "\u4f4e": 1754,
  "\u8907\u6570\u306e": 1755,
  "\u30e9\u30f3": 1756,
  "\u2581Be": 1757,
  "\u4ee5\u4e0a\u306e": 1758,
  "\u691c\u67fb": 1759,
  "\u30d0\u30fc\u30b8\u30e7\u30f3": 1760,
  "mer": 1761,
  "\u3053\u3068\u306b": 1762,
  "\u2581blue": 1763,
  "\u2581believe": 1764,
  "\u53d6\u5f15": 1765,
  "\u2581camera": 1766,
  "\u571f": 1767,
  "\u2581buy": 1768,
  "\u7406\u7531": 1769,
  "\u2581types": 1770,
  "\u2581multi": 1771,
  "\u2581Po": 1772,
  "bu": 1773,
  "\u2581Data": 1774,
  "\u2581Su": 1775,
  "\u7c73\u56fd": 1776,
  "\u3059\u308b\u3053\u3068\u3067": 1777,
  "\u2581Kyoto": 1778,
  "\u2581heart": 1779,
  "\u4e16": 1780,
  "\u89e3\u6790": 1781,
  "\u2581death": 1782,
  "\u2581behind": 1783,
  "\u2581National": 1784,
  "IT": 1785,
  "ish": 1786,
  "\u2581isn": 1787,
  "\u4ee3": 1788,
  "ize": 1789,
  "mon": 1790,
  "ru": 1791,
  "\u2581cases": 1792,
  "\u2581walk": 1793,
  "\u3082\u306e\u3067\u3059": 1794,
  "\u2581North": 1795,
  "\u2581law": 1796,
  "\u3060\u3068": 1797,
  "\u2581variety": 1798,
  "\u2581server": 1799,
  "\u2581soon": 1800,
  "\u30ec\u30d9\u30eb": 1801,
  "\u2581learning": 1802,
  "\u2581ensure": 1803,
  "\u30a4\u30f3\u30bf\u30fc\u30cd\u30c3\u30c8": 1804,
  "\u5b98": 1805,
  "\u2581Li": 1806,
  "pe": 1807,
  "\u2581shall": 1808,
  "\u516c\u958b": 1809,
  "\u2581High": 1810,
  "\u2581question": 1811,
  "gu": 1812,
  "\u258114": 1813,
  "\u5171\u6709": 1814,
  "\u30e6\u30fc\u30b6": 1815,
  "\u304b\u3064": 1816,
  "\u3082\u3063\u3068": 1817,
  "\u2581reason": 1818,
  "\u30dd": 1819,
  "\u3063\u3066\u3044\u307e\u3059": 1820,
  "\u2581lead": 1821,
  "\u2581Air": 1822,
  "\u2581projects": 1823,
  "\u3053\u3068\u3067\u3059": 1824,
  "\u904b\u52d5": 1825,
  "\u2581card": 1826,
  "\u3092\u7528\u3044\u305f": 1827,
  "Re": 1828,
  "\u96fb": 1829,
  "\u54c1\u8cea": 1830,
  "\u30e1\u30fc\u30eb": 1831,
  "\u2581mind": 1832,
  "\u2581fire": 1833,
  "mi": 1834,
  "\u4f5c\u54c1": 1835,
  "\u4e8c": 1836,
  "\u2581cell": 1837,
  "ability": 1838,
  "ot": 1839,
  "\u2581board": 1840,
  "\u30bd\u30f3": 1841,
  "\u65e5\u672c\u306e": 1842,
  "\u5b89\u5168": 1843,
  "\u2581late": 1844,
  "\u54e1": 1845,
  "side": 1846,
  "\u5fc5\u8981": 1847,
  "\u2581recent": 1848,
  "\u6b8b": 1849,
  "\u5264": 1850,
  "\u6a19\u6e96": 1851,
  "by": 1852,
  "\u2581total": 1853,
  "\u3057\u304b": 1854,
  "\u2581cut": 1855,
  "\u2581street": 1856,
  "\u2581risk": 1857,
  "\u2581eye": 1858,
  "\u2581complete": 1859,
  "\u2581mother": 1860,
  "\u82f1\u8a9e": 1861,
  "\u2581professional": 1862,
  "\u5186": 1863,
  "\u8aac\u660e": 1864,
  "\u770c": 1865,
  "\u30ca\u30fc": 1866,
  "\u3092\u4f7f\u7528\u3057\u3066": 1867,
  "\u2581voice": 1868,
  "\u30c6\u30af\u30ce\u30ed\u30b8\u30fc": 1869,
  "\u6599\u7406": 1870,
  "\u30e1\u30c3\u30bb\u30fc\u30b8": 1871,
  "\u2581send": 1872,
  "Android": 1873,
  "\u2581en": 1874,
  "\u2581traditional": 1875,
  "\u2581member": 1876,
  "\u753b\u9762": 1877,
  "\u2581ground": 1878,
  "\u305d": 1879,
  "\u2581blood": 1880,
  "API": 1881,
  "\u2581Internet": 1882,
  "\u76ee\u7684": 1883,
  "\u2581stage": 1884,
  "\u3059\u3079\u3066": 1885,
  "\",": 1886,
  "\u2581modern": 1887,
  "ite": 1888,
  "\u2581March": 1889,
  "\u30ef": 1890,
  "\u2581friends": 1891,
  "\u30ec\u30f3": 1892,
  "\u6709": 1893,
  "\u653b\u6483": 1894,
  "\u53f7": 1895,
  "\u30b9\u30bf\u30fc": 1896,
  "\u7c21\u5358\u306b": 1897,
  "\u76f8": 1898,
  "\u2581rooms": 1899,
  "\u2581almost": 1900,
  "\u2581issues": 1901,
  "\u52d5": 1902,
  "\u2581Ha": 1903,
  "\u2581focus": 1904,
  "\u30e2\u30d0\u30a4\u30eb": 1905,
  "\u30ac\u30b9": 1906,
  "\u2581son": 1907,
  "\u30bb\u30c3\u30c8": 1908,
  "\u2581date": 1909,
  "\u2581training": 1910,
  "\u2581either": 1911,
  "\u8ab2\u984c": 1912,
  "\u6b7b": 1913,
  "\u304c\u3042\u3063\u305f": 1914,
  "\u2581everything": 1915,
  "\u30aa\u30f3\u30e9\u30a4\u30f3": 1916,
  "\u91d1\u5c5e": 1917,
  "\u2581oil": 1918,
  "\u30c7\u30fc\u30bf\u30d9\u30fc\u30b9": 1919,
  "\u8981\u6c42": 1920,
  "\u2581text": 1921,
  "\u2581terms": 1922,
  "\u2581$": 1923,
  "\u30e1\u30fc\u30ab\u30fc": 1924,
  "\u2581Chinese": 1925,
  "\u548c": 1926,
  "\u2581Ro": 1927,
  "\u2581anything": 1928,
  "\u2581object": 1929,
  "\u7523": 1930,
  "\u4fa1\u5024": 1931,
  "\u6e2c\u5b9a": 1932,
  "\u2581pressure": 1933,
  "60": 1934,
  "\u2581technologies": 1935,
  "\u2581safety": 1936,
  "\u2581story": 1937,
  "\u2581Man": 1938,
  "\u2581location": 1939,
  "\u5973": 1940,
  "\u7279\u6027": 1941,
  "\u81ea": 1942,
  "\u2581Center": 1943,
  "\u2581digital": 1944,
  "\u3059\u308c\u3070": 1945,
  "\u2581deal": 1946,
  "\u2581Ho": 1947,
  "op": 1948,
  "\u307e\u3060": 1949,
  "\u2581cannot": 1950,
  "\u2581currently": 1951,
  "\u696d\u52d9": 1952,
  "\u30b3\u30f3\u30d4\u30e5\u30fc\u30bf": 1953,
  "\u88fd": 1954,
  "\u30aa\u30d7\u30b7\u30e7\u30f3": 1955,
  "ide": 1956,
  "sho": 1957,
  "ial": 1958,
  "\u5c40": 1959,
  "\u2581uses": 1960,
  "\u6210": 1961,
  "\u2581written": 1962,
  "\u30b3\u30df\u30e5\u30cb\u30c6\u30a3": 1963,
  "\u30a2\u30eb": 1964,
  "\u2581action": 1965,
  "\u7acb": 1966,
  "\u2581\u79c1\u306e": 1967,
  "\u2581beautiful": 1968,
  "\u2581latest": 1969,
  "\u2581safe": 1970,
  "\u2581lower": 1971,
  "\u767a\u8868": 1972,
  "\u30a2\u30ab\u30a6\u30f3\u30c8": 1973,
  "\u2581\u3042\u306a\u305f\u306f": 1974,
  "\u2581\u5f7c\u3089\u306f": 1975,
  "\u6b21\u306e": 1976,
  "\u6750\u6599": 1977,
  "\u30b3\u30f3\u30c6\u30f3\u30c4": 1978,
  "\u2581\u2018": 1979,
  "\u2581events": 1980,
  "so": 1981,
  "\u30e9\u30a4\u30f3": 1982,
  "\u2581land": 1983,
  "\u8868\u73fe": 1984,
  "\u2581table": 1985,
  "\u2581Car": 1986,
  "\u2581request": 1987,
  "\u2581temperature": 1988,
  "\u2581living": 1989,
  "\u8981\u7d20": 1990,
  "way": 1991,
  "\u2581bad": 1992,
  "\u5831\u544a": 1993,
  "\u2581national": 1994,
  "\u2581received": 1995,
  "\u8a18\u9332": 1996,
  "\u3057\u3066\u304a\u308a": 1997,
  "\u2581iOS": 1998,
  "\u2581existing": 1999,
  "\u2581watch": 2000,
  "\u2581hot": 2001,
  "\u2581Wi": 2002,
  "\u2581certain": 2003,
  "\u2581coming": 2004,
  "\u706b": 2005,
  "\u306a\u308b": 2006,
  "\u2581difficult": 2007,
  "\u2581=": 2008,
  "\u2581sitting": 2009,
  "\u2581trying": 2010,
  "\u2581impact": 2011,
  "\u2581details": 2012,
  "\u6a5f\u95a2": 2013,
  "\u30b3\u30b9\u30c8": 2014,
  "21": 2015,
  "\u30b7\u30e5": 2016,
  "\u2581style": 2017,
  "\u2581mean": 2018,
  "\u2581\u305d\u308c": 2019,
  "\u3092\u898b": 2020,
  "\u2581recently": 2021,
  "\u2581anti": 2022,
  "\u8fd1": 2023,
  "\u2581instead": 2024,
  "\u5bfa": 2025,
  "\u2581Development": 2026,
  "\u4ed5\u4e8b": 2027,
  "\u30d5\u30a3": 2028,
  "\u99ac": 2029,
  "\u60aa": 2030,
  "\u2581Bo": 2031,
  "que": 2032,
  "\u2581\u4f8b\u3048\u3070": 2033,
  "\u30c0\u30a6\u30f3\u30ed\u30fc\u30c9": 2034,
  "\u57ce": 2035,
  "\u2581ball": 2036,
  "\u66f2": 2037,
  "\u2581quickly": 2038,
  "\u30ab\u30eb": 2039,
  "\u2581entire": 2040,
  "\u5408": 2041,
  "tion": 2042,
  "\u2581employees": 2043,
  "\u81ea\u52d5": 2044,
  "Windows": 2045,
  "\u2581leading": 2046,
  "\u3044\u306a\u3044": 2047,
  "\u304b\u3082\u3057\u308c\u306a\u3044": 2048,
  "lic": 2049,
  "\u60c5\u5831\u3092": 2050,
  "mp": 2051,
  "\u2581Open": 2052,
  "\u75c5": 2053,
  "\u2581construction": 2054,
  "\u2581April": 2055,
  "\u2581files": 2056,
  "\u307e\u3057\u3087\u3046": 2057,
  "AI": 2058,
  "\u30c6\u30ec\u30d3": 2059,
  "\u2581especially": 2060,
  "ors": 2061,
  "\u512a\u308c\u305f": 2062,
  "\u2581higher": 2063,
  "\u671f\u9593": 2064,
  "\u2581rather": 2065,
  "\u7279\u5b9a\u306e": 2066,
  "\u2581South": 2067,
  "\u3060\u304c": 2068,
  "\u2581prevent": 2069,
  "\u5165\u529b": 2070,
  "\u90e1": 2071,
  "\u6bcd": 2072,
  "ci": 2073,
  "\u2581St": 2074,
  "\u2581Ar": 2075,
  "\u2581providing": 2076,
  "\u2581policy": 2077,
  "\u2581sea": 2078,
  "\u3059\u3050\u306b": 2079,
  "\u9aa8": 2080,
  "\u2581launch": 2081,
  "\u2581Bar": 2082,
  "\u306e\u4e00\u90e8": 2083,
  "\u2581heat": 2084,
  "\u533b\u7642": 2085,
  "\u308c\u3070": 2086,
  "\u2581supply": 2087,
  "\u2581plant": 2088,
  "\u7c73": 2089,
  "\u8a00\u3046": 2090,
  "\u2581Di": 2091,
  "\u2581matter": 2092,
  "\u306e\u3060": 2093,
  "yo": 2094,
  "\u00e9": 2095,
  "\u76ee\u6a19": 2096,
  "\u3053\u3046": 2097,
  "\u2581communication": 2098,
  "\u4f5c\u6210": 2099,
  "\u2581society": 2100,
  "\u6b4c": 2101,
  "\u2581organization": 2102,
  "\u2581Mac": 2103,
  "\u308b\u3053\u3068": 2104,
  "\u3059\u308b\u3053\u3068\u304c\u3067\u304d\u308b": 2105,
  "\u2581six": 2106,
  "\u2581takes": 2107,
  "\u30a8\u30f3\u30b8\u30f3": 2108,
  "\u7b49\u306e": 2109,
  "\u671f\u5f85": 2110,
  "80": 2111,
  "\u96fb\u8a71": 2112,
  "den": 2113,
  "\u2581step": 2114,
  "\u30d1\u30fc": 2115,
  "\u2581Y": 2116,
  "\u3055\u308c\u307e\u3057\u305f": 2117,
  "\u2581return": 2118,
  "ING": 2119,
  "\u3078\u3068": 2120,
  "\u30c7\u30b8\u30bf\u30eb": 2121,
  "\u89aa": 2122,
  "\u2581included": 2123,
  "\u2581conditions": 2124,
  "\u2581technical": 2125,
  "\u4fa1\u683c": 2126,
  "\u2581quite": 2127,
  "ase": 2128,
  "\u5b66\u751f": 2129,
  "\u2581hair": 2130,
  "po": 2131,
  "\u3068\u305d\u306e": 2132,
  "\u30d5\u30a1": 2133,
  "\u30af\u30e9\u30a4\u30a2\u30f3\u30c8": 2134,
  "sen": 2135,
  "min": 2136,
  "vo": 2137,
  "\u2581People": 2138,
  "\u30ed\u30dc\u30c3\u30c8": 2139,
  "\u2581charge": 2140,
  "\u3068\u306a\u308a": 2141,
  "\u969c\u5bb3": 2142,
  "\u2581According": 2143,
  "\u305d\u308c\u304c": 2144,
  "\u2581issue": 2145,
  "\u30e4": 2146,
  "\u2581led": 2147,
  "\u2581purpose": 2148,
  "\u5074": 2149,
  "\u2581cause": 2150,
  "ber": 2151,
  "\u2581medical": 2152,
  "\u4e88\u5b9a": 2153,
  "\u30b7\u30ea\u30fc\u30ba": 2154,
  "\u2581June": 2155,
  "\u2581inter": 2156,
  "\u96fb\u6c17": 2157,
  "tra": 2158,
  "cy": 2159,
  "ab": 2160,
  "\u8005\u306e": 2161,
  "\u2581ask": 2162,
  "\u2581complex": 2163,
  "men": 2164,
  "\u2581gas": 2165,
  "gen": 2166,
  "\u904b\u7528": 2167,
  "\u3067\u304d": 2168,
  "PC": 2169,
  "\u2581green": 2170,
  "\u2581Na": 2171,
  "\u6b21": 2172,
  "\u00ae": 2173,
  "\u79d1\u5b66": 2174,
  "tsu": 2175,
  "Microsoft": 2176,
  "\u2581flow": 2177,
  "\u258150": 2178,
  "\u2581\u4eca": 2179,
  "\u81ea\u52d5\u8eca": 2180,
  "\u2581manufacturing": 2181,
  "\u2581economic": 2182,
  "\u2581needed": 2183,
  "\u30a2\u30c3\u30d7": 2184,
  "\u653f\u5e9c": 2185,
  "\u30b8\u30a7": 2186,
  "\u591c": 2187,
  "\u2581Pa": 2188,
  "hi": 2189,
  "\u2581\u3082\u3057": 2190,
  "\u79c1\u305f\u3061\u306f": 2191,
  "\u6771\u4eac": 2192,
  "\u30d6\u30e9\u30f3\u30c9": 2193,
  "\u3088\u3044": 2194,
  "\u30b5\u30fc": 2195,
  "\u6751": 2196,
  "\u2581storage": 2197,
  "\u2581looks": 2198,
  "\u611f\u3058": 2199,
  "\u2581train": 2200,
  "\u3068\u547c\u3070\u308c\u308b": 2201,
  "\u2581town": 2202,
  "\u30c3\u30af": 2203,
  "\u2581knowledge": 2204,
  "\u958b\u59cb": 2205,
  "\u2581\u4f55": 2206,
  "\u3042\u308a\u307e\u3059": 2207,
  "\u3093\u3067\u3059": 2208,
  "\u304c\u306a\u3044": 2209,
  "\u2581En": 2210,
  "\u2581brand": 2211,
  "\u2581seems": 2212,
  "\u2581words": 2213,
  "\u2581delivery": 2214,
  "\u305f\u3061": 2215,
  "\u2581Ta": 2216,
  "\u7fa4": 2217,
  "\u89d2": 2218,
  "ler": 2219,
  "\u25810": 2220,
  "\u3069\u3046": 2221,
  "\u5f37\u3044": 2222,
  "\u79c1\u305f\u3061\u306e": 2223,
  "\u2581response": 2224,
  "\u5b66\u6821": 2225,
  "\u30bf\u30a4\u30d7": 2226,
  "\u8857": 2227,
  "\u30ae": 2228,
  "\u30ea\u30b9\u30af": 2229,
  "\u2581rest": 2230,
  "\u307b\u3068\u3093\u3069": 2231,
  "\u30b5\u30f3": 2232,
  "\u6b73": 2233,
  "\u30dd\u30a4\u30f3\u30c8": 2234,
  "\u3042\u306a\u305f\u304c": 2235,
  "\u2581changed": 2236,
  "\u30d5\u30e9\u30f3\u30b9": 2237,
  "\u2581true": 2238,
  "\u2581fast": 2239,
  "\u2581particular": 2240,
  "\u2581everyone": 2241,
  "\u2581visit": 2242,
  "\u2581choose": 2243,
  "\u2581receive": 2244,
  "\u5e38\u306b": 2245,
  "\u534a": 2246,
  "ities": 2247,
  "\u304e": 2248,
  "\u2581behavior": 2249,
  "\u2581skin": 2250,
  "500": 2251,
  "\u30c7\u30fc\u30bf\u3092": 2252,
  "\u4f55\u304b": 2253,
  "\u2581July": 2254,
  "\u2581century": 2255,
  "\u30bf\u30a4": 2256,
  "\u3075": 2257,
  "\u8cac\u4efb": 2258,
  "\u30cf\u30a4": 2259,
  "\u2581operations": 2260,
  "\u2581September": 2261,
  "\u672a": 2262,
  "\u30d5\u30a7": 2263,
  "\u901f\u5ea6": 2264,
  "\u2581email": 2265,
  "\u2581\u65e5\u672c": 2266,
  "\u2581di": 2267,
  "\u77e5": 2268,
  "\u2581resources": 2269,
  "\u2581photo": 2270,
  "\u59d4\u54e1\u4f1a": 2271,
  "ard": 2272,
  "\u3092\u53d7\u3051": 2273,
  "\u2581\u305d\u3046": 2274,
  "\u2581financial": 2275,
  "\u2581Ni": 2276,
  "\u52d5\u4f5c": 2277,
  "\u2581published": 2278,
  "\u2581Studio": 2279,
  "\u2581track": 2280,
  "\u3073": 2281,
  "\u6226\u7565": 2282,
  "\u2581January": 2283,
  "\u884c\u70ba": 2284,
  "\u2581French": 2285,
  "\u3044\u305f\u3057\u307e\u3059": 2286,
  "\u6838": 2287,
  "\u305f\u308a": 2288,
  "\u2581x": 2289,
  "\u2581word": 2290,
  "\u8a2d\u5099": 2291,
  "\u2581basic": 2292,
  "\u2581creating": 2293,
  "\u30b9\u30dd\u30fc\u30c4": 2294,
  "\u304b\u3069\u3046\u304b": 2295,
  "\u2581box": 2296,
  "les": 2297,
  "\u2581sent": 2298,
  "\u2581news": 2299,
  "\u30a6\u30a7\u30d6\u30b5\u30a4\u30c8": 2300,
  "ning": 2301,
  "\u500b\u4eba": 2302,
  "\u2581shows": 2303,
  "\u6a4b": 2304,
  "\u3082\u306e\u3060": 2305,
  "\u2581solutions": 2306,
  "\u2581round": 2307,
  "\u5c55\u958b": 2308,
  "\u2581potential": 2309,
  "\u2581cells": 2310,
  "\u2581activity": 2311,
  "\u819c": 2312,
  "\u5b66\u7fd2": 2313,
  "\u30b9\u30da\u30fc\u30b9": 2314,
  "\u8def": 2315,
  "\u4ee5\u4e0b": 2316,
  "\u52d5\u753b": 2317,
  "\u9854": 2318,
  "\u2581largest": 2319,
  "\u30d1\u30d5\u30a9\u30fc\u30de\u30f3\u30b9": 2320,
  "\u6226\u4e89": 2321,
  "he": 2322,
  "\u2581floor": 2323,
  "\u2581longer": 2324,
  "\u5185\u3067": 2325,
  "\u2581mode": 2326,
  "\u69d8": 2327,
  "\u2581exchange": 2328,
  "ship": 2329,
  "\u2581walking": 2330,
  "\u2581scale": 2331,
  "\u72ac": 2332,
  "day": 2333,
  "\u696d\u754c": 2334,
  "\u6d77\u5916": 2335,
  "\u7121\u6599": 2336,
  "\u2581core": 2337,
  "om": 2338,
  "mb": 2339,
  "\u8089": 2340,
  "\u2581Europe": 2341,
  "\u2581leave": 2342,
  "\u30e9\u30a4": 2343,
  "\u2581Emperor": 2344,
  "\u2581considered": 2345,
  "\u2581Design": 2346,
  "like": 2347,
  "\u306e\u305f\u3081": 2348,
  "\u3055\u308c\u3066": 2349,
  "\u90e8\u54c1": 2350,
  "\u30d7\u30ed\u30c0\u30af\u30c8": 2351,
  "\u5bb6\u65cf": 2352,
  "\u2581meeting": 2353,
  "\u73fe\u5728\u306e": 2354,
  "\u2581Is": 2355,
  "\u6839": 2356,
  "\u9178": 2357,
  "\u3066\u3044\u306a\u3044": 2358,
  "qui": 2359,
  "22": 2360,
  "\u4f1a\u8b70": 2361,
  "\u305d\u308c\u305e\u308c": 2362,
  "ical": 2363,
  "\u30db": 2364,
  "\u2581America": 2365,
  "\u2581reduce": 2366,
  "\u2581Ltd": 2367,
  "\u7d71\u5408": 2368,
  "-1": 2369,
  "\u8ad6": 2370,
  "\u2581official": 2371,
  "\u304a\u5ba2\u69d8": 2372,
  "\u2581record": 2373,
  "\u2581trade": 2374,
  "\u2581Team": 2375,
  "\u5e74\u306b\u306f": 2376,
  "\u2581ways": 2377,
  "\u6700\u9ad8": 2378,
  "\u2581Mar": 2379,
  "\u2581forward": 2380,
  "\u2581foreign": 2381,
  "\u2581Se": 2382,
  "\uff5e": 2383,
  "\u2581August": 2384,
  "\u2581capital": 2385,
  "\u2581collection": 2386,
  "\u2581October": 2387,
  "\u72ec\u81ea\u306e": 2388,
  "\u7fa9": 2389,
  "\u5225": 2390,
  "\u8449": 2391,
  "\u2581probably": 2392,
  "\u2581engine": 2393,
  "\u2581direct": 2394,
  "\u5168\u3066\u306e": 2395,
  "\u2581architecture": 2396,
  "\u30b7\u30f3": 2397,
  "\u2581billion": 2398,
  "\u3076": 2399,
  "\u96fb\u5b50": 2400,
  "\u3068\u5171\u306b": 2401,
  "\u2581Prefecture": 2402,
  "\u2581Park": 2403,
  "\u3050": 2404,
  "\u2581final": 2405,
  "\u9662": 2406,
  "board": 2407,
  "\u677f": 2408,
  "\u2581additional": 2409,
  "\u6975": 2410,
  "\u2581\u305d\u306e\u5f8c": 2411,
  "\u30cb\u30fc": 2412,
  "\u306a\u308a": 2413,
  "\u62e1\u5927": 2414,
  "\u30cb\u30e5\u30fc\u30b9": 2415,
  "\u30e1\u30c7\u30a3\u30a2": 2416,
  "\u610f\u5473": 2417,
  "ID": 2418,
  "\u2581components": 2419,
  "\u60a3\u8005": 2420,
  "\u5b9f\u88c5": 2421,
  "\u2581Dur": 2422,
  "28": 2423,
  "\u6e29\u5ea6": 2424,
  "\u5411\u4e0a": 2425,
  "\u30d3\u30eb": 2426,
  "\u2581\u3053\u308c": 2427,
  "\u8cde": 2428,
  "\u5411\u3051": 2429,
  "ten": 2430,
  "za": 2431,
  "\u5b89": 2432,
  "\u2581standing": 2433,
  "\u69cb\u6210": 2434,
  "\u30011": 2435,
  "\u2581court": 2436,
  "\u968a": 2437,
  "\u2581goal": 2438,
  "\u9577\u3044": 2439,
  "\u2581wanted": 2440,
  "\u2581km": 2441,
  "\u2581nothing": 2442,
  "\u7d4c": 2443,
  "\u30c6\u30fc\u30d6\u30eb": 2444,
  "\u2581road": 2445,
  "\u30b5\u30fc\u30d0": 2446,
  "\u305d\u306e\u4ed6\u306e": 2447,
  "\u5185\u5bb9": 2448,
  "\u30d1\u30fc\u30c8\u30ca\u30fc": 2449,
  "\u81ea\u7531": 2450,
  "\u25811.": 2451,
  "\u2581Jo": 2452,
  "\u2581picture": 2453,
  "\u2581points": 2454,
  "\u306b\u306a\u308a": 2455,
  "\u2581couple": 2456,
  "\u8cfc\u5165": 2457,
  "\u2581button": 2458,
  "\u671f": 2459,
  "let": 2460,
  "\u2581simply": 2461,
  "\u2581highly": 2462,
  "TM": 2463,
  "\u8a18\u4e8b": 2464,
  "\u3048\u308b": 2465,
  "\u2581\u3042\u306a\u305f\u306e": 2466,
  "\u5c02\u9580": 2467,
  "lin": 2468,
  "\u53ef\u80fd": 2469,
  "\u2581park": 2470,
  "ology": 2471,
  "\u5354\u529b": 2472,
  "\u958b\u767a\u8005": 2473,
  "\u2581situation": 2474,
  "\u62e1\u5f35": 2475,
  "[": 2476,
  "\u2581House": 2477,
  "\u8133": 2478,
  "\u2581download": 2479,
  "\u660e": 2480,
  "\u5229\u76ca": 2481,
  "\u25812018": 2482,
  "\u72b6": 2483,
  "ron": 2484,
  "\u2581super": 2485,
  "\u2581saw": 2486,
  "\u2581images": 2487,
  "\u306f\u3053\u306e": 2488,
  "\u8a8d\u8b58": 2489,
  "\u2581message": 2490,
  "\u2581hit": 2491,
  "\u2581section": 2492,
  "tin": 2493,
  "\u30d1\u30bf\u30fc\u30f3": 2494,
  "\u2581School": 2495,
  "\u2581force": 2496,
  "\u65c5\u884c": 2497,
  "\u96c6": 2498,
  "\u3051\u3069": 2499,
  "\u2581died": 2500,
  "\u2581environmental": 2501,
  "\u2581operating": 2502,
  "\u5bfe\u8c61": 2503,
  "\u2581hope": 2504,
  "\u30d8": 2505,
  "\u2581acid": 2506,
  "\u6b6f": 2507,
  "\u682a\u5f0f\u4f1a\u793e": 2508,
  "\u30ed\u30c3\u30af": 2509,
  "\u7537\u6027": 2510,
  "\u2581CEO": 2511,
  "em": 2512,
  "\u2581Also": 2513,
  "\u53c2\u52a0": 2514,
  "\u2581Mi": 2515,
  "\u2581generation": 2516,
  "\u8a18": 2517,
  "\u9280\u884c": 2518,
  "\u2581Hi": 2519,
  "\u30c9\u30a4\u30c4": 2520,
  "\u6a5f\u5668": 2521,
  "ator": 2522,
  "\u30a2\u30d7\u30ed\u30fc\u30c1": 2523,
  "\u696d": 2524,
  "\u2581Inc": 2525,
  "\u2581travel": 2526,
  "\u3082\u3042\u308b": 2527,
  "\u2581First": 2528,
  "\u2581commercial": 2529,
  "\u2581season": 2530,
  "\u8a00\u8449": 2531,
  "\u9069\u5207\u306a": 2532,
  "\u2581asked": 2533,
  "\u2581likely": 2534,
  "\u4e21": 2535,
  "\u6587\u5b57": 2536,
  "\u958b": 2537,
  "\u2581click": 2538,
  "\u2581metal": 2539,
  "\u2581break": 2540,
  "\u2581methods": 2541,
  "\u2581involved": 2542,
  "\u2581former": 2543,
  "\u2581items": 2544,
  "\u2581plans": 2545,
  "ure": 2546,
  "\u5727": 2547,
  "\u2581games": 2548,
  "\u3066\u304d\u305f": 2549,
  "\u2581developing": 2550,
  "\u258125": 2551,
  "\u300d\u300c": 2552,
  "\u7f8e": 2553,
  "\u3068\u3066\u3082": 2554,
  "\u30a2\u30b8\u30a2": 2555,
  "\u6210\u529f": 2556,
  "\u2581database": 2557,
  "Amazon": 2558,
  "\u2581Ad": 2559,
  "\u2581wait": 2560,
  "\u5fc5\u8981\u306a": 2561,
  "\u2581produced": 2562,
  "\u2581fine": 2563,
  "\u2581Station": 2564,
  "\u697d": 2565,
  "\u7269\u8cea": 2566,
  "\u2581staff": 2567,
  "\u2581Mr": 2568,
  "\u2581player": 2569,
  "\u540d\u524d": 2570,
  "\u30dc\u30bf\u30f3": 2571,
  "\u2581lost": 2572,
  "\u305e": 2573,
  "ative": 2574,
  "\u8077": 2575,
  "\u6e90": 2576,
  "\u2581nature": 2577,
  "\u4fdd\u5b58": 2578,
  "\u2581maintain": 2579,
  "use": 2580,
  "\u2581toward": 2581,
  "ze": 2582,
  "\u64ae\u5f71": 2583,
  "\u2581interest": 2584,
  "\u2581produce": 2585,
  "\u30e9\u30a4\u30c8": 2586,
  "\u30d5\u30ec\u30fc\u30e0\u30ef\u30fc\u30af": 2587,
  "\u2581conference": 2588,
  "ip": 2589,
  "\u2581client": 2590,
  "q": 2591,
  "old": 2592,
  "\u2581st": 2593,
  "\u2581{\\": 2594,
  "\u2581hold": 2595,
  "\u30e2\u30b8\u30e5\u30fc\u30eb": 2596,
  "yl": 2597,
  "\u9593\u306e": 2598,
  "\u2581contract": 2599,
  "our": 2600,
  "\u2581Temple": 2601,
  "\u5370\u5237": 2602,
  "\u671d": 2603,
  "\u306b\u306a\u3063\u3066": 2604,
  "\u30eb\u30fc\u30e0": 2605,
  "\u2581Spring": 2606,
  "han": 2607,
  "\u2581European": 2608,
  "\u5b58\u5728": 2609,
  "\u306b\u95a2\u3057\u3066": 2610,
  "\u7701": 2611,
  "\u2581success": 2612,
  "\u521d": 2613,
  "\u2581Using": 2614,
  "\u2581born": 2615,
  "\u5de6": 2616,
  "\u2581decided": 2617,
  "ana": 2618,
  "\u2581touch": 2619,
  "\u985e": 2620,
  "\u2581hands": 2621,
  "\u75c7": 2622,
  "\u2581Ex": 2623,
  "cho": 2624,
  "\u3092\u4f5c\u308b": 2625,
  "\u30a8\u30f3": 2626,
  "\u2581demand": 2627,
  "\u3068\u540c\u3058": 2628,
  "\u3072": 2629,
  "\u2581models": 2630,
  "\u2581holding": 2631,
  "\u30ed\u30f3": 2632,
  "\u2581fun": 2633,
  "\u8d85": 2634,
  "\u3053\u308c": 2635,
  "\u7f8e\u3057\u3044": 2636,
  "\u2581term": 2637,
  "fi": 2638,
  "\u2581named": 2639,
  "\u5fc5\u8981\u304c\u3042\u308a\u307e\u3059": 2640,
  "\u9244": 2641,
  "\u795e\u7d4c": 2642,
  "\u767a\u898b": 2643,
  "\u258124": 2644,
  "\u5206\u91ce": 2645,
  "ley": 2646,
  "\u2581reach": 2647,
  "\u2581press": 2648,
  "\u76ee\u3067": 2649,
  "\u2581John": 2650,
  "\u5ea7": 2651,
  "\u5bae": 2652,
  "\u50cf": 2653,
  "#": 2654,
  "ward": 2655,
  "\u4f9b\u7d66": 2656,
  "\u2581steel": 2657,
  "\u2581Services": 2658,
  "\u51fa\u3059": 2659,
  "\u7aef": 2660,
  "\u5f37": 2661,
  "70": 2662,
  "\u3058\u3083\u306a\u3044": 2663,
  "\u5236": 2664,
  "\u2581OF": 2665,
  "\u2581manage": 2666,
  "sion": 2667,
  "\u2581protect": 2668,
  "\u30d5\u30a1\u30f3": 2669,
  "\u57fa\u6e96": 2670,
  "\u2581limited": 2671,
  "\u30b5\u30a4\u30ba": 2672,
  "\u3093\u3067": 2673,
  "\u904e": 2674,
  "\u2581disease": 2675,
  "\u5c4b": 2676,
  "tal": 2677,
  "\u661f": 2678,
  "\u6700\u9ad8\u306e": 2679,
  "We": 2680,
  "\u2581tea": 2681,
  "\u8b70\u8ad6": 2682,
  "\u52d5\u7269": 2683,
  "\u30c8\u30c3\u30d7": 2684,
  "kin": 2685,
  "\u5b50\u4f9b": 2686,
  "IP": 2687,
  "\u2581London": 2688,
  "\u2581Vi": 2689,
  "\u30d5\u30eb": 2690,
  "\u2581Asia": 2691,
  "\u2581President": 2692,
  "\u30a2\u30fc": 2693,
  "23": 2694,
  "\u8abf": 2695,
  "\u30a4\u30ae\u30ea\u30b9": 2696,
  "AL": 2697,
  "\u3092\u53d6\u308a": 2698,
  "\u533a": 2699,
  "\u2581protection": 2700,
  "\u2581memory": 2701,
  "we": 2702,
  "\u5316\u5b66": 2703,
  "\u5c11\u3057": 2704,
  "\u3067\u306f\u3042\u308a\u307e\u305b\u3093": 2705,
  "can": 2706,
  "\u2581Tom": 2707,
  "\u9ad8\u901f": 2708,
  "\u2581worked": 2709,
  "\u3060\u3051\u3067": 2710,
  "\u2581attack": 2711,
  "red": 2712,
  "\u6c0f\u304c": 2713,
  "\u2581requirements": 2714,
  "\u2581active": 2715,
  "\u63d0\u6848": 2716,
  "\u2581usually": 2717,
  "\u2581v": 2718,
  "\u2581subject": 2719,
  "lan": 2720,
  "ise": 2721,
  "pa": 2722,
  "\u306e\u306a\u3044": 2723,
  "\u2581bus": 2724,
  "\u2581upon": 2725,
  "\u30e9\u30a4\u30d6\u30e9\u30ea": 2726,
  "\u98df\u54c1": 2727,
  "year": 2728,
  "\u51fa\u529b": 2729,
  "\u30aa\u30d6\u30b8\u30a7\u30af\u30c8": 2730,
  "\u2581AI": 2731,
  "\u3068\u304d\u306b": 2732,
  "\u53cd": 2733,
  "\u4ed8": 2734,
  "\u2581effective": 2735,
  "\u2581functions": 2736,
  "\u2581act": 2737,
  "\u3082\u3046": 2738,
  "tro": 2739,
  "\u5f8c\u306e": 2740,
  "\u5b87\u5b99": 2741,
  "\u3092\u898b\u308b": 2742,
  "\u2581option": 2743,
  "\u2581article": 2744,
  "\u2581Sho": 2745,
  "ee": 2746,
  "\u306b\u5bfe\u3057": 2747,
  "\u2581...": 2748,
  "\u2581clan": 2749,
  "\u304a\u5ba2\u69d8\u306e": 2750,
  "wa": 2751,
  "*": 2752,
  "\u30a2\u30fc\u30ad\u30c6\u30af\u30c1\u30e3": 2753,
  "\u8fbc\u3080": 2754,
  "\u66f4\u65b0": 2755,
  "\u2581perform": 2756,
  "\u7d4c\u55b6": 2757,
  "\u8a08\u7b97": 2758,
  "\u2581completely": 2759,
  "\u2581Although": 2760,
  "\u305d\u306e\u5f8c": 2761,
  "\u76f4\u63a5": 2762,
  "\u4ea4\u63db": 2763,
  "\u2581launched": 2764,
  "\u2581Ki": 2765,
  "\u2581December": 2766,
  "Wi": 2767,
  "\u5fa1": 2768,
  "\u7279\u5fb4": 2769,
  "\u2581practice": 2770,
  "\u58c1": 2771,
  "\u3069\u3093\u306a": 2772,
  "\u2581education": 2773,
  "\u2581pretty": 2774,
  "lu": 2775,
  "\u90e8\u9580": 2776,
  "\u2581wall": 2777,
  "\u3089\u308c": 2778,
  "led": 2779,
  "\u2581Store": 2780,
  "\u89b3": 2781,
  "\u2581write": 2782,
  "\u2581cross": 2783,
  "\u8005\u306f": 2784,
  "\u2581interesting": 2785,
  "\u2581moment": 2786,
  "\u2581condition": 2787,
  "\u2581Free": 2788,
  "\u2581OS": 2789,
  "\u2581February": 2790,
  "vi": 2791,
  "\u2581useful": 2792,
  "\u30a4\u30e1\u30fc\u30b8": 2793,
  "\u7a7a\u6e2f": 2794,
  "\u2581ready": 2795,
  "\u2581fully": 2796,
  "\u2581facilities": 2797,
  "\u2581attention": 2798,
  "\u30b5\u30fc\u30d0\u30fc": 2799,
  "\u6cb9": 2800,
  "\u30a2\u30a4": 2801,
  "\u4fe1": 2802,
  "\u4eba\u306b": 2803,
  "\u2581sign": 2804,
  "\u8349": 2805,
  "\u53cb\u4eba": 2806,
  "\u2013": 2807,
  "ut": 2808,
  "\u521d\u3081\u3066": 2809,
  "\u30d6\u30e9\u30a6\u30b6": 2810,
  "\u2581IT": 2811,
  "\u89e3": 2812,
  "\u691c\u8a0e": 2813,
  "\u2581clean": 2814,
  "\u2581expect": 2815,
  "\u2581avoid": 2816,
  "\u2581morning": 2817,
  "\u30d5\u30a3\u30fc\u30eb\u30c9": 2818,
  "\u56db": 2819,
  "\u2581interface": 2820,
  "\u3068\u3057\u3066\u306e": 2821,
  "\u2581rules": 2822,
  "\u2581starting": 2823,
  "\u30012": 2824,
  "port": 2825,
  "\u5909": 2826,
  "\u6e1b": 2827,
  "\u3092\u4f7f\u3046": 2828,
  "\u2581military": 2829,
  "ring": 2830,
  "\u2581November": 2831,
  "\u7dcf": 2832,
  "\u2581fish": 2833,
  "\u9244\u9053": 2834,
  "\u2581\u30a2": 2835,
  "\u2581advanced": 2836,
  "\u2581concept": 2837,
  "izing": 2838,
  "\u2581Art": 2839,
  "\u30aa\u30fc\u30d7\u30f3": 2840,
  "\u2581\u5927": 2841,
  "\u30d1\u30f3": 2842,
  "\u90e8\u5c4b": 2843,
  "off": 2844,
  "\u4f53\u9a13": 2845,
  "\u30c8\u30ea": 2846,
  "\u306e\u4f7f\u7528": 2847,
  "\u30b3\u30fc\u30b9": 2848,
  "\u4fe1\u53f7": 2849,
  "\u500d": 2850,
  "\u3053\u3068\u3060": 2851,
  "si": 2852,
  "\u2581perfect": 2853,
  "\u690d\u7269": 2854,
  "\u30ea\u30a2": 2855,
  "\u95a2\u6570": 2856,
  "\u653f": 2857,
  "\u2581transfer": 2858,
  "\u6642\u4ee3": 2859,
  "\u3057\u3066\u3044\u306a\u3044": 2860,
  "\u30b3\u30f3\u30c8\u30ed\u30fc\u30eb": 2861,
  "\u2581shirt": 2862,
  "\u907a\u4f1d\u5b50": 2863,
  "ig": 2864,
  "\u2581achieve": 2865,
  "\u2581Research": 2866,
  "\u8a8d\u8a3c": 2867,
  "\u7d20": 2868,
  "\u2581\u5f7c\u306e": 2869,
  "\u2581significant": 2870,
  "\u30b1\u30fc\u30b9": 2871,
  "\u2581factory": 2872,
  "\u2581deep": 2873,
  "ong": 2874,
  "\u2581brain": 2875,
  "\u30d9\u30fc\u30b9\u306e": 2876,
  "\u6700\u5927\u306e": 2877,
  "\u3068\u601d\u3044\u307e\u3059": 2878,
  "\u30ac\u30fc": 2879,
  "\u30b3\u30f3\u30dd\u30fc\u30cd\u30f3\u30c8": 2880,
  "\u2581writing": 2881,
  "\u2581expected": 2882,
  "\u6761": 2883,
  "fu": 2884,
  "\u8fbc\u307f": 2885,
  "fer": 2886,
  "\u2581electric": 2887,
  "ER": 2888,
  "\u306f\u305d\u306e": 2889,
  "\u2581automatically": 2890,
  "\u30a6\u30a7\u30d6": 2891,
  "\u5b9a\u7fa9": 2892,
  "\u306f\u306a\u3044": 2893,
  "\u7d39\u4ecb": 2894,
  "\u540c\u793e\u306e": 2895,
  "\u65e5\u306e": 2896,
  "\u9001\u4fe1": 2897,
  "IC": 2898,
  "\u2581path": 2899,
  "\u30ec\u30b9": 2900,
  "\u2581introduced": 2901,
  "\u7d50\u5408": 2902,
  "\u2581micro": 2903,
  "\u8abf\u6574": 2904,
  "\u306b\u3088\u308c\u3070": 2905,
  "\u30a2\u30b8\u30e3\u30a4\u30eb": 2906,
  "\u30b3\u30df\u30e5\u30cb\u30b1\u30fc\u30b7\u30e7\u30f3": 2907,
  "\u30ac\u30f3": 2908,
  "PS": 2909,
  "\u2581State": 2910,
  "\u2581Technology": 2911,
  "\u53f3": 2912,
  "\u3092\u6301\u3063\u3066": 2913,
  "\u30cf\u30f3": 2914,
  "\u4e0a\u306b": 2915,
  "\u30d3\u30fc": 2916,
  "\u2581command": 2917,
  "\u6a5f\u4f1a": 2918,
  "\u57fa": 2919,
  "zo": 2920,
  "display": 2921,
  "\u6301\u3061": 2922,
  "\u8ffd\u52a0": 2923,
  "\u2581properties": 2924,
  "\u79c1": 2925,
  "\u30ec\u30b9\u30c8\u30e9\u30f3": 2926,
  "\u5efa\u7269": 2927,
  "\u2581gave": 2928,
  "\u5168\u3066": 2929,
  "\u89e3\u6c7a": 2930,
  "\u2581Business": 2931,
  "\u5728": 2932,
  "yama": 2933,
  "\u305f\u3061\u306f": 2934,
  "\u2581AND": 2935,
  "\u307b\u307c": 2936,
  "\u30bf\u30f3": 2937,
  "\u2581stand": 2938,
  "\u2581themselves": 2939,
  "\u65ad": 2940,
  "ging": 2941,
  "\u30bc": 2942,
  "AR": 2943,
  "\u2581throughout": 2944,
  "\u2581n": 2945,
  "\u5e74\u304b\u3089": 2946,
  "\u4e88\u7d04": 2947,
  "\u8131": 2948,
  "\u6025": 2949,
  "\u3042\u308a": 2950,
  "\u2581answer": 2951,
  "\u65b9\u5411": 2952,
  "29": 2953,
  "\u2581cancer": 2954,
  "\u7de8\u96c6": 2955,
  "\u524a\u9664": 2956,
  "\u751f\u307e\u308c": 2957,
  "\u2581connection": 2958,
  "26": 2959,
  "\u8cea\u554f": 2960,
  "\u30aa\u30f3": 2961,
  "\u2581browser": 2962,
  "shu": 2963,
  "\u9b5a": 2964,
  "\u4ee5\u4e0b\u306e": 2965,
  "\u5236\u9650": 2966,
  "\u3042\u306a\u305f\u306f": 2967,
  "\u2581framework": 2968,
  "\u76ee\u3092": 2969,
  "\u2581processes": 2970,
  "\u2581internal": 2971,
  "\u5f71\u97ff": 2972,
  "\u2581questions": 2973,
  "\u2581efforts": 2974,
  "\u5236\u4f5c": 2975,
  "oc": 2976,
  "\u2581PC": 2977,
  "\u3092\u6301\u3063\u3066\u3044\u308b": 2978,
  "\u53d6": 2979,
  "99": 2980,
  "\u969b": 2981,
  "\u5224\u65ad": 2982,
  "\u3068\u304b": 2983,
  "\u2581easier": 2984,
  "\u5922": 2985,
  "\u7570": 2986,
  "\u30d1\u30c3\u30b1\u30fc\u30b8": 2987,
  "\u2581British": 2988,
  "ight": 2989,
  "\u2581decision": 2990,
  "\u5efa\u8a2d": 2991,
  "\u2581follow": 2992,
  "\u6587\u66f8": 2993,
  "\u904b\u8ee2": 2994,
  "\u2581update": 2995,
  "\u30a4\u30f3\u30b9\u30c8\u30fc\u30eb": 2996,
  "\u2581vehicle": 2997,
  "\u2581Here": 2998,
  "\u2581layer": 2999,
  "\u306b\u3064\u3044\u3066\u306e": 3000,
  "\u82f1": 3001,
  "\u7a7a\u6c17": 3002,
  "\u8aac": 3003,
  "\u2581stock": 3004,
  "\u2581com": 3005,
  "\u2581target": 3006,
  "Twitter": 3007,
  "\u30ac\u30e9\u30b9": 3008,
  "\u3055\u305b\u305f": 3009,
  "\u2581select": 3010,
  "\u4e57": 3011,
  "ver": 3012,
  "mit": 3013,
  "\u5dee": 3014,
  "\u2581purchase": 3015,
  "\u306e\u5f71\u97ff": 3016,
  "\u4ed5\u69d8": 3017,
  "\u2581grow": 3018,
  "NET": 3019,
  "au": 3020,
  "00": 3021,
  "\u2581Let": 3022,
  "ther": 3023,
  "\u30b9\u30de\u30fc\u30c8\u30d5\u30a9\u30f3": 3024,
  "\u2581central": 3025,
  "\u4f4d\u7f6e": 3026,
  "ible": 3027,
  "\u3044\u307e\u3057\u305f": 3028,
  "\u30aa\u30fc": 3029,
  "\u9ed2": 3030,
  "\u6642\u306e": 3031,
  "\u3092\u793a\u3059": 3032,
  "\u2581hardware": 3033,
  "\u624b\u6cd5": 3034,
  "\u2581Ga": 3035,
  "vis": 3036,
  "\u30c6\u30ad\u30b9\u30c8": 3037,
  "90": 3038,
  "\u2581famous": 3039,
  "\u2581ship": 3040,
  "\u5ca9": 3041,
  "\u2581investment": 3042,
  "\u547d": 3043,
  "\u2581review": 3044,
  "ven": 3045,
  "ham": 3046,
  "\u2581developer": 3047,
  "\u2581science": 3048,
  "\u2581Pre": 3049,
  "200": 3050,
  "\u2581talking": 3051,
  "\u30b7\u30b9\u30c6\u30e0\u306e": 3052,
  "\u2581effects": 3053,
  "\u2581political": 3054,
  "ju": 3055,
  "\u5185\u306b": 3056,
  "ray": 3057,
  "\u79d1": 3058,
  "\u2581caused": 3059,
  "\u2581Many": 3060,
  "\u2581Or": 3061,
  "\u2581Agile": 3062,
  "\u2581\u7b2c": 3063,
  "\u2581Province": 3064,
  "ng": 3065,
  "\u2581shape": 3066,
  "ier": 3067,
  "\u6750": 3068,
  "\u25812.": 3069,
  "\u2581blog": 3070,
  "\u5404\u7a2e": 3071,
  "\u2581II": 3072,
  "\u2581Because": 3073,
  "\u6e96\u5099": 3074,
  "\u9ce5": 3075,
  "\u30e9\u30f3\u30c9": 3076,
  "\u2581loss": 3077,
  "\u2581weight": 3078,
  "\u9580": 3079,
  "\u5f15\u304d": 3080,
  "\u4e88\u6e2c": 3081,
  "\u88fd\u54c1\u306e": 3082,
  "\u2581\u79c1\u304c": 3083,
  "\u30eb\u30fc": 3084,
  "\u2581glass": 3085,
  "\u2581Server": 3086,
  "\u2581\u73fe\u5728": 3087,
  "\u2581race": 3088,
  "\u2581offering": 3089,
  "\u2581East": 3090,
  "\u30d6\u30eb": 3091,
  "\u30a8\u30ea\u30a2": 3092,
  "\u4e2d\u592e": 3093,
  "\u3092\u901a\u3057\u3066": 3094,
  "\u8868\u9762": 3095,
  "king": 3096,
  "ft": 3097,
  "\u3068\u3057\u305f": 3098,
  "\u25812019": 3099,
  "\u2581integration": 3100,
  "\u2581reached": 3101,
  "\u30c8\u30e9": 3102,
  "induced": 3103,
  "\u4f01\u696d\u306e": 3104,
  "\u2581Ri": 3105,
  "\u304b\u3063\u305f": 3106,
  "\u8d64": 3107,
  "\u3068\u306a\u308a\u307e\u3059": 3108,
  "\u6559": 3109,
  "\u771f": 3110,
  "\u2015": 3111,
  "Co": 3112,
  "\u2581choice": 3113,
  "\u2581Street": 3114,
  "\u53e4": 3115,
  "\u2581domain": 3116,
  "\u2581beginning": 3117,
  "\u2581basis": 3118,
  "CEO": 3119,
  "Me": 3120,
  "\u53c8\u306f": 3121,
  "\u258140": 3122,
  "\u2581Shi": 3123,
  "\u2581\u65b0\u3057\u3044": 3124,
  "\u2581moving": 3125,
  "\u3055\u308c\u3066\u3044\u305f": 3126,
  "35": 3127,
  "\u5c45": 3128,
  "\u2581{": 3129,
  "\u4e00\u756a": 3130,
  "\u2581daily": 3131,
  "\u5f53\u793e": 3132,
  "\u958b\u50ac": 3133,
  "\u2581distribution": 3134,
  "\u2581damage": 3135,
  "\u2581moved": 3136,
  "\u624b\u6bb5": 3137,
  "\u2581enter": 3138,
  "\u4e8b\u4ef6": 3139,
  "\u5217": 3140,
  "\u2581previous": 3141,
  "\u30d6\u30ed\u30c3\u30af": 3142,
  "\u7d20\u6750": 3143,
  "\u30dc\u30fc\u30eb": 3144,
  "300": 3145,
  "\u3059\u3067\u306b": 3146,
  "\u2581status": 3147,
  "\u2581increased": 3148,
  "\u306e\u4e2d\u306b": 3149,
  "\u306b\u95a2\u3059\u308b\u7814\u7a76": 3150,
  ")\u300d": 3151,
  "\u2581General": 3152,
  "\u2581startup": 3153,
  "\u2581German": 3154,
  "\u8cc7\u91d1": 3155,
  "\u2581speak": 3156,
  "CO": 3157,
  "\u2581difference": 3158,
  "\u2581Management": 3159,
  "\u77e5\u8b58": 3160,
  "\u6599\u91d1": 3161,
  "\u984d": 3162,
  "\u2581Red": 3163,
  "\u6027\u306e": 3164,
  "\u3069": 3165,
  "\u2581custom": 3166,
  "\u258121": 3167,
  "ified": 3168,
  "27": 3169,
  "\u30a8\u30eb": 3170,
  "\u2581la": 3171,
  "\u2581eat": 3172,
  "\u2581physical": 3173,
  "her": 3174,
  "\u2581Not": 3175,
  "term": 3176,
  "\u7537\u304c": 3177,
  "\u2581k": 3178,
  "\u2581link": 3179,
  "\u601d\u3044": 3180,
  "\u4ed6": 3181,
  "\u2581band": 3182,
  "\u2581summer": 3183,
  "\u2581signal": 3184,
  "\u2581sell": 3185,
  "\u76e3\u8996": 3186,
  "\u5b8c\u5168\u306b": 3187,
  "\u2581\u5f53\u793e\u306f": 3188,
  "\u843d": 3189,
  "\u5104": 3190,
  "\u3092\u884c\u3063\u305f": 3191,
  "\u2581\u3042\u306a\u305f\u304c": 3192,
  "\u8f38\u9001": 3193,
  "\u2581Museum": 3194,
  "\u3092\u6301\u3061": 3195,
  "\u2581Your": 3196,
  "\u2581load": 3197,
  "\u7b54\u3048": 3198,
  "\u2581Information": 3199,
  "\u3066\u304f\u3060\u3055\u3044": 3200,
  "\u25812017": 3201,
  "SE": 3202,
  "\u5897": 3203,
  "\u30b7\u30e3": 3204,
  "</": 3205,
  "\u6b74\u53f2": 3206,
  "\u30ea\u30bd\u30fc\u30b9": 3207,
  "\u2581direction": 3208,
  "\u6bb5\u968e": 3209,
  "\u30c1\u30fc\u30e0\u306f": 3210,
  "\u6c0f\u306e": 3211,
  "\u2581Of": 3212,
  "\u30d9\u30c3\u30c9": 3213,
  "\u4fe1\u983c": 3214,
  "\u6d3b\u7528": 3215,
  "\u2581expression": 3216,
  "Mo": 3217,
  "\u3068\u3057\u3066\u3082": 3218,
  "\u2581opportunity": 3219,
  "\u5408\u6210": 3220,
  "\u2581lines": 3221,
  "\u2581served": 3222,
  "ja": 3223,
  "\u7c73\u56fd\u6642\u9593": 3224,
  "\u2581internet": 3225,
  "\u58f0": 3226,
  "\u30a4\u30f3\u30c9": 3227,
  "\u2581rights": 3228,
  "\u9054": 3229,
  "\u2581strength": 3230,
  "\u8005\u304c": 3231,
  "\u2581Azure": 3232,
  "\u30d5\u30ea\u30fc": 3233,
  "\u2581traffic": 3234,
  "\u6db2": 3235,
  "zu": 3236,
  "\u30de\u30b7\u30f3": 3237,
  "su": 3238,
  "\u5b9f\u65bd": 3239,
  "\u2581River": 3240,
  "\u300d(": 3241,
  "\u30e1\u30bd\u30c3\u30c9": 3242,
  "\u8a31\u53ef": 3243,
  "\u2581distance": 3244,
  "\u2581Lo": 3245,
  "ping": 3246,
  "\u518d\u751f": 3247,
  "\u6700\u65b0\u306e": 3248,
  "\u8a08": 3249,
  "\u2581iPad": 3250,
  "\u306b\u3042\u308a\u307e\u3059": 3251,
  "\u2581star": 3252,
  "\u7acb\u3061": 3253,
  "\u5b88": 3254,
  "iOS": 3255,
  "\u751f\u6210": 3256,
  "\u2581population": 3257,
  "\u2581Ca": 3258,
  "light": 3259,
  "\u308c\u308b": 3260,
  "\u2581AWS": 3261,
  "\u56fd\u306e": 3262,
  "\u305a\u3063\u3068": 3263,
  "\u2581goes": 3264,
  "\u305d\u3046\u306a": 3265,
  "\u2581friend": 3266,
  "\u2581El": 3267,
  "\u7d75": 3268,
  "\u2581chance": 3269,
  "\u5175": 3270,
  "\u2581Her": 3271,
  "\u4eba\u6c17": 3272,
  "\u2581double": 3273,
  "32": 3274,
  "\u8840": 3275,
  "\u53e4\u3044": 3276,
  "bit": 3277,
  "\u2581Imperial": 3278,
  "\u52a0": 3279,
  "\u306b\u3059\u308b": 3280,
  "\u5fc5\u8981\u304c\u3042\u308b": 3281,
  "over": 3282,
  "\u2581sites": 3283,
  "\u308b\u3068": 3284,
  "\u3092\u898b\u3066": 3285,
  "\u756a": 3286,
  "ken": 3287,
  "\u2581police": 3288,
  "\u3089\u306a\u3044": 3289,
  "ub": 3290,
  "\u2581normal": 3291,
  "\u2581corporate": 3292,
  "\u30ab\u30f3": 3293,
  "\u30b3\u30f3\u30d4\u30e5\u30fc\u30bf\u30fc": 3294,
  "\u2581patients": 3295,
  "\u2581middle": 3296,
  "\u2581effort": 3297,
  "\u30cd\u30c3\u30c8": 3298,
  "\u2581thinking": 3299,
  "\u25812010": 3300,
  "\u2581lives": 3301,
  "\u6cd5\u5f8b": 3302,
  "\u2581Pi": 3303,
  "\u5229": 3304,
  "\u2581options": 3305,
  "\u3088\u3046\u306b\u306a\u3063\u305f": 3306,
  "\u2581library": 3307,
  "\u2581groups": 3308,
  "\u5f7c\u3089\u306e": 3309,
  "\u2581huge": 3310,
  "\u6bce\u65e5": 3311,
  "\u2581advantage": 3312,
  "\u81ea\u8eab\u306e": 3313,
  "\u2581spring": 3314,
  "\u2581Dr": 3315,
  "\u30ad\u30e3": 3316,
  "\u30c8\u30e9\u30c3\u30af": 3317,
  "\u3057\u304b\u3057": 3318,
  "\u30c1\u30e3": 3319,
  "\u2581connected": 3320,
  "\u79c1\u304c": 3321,
  "\u65e2\u5b58\u306e": 3322,
  "\u2581theory": 3323,
  "\u5104\u30c9\u30eb": 3324,
  "\u5c11\u306a\u304f\u3068\u3082": 3325,
  "\u3089\u308c\u3066\u3044\u308b": 3326,
  "\u9032": 3327,
  "\u4e00\u822c": 3328,
  "ware": 3329,
  "\u2581window": 3330,
  "\u6d3e": 3331,
  "\u30e2\u30fc\u30c9": 3332,
  "\u767a\u5c55": 3333,
  "\u2581legal": 3334,
  "\u2581snow": 3335,
  "\u5909\u63db": 3336,
  "ions": 3337,
  "ction": 3338,
  "\u2581growing": 3339,
  "\u6559\u4f1a": 3340,
  "\u2581applied": 3341,
  "\u25812012": 3342,
  "\u5916\u90e8": 3343,
  "\u4e16\u7d00": 3344,
  "\u2581saying": 3345,
  "pre": 3346,
  "\u2581save": 3347,
  "\u591a\u304f": 3348,
  "\u2581Three": 3349,
  "\u2581opened": 3350,
  "\u6bdb": 3351,
  "\u30ec\u30fc": 3352,
  "\u2581handle": 3353,
  "\u3068\u306a\u3063\u3066\u3044\u308b": 3354,
  "\u2581mission": 3355,
  "\u306b\u57fa\u3065\u3044\u3066": 3356,
  "\u2581excellent": 3357,
  "tu": 3358,
  "\u2581apply": 3359,
  "\u8010": 3360,
  "\u2581rich": 3361,
  "\u2581Bi": 3362,
  "\u3092\u5f97\u308b": 3363,
  "\u30e2\u30f3": 3364,
  "\u2581skills": 3365,
  "\u2581Even": 3366,
  "ice": 3367,
  "\u672c\u5f53\u306b": 3368,
  "\u3068\u3057\u3066\u306f": 3369,
  "\u9928": 3370,
  "\u9053\u8def": 3371,
  "\u305f\u3089": 3372,
  "\u2581Office": 3373,
  "\u306a\u3051\u308c\u3070\u306a\u3089\u306a\u3044": 3374,
  "ple": 3375,
  "\u2581appropriate": 3376,
  "\u51fa\u3057": 3377,
  "\u5b9f\u969b\u306b": 3378,
  "\u2581tests": 3379,
  "\u3057\u3044": 3380,
  "\u25812008": 3381,
  "\u306e\u5834\u5408": 3382,
  "\u2581promote": 3383,
  "\u3057\u3066\u304a\u308a\u307e\u3059": 3384,
  "\u2581Study": 3385,
  "ny": 3386,
  "RE": 3387,
  "\u81ea\u8ee2\u8eca": 3388,
  "\u2581output": 3389,
  "\u30b5\u30fc\u30d3\u30b9\u306e": 3390,
  "\u9752": 3391,
  "\u2581ten": 3392,
  "\u65e5\u672c\u8a9e": 3393,
  "ep": 3394,
  "\u2581wife": 3395,
  "gg": 3396,
  "ual": 3397,
  "\u597d": 3398,
  "\u4ed8\u304d": 3399,
  "AC": 3400,
  "\u4e8b\u6545": 3401,
  "TA": 3402,
  "\u2581meters": 3403,
  "\u30c1\u30a7\u30c3\u30af": 3404,
  "\u2581require": 3405,
  "\u5e83": 3406,
  "back": 3407,
  "\u691c\u51fa": 3408,
  "\u2581Act": 3409,
  "\u682a": 3410,
  "\u2581West": 3411,
  "\u9031\u9593": 3412,
  "\u30b2": 3413,
  "\u2581ex": 3414,
  "qu": 3415,
  "\u307e\u305a": 3416,
  "\u3092\u884c\u3044": 3417,
  "\u2581setting": 3418,
  "\u7403": 3419,
  "\u2581clients": 3420,
  "\u30bf\u30a4\u30e0": 3421,
  "\u30e8\u30fc\u30ed\u30c3\u30d1": 3422,
  "\u3063\u3066\u3044\u305f": 3423,
  "\u52d5\u304d": 3424,
  "\u30b8\u30e3": 3425,
  "\u5185\u90e8": 3426,
  "\u306b\u306a\u3063\u3066\u3044\u308b": 3427,
  "De": 3428,
  "\u6700": 3429,
  "\u2581virtual": 3430,
  "\u2581infrastructure": 3431,
  "\u2581tech": 3432,
  "tter": 3433,
  "31": 3434,
  "\u2581industrial": 3435,
  "\u4eac\u90fd": 3436,
  "\u81ea\u5df1": 3437,
  "\u2581sold": 3438,
  "\u2581driving": 3439,
  "ger": 3440,
  "\u2581objects": 3441,
  "\u2581tax": 3442,
  "\u2581character": 3443,
  "\u756a\u53f7": 3444,
  "\u2581mass": 3445,
  "\u2581host": 3446,
  "\u2581\u3042\u306e": 3447,
  "\u96ea": 3448,
  "\u5f3e": 3449,
  "\u306e\u9593\u306b": 3450,
  "\u306a\u3093\u3066": 3451,
  "\u2581described": 3452,
  "\u2581battle": 3453,
  "ile": 3454,
  "\u2581piece": 3455,
  "\u7a0e": 3456,
  "IN": 3457,
  "\u2581document": 3458,
  "\u63a1\u7528": 3459,
  "\u2581Sea": 3460,
  "\u2581himself": 3461,
  "\u8ef8": 3462,
  "\u2581wind": 3463,
  "\u2581shown": 3464,
  "\u2581implementation": 3465,
  "\u2581Day": 3466,
  "\u7406": 3467,
  "\u30ed\u30b7\u30a2": 3468,
  "\u2581credit": 3469,
  "\u2581Project": 3470,
  "US": 3471,
  "\u2581\u79c1": 3472,
  "\u30e6\u30fc\u30b6\u30fc\u304c": 3473,
  "\u2581enterprise": 3474,
  "\u2581towards": 3475,
  "\u2581powerful": 3476,
  "\u9996": 3477,
  "\u2581extra": 3478,
  "It": 3479,
  "\u2581shared": 3480,
  "gar": 3481,
  "\u2581sometimes": 3482,
  "\u2581trust": 3483,
  "\u2581+": 3484,
  "\u3092\u63d0\u4f9b\u3057\u307e\u3059": 3485,
  "\u5927\u304d\u304f": 3486,
  "\u2581else": 3487,
  "\u30dc\u30c3\u30af\u30b9": 3488,
  "\u2581input": 3489,
  "house": 3490,
  "\u2581brought": 3491,
  "\u2581Line": 3492,
  "\u2581languages": 3493,
  "\u2581smart": 3494,
  "\u7a2e\u985e\u306e": 3495,
  "\u5bfe\u7b56": 3496,
  "\u2581Ju": 3497,
  "\u4f8b\u3048\u3070": 3498,
  "\u2581costs": 3499,
  "\u2581partner": 3500,
  "\u2581fields": 3501,
  "%": 3502,
  "\u4e94": 3503,
  "\u25812014": 3504,
  "\u30ec\u30a4": 3505,
  "tor": 3506,
  "\u2581fall": 3507,
  "\u7ffb\u8a33": 3508,
  "\u8a00": 3509,
  "\u2581Sun": 3510,
  "\u9803": 3511,
  "\u5f53\u793e\u306e": 3512,
  "\u5927\u7d71\u9818": 3513,
  "\u2581progress": 3514,
  "\u2581guests": 3515,
  "\u2581Most": 3516,
  "\u3082\u306e\u3067\u3042\u308b": 3517,
  "\u30d9\u30fc\u30b9": 3518,
  "\u8056": 3519,
  "\u96fb\u529b": 3520,
  "...\u3002": 3521,
  "\u30f4\u30a3": 3522,
  "\u2581restaurant": 3523,
  "\u898f\u5236": 3524,
  "\u25812016": 3525,
  "\u91cd\u8981": 3526,
  "\u2581LED": 3527,
  "\u88cf": 3528,
  "\u3068\u601d\u3046": 3529,
  "ification": 3530,
  "\u643a\u5e2f\u96fb\u8a71": 3531,
  "\u2581dead": 3532,
  "\u6a5f\u69cb": 3533,
  "\u2581businesses": 3534,
  "\u2581understanding": 3535,
  "\u2581selected": 3536,
  "\u7b4b": 3537,
  "\u30d9\u30eb": 3538,
  "\u2581cold": 3539,
  "\u2581CO": 3540,
  "MA": 3541,
  "\u30b8\u30e7\u30f3": 3542,
  "rd": 3543,
  "\\": 3544,
  "form": 3545,
  "\u2581format": 3546,
  "\u610f": 3547,
  "hu": 3548,
  "\u2581reference": 3549,
  "\u6709\u52b9": 3550,
  "\u2581planning": 3551,
  "my": 3552,
  "\u30b0\u30ed\u30fc\u30d0\u30eb": 3553,
  "\u25812013": 3554,
  "\u2581weeks": 3555,
  "\u30a2\u30fc\u30c8": 3556,
  "\u2581win": 3557,
  "\u2581Korea": 3558,
  "\u5e83\u304f": 3559,
  "\u2581wrong": 3560,
  "\u306e\u9593": 3561,
  "\u2581\u305f\u3060\u3057": 3562,
  "\u2581formed": 3563,
  "\u82b8\u8853": 3564,
  "\u610f\u8b58": 3565,
  "ue": 3566,
  "\u6027\u80fd": 3567,
  "\u2581organizations": 3568,
  "\u2581measures": 3569,
  "\u4e73": 3570,
  "\u30af\u30e9\u30d6": 3571,
  "\u2581consider": 3572,
  "\u2581happy": 3573,
  "\u2581Lu": 3574,
  "\u541b": 3575,
  "kan": 3576,
  "\u5f7c\u3089\u306f": 3577,
  "\u30eb\u30fc\u30eb": 3578,
  "\u5354\u4f1a": 3579,
  "\u3092\u6709\u3059\u308b": 3580,
  "\u2581Foundation": 3581,
  "\u2581agile": 3582,
  "\u2581shop": 3583,
  "\u30e9\u30a4\u30bb\u30f3\u30b9": 3584,
  "\u305d\u3046\u3067\u3059": 3585,
  "\u2581lack": 3586,
  "\u3069\u306e": 3587,
  "\u2581wrote": 3588,
  "\u4eba\u3005": 3589,
  "\u7834": 3590,
  "\u2581Then": 3591,
  "\u2581sun": 3592,
  "\u2581elements": 3593,
  "\u2581nice": 3594,
  "DA": 3595,
  "ina": 3596,
  "\u69cb\u7bc9": 3597,
  "ino": 3598,
  "\u30bf\u30b9\u30af": 3599,
  "\u2581numbers": 3600,
  "\u3059\u3079\u304d": 3601,
  "\u767a\u58f2": 3602,
  "\u5206\u96e2": 3603,
  "\u6e56": 3604,
  "\u5236\u5ea6": 3605,
  "ological": 3606,
  "\u30c3\u30af\u30b9": 3607,
  "\u5973\u6027\u304c": 3608,
  "\u2581remember": 3609,
  "\u2581Ne": 3610,
  "\u3069\u306e\u3088\u3046\u306b": 3611,
  "mal": 3612,
  "\u30cb\u30e5\u30fc": 3613,
  "row": 3614,
  "\u4eca\u65e5": 3615,
  "car": 3616,
  "\u2581contribute": 3617,
  "\u30a2\u30c3\u30d7\u30c7\u30fc\u30c8": 3618,
  "\u5207\u308a": 3619,
  "\u30dd\u30fc\u30c8": 3620,
  "\u2581feeling": 3621,
  "\u2581movement": 3622,
  "\u30b8\u30e5": 3623,
  "oma": 3624,
  "amp": 3625,
  "\u2581cars": 3626,
  "\u2581values": 3627,
  "ek": 3628,
  "\u30d3\u30e5\u30fc": 3629,
  "\u3081\u308b": 3630,
  "\u2581earlier": 3631,
  "\u4fee\u6b63": 3632,
  "\u7d44": 3633,
  "ix": 3634,
  "Pro": 3635,
  "\u5897\u52a0": 3636,
  "FA": 3637,
  "\u306e\u7814\u7a76": 3638,
  "\u30aa\u30d5\u30a3\u30b9": 3639,
  "\u524d\u306e": 3640,
  "\u4ea4\u901a": 3641,
  "\u30fc\u30eb": 3642,
  "\u2581France": 3643,
  "\u2581Ku": 3644,
  "\u2581\u3064\u307e\u308a": 3645,
  "\u2581mis": 3646,
  "\u2581secret": 3647,
  "\u2581Gra": 3648,
  "net": 3649,
  "\u2581influence": 3650,
  "\u9032\u5316": 3651,
  "\u3068\u3044\u3046\u3053\u3068": 3652,
  "\u8853": 3653,
  "\u2581anyone": 3654,
  "lar": 3655,
  "\u2581Power": 3656,
  "yu": 3657,
  "\u2581kids": 3658,
  "\u30b9\u30bf": 3659,
  "\u2581respect": 3660,
  "\u30e1\u30cb\u30e5\u30fc": 3661,
  "\u2581daughter": 3662,
  "\u2581door": 3663,
  "\u30b3\u30fc\u30d2\u30fc": 3664,
  "\u30d0\u30f3": 3665,
  "km": 3666,
  "\u611f\u67d3": 3667,
  "\u6e80": 3668,
  "\u2581highest": 3669,
  "\u56de\u8ee2": 3670,
  "\u2581books": 3671,
  "\u56e3": 3672,
  "\u2581yourself": 3673,
  "\u2581bi": 3674,
  "\u2581associated": 3675,
  "\u3058\u3083": 3676,
  "\u7279\u5225\u306a": 3677,
  "\u4e16\u754c\u306e": 3678,
  "\u3055\u308c\u3066\u3044\u306a\u3044": 3679,
  "\u72ec\u7acb": 3680,
  "\u2581climate": 3681,
  "\u2581Per": 3682,
  "\u3092\u53d7\u3051\u308b": 3683,
  "\u2581places": 3684,
  "\u901a\u77e5": 3685,
  "\u4fdd\u8a3c": 3686,
  "\u2581Mu": 3687,
  "\u7d50\u5a5a": 3688,
  "\u30cf\u30fc\u30c9\u30a6\u30a7\u30a2": 3689,
  "\u2581gives": 3690,
  "source": 3691,
  "\u515a": 3692,
  "\u6ce8\u610f": 3693,
  "$": 3694,
  "\u306e\u4e00\u3064": 3695,
  "To": 3696,
  "ev": 3697,
  "\u2581Thanks": 3698,
  "\u30dd\u30ea": 3699,
  "\u30cb\u30a2": 3700,
  "\u2581se": 3701,
  "\u30e1\u30fc\u30c8\u30eb": 3702,
  "\u767a\u751f": 3703,
  "\u3088\u3046\u3060": 3704,
  "\u65c5": 3705,
  "\u30c9\u30e1\u30a4\u30f3": 3706,
  "\u6a2a": 3707,
  "\u5f93": 3708,
  "\u5f93\u696d\u54e1": 3709,
  "\u30d1\u30cd\u30eb": 3710,
  "\u3067\u3057\u3087\u3046\u304b": 3711,
  "ding": 3712,
  "\u65b9\u6cd5\u3067": 3713,
  "\u4efb": 3714,
  "\u2581map": 3715,
  "\u5730\u7403": 3716,
  "\u3092\u4f7f\u7528\u3059\u308b": 3717,
  "\u53cb\u9054": 3718,
  "\u2581bed": 3719,
  "\u2581\u5973\u6027\u306f": 3720,
  "\u9023\u7d9a": 3721,
  "\u2581giving": 3722,
  "\u2581photos": 3723,
  "ey": 3724,
  "ped": 3725,
  "\u3042\u307e\u308a": 3726,
  "\u2581cable": 3727,
  "\u2581Today": 3728,
  "\u2581supported": 3729,
  "\u306a\u306e\u3067": 3730,
  "\u2581\u305d\u3053\u3067": 3731,
  "\u5c0e\u5165": 3732,
  "\u3042\u306a\u305f": 3733,
  "\u51b7": 3734,
  "\u2581rain": 3735,
  "\u2581Association": 3736,
  "ran": 3737,
  "\u306e\u4e2d": 3738,
  "app": 3739,
  "\u2581hear": 3740,
  "\u2581machines": 3741,
  "\u30c6\u30fc\u30de": 3742,
  "\u7236": 3743,
  "\u3092\u6301\u3063\u3066\u3044\u307e\u3059": 3744,
  "\u2581Gu": 3745,
  "\u2581accept": 3746,
  "Al": 3747,
  "\u30b9\u30bf\u30a4\u30eb": 3748,
  "\u53d7": 3749,
  "\u8a3a\u65ad": 3750,
  "\u2581worth": 3751,
  "\u5730\u533a": 3752,
  "\u2581India": 3753,
  "Ma": 3754,
  "\u30b3\u30e1\u30f3\u30c8": 3755,
  "\u306e\u4e0a": 3756,
  "\u4ee3\u8868": 3757,
  "\u304b\u306a": 3758,
  "\u2581finally": 3759,
  "\u4e00\u4eba": 3760,
  "\u30b3\u30fc": 3761,
  "\u3092\u3057\u3066\u3044\u308b": 3762,
  "\u304b\u306a\u308a": 3763,
  "\u2581responsible": 3764,
  "\u30cb\u30e5\u30fc\u30e8\u30fc\u30af": 3765,
  "\u793e\u54e1": 3766,
  "ung": 3767,
  "\u3052": 3768,
  "\u4ee5\u964d": 3769,
  "\u2581cover": 3770,
  "\u53ce\u96c6": 3771,
  "\u56fd\u5bb6": 3772,
  "\u5b9f\u73fe": 3773,
  "ama": 3774,
  "GB": 3775,
  "\u2581performed": 3776,
  "\u3064\u304f": 3777,
  "\u3082\u3057\u304f\u306f": 3778,
  "\u6b63\u3057\u3044": 3779,
  "\u2581drop": 3780,
  "\u5efa\u7bc9": 3781,
  "\u3092\u4e0e\u3048\u308b": 3782,
  "\u4e0a\u6607": 3783,
  "\u6d88\u8cbb\u8005": 3784,
  "\u6620\u50cf": 3785,
  "\u7406\u8ad6": 3786,
  "\u2581beach": 3787,
  "\u2581JavaScript": 3788,
  "\u2581engineering": 3789,
  "\u6307": 3790,
  "\u5206\u6563": 3791,
  "\u2581Ruby": 3792,
  "\u9000": 3793,
  "\u2581heard": 3794,
  "\u2581pool": 3795,
  "\u2581tree": 3796,
  "\u8a18\u8ff0": 3797,
  "\u2581reported": 3798,
  "\u2581Minister": 3799,
  "\u30d6\u30e9": 3800,
  "gan": 3801,
  "\u2581\u3082\u3046": 3802,
  "\u653f\u7b56": 3803,
  "\u2581levels": 3804,
  "\u4e38": 3805,
  "\u2581imp": 3806,
  "\u3057\u3066\u304d\u305f": 3807,
  "\u2581reading": 3808,
  "sk": 3809,
  "\u3068\u4e00\u7dd2\u306b": 3810,
  "\u2581waste": 3811,
  "\u5e0c\u671b": 3812,
  "\u25812015": 3813,
  "\u30d0\u30f3\u30c9": 3814,
  "\u307e\u3067\u306e": 3815,
  "act": 3816,
  "\u2581Control": 3817,
  "RA": 3818,
  "\u2581becomes": 3819,
  "\u9020": 3820,
  "art": 3821,
  "\u2581welcome": 3822,
  "\u2581Code": 3823,
  "\u2581alone": 3824,
  "\u4e2d\u56fd\u306e": 3825,
  "\u4eba\u53e3": 3826,
  "\u30b9\u30c6\u30c3\u30d7": 3827,
  "\u30b7\u30e7\u30fc": 3828,
  "AP": 3829,
  "\u2581mo": 3830,
  "\u2581Don": 3831,
  "\u2581larger": 3832,
  "\u75c5\u9662": 3833,
  "\u2581instance": 3834,
  "\u4fdd": 3835,
  "\u3046\u307e\u304f": 3836,
  "\u2581meaning": 3837,
  "\u97f3\u58f0": 3838,
  "\u2581background": 3839,
  "\u2581configuration": 3840,
  "\u2581allowed": 3841,
  "\u30d7\u30ec\u30a4": 3842,
  "\u2581plastic": 3843,
  "MS": 3844,
  "\u30d7\u30fc\u30eb": 3845,
  "\u58f2": 3846,
  "\u3042\u308a\u307e\u305b\u3093": 3847,
  "\u80fd": 3848,
  "\u2581express": 3849,
  "\u2581master": 3850,
  "ear": 3851,
  "\u8ee2": 3852,
  "che": 3853,
  "\u884c\u304f": 3854,
  "\u9152": 3855,
  "\u30b3\u30f3\u30c6\u30ca": 3856,
  "ash": 3857,
  "\u2581killed": 3858,
  "\u2581transport": 3859,
  "\u5343": 3860,
  "\u30e1\u30e2\u30ea": 3861,
  "\u2581Hu": 3862,
  "\u2581president": 3863,
  "\u2581wish": 3864,
  "\u5c55\u793a": 3865,
  "\u8996": 3866,
  "\u2581pass": 3867,
  "\u2581spread": 3868,
  "\u2581laws": 3869,
  "EL": 3870,
  "tain": 3871,
  "\u2581initial": 3872,
  "\u73fe": 3873,
  "val": 3874,
  "\u2581female": 3875,
  "\u2581separate": 3876,
  "\u2581Model": 3877,
  "mail": 3878,
  "\u5e74\u4ee3": 3879,
  "\u2581successful": 3880,
  "ake": 3881,
  "\u2581fuel": 3882,
  "\u5e2f": 3883,
  "\u4e3b\u306b": 3884,
  "\u8d77": 3885,
  "\u56fd\u5185": 3886,
  "\u2581component": 3887,
  "\u53d6\u5f97": 3888,
  "\u2581deliver": 3889,
  "ker": 3890,
  "\u3092\u304a": 3891,
  "\u2581yes": 3892,
  "\u2581Corporation": 3893,
  "\u2581regular": 3894,
  "\u2581fit": 3895,
  "\u201d.": 3896,
  "\u2581bank": 3897,
  "\u2581standards": 3898,
  "\u5206\u5b50": 3899,
  "\u2581Home": 3900,
  "\u2581average": 3901,
  "\u2581whose": 3902,
  "\u2581actual": 3903,
  "\u2581battery": 3904,
  "\u30ea\u30fc\u30c0\u30fc": 3905,
  "\u2581competition": 3906,
  "\u8eca\u4e21": 3907,
  "\u2581length": 3908,
  "\u2581taste": 3909,
  "\u2581baby": 3910,
  "\u2581advance": 3911,
  "\u5f7c\u5973\u306e": 3912,
  "\u2581pattern": 3913,
  "AS": 3914,
  "\u304a\u308a": 3915,
  "\u2581manufacturers": 3916,
  "\u2581Yoshi": 3917,
  "\u3092\u53d7\u3051\u305f": 3918,
  "\u5341": 3919,
  "\u2581wood": 3920,
  "Ro": 3921,
  "\u2581campaign": 3922,
  "\u30d1\u30b9": 3923,
  "\u4ed5\u4e8b\u3092": 3924,
  "\u2581beyond": 3925,
  "\u306a\u306e\u3067\u3059": 3926,
  "\u2581resistance": 3927,
  "\u2581flat": 3928,
  "\u306e\u3046\u3061": 3929,
  "\u30013": 3930,
  "py": 3931,
  "\u65e7": 3932,
  "\u59bb": 3933,
  "\u25812011": 3934,
  "\u5e8a": 3935,
  "\u5206\u3067\u3059": 3936,
  "\u2581continued": 3937,
  "\u6307\u5b9a": 3938,
  "\u30c1\u30f3": 3939,
  "\u3053\u3068\u3082": 3940,
  "\u2581raised": 3941,
  "\u30db\u30fc\u30e0": 3942,
  "\u5f15": 3943,
  "\u2581immediately": 3944,
  "\u30b9\u30bf\u30fc\u30c8\u30a2\u30c3\u30d7": 3945,
  "\u7279\u5225": 3946,
  "\u2581failure": 3947,
  "\u2581figure": 3948,
  "\u884c\u304d": 3949,
  "64": 3950,
  "\u2581rice": 3951,
  "\u4e3b\u7fa9": 3952,
  "\u7834\u58ca": 3953,
  "DS": 3954,
  "\u2581agreement": 3955,
  "ound": 3956,
  "san": 3957,
  "\u2581Play": 3958,
  "\u66f8\u304d": 3959,
  "\u30af\u30b9": 3960,
  "\u754c": 3961,
  "\u304b\u3082\u3057\u308c\u307e\u305b\u3093": 3962,
  "\u2581note": 3963,
  "tan": 3964,
  "\u2581cool": 3965,
  "\u2581river": 3966,
  "\u2581wear": 3967,
  "\u5bb6\u306e": 3968,
  "\u2581exactly": 3969,
  "ren": 3970,
  "\u2581Earth": 3971,
  "\u304b\u3089\u3067\u3059": 3972,
  "AT": 3973,
  "\u5206\u306e": 3974,
  "\u30ef\u30a4\u30f3": 3975,
  "\u30b3\u30a2": 3976,
  "\u30de\u30eb": 3977,
  "\u5207": 3978,
  "\u2581God": 3979,
  "\u5c06\u6765": 3980,
  "\u2581ideas": 3981,
  "\u306b\u57fa\u3065\u304f": 3982,
  "\u30c6\u30f3": 3983,
  "\u2581bo": 3984,
  "\u304c\u5fc5\u8981\u3067\u3059": 3985,
  "\u3060\u304b\u3089": 3986,
  "\u7d30": 3987,
  "\u5e2b": 3988,
  "\u4f1d": 3989,
  "\u2581capacity": 3990,
  "\u610f\u898b": 3991,
  "\u2581Shin": 3992,
  "\u8a00\u3063\u305f": 3993,
  "\u2581combination": 3994,
  "\u30b7\u30fc\u30c8": 3995,
  "\u2581contains": 3996,
  "\u6e29": 3997,
  "\u6625": 3998,
  "\u2581Science": 3999,
  "\u2581Other": 4000,
  "\u2581cutting": 4001,
  "ious": 4002,
  "\u2581Am": 4003,
  "\u52b9\u7387": 4004,
  "if": 4005,
  "\u96e3": 4006,
  "\u98db\u884c": 4007,
  "\u30a6\u30a4\u30eb\u30b9": 4008,
  "\u5e2d": 4009,
  "\u2581Ba": 4010,
  "\u2581survey": 4011,
  "\u56fa\u5b9a": 4012,
  "\u2581fresh": 4013,
  "\u2581returned": 4014,
  "\u677e": 4015,
  "\u3067\u304d\u305f": 4016,
  "\u2581although": 4017,
  "\u2581waiting": 4018,
  "\u2581strategy": 4019,
  "\u6a29\u5229": 4020,
  "\u2581players": 4021,
  "\u2581pick": 4022,
  "\u2581seven": 4023,
  "\u2581plants": 4024,
  "\u3092\u767a\u8868\u3057\u305f": 4025,
  "\u2581block": 4026,
  "\u2581begin": 4027,
  "\u2581opening": 4028,
  "\u4e07\u30c9\u30eb": 4029,
  "\u8cbb\u7528": 4030,
  "\u2581task": 4031,
  "uc": 4032,
  "\u8907\u96d1\u306a": 4033,
  "\u7bc4\u56f2": 4034,
  "ens": 4035,
  "nce": 4036,
  "\u56e3\u4f53": 4037,
  "\u96e8": 4038,
  "\u2581Use": 4039,
  "\u5bc6": 4040,
  "\u2581Da": 4041,
  "\u4e0a\u3052": 4042,
  "\u2581yeah": 4043,
  "\u2581installed": 4044,
  "\u7559": 4045,
  "ast": 4046,
  "\u30c6\u30a3\u30fc": 4047,
  "\u826f\u304f": 4048,
  "\u30d3\u30fc\u30c1": 4049,
  "\u75c5\u6c17": 4050,
  "\u2581Te": 4051,
  "\u2581port": 4052,
  "\u8336": 4053,
  "\u2581played": 4054,
  "\u2581Chi": 4055,
  "\u4f5c\u7528": 4056,
  "\u2581placed": 4057,
  "\u904b\u55b6": 4058,
  "\u2581external": 4059,
  "\u8d70": 4060,
  "\u2581sleep": 4061,
  "\u2581install": 4062,
  "\u8981": 4063,
  "\u2581oh": 4064,
  "\u2581brother": 4065,
  "\u2581Pe": 4066,
  "48": 4067,
  "34": 4068,
  "\u2581native": 4069,
  "\u6210\u5206": 4070,
  "MP": 4071,
  "van": 4072,
  "\u306f\u307e\u3060": 4073,
  "box": 4074,
  "\u2581creation": 4075,
  "\u2581coffee": 4076,
  "\u2581videos": 4077,
  "\u2581programs": 4078,
  "37": 4079,
  "\u2581package": 4080,
  "\u4e00\u7dd2\u306b": 4081,
  "\u2581More": 4082,
  "\u2581sort": 4083,
  "\u2581payment": 4084,
  "\u9006": 4085,
  "\u2581mountain": 4086,
  "\u2581County": 4087,
  "\u4f53\u5236": 4088,
  "\u5b89\u5b9a": 4089,
  "\u5165\u308c": 4090,
  "\u6295\u7a3f": 4091,
  "\u8cc7\u6e90": 4092,
  "\u5869": 4093,
  "\u5f01": 4094,
  "\u3055\u308c\u3066\u304a\u308a": 4095,
  "\u2581pain": 4096,
  "\u9055\u3046": 4097,
  "nes": 4098,
  "\u76f8\u624b": 4099,
  "\u305d\u3046\u3060": 4100,
  "\u30ec\u30fc\u30b9": 4101,
  "\u30de\u30eb\u30c1": 4102,
  "\u2581j": 4103,
  "\u6700\u521d\u306b": 4104,
  "\u30b0\u30eb": 4105,
  "\u2581YouTube": 4106,
  "\u2581mainly": 4107,
  "\u2581documents": 4108,
  "\u30de\u30fc\u30b1\u30c6\u30a3\u30f3\u30b0": 4109,
  "\u2581license": 4110,
  "rate": 4111,
  "ever": 4112,
  "\u2581compared": 4113,
  "\u2581heavy": 4114,
  "\u2581carbon": 4115,
  "\u2581guide": 4116,
  "\u3066\u308b": 4117,
  "\u2581parents": 4118,
  "\u653e": 4119,
  "\u306e\u30b5\u30dd\u30fc\u30c8": 4120,
  "du": 4121,
  "\u500b\u4eba\u60c5\u5831": 4122,
  "\u2581Music": 4123,
  "\u516c\u5712": 4124,
  "\u2581dark": 4125,
  "\u2581passed": 4126,
  "\u2581enable": 4127,
  "\u2581kinds": 4128,
  "\u2581trip": 4129,
  "\u9055\u3044": 4130,
  "\u2581girls": 4131,
  "\u2581appear": 4132,
  "\u2581bike": 4133,
  "\u4eba\u305f\u3061": 4134,
  "\u764c": 4135,
  "\u3059\u308b\u3053\u3068\u3092": 4136,
  "\u30d5\u30a9\u30fc\u30e0": 4137,
  "\u2581programming": 4138,
  "\u4e2d\u3067": 4139,
  "\u2581volume": 4140,
  "\u5931": 4141,
  "\u79f0": 4142,
  "\u3092\u7528\u3044\u3066": 4143,
  "\u8cb7\u53ce": 4144,
  "\u30ec\u30dd\u30fc\u30c8": 4145,
  "\u30e6\u30fc\u30b6\u30fc\u306e": 4146,
  "\u2581conduct": 4147,
  "\u2581allowing": 4148,
  "\u2581title": 4149,
  "\u822a\u7a7a": 4150,
  "\u4f7f\u3048\u308b": 4151,
  "\u4eba\u3068": 4152,
  "\u500b": 4153,
  "\u2581efficiency": 4154,
  "\u30cf\u30fc": 4155,
  "\u9078\u624b": 4156,
  "\u9078": 4157,
  "\u2581\u4eba\u3005\u306f": 4158,
  "\u9805\u76ee": 4159,
  "\u65e9\u304f": 4160,
  "\u2581hospital": 4161,
  "\u4e0b\u3055\u3044": 4162,
  "born": 4163,
  "\u2581manager": 4164,
  "\u2581menu": 4165,
  "\u25811,": 4166,
  "\u30a2\u30d7\u30ea\u30b1\u30fc\u30b7\u30e7\u30f3\u306e": 4167,
  "\u76e3\u7763": 4168,
  "\u6642\u9593\u3092": 4169,
  "\u3092\u63d0\u4f9b\u3057": 4170,
  "\u30b3\u30d4\u30fc": 4171,
  "\u2581liquid": 4172,
  "ES": 4173,
  "\u9001": 4174,
  "\u97d3\u56fd": 4175,
  "\u2581correct": 4176,
  "ps": 4177,
  "\u4ea4": 4178,
  "\u55b6\u696d": 4179,
  "\u2581statement": 4180,
  "\u5168\u4f53": 4181,
  "\u8fd1\u304f": 4182,
  "\u2581director": 4183,
  "\u2581positive": 4184,
  "\u2581Just": 4185,
  "\u3079\u304d": 4186,
  "\u2581benefits": 4187,
  "\u25812007": 4188,
  "\u2581supports": 4189,
  "\u3057\u306a\u304c\u3089": 4190,
  "\u30a8\u30f3\u30b8\u30cb\u30a2": 4191,
  "\u30b9\u30de\u30fc\u30c8": 4192,
  "\u5411\u3051\u306e": 4193,
  "\u2581Un": 4194,
  "\u30e1\u30f3": 4195,
  "room": 4196,
  "\u9078\u6319": 4197,
  "\u30da\u30f3": 4198,
  "\u2581increasing": 4199,
  "\u2581remove": 4200,
  "CI": 4201,
  "\u7d50": 4202,
  "Con": 4203,
  "\u2581wants": 4204,
  "\u2581movie": 4205,
  "GA": 4206,
  "ica": 4207,
  "\u2581sp": 4208,
  "\u2581Dis": 4209,
  "\u2581chain": 4210,
  "\u708e": 4211,
  "\u25812005": 4212,
  "\u50b7": 4213,
  "\u7279\u8a31": 4214,
  "\u8cc7\u7523": 4215,
  "\u5e73\u5747": 4216,
  "\u9593\u306b": 4217,
  "fa": 4218,
  "\u7247": 4219,
  "\u65b9\u5f0f": 4220,
  "\u5f62\u6210": 4221,
  "\u2581completed": 4222,
  "\u3082\u3042\u308a\u307e\u3059": 4223,
  "\u4e71": 4224,
  "\u2581carry": 4225,
  "\u25812009": 4226,
  "\u30c1\u30fc\u30e0\u304c": 4227,
  "\u2581happened": 4228,
  "cal": 4229,
  "\u4e00\u822c\u7684\u306a": 4230,
  "\u304d\u305f": 4231,
  "Mac": 4232,
  "\u2581changing": 4233,
  "\u2581Han": 4234,
  "\u95a2\u5fc3": 4235,
  "\u2581Institute": 4236,
  "\u306f\u3042\u308a\u307e\u305b\u3093": 4237,
  "\u6575": 4238,
  "CD": 4239,
  "\u306e\u4e0a\u306b": 4240,
  "\u2581Why": 4241,
  "\u53ef": 4242,
  "\u9632": 4243,
  "\u9283": 4244,
  "pp": 4245,
  "\u2581notice": 4246,
  "\u3067\u3059\u306d": 4247,
  "\u4eba\u751f": 4248,
  "\u793a": 4249,
  "\u2581\u4ed6\u306e": 4250,
  "\u3067\u3042\u308b\u3053\u3068": 4251,
  "\u7b2c\u4e00": 4252,
  "\u305b\u308b": 4253,
  "\u2581IP": 4254,
  "nt": 4255,
  "\u4ee5\u6765": 4256,
  "\u2581\u3042\u308b": 4257,
  "\u30b8\u30f3": 4258,
  "\u2581ice": 4259,
  "\u3053\u3068\u306b\u306a\u308b": 4260,
  "\u30bb\u30eb": 4261,
  "\u2581secure": 4262,
  "\u2581north": 4263,
  "\u4e16\u754c\u4e2d\u306e": 4264,
  "\u3044\u3064": 4265,
  "\u2581pair": 4266,
  "\u5f62\u72b6": 4267,
  "\u2581improvement": 4268,
  "\u2581happen": 4269,
  "\u6a5f\u80fd\u3092": 4270,
  "\u52dd": 4271,
  "@": 4272,
  "\u3059\u308b\u5fc5\u8981\u304c\u3042\u308a\u307e\u3059": 4273,
  "\u30c7\u30fc\u30bf\u306e": 4274,
  "\u2581names": 4275,
  "\u2581studies": 4276,
  "down": 4277,
  "\u2581\u3053\u308c\u304c": 4278,
  "\u884c\u3046": 4279,
  "\u2581wine": 4280,
  "dai": 4281,
  "\u2581ad": 4282,
  "ag": 4283,
  "\u2581interested": 4284,
  "\u2581improved": 4285,
  "\u30d0\u30a4": 4286,
  "\u7cbe": 4287,
  "\u2581auto": 4288,
  "\u6483": 4289,
  "\u9577\u671f": 4290,
  "\u2581economy": 4291,
  "\u2581die": 4292,
  "\u53ef\u80fd\u6027\u304c\u3042\u308b": 4293,
  "\u306e\u3072\u3068\u3064": 4294,
  "\u7bb1": 4295,
  "\u2581overseas": 4296,
  "ow": 4297,
  "\u8a13\u7df4": 4298,
  "\u2581marketing": 4299,
  "\u2581faster": 4300,
  "\u535a\u7269\u9928": 4301,
  "\u2581shot": 4302,
  "Each": 4303,
  "\u2581Over": 4304,
  "\u2581reality": 4305,
  "\u5371\u967a": 4306,
  "TV": 4307,
  "OL": 4308,
  "\u91d1\u878d": 4309,
  "\u30c1\u30fc\u30e0\u306e": 4310,
  "\u968e": 4311,
  "\u3053\u308c\u3092": 4312,
  "\u2581\u30db\u30c6\u30eb": 4313,
  "\u2581Software": 4314,
  "\u3055\u3093\u306f": 4315,
  "\u3092\u3057\u3066\u3044\u307e\u3059": 4316,
  "\u6821": 4317,
  "\u2581\u3060\u304b\u3089": 4318,
  "rin": 4319,
  "\u5730\u65b9": 4320,
  "\u8b70\u4f1a": 4321,
  "\u2581offered": 4322,
  "\u4f5c\u308a": 4323,
  "\u306f\u975e\u5e38\u306b": 4324,
  "\u2581quick": 4325,
  "\u6e80\u8db3": 4326,
  "\u6bd4": 4327,
  "\u2581motor": 4328,
  "\u2581Du": 4329,
  "oid": 4330,
  "ble": 4331,
  "\u30ec\u30fc\u30b6\u30fc": 4332,
  "\u2581integrated": 4333,
  "\u88fd\u4f5c": 4334,
  "Le": 4335,
  "\u62e0\u70b9": 4336,
  "\u4f1a\u793e\u306e": 4337,
  "\u6295\u8cc7\u5bb6": 4338,
  "\u2581ha": 4339,
  "\u30af\u30e9": 4340,
  "\u552f\u4e00\u306e": 4341,
  "\u653f\u6cbb": 4342,
  "\u3059\u308b\u3053\u3068\u306f": 4343,
  "\u8a2d\u7f6e": 4344,
  "\u2581$1": 4345,
  "pi": 4346,
  "\u2581ma": 4347,
  "\u2581Court": 4348,
  "\u826f": 4349,
  "\u2581\u7279\u306b": 4350,
  "\u5165\u308a": 4351,
  "SA": 4352,
  "\u306e\u4e00": 4353,
  "\u30c7\u30f3": 4354,
  "\u306a\u3069\u3092": 4355,
  "\u4ee5\u5916\u306e": 4356,
  "\u65b0\u898f": 4357,
  "ud": 4358,
  "\u2581garden": 4359,
  "\u2581appointed": 4360,
  "\u2581implement": 4361,
  "\u914d": 4362,
  "\u6b27\u5dde": 4363,
  "sta": 4364,
  "\u627f\u8a8d": 4365,
  "OR": 4366,
  "\u30ed\u30f3\u30c9\u30f3": 4367,
  "\u75be\u60a3": 4368,
  "\u2581catch": 4369,
  "\u306e\u9ad8\u3044": 4370,
  "\u6ce8": 4371,
  "\u2581\u4eba\u306e": 4372,
  "\u7aef\u672b": 4373,
  "\u2581guy": 4374,
  "\u2581student": 4375,
  "49": 4376,
  "\u2581element": 4377,
  "\u30c8\u30ec\u30fc\u30cb\u30f3\u30b0": 4378,
  "\u306e\u554f\u984c": 4379,
  "\u3056": 4380,
  "\u3084\u3059\u3044": 4381,
  "\u2581challenge": 4382,
  "\u2581Min": 4383,
  "\u30d1\u30ea": 4384,
  "\u2581patient": 4385,
  "\u4eba\u3005\u304c": 4386,
  "\u898b\u3066": 4387,
  "\u4eba\u9593\u306e": 4388,
  "\u258160": 4389,
  "\u5c11\u5e74": 4390,
  "pro": 4391,
  "type": 4392,
  "\u2581capable": 4393,
  "\u30d0\u30c3\u30af": 4394,
  "\u6709\u540d\u306a": 4395,
  "\u5e45\u5e83\u3044": 4396,
  "\u2581particularly": 4397,
  "fe": 4398,
  "\u4e2d\u5fc3": 4399,
  "\u2581firm": 4400,
  "\u2581\u306a\u305c": 4401,
  "\u3059\u3050": 4402,
  "\u2581phase": 4403,
  "\u30bd\u30fc\u30b9": 4404,
  "\u53cd\u5bfe": 4405,
  "\u2581\u4eca\u65e5": 4406,
  "\u518d\u3073": 4407,
  "\u2581capabilities": 4408,
  "\u306f\u4f55": 4409,
  "EN": 4410,
  "\u5b50\u3069\u3082": 4411,
  "\u7981\u6b62": 4412,
  "\u2581soft": 4413,
  "IS": 4414,
  "\u79c1\u306b": 4415,
  "\u2581ho": 4416,
  "\u2581du": 4417,
  "\u2581watching": 4418,
  "\u5546": 4419,
  "\u2581Gi": 4420,
  "\u2581tried": 4421,
  "\u2581Visual": 4422,
  "ify": 4423,
  "\u2581thus": 4424,
  "\u2581suit": 4425,
  "\u2581chemical": 4426,
  "\u670d": 4427,
  "\u3092\u5099\u3048\u305f": 4428,
  "\u2581electronic": 4429,
  "\u30d6\u30ed\u30b0": 4430,
  "\u2581Are": 4431,
  "ME": 4432,
  "\u79d2": 4433,
  "\u307e\u308a": 4434,
  "\u30d7\u30e9\u30f3": 4435,
  "\u2581Gen": 4436,
  "\u2581match": 4437,
  "\u3011": 4438,
  "\u52aa\u529b": 4439,
  "\u9069\u7528": 4440,
  "\u2581iron": 4441,
  "\u2581suitable": 4442,
  "\u592a\u967d": 4443,
  "\u7af6\u4e89": 4444,
  "\u30b5\u30a4": 4445,
  "\u2581classes": 4446,
  "\u2581maintenance": 4447,
  "\u2581biggest": 4448,
  "\u2581regarding": 4449,
  "field": 4450,
  "\u2581song": 4451,
  "air": 4452,
  "\u8ddd\u96e2": 4453,
  "\u2581spend": 4454,
  "\u3053\u308c\u307e\u3067": 4455,
  "LA": 4456,
  "\u898f\u5247": 4457,
  "\u2581workers": 4458,
  "\u796d": 4459,
  "\u2581Light": 4460,
  "\u2581stick": 4461,
  "\u5de5": 4462,
  "\u7a93": 4463,
  "\u3092\u4f7f\u3063\u305f": 4464,
  "ED": 4465,
  "\u305d\u308c\u305e\u308c\u306e": 4466,
  "\u5fc3\u914d": 4467,
  "47": 4468,
  "\u2581drug": 4469,
  "\u2581reports": 4470,
  "\u571f\u5730": 4471,
  "\u9178\u5316": 4472,
  "sha": 4473,
  "\u2581hat": 4474,
  "\u5ba2": 4475,
  "\u2581frame": 4476,
  "39": 4477,
  "\u25812000": 4478,
  "EC": 4479,
  "\u2581Application": 4480,
  "\u2581~": 4481,
  "\u592a": 4482,
  "\u305d\u308c\u3089\u306e": 4483,
  "\u5b97": 4484,
  "55": 4485,
  "\u2581o": 4486,
  "\u2581\u6211\u3005\u306f": 4487,
  "\u53ef\u80fd\u6027": 4488,
  "SP": 4489,
  "ari": 4490,
  "\u2581adding": 4491,
  "\u2581Germany": 4492,
  "\u306e\u4e21\u65b9": 4493,
  "\u2581becoming": 4494,
  "\u2581\u7537\u304c": 4495,
  "\u6599": 4496,
  "\u2581bio": 4497,
  "\u8a33": 4498,
  "\u914d\u7f6e": 4499,
  "\u2581okay": 4500,
  "ld": 4501,
  "\u2581default": 4502,
  "\u306b\u5fdc\u3058\u3066": 4503,
  "\u30e1\u30f3\u30d0\u30fc": 4504,
  "\u9023": 4505,
  "\u30c3\u30c9": 4506,
  "\u2581smaller": 4507,
  "\u2581mechanism": 4508,
  "that": 4509,
  "shin": 4510,
  "\u2581ID": 4511,
  "\u2581founded": 4512,
  "\u30cc": 4513,
  "\u6ce8\u6587": 4514,
  "\u2581platforms": 4515,
  "\u2581solid": 4516,
  "\u4f7f\u3046": 4517,
  "\u2581island": 4518,
  "\u30d7\u30e9\u30b9\u30c1\u30c3\u30af": 4519,
  "\u2581\u3082\u3061\u308d\u3093": 4520,
  "\u4e8b\u5b9f": 4521,
  "\u2581Sch": 4522,
  "zi": 4523,
  "36": 4524,
  "\u3054\u3068\u306b": 4525,
  "\u2581turned": 4526,
  "\u2581responsibility": 4527,
  "\u751f\u304d": 4528,
  "\u2581remain": 4529,
  "\u767a\u884c": 4530,
  "\u2581serve": 4531,
  "\u624b\u8853": 4532,
  "\u2581closed": 4533,
  "LE": 4534,
  "\u2581limit": 4535,
  "\u5e45": 4536,
  "\u30b5\u30fc\u30d3\u30b9\u3092": 4537,
  "\u30b8\u30fc": 4538,
  "\u6700\u9069\u5316": 4539,
  "\u308a\u307e\u3059": 4540,
  "\u30d7\u30e9": 4541,
  "\u6df1": 4542,
  "\u2581driver": 4543,
  "-2": 4544,
  "\u9818": 4545,
  "\u2581practices": 4546,
  "\u00b7": 4547,
  "\u2581attitude": 4548,
  "\u5e38": 4549,
  "\u4eba\u7269": 4550,
  "\u5168\u304f": 4551,
  "\u2581\u305f\u3068\u3048\u3070": 4552,
  "\u4e88\u60f3": 4553,
  "400": 4554,
  "work": 4555,
  "\u2581TC": 4556,
  "\u9632\u6b62": 4557,
  "\u2581Once": 4558,
  "\u3053\u308c\u3089": 4559,
  "\u30ed\u30fc\u30c9": 4560,
  "\u307c": 4561,
  "ration": 4562,
  "\u98df\u4e8b": 4563,
  "\u2581vision": 4564,
  "pl": 4565,
  "CC": 4566,
  "od": 4567,
  "\u6df1\u3044": 4568,
  "\u3059\u308b\u304b": 4569,
  "\u2581ideal": 4570,
  "\u30de\u30fc\u30af": 4571,
  "\u578b\u306e": 4572,
  "\u5c0f\u578b": 4573,
  "\u2581functionality": 4574,
  "\u5727\u529b": 4575,
  "\u30c9\u30a2": 4576,
  "set": 4577,
  "\u2581error": 4578,
  "\u2581gain": 4579,
  "ations": 4580,
  "\u2581Union": 4581,
  "iPad": 4582,
  "\u2581Network": 4583,
  "\u505c\u6b62": 4584,
  "\u2581Water": 4585,
  "\u30b0\u30e9\u30d5": 4586,
  "\u2581shopping": 4587,
  "\u2581paid": 4588,
  "\u30b9\u30af\u30ea\u30fc\u30f3": 4589,
  "\u2581ring": 4590,
  "low": 4591,
  "\u2581edge": 4592,
  "\u2581bottom": 4593,
  "CA": 4594,
  "\u30af\u30ed": 4595,
  "\u2581older": 4596,
  "\u2581connect": 4597,
  "\u2581widely": 4598,
  "cha": 4599,
  "\u8a73\u7d30": 4600,
  "\u53d7\u3051": 4601,
  "\u2581expand": 4602,
  "\u7269\u8a9e": 4603,
  "ph": 4604,
  "\u2581context": 4605,
  "PA": 4606,
  "ose": 4607,
  "\u2581shift": 4608,
  "\u6700\u8fd1": 4609,
  "\u258122": 4610,
  "\u2581cycle": 4611,
  "\u6bba": 4612,
  "\u3088\u3046\u306b\u306a\u308b": 4613,
  "ov": 4614,
  "\u4fbf": 4615,
  "\u30b1\u30fc\u30d6\u30eb": 4616,
  "\u2581dedicated": 4617,
  "\u2581h": 4618,
  "\u2581export": 4619,
  "\u6e21": 4620,
  "\u5834\u5408\u306b\u306f": 4621,
  "\u8d8a": 4622,
  "\u73fe\u5b9f": 4623,
  "\u2581Fa": 4624,
  "\u2581goods": 4625,
  "\u5831": 4626,
  "\u306b\u3044\u308b": 4627,
  "wing": 4628,
  "\u3082\u306e\u306e": 4629,
  "\u5358": 4630,
  "\u2581Com": 4631,
  "\u8cbb": 4632,
  "\u301c": 4633,
  "BA": 4634,
  "\u2581par": 4635,
  "ox": 4636,
  "DB": 4637,
  "\u2581managed": 4638,
  "\u6f14\u594f": 4639,
  "\u2581states": 4640,
  "\u898b\u308b": 4641,
  "\u30a8\u30e9\u30fc": 4642,
  "\u2581monitor": 4643,
  "\u2581rock": 4644,
  "\u30dc\u30fc\u30c9": 4645,
  "\u2581television": 4646,
  "\u7a74": 4647,
  "\u30ef\u30fc\u30af": 4648,
  "\u2581maybe": 4649,
  "\u306e\u5f8c": 4650,
  "\u2581Inter": 4651,
  "\u2581poor": 4652,
  "\u30bb\u30f3\u30b5\u30fc": 4653,
  "\u5f37\u5316": 4654,
  "\u2581requires": 4655,
  "\u2581gets": 4656,
  "\u76ae": 4657,
  "\u3082\u306e\u3092": 4658,
  "\u2581Asian": 4659,
  "\u30c3\u30b7\u30e5": 4660,
  "\u5171\u540c": 4661,
  "\u2581Space": 4662,
  "\u30c7\u30a3\u30b9\u30d7\u30ec\u30a4": 4663,
  "dic": 4664,
  "\u30c9\u30ad\u30e5\u30e1\u30f3\u30c8": 4665,
  "\u4ef6": 4666,
  "\u8a18\u61b6": 4667,
  "\u2581Ten": 4668,
  "\u2581\u305d\u308c\u304c": 4669,
  "\u62c5\u5f53": 4670,
  "\u3067\u304d\u308b\u3088\u3046\u306b": 4671,
  "\u3069\u306e\u3088\u3046\u306a": 4672,
  "\u2581stone": 4673,
  "\u2581Fe": 4674,
  "\u6559\u6388": 4675,
  "\u3084\u3063\u3066": 4676,
  "\u2581vehicles": 4677,
  "\u2581benefit": 4678,
  "\u2581met": 4679,
  "\u2581FOR": 4680,
  "\u30a4\u30bf\u30ea\u30a2": 4681,
  "\u2581south": 4682,
  "\u2581join": 4683,
  "\u30b9\u30ad\u30eb": 4684,
  "\u30b9\u30bf\u30c3\u30d5": 4685,
  "\u3066\u3044\u304f": 4686,
  "\u2581army": 4687,
  "\u30ec\u30d9\u30eb\u306e": 4688,
  "\u2581enables": 4689,
  "\u30a2\u30eb\u30b4\u30ea\u30ba\u30e0": 4690,
  "\u2581innovation": 4691,
  "istic": 4692,
  "\u30aa\u30fc\u30d7\u30f3\u30bd\u30fc\u30b9": 4693,
  "\u2581Time": 4694,
  "\u2581200": 4695,
  "\u79c1\u305f\u3061": 4696,
  "\u793e\u306e": 4697,
  "\u3059\u308b\u305f\u3081": 4698,
  "\u2581runs": 4699,
  "\u2581parties": 4700,
  "\u5e02\u6c11": 4701,
  "\u2581hour": 4702,
  "\u2581tour": 4703,
  "\u2581mid": 4704,
  "\u5b8c\u5168": 4705,
  "\u2581factor": 4706,
  "\u306b\u884c\u304f": 4707,
  "45": 4708,
  "\u2581\u305d\u3093\u306a": 4709,
  "\u306e\u6570": 4710,
  "\u2581cast": 4711,
  "\u592b": 4712,
  "\u5927\u4f1a": 4713,
  "eg": 4714,
  "\u30d7\u30e9\u30a4\u30d9\u30fc\u30c8": 4715,
  "\u56de\u8def": 4716,
  "oo": 4717,
  "\u2581joint": 4718,
  "ug": 4719,
  "\u2581stress": 4720,
  "bar": 4721,
  "\u2581era": 4722,
  "\u2581radio": 4723,
  "\u5929\u7687": 4724,
  "\u2581depending": 4725,
  "\u5275": 4726,
  "ition": 4727,
  "\u2581nearly": 4728,
  "\u2581cities": 4729,
  "\u2581count": 4730,
  "\u2581species": 4731,
  "ah": 4732,
  "\u2581distributed": 4733,
  "\u2581fight": 4734,
  "\u9280": 4735,
  "\u2581Linux": 4736,
  "iv": 4737,
  "\u6700\u5f8c\u306e": 4738,
  "\u2581push": 4739,
  "\u2581primary": 4740,
  "\u2581generally": 4741,
  "MO": 4742,
  "\u2581dance": 4743,
  "ric": 4744,
  "\u2581\u591a\u304f\u306e": 4745,
  "\u2581selection": 4746,
  "\u901f": 4747,
  "\u305f\u3061\u304c": 4748,
  "\u30e1\u30a4\u30f3": 4749,
  "\u30bd\u30fc": 4750,
  "\u306b\u3057\u3066": 4751,
  "\u30e6\u30fc\u30b6\u30fc\u306f": 4752,
  "\u2581characteristics": 4753,
  "\u6e05": 4754,
  "\u5f37\u529b\u306a": 4755,
  "\u5f62\u5f0f": 4756,
  "\u30b5\u30f3\u30d7\u30eb": 4757,
  "\u83cc": 4758,
  "\u3057\u3066\u308b": 4759,
  "\u307e\u3067\u306b": 4760,
  "\u2581Paris": 4761,
  "\u2581usage": 4762,
  "\u62b5\u6297": 4763,
  "\u2581measure": 4764,
  "\u2581revenue": 4765,
  "\u2581independent": 4766,
  "\u2581r": 4767,
  "\u2581Bank": 4768,
  "\u2581boat": 4769,
  "\u6563": 4770,
  "La": 4771,
  "\u7279": 4772,
  "\u2581stream": 4773,
  "\u2581Analysis": 4774,
  "\u30ad\u30f3\u30b0": 4775,
  "\u2581plate": 4776,
  "\u2581club": 4777,
  "\u306a\u3089\u3070": 4778,
  "\u2581Cha": 4779,
  "\u2581stable": 4780,
  "\u2581continuous": 4781,
  "\u56f0\u96e3": 4782,
  "\u2581King": 4783,
  "\u2581flowers": 4784,
  "\u2581steps": 4785,
  "\u2581degree": 4786,
  "\u2581container": 4787,
  "\u597d\u304d\u306a": 4788,
  "\u5de5\u696d": 4789,
  "\u89b3\u6e2c": 4790,
  "\u2581laser": 4791,
  "\u2581sports": 4792,
  "\u65e5\u672c\u4eba": 4793,
  "\u6c11": 4794,
  "\u540c\u793e\u306f": 4795,
  "\u7a4d": 4796,
  "\u6e1b\u5c11": 4797,
  "\u7c21\u5358\u306a": 4798,
  "\u2581\u5404": 4799,
  "\u7d42": 4800,
  "\u2581bridge": 4801,
  "\u306b\u5fc5\u8981\u306a": 4802,
  "\u6b66": 4803,
  "\u4f1a\u54e1": 4804,
  "\u6765\u305f": 4805,
  "\u2581helps": 4806,
  "\u2581extremely": 4807,
  "\u2581evidence": 4808,
  "\u3092\u4f5c\u6210\u3059\u308b": 4809,
  "\u2581\u3053\u306e\u3088\u3046\u306a": 4810,
  "\u672a\u6765": 4811,
  "\u30e9\u30a4\u30d6": 4812,
  "\u5168\u56fd": 4813,
  "\u2581circuit": 4814,
  "\u57fa\u76e4": 4815,
  "\u7537\u6027\u304c": 4816,
  "\u2581comfortable": 4817,
  "\u96e3\u3057\u3044": 4818,
  "\u2581EE": 4819,
  "related": 4820,
  "\u2581carried": 4821,
  "\u6211\u3005\u306f": 4822,
  "\u2581poly": 4823,
  "\u2581privacy": 4824,
  "\u30c0\u30a6\u30f3": 4825,
  "\u2581aim": 4826,
  "\u7cbe\u795e": 4827,
  "\u3055\u305b\u3066": 4828,
  "\u2581Har": 4829,
  "\u2581cultural": 4830,
  "\u7d04\u675f": 4831,
  "\u30a2\u30e1\u30ea\u30ab\u306e": 4832,
  "\u2581eight": 4833,
  "\u30c4\u30a2\u30fc": 4834,
  "\u2581therefore": 4835,
  "\u4f1a\u8a71": 4836,
  "\u2581markets": 4837,
  "LO": 4838,
  "minute": 4839,
  "\u3082\u306e\u3067": 4840,
  "\u4fdd\u967a": 4841,
  "NO": 4842,
  "ris": 4843,
  "\u308c\u305f": 4844,
  "\u2581serious": 4845,
  "\u2581listen": 4846,
  "\u2581prior": 4847,
  "\u25812006": 4848,
  "\u2581obtained": 4849,
  "\u2581installation": 4850,
  "\u2581\u4e00": 4851,
  "\u7e4a\u7dad": 4852,
  "\u983c": 4853,
  "\u5168\u4f53\u306e": 4854,
  "\u2581warm": 4855,
  "\u30b9\u30bf\u30fc\u30c8": 4856,
  "\u653e\u9001": 4857,
  "\u2581reasons": 4858,
  "\u2581stores": 4859,
  "\u4eba\u3092": 4860,
  "\u2581techniques": 4861,
  "\u30a2\u30a6\u30c8": 4862,
  "ral": 4863,
  "\u30a2\u30c9\u30ec\u30b9": 4864,
  "\u2581rule": 4865,
  "\u2581earth": 4866,
  "\u96e2": 4867,
  "xi": 4868,
  "5%": 4869,
  "\u3092\u4f5c\u308a": 4870,
  "\u2581exhibition": 4871,
  "\u30d0\u30eb": 4872,
  "\u6708\u306e": 4873,
  "\u2581technique": 4874,
  "\u2581bath": 4875,
  "\u2581Report": 4876,
  "\u2581\u304a\u524d": 4877,
  "ara": 4878,
  "\u3092\u884c\u3044\u307e\u3059": 4879,
  "\u2581Watch": 4880,
  "\u2581cap": 4881,
  "ichi": 4882,
  "uff": 4883,
  "ura": 4884,
  "\u539f\u56e0": 4885,
  "\u2581slow": 4886,
  "\u672b": 4887,
  "\u5f37\u304f": 4888,
  "\u2581seem": 4889,
  "\u7814\u7a76\u6240": 4890,
  "\u2581critical": 4891,
  "\u2581focused": 4892,
  "cket": 4893,
  "\u4eca\u5f8c": 4894,
  "ming": 4895,
  "\u2581Mon": 4896,
  "\u2581dynamic": 4897,
  "\u2581Department": 4898,
  "\u2581Island": 4899,
  "\u2581novel": 4900,
  "\u2581weather": 4901,
  "\u2581trouble": 4902,
  "\u30d7\u30ed\u30b8\u30a7\u30af\u30c8\u306e": 4903,
  "all": 4904,
  "\u3092\u4e0e\u3048": 4905,
  "\u2581fashion": 4906,
  "\u3053\u306e\u3088\u3046\u306a": 4907,
  "star": 4908,
  "\u2581gold": 4909,
  "?\"": 4910,
  "\u3068\u3044\u3046\u3053\u3068\u3067\u3059": 4911,
  "\u58eb": 4912,
  "SS": 4913,
  "\u2581overall": 4914,
  "\u2581audience": 4915,
  "\u2581thanks": 4916,
  "\u2581appears": 4917,
  "\u2581balance": 4918,
  "\u8cc7\u6599": 4919,
  "\u2581drink": 4920,
  "\u2581consumer": 4921,
  "\u56de\u5fa9": 4922,
  "\u3082\u3057": 4923,
  "\u30ec\u30d3\u30e5\u30fc": 4924,
  "\u5f7c\u5973\u306f": 4925,
  "\u5fdc": 4926,
  "\u2581Oracle": 4927,
  "\u6cbb": 4928,
  "\u5b8c\u5168\u306a": 4929,
  "\u2581equipped": 4930,
  "\u30b9\u30c6": 4931,
  "\u2581raise": 4932,
  "\u2581profile": 4933,
  "\u2581\u3059\u3079\u3066\u306e": 4934,
  "\u2581patent": 4935,
  "\u2581wasn": 4936,
  "pt": 4937,
  "He": 4938,
  "\u2581determine": 4939,
  "\u8eab\u4f53": 4940,
  "\u306a\u305c": 4941,
  "\u7d66": 4942,
  "\u2581respond": 4943,
  "\u2581experiment": 4944,
  "\u2581Platform": 4945,
  "\u2581Ch": 4946,
  "\u5927\u304d\u3044": 4947,
  "\u2581draw": 4948,
  "\u7d1a": 4949,
  "\u2581filter": 4950,
  "\u2581\u79c1\u305f\u3061\u306e": 4951,
  "\u53c2\u7167": 4952,
  "\u306e\u5909\u5316": 4953,
  "\u6301": 4954,
  "\u2581manner": 4955,
  "\u305f\u3060": 4956,
  "ei": 4957,
  "\u2581Well": 4958,
  "\u2581copy": 4959,
  "\u306e\u5229\u7528": 4960,
  "\u591a\u6570\u306e": 4961,
  "65": 4962,
  "\u8a66": 4963,
  "code": 4964,
  "Be": 4965,
  "~": 4966,
  "\u2581audio": 4967,
  "\u2581calls": 4968,
  "\u7528\u9014": 4969,
  "\u30b5\u30c3\u30ab\u30fc": 4970,
  "\u6bb5": 4971,
  "\u30db\u30fc\u30eb": 4972,
  "\u2581chief": 4973,
  "\u3059\u308b\u306e\u306f": 4974,
  "\u4e00\u3064": 4975,
  "\u306b\u5411\u3051\u3066": 4976,
  "\u2581\u3042\u306a\u305f": 4977,
  "\u306e\u4e16\u754c": 4978,
  "\u2581foot": 4979,
  "\u30b9\u30d4\u30fc\u30c9": 4980,
  "ect": 4981,
  "\u2581forest": 4982,
  "\u2581leader": 4983,
  "\")": 4984,
  "list": 4985,
  "\u4e95": 4986,
  "uck": 4987,
  "\u25813.": 4988,
  "TO": 4989,
  "\u2581male": 4990,
  "\u2581Dai": 4991,
  "\u2581author": 4992,
  "\u2581satellite": 4993,
  "\u2581solve": 4994,
  "\u6d88\u8cbb": 4995,
  "\u65b0\u305f\u306b": 4996,
  "\u2581Green": 4997,
  "\u2581village": 4998,
  "\u2581seat": 4999,
  "\u2581Sp": 5000,
  "\u3061\u3087\u3046\u3069": 5001,
  "\u2581Edo": 5002,
  "\u2581Method": 5003,
  "\u2581Si": 5004,
  "\u2581alternative": 5005,
  "\u4f01\u696d\u304c": 5006,
  "\u2581versions": 5007,
  "\u30a2\u30fc\u30c6\u30a3\u30b9\u30c8": 5008,
  "\u30d5\u30ed\u30fc": 5009,
  "\u2581spent": 5010,
  "\u2581\u5973\u6027\u304c": 5011,
  "\u30b9\u30c8\u30ec\u30fc\u30b8": 5012,
  "\u2581Advertisement": 5013,
  "\u751f\u7269": 5014,
  "top": 5015,
  "ita": 5016,
  "\u30ed\u30fc\u30eb": 5017,
  "\u2581Great": 5018,
  "\u5fdc\u7528": 5019,
  "press": 5020,
  "dis": 5021,
  "vers": 5022,
  "pan": 5023,
  "\u2581Ti": 5024,
  "\u2581joined": 5025,
  "\u8b1b\u6f14": 5026,
  "\u6848": 5027,
  "\u2581feed": 5028,
  "\u2581messages": 5029,
  "\u3092\u63d0\u4f9b\u3057\u3066\u3044\u307e\u3059": 5030,
  "\u2581Black": 5031,
  "get": 5032,
  "\u7802": 5033,
  "\u306b\u52a0\u3048\u3066": 5034,
  "\u300118": 5035,
  "\u2581flight": 5036,
  "onic": 5037,
  "\u2581forces": 5038,
  "\u2581felt": 5039,
  "\u30c0\u30f3": 5040,
  "\u2581yellow": 5041,
  "\u305d\u306e\u4ed6": 5042,
  "\u7c92\u5b50": 5043,
  "ct": 5044,
  "\u8179": 5045,
  "\u2581Room": 5046,
  "\u2581fair": 5047,
  "\u632f": 5048,
  "\u2581string": 5049,
  "\u2581tri": 5050,
  "\u3082\u306a\u3044": 5051,
  "\u50be\u5411": 5052,
  "\u7b11": 5053,
  "\u8a08\u6e2c": 5054,
  "\u2581eating": 5055,
  "\u6d41\u308c": 5056,
  "56": 5057,
  "\u63a8\u9032": 5058,
  "\u2581affect": 5059,
  "\u904e\u7a0b": 5060,
  "ery": 5061,
  "\u9759": 5062,
  "App": 5063,
  "\u5c02\u7528": 5064,
  "Go": 5065,
  "\u30c1\u30e3\u30fc": 5066,
  "kai": 5067,
  "\u30ab\u30e9\u30fc": 5068,
  "\u306e\u4e2d\u5fc3": 5069,
  "\u77ed": 5070,
  "\u691c\u8a3c": 5071,
  "with": 5072,
  "\u2581Live": 5073,
  "\u2581wave": 5074,
  "\u6539": 5075,
  "unt": 5076,
  "\u30eb\u30fc\u30c8": 5077,
  "\u81ea\u52d5\u7684\u306b": 5078,
  "aku": 5079,
  "\u2581tone": 5080,
  "\u4f4f\u5b85": 5081,
  "38": 5082,
  "\u30df\u30f3": 5083,
  "\u30a2\u30a4\u30c7\u30a2": 5084,
  "\u30bf\u30b0": 5085,
  "bal": 5086,
  "\u3079": 5087,
  "\u9069": 5088,
  "\u5712": 5089,
  "\u2581Russian": 5090,
  "cer": 5091,
  "\u5148\u751f": 5092,
  "\u3064\u304b": 5093,
  "\u5c0f\u3055\u3044": 5094,
  "\u2581regulations": 5095,
  "\u2581wire": 5096,
  "\u2581monitoring": 5097,
  "\u2581HTML": 5098,
  "\u5730\u57df\u306e": 5099,
  "\u7d42\u308f\u308a": 5100,
  "\u2581password": 5101,
  "\u2581planet": 5102,
  "\u5b8c\u6210": 5103,
  "\u3042\u3063\u305f": 5104,
  "ably": 5105,
  "\u521d\u671f": 5106,
  "ists": 5107,
  "\u2581switch": 5108,
  "ano": 5109,
  "nu": 5110,
  "\u914d\u4fe1": 5111,
  "\u2581Yu": 5112,
  "\u30b9\u30ad\u30fc": 5113,
  "\u2581Super": 5114,
  "\u2581Tri": 5115,
  "\u30a2\u30e1\u30ea\u30ab\u5408\u8846\u56fd": 5116,
  "\u2581domestic": 5117,
  "dle": 5118,
  "\u71c3\u6599": 5119,
  "\u2581Micro": 5120,
  "\u2581sand": 5121,
  "\u30ac\u30a4\u30c9": 5122,
  "\u73fe\u4ee3": 5123,
  "\u3060\u3088": 5124,
  "An": 5125,
  "\u2581trading": 5126,
  "\u30ef\u30f3": 5127,
  "\u30ce\u30fc": 5128,
  "TS": 5129,
  "\u2581selling": 5130,
  "\u9664": 5131,
  "\u306a\u3055\u3044": 5132,
  "\u2581Take": 5133,
  "\u2581Security": 5134,
  "\u3057\u304f": 5135,
  "\u52b4\u50cd\u8005": 5136,
  "\u2581partners": 5137,
  "\u526f": 5138,
  "\u4ed5": 5139,
  "\u2581remains": 5140,
  "\u904e\u53bb": 5141,
  "dia": 5142,
  "\u3088\u3046\u3067\u3059": 5143,
  "\u2581Guests": 5144,
  "\u2581remote": 5145,
  "\u2581Taka": 5146,
  "\u2581collaboration": 5147,
  "read": 5148,
  "\u2581Ja": 5149,
  "\u8a00\u3063\u3066": 5150,
  "\u2581maximum": 5151,
  "\u3070\u304b\u308a": 5152,
  "DI": 5153,
  "\u6bce\u5e74": 5154,
  "\u30e6\u30cb\u30c3\u30c8": 5155,
  "\u2581comment": 5156,
  "\u65b9\u91dd": 5157,
  "log": 5158,
  "\u30b5\u30d6": 5159,
  "\u2581kitchen": 5160,
  "\u7d42\u4e86": 5161,
  "\u3092\u3082\u305f\u3089\u3059": 5162,
  "\u2581item": 5163,
  "\u3044\u307e\u305b\u3093": 5164,
  "cor": 5165,
  "\u2581Sha": 5166,
  "\u5927\u578b": 5167,
  "\u2581Prince": 5168,
  "\u2581\u540c": 5169,
  "\u79cb": 5170,
  "\u2581essential": 5171,
  "ene": 5172,
  "61": 5173,
  "lon": 5174,
  "\u2581learned": 5175,
  "\u60aa\u3044": 5176,
  "RO": 5177,
  "33": 5178,
  "\u2581Osaka": 5179,
  "\u611f\u60c5": 5180,
  "\u2581animals": 5181,
  "\u306e\u3053\u3068": 5182,
  "\u2581agent": 5183,
  "\u4f4e\u3044": 5184,
  "KA": 5185,
  "\u3053\u3053": 5186,
  "\u2581origin": 5187,
  "\u5dfb": 5188,
  "\u5802": 5189,
  "\u2581researchers": 5190,
  "\u8208\u5473": 5191,
  "\u30ec\u30f3\u30ba": 5192,
  "Mi": 5193,
  "\u8ca0": 5194,
  "\u30df\u30fc": 5195,
  "\u5b50\u4f9b\u305f\u3061": 5196,
  "\u5375": 5197,
  "\u2581career": 5198,
  "cur": 5199,
  "\u30ed\u30fc\u30de": 5200,
  "\u4f7f": 5201,
  "load": 5202,
  "\u2581interview": 5203,
  "\u2581\u305f\u3060": 5204,
  "\u2581rise": 5205,
  "\u2581Its": 5206,
  "sy": 5207,
  "\u2581Th": 5208,
  "\u2581district": 5209,
  "\u306e\u7d50\u679c": 5210,
  "\u2581solar": 5211,
  "\u767d\u3044": 5212,
  "\u2581Ru": 5213,
  "\u5c3e": 5214,
  "\u2581department": 5215,
  "58": 5216,
  "\u2581California": 5217,
  "\u2581sensor": 5218,
  "\u2581previously": 5219,
  "\u5f0a\u793e": 5220,
  "\u305f\u304f\u3055\u3093\u306e": 5221,
  "ST": 5222,
  "\u4f55\u3092": 5223,
  "\u30d1\u30ef\u30fc": 5224,
  "und": 5225,
  "\u2581sa": 5226,
  "\u2581displayed": 5227,
  "\u306b\u5f93\u3063\u3066": 5228,
  "\u30d9\u30f3": 5229,
  "\u2581specified": 5230,
  "\u2581exercise": 5231,
  "\u2581covered": 5232,
  "\u2581sex": 5233,
  "\u753b": 5234,
  "book": 5235,
  "\u30a2\u30eb\u30d0\u30e0": 5236,
  "\u65cf": 5237,
  "\u3053\u3068\u304c\u3067\u304d": 5238,
  "PE": 5239,
  "\u523a\u6fc0": 5240,
  "\u30bd\u30d5\u30c8": 5241,
  "\u30d6\u30ea": 5242,
  "len": 5243,
  "gin": 5244,
  "\u2581defined": 5245,
  "\u5927\u898f\u6a21\u306a": 5246,
  "\u53ce\u76ca": 5247,
  "\u2581aren": 5248,
  "\u2581Set": 5249,
  "\u8155": 5250,
  "\u2581followed": 5251,
  "VR": 5252,
  "\u2581album": 5253,
  "\u3053\u3068\u304b\u3089": 5254,
  "\u2581Note": 5255,
  "\u2581Mark": 5256,
  "ath": 5257,
  "\u2581kill": 5258,
  "\u306a\u3069\u304c": 5259,
  "\u30de\u30a4\u30af\u30ed": 5260,
  "cent": 5261,
  "\u2581ancient": 5262,
  "\u8fba": 5263,
  "\u5171": 5264,
  "\u2581measurement": 5265,
  "\u5b57": 5266,
  "\u8981\u56e0": 5267,
  "\u5411": 5268,
  "\u2581greater": 5269,
  "ff": 5270,
  "\u30c1\u30a7": 5271,
  "tract": 5272,
  "ries": 5273,
  "wi": 5274,
  "\u2581sale": 5275,
  "ack": 5276,
  "\u30d7\u30ed\u30b0\u30e9\u30df\u30f3\u30b0": 5277,
  "FI": 5278,
  "\u2581presented": 5279,
  "\u2581handling": 5280,
  "\u2581Ver": 5281,
  "ON": 5282,
  "\u2581lock": 5283,
  "\u30bf\u30a4\u30d7\u306e": 5284,
  "\u5206\u985e": 5285,
  "\u2581IN": 5286,
  "\u201d,": 5287,
  "\u2581Port": 5288,
  "\u3059\u308b\u3053\u3068\u304c": 5289,
  "\u5c5e": 5290,
  "\u2581showed": 5291,
  "\u5341\u5206": 5292,
  "\u5358\u306b": 5293,
  "\u2581nuclear": 5294,
  "2000": 5295,
  "\u8aad\u307f": 5296,
  "AWS": 5297,
  "\u2581stories": 5298,
  "\u3066\u3044\u307e\u3057\u305f": 5299,
  "\u258123": 5300,
  "mar": 5301,
  "\u30b3\u30fc\u30eb": 5302,
  "\u4e00\u90e8": 5303,
  "\u7279\u5b9a": 5304,
  "\u30b8\u30e7": 5305,
  "\u2581Machine": 5306,
  "\u30be": 5307,
  "\u2581thin": 5308,
  "\u2581tend": 5309,
  "\u306e\u3067\u3057\u3087\u3046\u304b": 5310,
  "\u540d\u306e": 5311,
  "\u2581visual": 5312,
  "\u9650\u308a": 5313,
  "\u306a\u3093\u3060": 5314,
  "\u2581arm": 5315,
  "\u30a2\u30c3\u30d7\u30eb": 5316,
  "\u30aa\u30fc\u30b9\u30c8\u30e9\u30ea\u30a2": 5317,
  "RS": 5318,
  "\u30b3\u30ec\u30af\u30b7\u30e7\u30f3": 5319,
  "\u4e3b\u8981\u306a": 5320,
  "\u2581Bay": 5321,
  "\u306a\u3051\u308c\u3070": 5322,
  "\u2581adopt": 5323,
  "\u3068\u8a00\u3046": 5324,
  "ade": 5325,
  "\u30b9\u30fc\u30d1\u30fc": 5326,
  "\u25812004": 5327,
  "\u2581bill": 5328,
  "LI": 5329,
  "\u2581letter": 5330,
  "\u5e03": 5331,
  "\u2581Central": 5332,
  "\u2581doctor": 5333,
  "\u53ce": 5334,
  "\u2581panel": 5335,
  "\u8a00\u3044": 5336,
  "lip": 5337,
  "\u5b9d": 5338,
  "\u4e07\u4eba": 5339,
  "\u2581Mobile": 5340,
  "\u3053\u3053\u3067": 5341,
  "\u2581print": 5342,
  "\u30b3\u30de\u30f3\u30c9": 5343,
  "\u2581perspective": 5344,
  "\u306e\u3067\u3059\u304c": 5345,
  "\u2581Ya": 5346,
  "\u2581winter": 5347,
  "\u2581corner": 5348,
  "\u8a3c\u62e0": 5349,
  "\u30cf\u30a6\u30b9": 5350,
  "\u3092\u30b5\u30dd\u30fc\u30c8\u3059\u308b": 5351,
  "\u2581Support": 5352,
  "\u2581efficient": 5353,
  "\u3086": 5354,
  "ef": 5355,
  "\u2581birth": 5356,
  "\u2581Life": 5357,
  "\u30ab\u30ca\u30c0": 5358,
  "\u2581counter": 5359,
  "\u2581manufacturer": 5360,
  "\u30de\u30a4": 5361,
  "\u2581apartment": 5362,
  "\u63a5": 5363,
  "\u30fc\u30f3": 5364,
  "TE": 5365,
  "\u2581contents": 5366,
  "\u59cb\u307e\u308a": 5367,
  "\u65e9": 5368,
  "\u2581protein": 5369,
  "\u30c1\u30c3\u30d7": 5370,
  "\u305d\u3053\u306b": 5371,
  "\u2581Airport": 5372,
  "\u306a\u306e\u304b": 5373,
  "\u5206\u89e3": 5374,
  "\u2581onto": 5375,
  "\u5408\u3046": 5376,
  "\u540c\u6642\u306b": 5377,
  "\u5b9f\u8df5": 5378,
  "bb": 5379,
  "\u2581View": 5380,
  "\u2581dream": 5381,
  "\u2581sharing": 5382,
  "\u8cbf\u6613": 5383,
  "\u8f38\u51fa": 5384,
  "\u5229\u7528\u8005": 5385,
  "\u304c\u5fc5\u8981": 5386,
  "\u304a\u91d1": 5387,
  "\u5f31": 5388,
  "\u3064\u304d": 5389,
  "\u81ea\u5206": 5390,
  "\u2581automatic": 5391,
  "\u30de\u30cd\u30b8\u30e1\u30f3\u30c8": 5392,
  "\u2581Chrome": 5393,
  "\u30d5\u30a1\u30a4\u30eb\u3092": 5394,
  "\u3092\u5229\u7528\u3059\u308b": 5395,
  "ins": 5396,
  "\u958b\u793a": 5397,
  "\u30a6\u30a3": 5398,
  "\u304c\u591a\u3044": 5399,
  "\u2581generated": 5400,
  "\u308f\u305a\u304b": 5401,
  "\u9060": 5402,
  "\u7bc0": 5403,
  "ons": 5404,
  "\u8a66\u307f": 5405,
  "\u2581Star": 5406,
  "\u2581speech": 5407,
  "\u76ee\u306b": 5408,
  "mor": 5409,
  "\u2581facility": 5410,
  "\u3092\u898b\u3064\u3051\u308b": 5411,
  "ert": 5412,
  "\u92fc": 5413,
  "\u2581lose": 5414,
  "\u8981\u4ef6": 5415,
  "SI": 5416,
  "\u65b0\u805e": 5417,
  "\u30cb\u30f3\u30b0": 5418,
  "ving": 5419,
  "\u65b9\u6cd5\u306f": 5420,
  "\u2581challenges": 5421,
  "\u2581desk": 5422,
  "\u5b9f\u969b\u306e": 5423,
  "\u4f59": 5424,
  "\u99c6\u52d5": 5425,
  "\u660e\u6cbb": 5426,
  "\u2581Sub": 5427,
  "\u2581referred": 5428,
  "\u2581Check": 5429,
  "\u2581thank": 5430,
  "\u2581museum": 5431,
  "\u3092\u5b9f\u73fe": 5432,
  "\u3057\u307e\u305b\u3093": 5433,
  "\u81ea\u8eab": 5434,
  "\u4f4f": 5435,
  "\u5c02\u9580\u5bb6": 5436,
  "\u773c": 5437,
  "\u2581\u305d\u306e\u305f\u3081": 5438,
  "\u5b97\u6559": 5439,
  "\u30f6\u6708": 5440,
  "CP": 5441,
  "\u52a9\u3051": 5442,
  "\u2581ocean": 5443,
  "\u2581Beach": 5444,
  "\u2581Health": 5445,
  "\u30d5\u30a9": 5446,
  "\u2581RE": 5447,
  "\u2581Grand": 5448,
  "\u521d\u306e": 5449,
  "\u5973\u306e\u5b50": 5450,
  "\u2581ca": 5451,
  "\u7167\u660e": 5452,
  "cle": 5453,
  "\u30d3\u30eb\u30c9": 5454,
  "\u90e8\u968a": 5455,
  "\u2581Ben": 5456,
  "\u51fa\u3057\u305f": 5457,
  "\u82f1\u56fd": 5458,
  "ust": 5459,
  "\u2581realize": 5460,
  "\u683c": 5461,
  "\u2581sources": 5462,
  "\u2581\u306a\u304a": 5463,
  "()": 5464,
  "\u30ea\u30af\u30a8\u30b9\u30c8": 5465,
  "\u2581agree": 5466,
  "\u671b": 5467,
  "\u76ae\u819a": 5468,
  "\u2581UK": 5469,
  "Do": 5470,
  "\u6539\u826f": 5471,
  "\u4eba\u3005\u306e": 5472,
  "\u2581fixed": 5473,
  "pot": 5474,
  "\u8a8d\u5b9a": 5475,
  "\u2581IBM": 5476,
  "\u5f62\u614b": 5477,
  "II": 5478,
  "\u305d\u308c\u3089": 5479,
  "\u2581500": 5480,
  "\u6b21\u5143": 5481,
  "pper": 5482,
  "\u2581mentioned": 5483,
  "ick": 5484,
  "\u8af8": 5485,
  "\u8fb2\u696d": 5486,
  "\u8a2d\u7acb": 5487,
  "\u2581sample": 5488,
  "\u2581tank": 5489,
  "\u606f\u5b50": 5490,
  "\u4eca\u56de\u306e": 5491,
  "\u8ad6\u6587": 5492,
  "\u3057\u3066\u3082": 5493,
  "\u2581favorite": 5494,
  "ik": 5495,
  "\u2581Enterprise": 5496,
  "\u2581Capital": 5497,
  "\u516c\u5f0f": 5498,
  "\u3089\u3057\u3044": 5499,
  "\u2581riding": 5500,
  "\u30e9\u30a6\u30f3\u30c9": 5501,
  "ada": 5502,
  "\u2581functional": 5503,
  "\u53d7\u4fe1": 5504,
  "int": 5505,
  "point": 5506,
  "\u2581establish": 5507,
  "\u2581cur": 5508,
  "\u2581translation": 5509,
  "kyo": 5510,
  "\u751f\u307e\u308c\u305f": 5511,
  "\u50cd\u304d": 5512,
  "\u7dad\u6301": 5513,
  "\u2581represent": 5514,
  "\u88fd\u54c1\u3092": 5515,
  "\u2581election": 5516,
  "\u2581resource": 5517,
  "\u30d5\u30ec\u30fc\u30e0": 5518,
  "\u2581feedback": 5519,
  "\u7a2e\u985e": 5520,
  "\u7f6a": 5521,
  "\u6c37": 5522,
  "\u2581METHOD": 5523,
  "\u5927\u624b": 5524,
  "\u2581festival": 5525,
  "free": 5526,
  "\u2581units": 5527,
  "bro": 5528,
  "\u2581animal": 5529,
  "well": 5530,
  "RT": 5531,
  "\u96fb\u6e90": 5532,
  "\u8a71\u3092": 5533,
  "\u5fd8\u308c": 5534,
  "\u3057\u3070\u3057\u3070": 5535,
  "ography": 5536,
  "\u535a\u58eb": 5537,
  "\u96c6\u56e3": 5538,
  "\u2581reflect": 5539,
  "\u2581conducted": 5540,
  "\u30f4\u30a1": 5541,
  "\u5408\u610f": 5542,
  "\u76ee\u306e": 5543,
  "\u2581fear": 5544,
  "\u547d\u4ee4": 5545,
  "\u2581showing": 5546,
  "\u304c\u3067\u304d\u308b": 5547,
  "\u2581Eclipse": 5548,
  "gra": 5549,
  "\u3067\u304d\u307e\u305b\u3093": 5550,
  "\u30ea\u30b9": 5551,
  "\u9375": 5552,
  "Pa": 5553,
  "\u306e\u304a": 5554,
  "\u306e\u5411\u4e0a": 5555,
  "hal": 5556,
  "\u306e\u6b74\u53f2": 5557,
  "\u2581reduction": 5558,
  "tar": 5559,
  "\u30aa\u30d5": 5560,
  "\u306e\u540d\u524d": 5561,
  "SC": 5562,
  "which": 5563,
  "\u2581reaction": 5564,
  "\u2581robot": 5565,
  "\u30d7\u30ec\u30a4\u30e4\u30fc": 5566,
  "\u2581characters": 5567,
  "\u2581colors": 5568,
  "\u2581appearance": 5569,
  "\u2581upper": 5570,
  "\u30cb\u30fc\u30ba": 5571,
  "\u2581gonna": 5572,
  "\u2581plays": 5573,
  "\u80cc\u666f": 5574,
  "\u4e8b\u9805": 5575,
  "lation": 5576,
  "\u3067\u3042\u308b\u3068": 5577,
  "\u2581views": 5578,
  "\u2581Site": 5579,
  "\u2581Fo": 5580,
  "\u2581forms": 5581,
  "CR": 5582,
  "\u5b8c\u4e86": 5583,
  "\u3092\u5229\u7528\u3057\u3066": 5584,
  "sis": 5585,
  "75": 5586,
  "\u732b": 5587,
  "\u2581investors": 5588,
  "\u2581Get": 5589,
  "\u2581bag": 5590,
  "\u59cb\u3081": 5591,
  "\u5931\u6557": 5592,
  "\u304d\u307e\u3057\u305f": 5593,
  "\u2581importance": 5594,
  "\u8b66\u5bdf": 5595,
  "\u56fa": 5596,
  "\u306e\u65b0\u3057\u3044": 5597,
  "700": 5598,
  "\u652f\u6301": 5599,
  "\u2581crowd": 5600,
  "\u2581registered": 5601,
  "\u2581Australia": 5602,
  "\u30a8\u30a2": 5603,
  "53": 5604,
  "\u5546\u696d": 5605,
  "\u4e7e\u71e5": 5606,
  "\u2581purposes": 5607,
  "\u3053\u3068\u306b\u3088\u308a": 5608,
  "fin": 5609,
  "\u3057\u307e\u3057\u3087\u3046": 5610,
  "\u5468\u8fba": 5611,
  "\u30e6": 5612,
  "don": 5613,
  "\u6295\u7968": 5614,
  "\u899a": 5615,
  "\u5a18": 5616,
  "ics": 5617,
  "LED": 5618,
  "\u25812020": 5619,
  "\u30a6\u30a7\u30a4": 5620,
  "par": 5621,
  "\u306b\u5411\u304b\u3063\u3066": 5622,
  "\u2581square": 5623,
  "\u2581spot": 5624,
  "\u30b0\u30ea": 5625,
  "jin": 5626,
  "\u52a9": 5627,
  "\u304c\u53ef\u80fd": 5628,
  "ane": 5629,
  "\u30d0\u30c3\u30c6\u30ea\u30fc": 5630,
  "\u30c3\u30c1": 5631,
  "\u696d\u8005": 5632,
  "\u5177": 5633,
  "44": 5634,
  "\u2581Post": 5635,
  "\u9023\u90a6": 5636,
  "vent": 5637,
  "\u5916\u56fd\u4eba": 5638,
  "\u2581\u81ea\u5206\u306e": 5639,
  "\u9650": 5640,
  "\u4e00\u5ea6": 5641,
  "\u306b\u304a\u3044\u3066\u306f": 5642,
  "\u2581presentation": 5643,
  "\u73fe\u8c61": 5644,
  "\u3057\u305f\u3089": 5645,
  "\u30b9\u30c8\u30a2": 5646,
  "sp": 5647,
  "\u5f79\u5272": 5648,
  "\u52b4\u50cd": 5649,
  "ular": 5650,
  "\u307e\u307e": 5651,
  "\u4f53\u306e": 5652,
  "\u2581Therefore": 5653,
  "ony": 5654,
  "\u8a3c": 5655,
  "\u6bcd\u89aa": 5656,
  "\u2581\u65b0": 5657,
  "pping": 5658,
  "\u632f\u52d5": 5659,
  "\u2581requests": 5660,
  "\u2581adopted": 5661,
  "ged": 5662,
  "\u25814.": 5663,
  "\u2581dogs": 5664,
  "\u3051\u308b": 5665,
  "\u2581foundation": 5666,
  "\u2581pieces": 5667,
  "\u4e0d\u8db3": 5668,
  "\u2581updates": 5669,
  "\u2581sister": 5670,
  "\u6e2f": 5671,
  "\u3082\u306e\u306f": 5672,
  "\u30ad\u30f3": 5673,
  "\u2581Another": 5674,
  "\u2581Comp": 5675,
  "\u3057\u3088\u3046": 5676,
  "\u2581eventually": 5677,
  "ency": 5678,
  "\u2581quarter": 5679,
  "\u2581\u4e00\u65b9": 5680,
  "\u3057\u3066\u3044\u304f": 5681,
  "\u3068\u8003\u3048": 5682,
  "\u3060\u3063\u3066": 5683,
  "\u597d\u304d": 5684,
  "serv": 5685,
  "\u2581SOA": 5686,
  "\u2581ahead": 5687,
  "cus": 5688,
  "\u884c\u3063\u305f": 5689,
  "\u6297": 5690,
  "\u2581peace": 5691,
  "\u8f2a": 5692,
  "\u7de8": 5693,
  "\u2581Core": 5694,
  "\u2581bright": 5695,
  "\u2581route": 5696,
  "not": 5697,
  "DO": 5698,
  "\u6d88": 5699,
  "\u2581stored": 5700,
  "\u5358\u4f4d": 5701,
  "\u2581factors": 5702,
  "\u2581announcement": 5703,
  "\u2581Media": 5704,
  "\u2581prices": 5705,
  "\u2581Systems": 5706,
  "\u30b7\u30b9\u30c6\u30e0\u306f": 5707,
  "\u5f93\u6765\u306e": 5708,
  "\u2581hall": 5709,
  "\u2581repair": 5710,
  "\u30de\u30a4\u30eb": 5711,
  "VC": 5712,
  "\u30b7\u30e3\u30fc": 5713,
  "\u2581\u6c34": 5714,
  "\u2581medicine": 5715,
  "\u3092\u3057\u305f": 5716,
  "\u2581stuff": 5717,
  "\u30ab\u30b9\u30bf\u30e0": 5718,
  "\u30de\u30c3\u30d7": 5719,
  "\u6709\u6a5f": 5720,
  "\u2581Based": 5721,
  "\u606f": 5722,
  "\u6642\u306b\u306f": 5723,
  "\u306b\u5ea7\u3063\u3066\u3044\u307e\u3059": 5724,
  "\u6570\u5b57": 5725,
  "\u2581Trump": 5726,
  "\u30a2\u30f3\u30c9": 5727,
  "\u2581married": 5728,
  "\u30c8\u30ed": 5729,
  "\u682a\u5f0f": 5730,
  "\u2581broad": 5731,
  "\u2581aircraft": 5732,
  "\u2581patterns": 5733,
  "\u639b\u3051": 5734,
  "\u2581TechCrunch": 5735,
  "\u6fc3\u5ea6": 5736,
  "\u306b\u3044\u307e\u3059": 5737,
  "\u2581dry": 5738,
  "\u30e2\u30fc": 5739,
  "\u3054\u5229\u7528": 5740,
  "\u3082\u3063\u3068\u3082": 5741,
  "\u6d3b\u6027": 5742,
  "\u2581Any": 5743,
  "\u8272\u306e": 5744,
  "ties": 5745,
  "des": 5746,
  "IL": 5747,
  "\u30a4\u30aa\u30f3": 5748,
  "ory": 5749,
  "\u2581schools": 5750,
  "\u3057\u305f\u3053\u3068": 5751,
  "\u2581roll": 5752,
  "++": 5753,
  "\u2581VR": 5754,
  "\u2581Apache": 5755,
  "\u2581sit": 5756,
  "uri": 5757,
  "\u2581noise": 5758,
  "\u9650\u5b9a": 5759,
  "fo": 5760,
  "\u2581Photo": 5761,
  "\u2581dress": 5762,
  "\u81ea\u52d5\u5316": 5763,
  "\u901a\u5e38": 5764,
  "\u751f\u5f92": 5765,
  "\u5341\u5206\u306a": 5766,
  "\u30b6\u30fc": 5767,
  "\u2581White": 5768,
  "\u516b": 5769,
  "\u2581myself": 5770,
  "\u2581Inn": 5771,
  "\u2581Western": 5772,
  "\u7fbd": 5773,
  "\u3059\u306a\u308f\u3061": 5774,
  "\u2581sorry": 5775,
  "\u2581Men": 5776,
  "\u3064\u307e\u308a": 5777,
  "\u8ca2\u732e": 5778,
  "\u4e00\u822c\u7684\u306b": 5779,
  "ised": 5780,
  "\u30d0\u30a4\u30aa": 5781,
  "\u2581Hong": 5782,
  "\u30a4\u30f3\u30bf\u30fc\u30d5\u30a7\u30fc\u30b9": 5783,
  "ou": 5784,
  "\u2581Global": 5785,
  "\u2581hey": 5786,
  "JavaScript": 5787,
  "\u898f\u6a21": 5788,
  "right": 5789,
  "\u5bb3": 5790,
  "\u30b7\u30c6\u30a3": 5791,
  "\u5f7c\u304c": 5792,
  "\u529b\u3092": 5793,
  "\u2581beauty": 5794,
  "\u6d25": 5795,
  "\u2581tube": 5796,
  "str": 5797,
  "\u2581smartphone": 5798,
  "\u30b7\u30fc\u30ba\u30f3": 5799,
  "space": 5800,
  "\u5ead": 5801,
  "\u5145\u96fb": 5802,
  "\u30a2\u30d5\u30ea\u30ab": 5803,
  "\u30ed\u30b0": 5804,
  "pic": 5805,
  "85": 5806,
  "\u2581Type": 5807,
  "cu": 5808,
  "\u30bb\u30c3\u30b7\u30e7\u30f3": 5809,
  "matic": 5810,
  "\u3066\u304d\u307e\u3057\u305f": 5811,
  "\u8001": 5812,
  "\u5229\u7528\u3067\u304d\u308b": 5813,
  "\u5bdd": 5814,
  "\u2581pop": 5815,
  "\u2581originally": 5816,
  "\u30a2\u30af\u30b7\u30e7\u30f3": 5817,
  "\u3055\u307e": 5818,
  "\u79d8\u5bc6": 5819,
  "\u82e5\u3044": 5820,
  "lit": 5821,
  "\u2581GitHub": 5822,
  "\u2581buildings": 5823,
  "\u6279\u5224": 5824,
  "\u2581symbol": 5825,
  "\u964d": 5826,
  "\u2581printing": 5827,
  "\u30de\u30a6\u30b9": 5828,
  "\u6982\u5ff5": 5829,
  "\u2581Product": 5830,
  "\u2581horse": 5831,
  "\u2581Indian": 5832,
  "\u3066\u3057\u307e\u3046": 5833,
  "\u9806": 5834,
  "\u2581schedule": 5835,
  "\u89b3\u5149": 5836,
  "EM": 5837,
  "\u2581thousands": 5838,
  "\u2581refer": 5839,
  "\u306b\u5165\u308b": 5840,
  "name": 5841,
  "EA": 5842,
  "tech": 5843,
  "\u2581gene": 5844,
  "\u2581Samsung": 5845,
  "ants": 5846,
  "\u6570\u306f": 5847,
  "\u3053\u308c\u304c": 5848,
  "\u808c": 5849,
  "\u30d7\u30e9\u30b0\u30a4\u30f3": 5850,
  "\u258126": 5851,
  "\u2581fail": 5852,
  "ai": 5853,
  "\u75c7\u72b6": 5854,
  "\u30f3\u30b0": 5855,
  "\u30d8\u30c3\u30c9": 5856,
  "moto": 5857,
  "DC": 5858,
  "\u6df1\u304f": 5859,
  "\u843d\u3061": 5860,
  "ell": 5861,
  "\u30b5\u30a4\u30c9": 5862,
  "\u30b3\u30f3\u30bb\u30d7\u30c8": 5863,
  "\u30b9\u30da\u30a4\u30f3": 5864,
  "\u2581Series": 5865,
  "\u2581fabric": 5866,
  "\u2581performing": 5867,
  "\u75db": 5868,
  "\u5c11": 5869,
  "\u2581cards": 5870,
  "\u6cd5\u4eba": 5871,
  "\u2581relevant": 5872,
  "cing": 5873,
  "\u2581opportunities": 5874,
  "\u2581News": 5875,
  "\u2581script": 5876,
  "\u2581exist": 5877,
  "\u9ad8\u5ea6\u306a": 5878,
  "\u2581pages": 5879,
  "\u6cb3": 5880,
  "\u2581acquired": 5881,
  "\u2581Fire": 5882,
  "\u8efd": 5883,
  "\u2581improvements": 5884,
  "\u53c2\u52a0\u8005": 5885,
  "\u8266": 5886,
  "\u2581module": 5887,
  "\u2581actions": 5888,
  "\u2581Law": 5889,
  "\u2581feet": 5890,
  "\u304f\u308b": 5891,
  "\u5206\u5e03": 5892,
  "\u5e74\u9f62": 5893,
  "\u5f35": 5894,
  "\u2581sweet": 5895,
  "ned": 5896,
  "\u2581decide": 5897,
  "\u9078\u629e\u80a2": 5898,
  "\u5e97\u8217": 5899,
  "\u2581consumers": 5900,
  "\u308b\u306e": 5901,
  "\u306c": 5902,
  "Lo": 5903,
  "level": 5904,
  "\u30f4": 5905,
  "\u30bf\u30f3\u30d1\u30af\u8cea": 5906,
  "\u30ad\u30ed": 5907,
  "ney": 5908,
  "\u2581Under": 5909,
  "\u2581pictures": 5910,
  "\u2581Like": 5911,
  "\u2581desktop": 5912,
  "\u30d5\u30a3\u30fc\u30c9\u30d0\u30c3\u30af": 5913,
  "\u7686": 5914,
  "\u3001\u300e": 5915,
  "\u5de5\u5b66": 5916,
  "\u2581historical": 5917,
  "\u3059\u308b\u306b\u306f": 5918,
  "\u5074\u9762": 5919,
  "\u304a\u305d\u3089\u304f": 5920,
  "\u5f7c": 5921,
  "\u2581Italian": 5922,
  "\u57fa\u672c": 5923,
  "\u30d5\u30a3\u30eb\u30e0": 5924,
  "\u2581collect": 5925,
  "\u2581identify": 5926,
  "hr": 5927,
  "\u6ce8\u76ee": 5928,
  "\u2581explore": 5929,
  "water": 5930,
  "ser": 5931,
  "\u2581wireless": 5932,
  "\u25811)": 5933,
  "nic": 5934,
  "\u30c8\u30fc": 5935,
  "\u8a71\u3059": 5936,
  "\u8ffd": 5937,
  "\u2581funding": 5938,
  "ach": 5939,
  "\u2581seeing": 5940,
  "sur": 5941,
  "scale": 5942,
  "\u4ea4\u6d41": 5943,
  "\u2581Up": 5944,
  "\u2581division": 5945,
  "\u2581artist": 5946,
  "\u2581extension": 5947,
  "\u2581reduced": 5948,
  "\u6c38": 5949,
  "\u5e73\u548c": 5950,
  "\u76f8\u4e92": 5951,
  "\u2581flower": 5952,
  "\u30c7\u30b9\u30af\u30c8\u30c3\u30d7": 5953,
  "For": 5954,
  "\u514d\u75ab": 5955,
  "\u885b\u661f": 5956,
  "\u2581tasks": 5957,
  "\u2581chat": 5958,
  "\u2581Children": 5959,
  "\u6975\u3081\u3066": 5960,
  "\u30d3\u30c3\u30c8": 5961,
  "\u30c0\u30a4": 5962,
  "\u2581Part": 5963,
  "\u5168\u90e8": 5964,
  "\u30d1\u30b9\u30ef\u30fc\u30c9": 5965,
  "\u2581entered": 5966,
  "\u2581pull": 5967,
  "\u2581networks": 5968,
  "\u2581spirit": 5969,
  "mu": 5970,
  "\u533b\u5e2b": 5971,
  "\u8a98\u5c0e": 5972,
  "\u2581Africa": 5973,
  "\u4ea4\u6e09": 5974,
  "\u2581stands": 5975,
  "\u30d4\u30fc": 5976,
  "\u6307\u793a": 5977,
  "\u2581Uber": 5978,
  "\u6027\u8cea": 5979,
  "\u5370": 5980,
  "astic": 5981,
  "\u2581Roman": 5982,
  "\u5438\u53ce": 5983,
  "\u2581kept": 5984,
  "\u258128": 5985,
  "head": 5986,
  "\u30b9\u30bf\u30f3": 5987,
  "\u5fdc\u7b54": 5988,
  "\u2581settings": 5989,
  "\u2581transportation": 5990,
  "\u3092\u4e2d\u5fc3\u306b": 5991,
  "ero": 5992,
  "\u2581\u3053\u3053\u3067": 5993,
  "\u5b66\u8005": 5994,
  "67": 5995,
  "\u5de8\u5927\u306a": 5996,
  "\u5bb6\u5ead": 5997,
  "\u4e8c\u4eba": 5998,
  "\u80f8": 5999,
  "\u2581THE": 6000,
  "\u6253": 6001,
  "\u4e0b\u306e": 6002,
  "\u2581families": 6003,
  "\u4e3b\u306a": 6004,
  "\u2581drawing": 6005,
  "\u5411\u304d": 6006,
  "\u2581raw": 6007,
  "\u6210\u679c": 6008,
  "\u2581combined": 6009,
  "\u30b7\u30a7\u30a2": 6010,
  "\u3092\u7740\u305f": 6011,
  "\u6ede\u5728": 6012,
  "\u2581\u9ad8": 6013,
  "\u2581sha": 6014,
  "\u4efb\u610f\u306e": 6015,
  "\u68ee": 6016,
  "\u2581supporting": 6017,
  "ob": 6018,
  "\u2581annual": 6019,
  "\u2581university": 6020,
  "\u901a\u5e38\u306e": 6021,
  "\u5ef6": 6022,
  "\u2581follows": 6023,
  "\u5f62\u3067": 6024,
  "\u2581Ge": 6025,
  "\u2581Director": 6026,
  "\u2581pump": 6027,
  "\u2581terminal": 6028,
  "\u2581dishes": 6029,
  "\u3053\u3068\u306b\u3088\u3063\u3066": 6030,
  "\u3044\u305f\u3060\u304f": 6031,
  "WA": 6032,
  "\u6307\u5c0e": 6033,
  "lum": 6034,
  "\u306e\u6a5f\u80fd": 6035,
  "1000": 6036,
  "\u7d9a\u3051\u308b": 6037,
  "\u5409": 6038,
  "SM": 6039,
  "\u6642\u70b9\u3067": 6040,
  "\u2581Spanish": 6041,
  "\u2581pipe": 6042,
  "\u3059\u308b\u65b9\u6cd5": 6043,
  "\u2581experiences": 6044,
  "\u30bb\u30f3": 6045,
  "\u2581discovered": 6046,
  "\u4f7f\u3044": 6047,
  "\u2581Every": 6048,
  "\u2581finished": 6049,
  "\u258127": 6050,
  "\u2581deployment": 6051,
  "\u2581engineers": 6052,
  "\u306e\u30c7\u30fc\u30bf": 6053,
  "\u9054\u6210": 6054,
  "\u8ca0\u8377": 6055,
  "\u6c17\u6301\u3061": 6056,
  "\u30db\u30b9\u30c8": 6057,
  "\u2581Canada": 6058,
  "\u2581Club": 6059,
  "\u5f97": 6060,
  "\u2581individuals": 6061,
  "\u2581except": 6062,
  "iz": 6063,
  "SF": 6064,
  "\u25812003": 6065,
  "\u2581index": 6066,
  "\u306b\u52a0\u3048": 6067,
  "\u304f\u3089\u3044": 6068,
  "\u2581obtain": 6069,
  "\u2581Add": 6070,
  "\u2581ran": 6071,
  "\u8907\u6570": 6072,
  "\u590f": 6073,
  "\u2581Lake": 6074,
  "je": 6075,
  "\u306a\u3057": 6076,
  "\u713c": 6077,
  "\u80ba": 6078,
  "\u2581football": 6079,
  "\u2581Education": 6080,
  "\u5fc5\u305a": 6081,
  "rt": 6082,
  "\u306e\u691c\u8a0e": 6083,
  "\u6d77\u8ecd": 6084,
  "\u30d7\u30ec": 6085,
  "\u5c0e": 6086,
  "\u2581improving": 6087,
  "\u2581Auto": 6088,
  "\u2581Road": 6089,
  "\u2581plane": 6090,
  "\u73fe\u5730": 6091,
  "86": 6092,
  "\u30d3\u30b8\u30e7\u30f3": 6093,
  "\u53f2": 6094,
  "\u96c7\u7528": 6095,
  "\u306b\u306a\u308a\u307e\u3057\u305f": 6096,
  "lia": 6097,
  "\u2581clearly": 6098,
  "NA": 6099,
  "\u611f\u899a": 6100,
  "\u3057\u305f\u5f8c": 6101,
  "cast": 6102,
  "aki": 6103,
  "\u5e95": 6104,
  "\u2581medium": 6105,
  "MI": 6106,
  "\u5927\u81e3": 6107,
  "\u304d\u307e\u3059": 6108,
  "\u679a": 6109,
  "\u2581detailed": 6110,
  "\u7533\u8acb": 6111,
  "\u30e9\u30e0": 6112,
  "\u306e\u5927": 6113,
  "95": 6114,
  "\u533b\u5b66": 6115,
  "\u2581description": 6116,
  "\u6700\u7d42": 6117,
  "2017": 6118,
  "\u30c7\u30a3\u30f3\u30b0": 6119,
  "\u2581regions": 6120,
  "\u307b\u3068\u3093\u3069\u306e": 6121,
  "ami": 6122,
  "\u6642\u4ee3\u306e": 6123,
  "\u3066\u304a\u308a\u307e\u3059": 6124,
  "\u30c9\u30e9\u30a4\u30d6": 6125,
  "\u2581Test": 6126,
  "\u76db": 6127,
  "lt": 6128,
  "\u6709\u540d": 6129,
  "\u3088\u308a\u591a\u304f\u306e": 6130,
  "\u2581Cal": 6131,
  "77": 6132,
  "\u53ef\u80fd\u3067\u3059": 6133,
  "\u55b6": 6134,
  "Ruby": 6135,
  "\u56fd\u6c11": 6136,
  "No": 6137,
  "\u2581scene": 6138,
  "quality": 6139,
  "\u2581Show": 6140,
  "\u7cbe\u5ea6": 6141,
  "\u304b\u304b\u308b": 6142,
  "\u99d0\u8eca\u5834": 6143,
  "\u3055\u308c\u306a\u3044": 6144,
  "\u660e\u3089\u304b\u306b": 6145,
  "\u30af\u30ea": 6146,
  "\u5c11\u306a\u3044": 6147,
  "\u5e74\u4ee5\u4e0a": 6148,
  "\u306a\u304f\u306a\u308b": 6149,
  "\u5927\u5b66\u306e": 6150,
  "\u2581magazine": 6151,
  "FC": 6152,
  "\u2581CD": 6153,
  "\u2581worldwide": 6154,
  "\u2581optical": 6155,
  "\u2581continues": 6156,
  "sub": 6157,
  "\u305d\u306e\u3088\u3046\u306a": 6158,
  "\u2581pen": 6159,
  "\u307f\u3093\u306a": 6160,
  "\u2581appeared": 6161,
  "\u5f85\u3063\u3066": 6162,
  "\u2581pet": 6163,
  "\u7dcf\u5408": 6164,
  "\u8aad": 6165,
  "\u7dd1": 6166,
  "\u643a\u5e2f": 6167,
  "\u2581PDF": 6168,
  "\u2581convert": 6169,
  "ML": 6170,
  "\u3084\u308b": 6171,
  "\u4eca\u5e74": 6172,
  "\u2581executive": 6173,
  "\u3068\u8ff0\u3079\u305f": 6174,
  "\u2581Mc": 6175,
  "\u6642\u9593\u306e": 6176,
  "\u2581giant": 6177,
  "\u8074": 6178,
  "\u30b3\u30fc\u30c9\u3092": 6179,
  "\u2581rank": 6180,
  "mat": 6181,
  "\u7a0b\u5ea6": 6182,
  "\u5c04": 6183,
  "\u2581fiber": 6184,
  "\u8eca\u306e": 6185,
  "\u5f53\u8a72": 6186,
  "\u5272": 6187,
  "\u2581branch": 6188,
  "\u30d9\u30b9\u30c8": 6189,
  "\u30b0\u30e9": 6190,
  "\u308f\u308c": 6191,
  "2015": 6192,
  "\u2581Ken": 6193,
  "\u8fd4": 6194,
  "\u8033": 6195,
  "\u2581kid": 6196,
  "\u2581artists": 6197,
  "\u4ecf": 6198,
  "\u751f\u547d": 6199,
  "\u6e7e": 6200,
  "\u30af\u30ea\u30c3\u30af": 6201,
  "\u3044\u3064\u3082": 6202,
  "are": 6203,
  "vert": 6204,
  "\u2581atmosphere": 6205,
  "\u6b69\u3044\u3066": 6206,
  "\u5316\u3059\u308b": 6207,
  "\u2581trees": 6208,
  "\u30ce\u30fc\u30c9": 6209,
  "\u2581advertising": 6210,
  "\u30a6\u30a9\u30fc": 6211,
  "\u2581Cor": 6212,
  "\u3057\u305f\u3082\u306e": 6213,
  "\u30ed\u30fc\u30ab\u30eb": 6214,
  "\u2581recording": 6215,
  "\u2581looked": 6216,
  "\u5f53\u521d": 6217,
  "\u2581\u307e\u305a": 6218,
  "\u7720": 6219,
  "\u8208\u5473\u6df1\u3044": 6220,
  "\u4fe1\u983c\u6027": 6221,
  "var": 6222,
  "\u56e0": 6223,
  "\u7121\u7dda": 6224,
  "\u306a\u304f\u3066\u3082": 6225,
  "Si": 6226,
  "spect": 6227,
  "\u5408\u3044": 6228,
  "\u30e1\u30ea\u30c3\u30c8": 6229,
  "\u3067\u3082\u3042\u308b": 6230,
  "\u5104\u5186": 6231,
  "\u65b9\u6cd5\u3092": 6232,
  "\u2581notes": 6233,
  "\u258180": 6234,
  "\u2581mini": 6235,
  "med": 6236,
  "\u3044\u304f": 6237,
  "\u2581administration": 6238,
  "\u6642\u8a08": 6239,
  "\u3092\u53d6\u308b": 6240,
  "\u30b7\u30a2": 6241,
  "\u2581familiar": 6242,
  "\u4f1d\u7d71\u7684\u306a": 6243,
  "\u3092\u3088\u308a": 6244,
  "\u2581Society": 6245,
  "\u30b7\u30f3\u30b0\u30eb": 6246,
  "chu": 6247,
  "\u2581Korean": 6248,
  "\u2581Rooms": 6249,
  "\u6797": 6250,
  "\u3089\u308c\u306a\u3044": 6251,
  "\u2581inspection": 6252,
  "\u30ab\u30d0\u30fc": 6253,
  "\u2581Russia": 6254,
  "\u63a2": 6255,
  "\u2581recommend": 6256,
  "\u89b3\u5bdf": 6257,
  "):": 6258,
  "\u898b\u305f": 6259,
  "\u2581practical": 6260,
  "\u70ba": 6261,
  "\u30d1\u30e9": 6262,
  "\u2581consumption": 6263,
  "\u3088\u306d": 6264,
  "\u306b\u63a5\u7d9a": 6265,
  "\u2581farm": 6266,
  "\u6642\u671f": 6267,
  "\u2581cooperation": 6268,
  "\u2581score": 6269,
  "\u3059\u308b\u3088\u3046\u306b": 6270,
  "\u2581happens": 6271,
  "\u2581\u4f55\u304b": 6272,
  "\u81ea\u5206\u304c": 6273,
  "\u8d64\u3061\u3083\u3093": 6274,
  "\u30e8": 6275,
  "\u2581trans": 6276,
  "\u30ad\u30e3\u30ea\u30a2": 6277,
  "\u2581Blue": 6278,
  "BI": 6279,
  "EU": 6280,
  "\u3068\u3044\u3046\u306e\u306f": 6281,
  "\u8fbc\u3093\u3067": 6282,
  "\u30df\u30c3\u30b7\u30e7\u30f3": 6283,
  "\u306e\u9593\u306e": 6284,
  "\u2581fill": 6285,
  "hand": 6286,
  "\u2581Program": 6287,
  "\u2581prepared": 6288,
  "\u2581#": 6289,
  "\u52dd\u5229": 6290,
  "LC": 6291,
  "\u2581Kubernetes": 6292,
  "\u2581lived": 6293,
  "\u30a2\u30d7\u30ea\u306e": 6294,
  "some": 6295,
  "\u2581log": 6296,
  "\u306f\u3059\u3079\u3066": 6297,
  "\u2581\u30a2\u30e1\u30ea\u30ab": 6298,
  "tive": 6299,
  "\u53b3": 6300,
  "\u304f\u306a\u308b": 6301,
  "PM": 6302,
  "\u30d7\u30e9\u30a4\u30d0\u30b7\u30fc": 6303,
  "\u8d64\u3044": 6304,
  "\u30d1\u30fc\u30af": 6305,
  "\u2581owner": 6306,
  "\u7642\u6cd5": 6307,
  "\u2581Committee": 6308,
  "\u30a4\u30f3\u30bf\u30d3\u30e5\u30fc": 6309,
  "\u5730\u9707": 6310,
  "\u2581\u4e0d": 6311,
  "\u2581surrounding": 6312,
  "av": 6313,
  "\u2581\u4e2d\u56fd": 6314,
  "\u2581\\": 6315,
  "\u57fa\u672c\u7684\u306a": 6316,
  "ient": 6317,
  "\u2581presence": 6318,
  "\u2581servers": 6319,
  "\u2581acquisition": 6320,
  "\u2581recognition": 6321,
  "late": 6322,
  "\u2581\u305d\u308c\u3067": 6323,
  "\u5973\u6027\u306e": 6324,
  "rus": 6325,
  "\u8003\u3048\u65b9": 6326,
  "AM": 6327,
  "class": 6328,
  ");": 6329,
  "\u5171\u901a": 6330,
  "\u8c37": 6331,
  "\u2581sc": 6332,
  "\u725b": 6333,
  "\u5e74\u307e\u3067": 6334,
  "\u2581detail": 6335,
  "\u2581operate": 6336,
  "\u25812)": 6337,
  "\u2581gun": 6338,
  "\u2581enhance": 6339,
  "\u30c7\u30e2": 6340,
  "\u2581straight": 6341,
  "ok": 6342,
  "\u984c": 6343,
  "\u306e\u8a2d\u8a08": 6344,
  "\u6280\u8853\u306e": 6345,
  "\u6a39\u8102": 6346,
  "\u2581motion": 6347,
  "\u2581cat": 6348,
  "\u2581cash": 6349,
  "\u2581APIs": 6350,
  "\u990a": 6351,
  "\u305d\u308c\u306b": 6352,
  "\u5f53\u5c40": 6353,
  "\u9867\u5ba2\u306e": 6354,
  "\u3044\u305f\u3060\u3051\u307e\u3059": 6355,
  "\u2581mostly": 6356,
  "ches": 6357,
  "\u2581portion": 6358,
  "\u2581occur": 6359,
  "\u9670": 6360,
  "\u2581painting": 6361,
  "68": 6362,
  "\u2581Fi": 6363,
  "RI": 6364,
  "play": 6365,
  "\u554f": 6366,
  "\u2581consist": 6367,
  "\u7832": 6368,
  "\u30c7\u30a3\u30b9\u30af": 6369,
  "\u2581teacher": 6370,
  "ez": 6371,
  "\u3066\u3082": 6372,
  "\u2581channel": 6373,
  "\u30d0\u30b0": 6374,
  "\u2581SE": 6375,
  "\u2581Big": 6376,
  "\u5ba3\u8a00": 6377,
  "\u2581accident": 6378,
  "\u2581relatively": 6379,
  "\u2581majority": 6380,
  "\u524a\u6e1b": 6381,
  "\u2581Fu": 6382,
  "\u623f": 6383,
  "\u30d4\u30f3": 6384,
  "\u2581\u30b9": 6385,
  "\u866b": 6386,
  "\u2581meat": 6387,
  "tric": 6388,
  "\u2581po": 6389,
  "\u308b\u3053\u3068\u304c\u3067\u304d\u308b": 6390,
  "\u53d6\u308a\u7d44\u307f": 6391,
  "\u2581incident": 6392,
  "\u30df\u30cb": 6393,
  "\u2581Non": 6394,
  "\u59ff": 6395,
  "\u7c89": 6396,
  "\u30d3\u30f3": 6397,
  "\u516c\u5171": 6398,
  "berg": 6399,
  "\u2581brown": 6400,
  "\u3068\u540c\u6642\u306b": 6401,
  "\u30d6\u30eb\u30fc": 6402,
  "\u4eba\u985e": 6403,
  "66": 6404,
  "\u2581Work": 6405,
  "\u9285": 6406,
  "\u8fbc\u3093\u3060": 6407,
  "\u652f\u6255\u3044": 6408,
  "\u3061\u3087\u3063\u3068": 6409,
  "cher": 6410,
  "\u2581healthy": 6411,
  "46": 6412,
  "\u2581Furthermore": 6413,
  "itis": 6414,
  "\u2581ride": 6415,
  "\u5730\u56f3": 6416,
  "\u6559\u5e2b": 6417,
  "\u30d7\u30ed\u30c8\u30b3\u30eb": 6418,
  "\u30c7\u30b6\u30a4\u30ca\u30fc": 6419,
  "\u2581leaves": 6420,
  "\u2581partnership": 6421,
  "\u30b0\u30ea\u30fc\u30f3": 6422,
  "\u30de\u30fc\u30b1\u30c3\u30c8": 6423,
  "\u30d0\u30e9": 6424,
  "rk": 6425,
  "\u2581Long": 6426,
  "flow": 6427,
  "\u7f8e\u8853\u9928": 6428,
  "\u30d5\u30a1\u30a4": 6429,
  "\u9045\u308c": 6430,
  "\u8535": 6431,
  "\u76e4": 6432,
  "\u8840\u7ba1": 6433,
  "TH": 6434,
  "Ar": 6435,
  "\u30bb\u30f3\u30c8": 6436,
  "\u5206\u5272": 6437,
  "Ra": 6438,
  "\u65b9\u304c": 6439,
  "\u2581ob": 6440,
  "\u4fa1": 6441,
  "\u7d76": 6442,
  "\u2581Yama": 6443,
  "\u4e00\u90e8\u306e": 6444,
  "\u2581Docker": 6445,
  "\u3053\u3068\u304c\u3042\u308b": 6446,
  "\u7a81": 6447,
  "\u624b\u3092": 6448,
  "\u2581Will": 6449,
  "\u7d50\u6676": 6450,
  "\u6bd4\u8f03": 6451,
  "\u2581Out": 6452,
  "\u2581David": 6453,
  "\u8de1": 6454,
  "\u5468": 6455,
  "\u2581definition": 6456,
  "\u2581Festival": 6457,
  "\u805e\u304d": 6458,
  "table": 6459,
  "rap": 6460,
  "\u7acb\u5834": 6461,
  "\u3059\u308b\u5fc5\u8981\u304c\u3042\u308b": 6462,
  "\u96a0": 6463,
  "\u2581evaluation": 6464,
  "\u3067\u3042\u308c\u3070": 6465,
  "\u30d5\u30a9\u30fc\u30de\u30c3\u30c8": 6466,
  "\u2581expensive": 6467,
  "\u2581parking": 6468,
  "\u2581attempt": 6469,
  "\u5168\u54e1": 6470,
  "\u3053\u3053\u306b": 6471,
  "\u79fb\u884c": 6472,
  "\u2581Both": 6473,
  "\u2581Smart": 6474,
  "ns": 6475,
  "\u2581advice": 6476,
  "\u2581confirmed": 6477,
  "\u30b9\u30c6\u30fc\u30b8": 6478,
  "HA": 6479,
  "\u3059\u308b\u3068\u3044\u3046": 6480,
  "\u9577\u304f": 6481,
  "\u2581fee": 6482,
  "\u304c\u3093": 6483,
  "\u2581reliable": 6484,
  "43": 6485,
  "\u30b7\u30e3\u30c4\u3092\u7740\u305f": 6486,
  "\u2581Army": 6487,
  "\u30c1\u30e3\u30c3\u30c8": 6488,
  "bri": 6489,
  "\u79c1\u305f\u3061\u304c": 6490,
  "\u2581helping": 6491,
  "\u306e\u8a73\u7d30": 6492,
  "\u9023\u7d61": 6493,
  "\u5e30": 6494,
  "\u9aea": 6495,
  "\u6bd4\u8f03\u7684": 6496,
  "\u2581yen": 6497,
  "\u305a\u306b": 6498,
  "\u5230\u7740": 6499,
  "\u3055\u308c\u308b\u3053\u3068": 6500,
  "PL": 6501,
  "600": 6502,
  "\u2581policies": 6503,
  "\u2581300": 6504,
  "\u2581Em": 6505,
  "\u2581NASA": 6506,
  "\u2581Case": 6507,
  "\u2581sheet": 6508,
  "\u2581generate": 6509,
  "\u3089\u308c\u307e\u3059": 6510,
  "stro": 6511,
  "\u2581removed": 6512,
  "\u306f\u3068\u3066\u3082": 6513,
  "\u540c\u793e": 6514,
  "\u2581introduce": 6515,
  "\u304c\u53ef\u80fd\u3067\u3059": 6516,
  "\u2581mail": 6517,
  "\u3057\u305f\u304c": 6518,
  "\u2581investigation": 6519,
  "\u2581claim": 6520,
  "\u2581\u307e\u3060": 6521,
  "\u3044\u304f\u3064\u304b": 6522,
  "YouTube": 6523,
  "\u30a2\u30a4\u30c6\u30e0": 6524,
  "place": 6525,
  "ture": 6526,
  "\u63a5\u89e6": 6527,
  "\u2581Washington": 6528,
  "\u30b9\u30c8\u30ea\u30fc\u30df\u30f3\u30b0": 6529,
  "\u2581Phone": 6530,
  "\u2581couldn": 6531,
  "\u5408\u91d1": 6532,
  "IR": 6533,
  "CS": 6534,
  "63": 6535,
  "\u4e00\u9023\u306e": 6536,
  "\u2581See": 6537,
  "\u2581\u306f\u3044": 6538,
  "AN": 6539,
  "gal": 6540,
  "5,000": 6541,
  "\u3092\u8ffd\u52a0": 6542,
  "\u30d1\u30e9\u30e1\u30fc\u30bf": 6543,
  "\u2581bone": 6544,
  "\u9031": 6545,
  "\u2581accounts": 6546,
  "\u4f01\u753b": 6547,
  "\u2581updated": 6548,
  "\u2581smooth": 6549,
  "\u2581Studies": 6550,
  "\u30af\u30bf\u30fc": 6551,
  "\u2581promotion": 6552,
  "Ho": 6553,
  "\u2581temple": 6554,
  "\u2581intended": 6555,
  "\u30b9\u306e": 6556,
  "\u2581proposed": 6557,
  "\u2581expansion": 6558,
  "72": 6559,
  "\u2581conversation": 6560,
  "\u6c34\u7d20": 6561,
  "\u2581accommodation": 6562,
  "\u2581tissue": 6563,
  "\u540c\u671f": 6564,
  "\u2581sky": 6565,
  "\u2581approximately": 6566,
  "\u2581gone": 6567,
  "\u3067\u6700\u3082": 6568,
  "\u7fa9\u52d9": 6569,
  "\u2581Kong": 6570,
  "sum": 6571,
  "\u30a8\u30a2\u30b3\u30f3": 6572,
  "\u306f\u73fe\u5728": 6573,
  "rit": 6574,
  "gon": 6575,
  "\u2581Standard": 6576,
  "\u30dd\u30fc": 6577,
  "how": 6578,
  "\u5411\u3051\u306b": 6579,
  "\u554f\u984c\u306f": 6580,
  "\u2581Kan": 6581,
  "\u2581knew": 6582,
  "\u7269\u306e": 6583,
  "TC": 6584,
  "\u570f": 6585,
  "\u3092\u5f15\u304d": 6586,
  "new": 6587,
  "\u5927\u5909": 6588,
  "\u5546\u6a19": 6589,
  "\u3057\u306a\u304b\u3063\u305f": 6590,
  "\u30bf\u30d6\u30ec\u30c3\u30c8": 6591,
  "tri": 6592,
  "\u2581phones": 6593,
  "\u2581register": 6594,
  "\u2581chair": 6595,
  "\u2581VM": 6596,
  "\u2581height": 6597,
  "gy": 6598,
  "\u30d5\u30a1\u30fc": 6599,
  "2016": 6600,
  "\u77ed\u3044": 6601,
  "\u7c21\u5358": 6602,
  "\u7570\u5e38": 6603,
  "\u306e\u3088": 6604,
  "800": 6605,
  "\u2581import": 6606,
  "\u2581Che": 6607,
  "\u697d\u3057\u3044": 6608,
  "\u6ec5": 6609,
  "\u8003\u3048\u308b": 6610,
  "\u82e5": 6611,
  "\u8b66\u544a": 6612,
  "\u2581disaster": 6613,
  "\u969b\u306b": 6614,
  "\u2581mouth": 6615,
  "\u2581containing": 6616,
  "\u2581Ventures": 6617,
  "ella": 6618,
  "\u2581prepare": 6619,
  "\u3092\u8d85\u3048\u308b": 6620,
  "\u30ef\u30fc": 6621,
  "\u7389": 6622,
  "\u2581brings": 6623,
  "\u2581transition": 6624,
  "\u2581instrument": 6625,
  "\u3068\u304d\u306f": 6626,
  "\u8a3c\u660e": 6627,
  "\u306b\u51fa": 6628,
  "\u30b1\u30fc": 6629,
  "\u2581_": 6630,
  "\u2581issued": 6631,
  "\u2581Bre": 6632,
  "\u4e16\u754c\u3067": 6633,
  "\u2581\u4ffa": 6634,
  "\u30c9\u30fc": 6635,
  "\u2581entry": 6636,
  "MD": 6637,
  "\u2581bond": 6638,
  "\u30ec\u30fc\u30c8": 6639,
  "\u2581stated": 6640,
  "\u2581Hall": 6641,
  "\u816b": 6642,
  "\u3092\u6301\u3063\u305f": 6643,
  "41": 6644,
  "\u2581Tsu": 6645,
  "\u6cd5\u4ee4": 6646,
  "\u306b\u5408\u308f\u305b\u3066": 6647,
  "ec": 6648,
  "\u30fb\u30fb\u30fb": 6649,
  "\u53b3\u3057\u3044": 6650,
  "\u4eba\u3005\u306f": 6651,
  "\u2581Award": 6652,
  "\u2581venue": 6653,
  "\u7e01": 6654,
  "Cloud": 6655,
  "\u2581mark": 6656,
  "\u2581amazing": 6657,
  "\u2581Foreign": 6658,
  "\u2581negative": 6659,
  "\u2581finish": 6660,
  "but": 6661,
  "\u793e\u4f1a\u7684": 6662,
  "\u30c7\u30a3\u30fc": 6663,
  "\u30e2\u30ce": 6664,
  "\u2581HTTP": 6665,
  "\u2581convenient": 6666,
  "\u2581clothes": 6667,
  "\u517c": 6668,
  "\u306b\u308f\u305f\u3063\u3066": 6669,
  "\u3055\u3048": 6670,
  "\u6570\u5024": 6671,
  "\u85e4": 6672,
  "\u2581extensive": 6673,
  "\u3042\u306a\u305f\u306b": 6674,
  "\u5199\u771f\u3092": 6675,
  "ole": 6676,
  "\u5f97\u308b": 6677,
  "CT": 6678,
  "\u98df\u3079": 6679,
  "\u3092\u9ad8\u3081\u308b": 6680,
  "\u60c5\u5831\u306e": 6681,
  "\u2581magnetic": 6682,
  "\u306e\u6539\u5584": 6683,
  "\u3067\u306a\u3044": 6684,
  "\u3066\u304f\u308c\u308b": 6685,
  "\u5ea6\u306e": 6686,
  "MC": 6687,
  "\u2581Adobe": 6688,
  "\u4e3b\u5f35": 6689,
  "\u2581vote": 6690,
  "\u2581execution": 6691,
  "\u30aa\u30e9\u30f3\u30c0": 6692,
  "\u2581im": 6693,
  "New": 6694,
  "\u2581powder": 6695,
  "\u88fd\u306e": 6696,
  "\u30b2\u30b9\u30c8": 6697,
  "\u65e5\u304b\u3089": 6698,
  "UI": 6699,
  "\u30d6\u30e9\u30c3\u30af": 6700,
  "\u9858": 6701,
  "\u4ee3\u308f\u308a\u306b": 6702,
  "\u2581mi": 6703,
  "\u2581truck": 6704,
  "\u30bf\u30fc\u30b2\u30c3\u30c8": 6705,
  "\u77e5\u3089\u306a\u3044": 6706,
  "\u73fe\u5834": 6707,
  "\u2581DNA": 6708,
  "\u2581\u3053\u308c\u306b\u3088\u308a": 6709,
  "\u6253\u3061": 6710,
  "\u2581adjust": 6711,
  "\u308b\u305f\u3081\u306b": 6712,
  "\u2581committed": 6713,
  "\u2581Personal": 6714,
  "\u2581\u3053\u3053": 6715,
  "\u300f(": 6716,
  "\u4e88\u9632": 6717,
  "\u304b\u3089\u306f": 6718,
  "\u2581EU": 6719,
  "\u540c\u610f": 6720,
  "under": 6721,
  "\u2581frequency": 6722,
  "\u2581Second": 6723,
  "pu": 6724,
  "\u2581Last": 6725,
  "\u3057\u305f\u5834\u5408": 6726,
  "\u2581\u3069\u3046": 6727,
  "\u2581cho": 6728,
  "\u6238": 6729,
  "\u2581transmission": 6730,
  "\u5019\u88dc": 6731,
  "\u30d1\u30fc\u30c6\u30a3\u30fc": 6732,
  "Sa": 6733,
  "\u30b7\u30e7\u30f3": 6734,
  "2)": 6735,
  "\u30cb\u30f3": 6736,
  "\u5927\u962a": 6737,
  "\u305d\u3053\u3067": 6738,
  "\u30c8\u30e9\u30f3\u30b9": 6739,
  "\u30a8\u30f3\u30b8\u30cb\u30a2\u30ea\u30f3\u30b0": 6740,
  "\u5f37\u5ea6": 6741,
  "\u3053\u3046\u3057\u305f": 6742,
  "\u756a\u7d44": 6743,
  "\u307b\u304b": 6744,
  "nch": 6745,
  "\u2581numerous": 6746,
  "\u6db2\u4f53": 6747,
  "lock": 6748,
  "\u2581humans": 6749,
  "\u2581electrical": 6750,
  "\u2581leaving": 6751,
  "\u30a6\u30a7": 6752,
  "\u2581trial": 6753,
  "\u30c0\u30f3\u30b9": 6754,
  "teen": 6755,
  "\u7814\u7a76\u8005": 6756,
  "\u4f4f\u6c11": 6757,
  "\u2581\u7121": 6758,
  "\u2581jump": 6759,
  "\u81ea\u5206\u3067": 6760,
  "\u5831\u9053": 6761,
  "\u2581sector": 6762,
  "\u2581Times": 6763,
  "\u30b0\u30eb\u30fc\u30d7\u306e": 6764,
  "\u767b": 6765,
  "\u3092\u4f7f\u3044": 6766,
  "\u306b\u3064\u3044\u3066\u3082": 6767,
  "\u30d7\u30ea": 6768,
  "\u65e2\u306b": 6769,
  "\u96c6\u4e2d": 6770,
  "\u2581contain": 6771,
  "\u2581effectively": 6772,
  "\u2581UI": 6773,
  "\u9069\u5fdc": 6774,
  "\u888b": 6775,
  "\u2581communicate": 6776,
  "Ex": 6777,
  "\u30b9\u30a4\u30c3\u30c1": 6778,
  "\u4f7f\u7528\u3059\u308b": 6779,
  "\u7cf8": 6780,
  "\u3092\u6c42\u3081\u308b": 6781,
  "\u2581explain": 6782,
  "\u2581lies": 6783,
  "\u5ba2\u5ba4": 6784,
  "\u5e74\u5ea6": 6785,
  "\u4eac": 6786,
  "\u30c9\u30e9\u30a4\u30d0\u30fc": 6787,
  "-3": 6788,
  "\u8ab0": 6789,
  "\u30c3\u30d7": 6790,
  "\u4eba\u5de5": 6791,
  "\u2581composition": 6792,
  "\u2581discover": 6793,
  "\u2581li": 6794,
  "\u5de5\u7a0b": 6795,
  "\u25811990": 6796,
  "\u30d9\u30fc": 6797,
  "\u2581Bu": 6798,
  "\u63a8\u5b9a": 6799,
  "\u2581Bro": 6800,
  "GO": 6801,
  "\u3072\u3068\u3064": 6802,
  "CM": 6803,
  "\u306e\u5909\u66f4": 6804,
  "\u5ca1": 6805,
  "\u306f\u3069\u3046": 6806,
  "\u3092\u611f\u3058": 6807,
  "burg": 6808,
  "\u305f\u3081\u306b\u306f": 6809,
  "\u2581massive": 6810,
  "\u8ee2\u9001": 6811,
  "\u2581fund": 6812,
  "\u539a": 6813,
  "\u306f\u307e\u305f": 6814,
  "own": 6815,
  "\u2581angle": 6816,
  "\u4e00\u65b9\u3067": 6817,
  "ale": 6818,
  "\u98db\u884c\u6a5f": 6819,
  "\u5408\u308f\u305b": 6820,
  "JS": 6821,
  "Ca": 6822,
  "\u652f\u914d": 6823,
  "\u306b\u5411\u3051\u308b": 6824,
  "\u2581\u3044\u3044": 6825,
  "\u2581spec": 6826,
  "\u2581examples": 6827,
  "rea": 6828,
  "\u7121\u6599\u3067": 6829,
  "\u30dc\u30fc\u30c8": 6830,
  "\u2581Force": 6831,
  "\u2581fruit": 6832,
  "\u640d\u5931": 6833,
  "\u304b\u3089\u3060": 6834,
  "\u2581delivered": 6835,
  "\u2581hack": 6836,
  "62": 6837,
  "\u7b56": 6838,
  "\u59cb\u3081\u305f": 6839,
  "\u2581Scrum": 6840,
  "\u5371\u6a5f": 6841,
  "\u6539\u9769": 6842,
  "\u2581guys": 6843,
  "\u2581treat": 6844,
  "\u2581Council": 6845,
  "\u30e1\u30ad\u30b7\u30b3": 6846,
  "\u2581computing": 6847,
  "\u306e\u4e0b\u3067": 6848,
  "52": 6849,
  "\u2581zone": 6850,
  "\u2581Castle": 6851,
  "link": 6852,
  "\u305d\u306e\u307e\u307e": 6853,
  "\u2581Paul": 6854,
  "wood": 6855,
  "\u2581insurance": 6856,
  "\u30a4\u30f3\u30b9\u30bf\u30f3\u30b9": 6857,
  "\u793e\u5185": 6858,
  "\u6d77\u5cb8": 6859,
  "EP": 6860,
  "\u9003\u3052": 6861,
  "osis": 6862,
  "MB": 6863,
  "\u5909\u52d5": 6864,
  "\u7ae0": 6865,
  "\u8a66\u5408": 6866,
  "\u5217\u8eca": 6867,
  "88": 6868,
  "\u2581theme": 6869,
  "\u8840\u6db2": 6870,
  "\u2581border": 6871,
  "\u30d3\u30fc\u30eb": 6872,
  "\u2581organic": 6873,
  "\u9023\u643a": 6874,
  "\u4ef2\u9593": 6875,
  "\u90fd": 6876,
  "\u2581England": 6877,
  "\u2581specifically": 6878,
  "SD": 6879,
  "\u4f50": 6880,
  "ass": 6881,
  "\u5b66\u7684": 6882,
  "\u4e00\u4f53": 6883,
  "ments": 6884,
  "\u2581SQL": 6885,
  "\u2581URL": 6886,
  "\u2581Cho": 6887,
  "\u2581equal": 6888,
  "\u306a\u3069\u3067": 6889,
  "\u30a4\u30f3\u30c1": 6890,
  "\u2581Through": 6891,
  "\u2581Francisco": 6892,
  "\u5efa": 6893,
  "\u98df\u3079\u7269": 6894,
  "\u53e4\u4ee3": 6895,
  "\u2581confirm": 6896,
  "\u307b": 6897,
  "\u5727\u7e2e": 6898,
  "\u640d\u50b7": 6899,
  "\u898b\u3048\u308b": 6900,
  "bs": 6901,
  "\u58f2\u308a": 6902,
  "\u306b\u3042\u3063\u305f": 6903,
  "\u516d": 6904,
  "\u2581flag": 6905,
  "\u2581truth": 6906,
  "\u3057\u306a\u3051\u308c\u3070\u306a\u3089\u306a\u3044": 6907,
  "\u2581Instagram": 6908,
  "\u306a\u3063\u305f": 6909,
  "\u88c1\u5224\u6240": 6910,
  "\u2581implemented": 6911,
  "vin": 6912,
  "shima": 6913,
  "\u2581Board": 6914,
  "\u2581100%": 6915,
  "\u308d\u3046": 6916,
  "St": 6917,
  "\u2581carrying": 6918,
  "ban": 6919,
  "illa": 6920,
  "har": 6921,
  "\u2581accurate": 6922,
  "\u2581participate": 6923,
  "test": 6924,
  "\u2581seek": 6925,
  "\u30e2\u30fc\u30bf\u30fc": 6926,
  "\u30c1\u30b1\u30c3\u30c8": 6927,
  "As": 6928,
  "\u2581recorded": 6929,
  "\u7cfb\u306e": 6930,
  "\u306e\u63d0\u4f9b": 6931,
  "\u7236\u89aa": 6932,
  "\u5dde\u306e": 6933,
  "Spring": 6934,
  "\u2581husband": 6935,
  "\u4f11": 6936,
  "\u2581aspects": 6937,
  "\u2581grass": 6938,
  "\u306e\u3067\u3059\u304b": 6939,
  "FT": 6940,
  "tr": 6941,
  "You": 6942,
  "\u4fdd\u6301": 6943,
  "\u306e\u8a2d\u5b9a": 6944,
  "\u2581\u3060\u304c": 6945,
  "\u2581fundamental": 6946,
  "\u6761\u7d04": 6947,
  "\u2581goals": 6948,
  "\u51fa\u3066": 6949,
  "\u2581ISO": 6950,
  "\u30b3\u30fc\u30c8": 6951,
  "\u2581manufacture": 6952,
  "\u6319\u3052": 6953,
  "\u2581\u4e16\u754c": 6954,
  "kawa": 6955,
  "\u2581nine": 6956,
  "\u2581fix": 6957,
  "\u507d": 6958,
  "\u305f\u3063\u305f": 6959,
  "\u2581\u30ab": 6960,
  "\u2581competitive": 6961,
  "\u2581planned": 6962,
  "TT": 6963,
  "CL": 6964,
  "\u2581cheap": 6965,
  "\u6765\u308b": 6966,
  "ette": 6967,
  "\u307e\u308c": 6968,
  "\u306e\u524d\u306b": 6969,
  "\u2581east": 6970,
  "\u306e\u524d": 6971,
  "\u7b97": 6972,
  "\u2581engineer": 6973,
  "\u2581industries": 6974,
  "EE": 6975,
  "\u51fa\u767a": 6976,
  "\u6b63\u78ba\u306a": 6977,
  "\u306e\u60c5\u5831": 6978,
  "tel": 6979,
  "\u2581Trans": 6980,
  "\u30bf\u30eb": 6981,
  "\u2581\u5f7c\u304c": 6982,
  "\u9178\u7d20": 6983,
  "\u8a18\u5ff5": 6984,
  "\u2581recommended": 6985,
  "\u4fdd\u7ba1": 6986,
  "\u2581accuracy": 6987,
  "\u2581helped": 6988,
  "\u30ec\u30c3\u30c8": 6989,
  "\u6291\u5236": 6990,
  "\u305d\u3053": 6991,
  "\u2581determined": 6992,
  "\u300d\u3001\u300c": 6993,
  "\u2581\u5f53\u793e\u306e": 6994,
  "era": 6995,
  "cm": 6996,
  "\u2581explained": 6997,
  "\u767b\u5834": 6998,
  "\u2581Connect": 6999,
  "\u5247": 7000,
  "42": 7001,
  "\u30e9\u30eb": 7002,
  "\u61f8\u5ff5": 7003,
  "\u9ad8\u5ea6": 7004,
  "\u2581Their": 7005,
  "\u2581records": 7006,
  "\u4f5c\u5bb6": 7007,
  "chan": 7008,
  "\u306e\u5f79\u5272": 7009,
  "\u85e9": 7010,
  "\u2581James": 7011,
  "\u6b62\u3081": 7012,
  "\u30bf\u30a4\u30c8\u30eb": 7013,
  "\u3092\u63d0\u4f9b\u3059\u308b\u3053\u3068": 7014,
  "\u3082\u306e\u304c": 7015,
  "\u306e\u6700\u521d\u306e": 7016,
  "\u4e16\u4ee3": 7017,
  "part": 7018,
  "\u2581Prime": 7019,
  "\u2581grand": 7020,
  "\u4eca\u56de": 7021,
  "\u970a": 7022,
  "\u767e": 7023,
  "\u65b0\u6a5f\u80fd": 7024,
  "\u2581Article": 7025,
  "\u2581conflict": 7026,
  "tz": 7027,
  "\u30ec\u30fc\u30b7\u30e7\u30f3": 7028,
  "\u2581lady": 7029,
  "\u306b\u306a\u308b\u3068": 7030,
  "\u8ecc\u9053": 7031,
  "\u4e0d\u6b63": 7032,
  "\u30d9\u30a4": 7033,
  "\u2581root": 7034,
  "\u2581Tu": 7035,
  "\u6b73\u306e": 7036,
  "\u30ad\u30e3\u30f3\u30da\u30fc\u30f3": 7037,
  "\u4eba\u6750": 7038,
  "\u2581reservation": 7039,
  "\u6697": 7040,
  "\u9664\u53bb": 7041,
  "\u2581Los": 7042,
  "\u3093\u3067\u3044\u308b": 7043,
  "\u2581Ministry": 7044,
  "\u306e\u4e0b": 7045,
  "\u30b9\u30c8\u30ea\u30fc\u30e0": 7046,
  "\u2581blow": 7047,
  "\u52c9\u5f37": 7048,
  "\u51ac": 7049,
  "\u6280\u8853\u3092": 7050,
  "\u2581bringing": 7051,
  "\u6d3b\u8e8d": 7052,
  "\u4fee\u7406": 7053,
  "This": 7054,
  "\u81ea\u4f53": 7055,
  "eng": 7056,
  "\u5370\u8c61": 7057,
  "col": 7058,
  "\u2581believed": 7059,
  "\u30ca\u30f3": 7060,
  "\u2581Royal": 7061,
  "\u2581aims": 7062,
  "\u2581graph": 7063,
  "\u642d\u8f09": 7064,
  "\u2581experienced": 7065,
  "\u52d9": 7066,
  "\u2581detection": 7067,
  "\u88ab": 7068,
  "\u8003\u3048\u3066": 7069,
  "\u5bb9\u91cf": 7070,
  "\u30c7\u30d7\u30ed\u30a4": 7071,
  "\u2581editor": 7072,
  "\u5730\u5143\u306e": 7073,
  "\u2581destination": 7074,
  "\u3093\u3060\u3088": 7075,
  "\u30b7\u30df\u30e5\u30ec\u30fc\u30b7\u30e7\u30f3": 7076,
  "\u3092\u898b\u3064\u3051": 7077,
  "BE": 7078,
  "\u2581session": 7079,
  "\u8a31": 7080,
  "\u2581capture": 7081,
  "\u3063\u3068": 7082,
  "\u6eb6": 7083,
  "\u2581meant": 7084,
  "\u2581audit": 7085,
  "\u7d71\u8a08": 7086,
  "\u304c\u3053\u306e": 7087,
  "\u2581Next": 7088,
  "js": 7089,
  "\u3055\u306a\u3044": 7090,
  "\u6700\u65b0": 7091,
  "\u4ee5\u524d": 7092,
  "\u9700\u8981": 7093,
  "\u9999": 7094,
  "\u2581wouldn": 7095,
  "\u305d\u3093\u306a": 7096,
  "\u2581guarantee": 7097,
  "\u816b\u760d": 7098,
  "\u306f\u305a": 7099,
  "\u83ef": 7100,
  "\u2581Sen": 7101,
  "\u77f3\u6cb9": 7102,
  "\u30b9\u30c8\u30fc\u30ea\u30fc": 7103,
  "\u2581lets": 7104,
  "\u2581rates": 7105,
  "\u2581formation": 7106,
  "\u591a\u69d8\u306a": 7107,
  "\u2581putting": 7108,
  "\u5207\u308c": 7109,
  "\u2581links": 7110,
  "\u2581scientific": 7111,
  "\u2581uniform": 7112,
  "\u2581possibility": 7113,
  "\u898f\u5b9a": 7114,
  "\u2581Back": 7115,
  "\u304b\u3051": 7116,
  "\u2581Plus": 7117,
  "IM": 7118,
  "\u2581dinner": 7119,
  "\u7c73\u56fd\u306e": 7120,
  "\u2581income": 7121,
  "\u2581Express": 7122,
  "\u9774": 7123,
  "HD": 7124,
  "\u6c7a": 7125,
  "\u2581visitors": 7126,
  "\u306b\u95a2\u3057\u3066\u306f": 7127,
  "zy": 7128,
  "\u51fa\u7248": 7129,
  "\u2581pe": 7130,
  "\u624b\u9806": 7131,
  "Li": 7132,
  "\u306e\u591a\u304f\u306f": 7133,
  "\u2581worry": 7134,
  "\u2581west": 7135,
  "cro": 7136,
  "bed": 7137,
  "\u4eee\u60f3": 7138,
  "\u6ca1": 7139,
  "\u2581resolution": 7140,
  "\u8c4a\u304b\u306a": 7141,
  "\u2581Ab": 7142,
  "\u306b\u3042\u308a": 7143,
  "\u4f55\u3082": 7144,
  "\u30b4\u30fc": 7145,
  "lab": 7146,
  "\u30d7\u30ea\u30f3\u30c8": 7147,
  "\u6700\u521d": 7148,
  "\u88c5": 7149,
  "\u2581sounds": 7150,
  "\u3088\u3046\u3068": 7151,
  "One": 7152,
  "\u30b5\u30fc\u30d3\u30b9\u306f": 7153,
  "\u30e1\u30f3\u30c8": 7154,
  "IA": 7155,
  "\u6574": 7156,
  "\u2581ratio": 7157,
  "\u2581representative": 7158,
  "\u2581Conference": 7159,
  "PT": 7160,
  "\u2581da": 7161,
  "\u4fc3\u9032": 7162,
  "\u57df": 7163,
  "\u5f7c\u3089": 7164,
  "\u2581proper": 7165,
  "\u2581Effect": 7166,
  "\u2581salt": 7167,
  "\u8cb4": 7168,
  "\u90e8\u306e": 7169,
  "\u2581perhaps": 7170,
  "\u308b\u3079\u304d": 7171,
  "\u2581suppliers": 7172,
  "\u2581discuss": 7173,
  "\u2581SA": 7174,
  "\u2581Book": 7175,
  "\u2581college": 7176,
  "\u2581transaction": 7177,
  "\u30bf\u30d6": 7178,
  "\u30b7\u30fc\u30f3": 7179,
  "\u2581Video": 7180,
  "war": 7181,
  "\u2581trend": 7182,
  "ates": 7183,
  "\u60f3\u50cf": 7184,
  "\u2581provider": 7185,
  "Japanese": 7186,
  "\u30b5\u30a4\u30af\u30eb": 7187,
  "\u767a\u660e": 7188,
  "\u5909\u6570": 7189,
  "\u2581collected": 7190,
  "\u3044\u3046": 7191,
  "\u2581creative": 7192,
  "\u2581starts": 7193,
  "\u2581mono": 7194,
  "\u30dc\u30fc": 7195,
  "\u2581replace": 7196,
  "\u2581Land": 7197,
  "\u2581noted": 7198,
  "51": 7199,
  "long": 7200,
  "\u4e00\u65b9": 7201,
  "\u65e5\u9593": 7202,
  "\u2581\u3054": 7203,
  "\u30a6\u30a3\u30f3": 7204,
  "\u8abf\u7bc0": 7205,
  "\u3092\u306f\u3058\u3081": 7206,
  "\u30d0\u30c3\u30af\u30a2\u30c3\u30d7": 7207,
  "\u30cd\u30a4\u30c6\u30a3\u30d6": 7208,
  "ville": 7209,
  "\u2581tomorrow": 7210,
  "\u5f7c\u3089\u304c": 7211,
  "\u2581labor": 7212,
  "\u8a71\u984c": 7213,
  "\u2581jobs": 7214,
  "\u67f1": 7215,
  "\u3057\u3066\u304f\u308c\u308b": 7216,
  "\u51fa\u8eab\u306e": 7217,
  "\u3092\u63d0\u4f9b": 7218,
  "\u2581mu": 7219,
  "\u2581SDK": 7220,
  "\u5f7c\u306b": 7221,
  "\u30b7\u30e7\u30c3\u30d7": 7222,
  "\u898b\u3048": 7223,
  "RC": 7224,
  "\u30a2\u30d7\u30ea\u30b1\u30fc\u30b7\u30e7\u30f3\u3092": 7225,
  "\u3044\u3064\u3067\u3082": 7226,
  "\u2581severe": 7227,
  "\u30b0\u30eb\u30fc\u30d7\u306f": 7228,
  "\u30e1\u30f3\u30c6\u30ca\u30f3\u30b9": 7229,
  "\u2581category": 7230,
  "\u2581bomb": 7231,
  "SH": 7232,
  "\u2581label": 7233,
  "\u30ad\u30e3\u30c3\u30b7\u30e5": 7234,
  "\u3042\u3068": 7235,
  "000": 7236,
  "\u3053\u3061\u3089": 7237,
  "\u5341\u5206\u306b": 7238,
  "\u30b8\u30e3\u30fc": 7239,
  "\u2581fan": 7240,
  "\u7b2c\u4e8c": 7241,
  "put": 7242,
  "\u653f\u6a29": 7243,
  "\u2581coast": 7244,
  "\u3053\u305d": 7245,
  "cl": 7246,
  "54": 7247,
  "\u2581Framework": 7248,
  "\u2581George": 7249,
  "\u306e\u5834\u5408\u306f": 7250,
  "\u672c\u793e": 7251,
  "\u6e7f": 7252,
  "\u258170": 7253,
  "\u2581environments": 7254,
  "\u2581swimming": 7255,
  "\u7565": 7256,
  "\u2581senior": 7257,
  "\u2581listed": 7258,
  "\u2581artificial": 7259,
  "\u66ff\u3048": 7260,
  "\u601d\u3046": 7261,
  "\u304a\u554f\u3044\u5408\u308f\u305b": 7262,
  "\u2581haven": 7263,
  "\u691c": 7264,
  "\u2581cleaning": 7265,
  "\u2581achieved": 7266,
  "\u2581otherwise": 7267,
  "\u306b\u5bfe\u5fdc": 7268,
  "1%": 7269,
  "\u4fee": 7270,
  "tile": 7271,
  "\u2581concentration": 7272,
  "\u2581leaders": 7273,
  "\u2581intelligence": 7274,
  "\u2581Energy": 7275,
  "\u2581god": 7276,
  "\u2581budget": 7277,
  "\u3092\u5b9f\u884c\u3059\u308b": 7278,
  "\u30a4\u30fc": 7279,
  "\u96f2": 7280,
  "pri": 7281,
  "\u2581accordance": 7282,
  "gn": 7283,
  "\u2581Engineering": 7284,
  "\u304c\u9ad8\u3044": 7285,
  "\u30bf\u30c3\u30c1": 7286,
  "\u2581virus": 7287,
  "\u2581ticket": 7288,
  "\u30ef\u30b7\u30f3\u30c8\u30f3": 7289,
  "57": 7290,
  "\u9593\u9055\u3044": 7291,
  "pr": 7292,
  "\u2581su": 7293,
  "\u3092\u4f5c\u6210\u3057": 7294,
  "\u2581Battle": 7295,
  "\u30dd\u30f3\u30d7": 7296,
  "\u30ad\u30c3\u30c1\u30f3": 7297,
  "\u7b2c\u4e09\u8005": 7298,
  "\u4e45": 7299,
  "\u2581claims": 7300,
  "\u2581\u3042": 7301,
  "\u9023\u5408": 7302,
  "\u2581Party": 7303,
  "\u2581fe": 7304,
  "\u2581keeping": 7305,
  "DNA": 7306,
  "\u523a": 7307,
  "\u2581telephone": 7308,
  "ius": 7309,
  "\u3050\u3089\u3044": 7310,
  "\u2581detect": 7311,
  "\u2581HD": 7312,
  "\u57fa\u790e": 7313,
  "\u6b69": 7314,
  "\u2581Steel": 7315,
  "\u304c\u305d\u306e": 7316,
  "pos": 7317,
  "\u30ea\u30fc\u30c9": 7318,
  "\u2581Key": 7319,
  "Bo": 7320,
  "\u30d5\u30e9": 7321,
  "\u3092\u5229\u7528\u3057\u305f": 7322,
  "\u30c0\u30d6\u30eb": 7323,
  "\u7acb\u3066": 7324,
  "\u5f53\u305f\u308a": 7325,
  "non": 7326,
  "\u7528\u306b": 7327,
  "\u5929\u7136": 7328,
  "\u2581flexible": 7329,
  "\u2581attached": 7330,
  "\u3092\u53d7\u3051\u3066": 7331,
  "\u30c1\u30e3\u30f3\u30cd\u30eb": 7332,
  "\u5012": 7333,
  "\u2581significantly": 7334,
  "\u5fc3\u81d3": 7335,
  "\u3001\u201c": 7336,
  "\u8ffd\u8de1": 7337,
  "ink": 7338,
  "\u3092\u5b9f\u73fe\u3059\u308b": 7339,
  "\u258190": 7340,
  "gue": 7341,
  "\u5bcc": 7342,
  "\u2581holds": 7343,
  "\u2581comprehensive": 7344,
  "\u2581founder": 7345,
  "\u2581honor": 7346,
  "\u306a\u3051\u308c\u3070\u306a\u308a\u307e\u305b\u3093": 7347,
  "\u60f3": 7348,
  "\u2581ja": 7349,
  "\u2581Food": 7350,
  "\u53ef\u80fd\u6027\u304c\u3042\u308a\u307e\u3059": 7351,
  "\u30d0\u30c3\u30b0": 7352,
  "\u2581Process": 7353,
  "\u9ed2\u3044": 7354,
  "cker": 7355,
  "\u2581bear": 7356,
  "\u258129": 7357,
  "\u8fd1\u3044": 7358,
  "\u304b\u3092": 7359,
  "cri": 7360,
  "\u76d7": 7361,
  "\u4f7f\u308f\u308c": 7362,
  "\u539f\u6599": 7363,
  "\u53ce\u5165": 7364,
  "\u3092\u4f7f\u7528\u3057\u305f": 7365,
  "\u2581College": 7366,
  "\u6a5f\u80fd\u306f": 7367,
  "\u2581dr": 7368,
  "\u59cb\u3081\u308b": 7369,
  "dar": 7370,
  "\u30d7\u30ed\u30d1\u30c6\u30a3": 7371,
  "Ha": 7372,
  "\u30a6\u30b9": 7373,
  "run": 7374,
  "ida": 7375,
  "\u2581infection": 7376,
  "\u3092\u884c\u3063\u3066\u3044\u307e\u3059": 7377,
  "\u70ad\u7d20": 7378,
  "\u9999\u6e2f": 7379,
  "\u2581valve": 7380,
  "\u2581Film": 7381,
  "\u7d9a\u304f": 7382,
  "\u5f53\u6642": 7383,
  "\u2581forget": 7384,
  "\u3092\u5b9f\u884c": 7385,
  "\u25812002": 7386,
  "59": 7387,
  "\u4e0d\u5b89": 7388,
  "\u2581Republic": 7389,
  "\u2581consists": 7390,
  "verse": 7391,
  "\u2581Flash": 7392,
  "\u304b\u308c": 7393,
  "\u2581beta": 7394,
  "\u2581Language": 7395,
  "\u2581wild": 7396,
  "cess": 7397,
  "HTML": 7398,
  "\u8005\u306b": 7399,
  "\u7c92": 7400,
  "\u2581resulting": 7401,
  "\u307e\u3063\u305f\u304f": 7402,
  "\u2581concert": 7403,
  "por": 7404,
  "\u72af\u7f6a": 7405,
  "\u640d\u5bb3": 7406,
  "\u30b7\u30a7": 7407,
  "ET": 7408,
  "\u5bfe\u8a71": 7409,
  "\u2581nation": 7410,
  "\u2581websites": 7411,
  "\u5834\u6240\u306b": 7412,
  "\u8cc7\u683c": 7413,
  "\u6c5a\u67d3": 7414,
  "\u96f0\u56f2\u6c17": 7415,
  "\u2581IDE": 7416,
  "\u7af6\u6280": 7417,
  "\u2581plug": 7418,
  "\u307e\u3068\u3081": 7419,
  "\u2581computers": 7420,
  "\u2581\u5f7c": 7421,
  "\u4f55\u304c": 7422,
  "tim": 7423,
  "dan": 7424,
  "temp": 7425,
  "\u2581fly": 7426,
  "\u30c1\u30e3\u30f3\u30b9": 7427,
  "\u30b9\u30ad\u30e3\u30f3": 7428,
  "\u30c7\u30a4": 7429,
  "\u56de\u7b54": 7430,
  "\u6574\u5099": 7431,
  "3%": 7432,
  "\u30ea\u30a2\u30eb\u30bf\u30a4\u30e0": 7433,
  "\u2581Public": 7434,
  "\u2581aware": 7435,
  "ook": 7436,
  "\u2581\u3042\u3042": 7437,
  "\u6700\u9069\u306a": 7438,
  "\u2581Bra": 7439,
  "\u7f8e\u8853": 7440,
  "gel": 7441,
  "76": 7442,
  "\u3067\u3042\u308d\u3046": 7443,
  "\u2581\u3061\u3087\u3063\u3068": 7444,
  "\u4e0b\u3052": 7445,
  "\u307e\u308b": 7446,
  "\u2581gear": 7447,
  "\u4e3b\u8981": 7448,
  "\u2581miles": 7449,
  "\u5206\u304b\u308b": 7450,
  "\u5e81": 7451,
  "\u958b\u767a\u8005\u306f": 7452,
  "\u4f9d\u5b58": 7453,
  "\u25811980": 7454,
  "\u5dfb\u304d": 7455,
  "\u30b9\u30c8\u30ea\u30fc\u30c8": 7456,
  "\u2581discussion": 7457,
  "\u5916\u56fd": 7458,
  "\u8acb\u6c42": 7459,
  "\u4f4e\u4e0b": 7460,
  "\u2581producing": 7461,
  "\u2581\u6700\u521d\u306e": 7462,
  "\u7d99\u7d9a": 7463,
  "\u5bff\u547d": 7464,
  "\u6298": 7465,
  "rated": 7466,
  "\u2581slightly": 7467,
  "\u2581supposed": 7468,
  "\u306b\u30a2\u30af\u30bb\u30b9": 7469,
  "\u2581boys": 7470,
  "\u96c6\u5408": 7471,
  "\u2581principles": 7472,
  "\u30ed\u30b0\u30a4\u30f3": 7473,
  "NE": 7474,
  "\u2581Human": 7475,
  "\u305b\u305a": 7476,
  "\u81ea\u3089": 7477,
  "\u2581manual": 7478,
  "\u2581USB": 7479,
  "\u2581observe": 7480,
  "\u5b9f\u7e3e": 7481,
  "\u2581Yo": 7482,
  "\u30fc\u30b7\u30e7\u30f3": 7483,
  "lor": 7484,
  "\u2581seal": 7485,
  "\u2581sequence": 7486,
  "FS": 7487,
  "\u2581Real": 7488,
  "\u7684\u3067": 7489,
  "\u2581reducing": 7490,
  "\u56fd\u7acb": 7491,
  "sei": 7492,
  "\u2581fell": 7493,
  "\u30b9\u30c8\u30ec\u30b9": 7494,
  "\u2581Taiwan": 7495,
  "\u3057\u3088\u3046\u3068": 7496,
  "\u2581introduction": 7497,
  "\u8ecd\u4e8b": 7498,
  "\u6804\u990a": 7499,
  "\u2581pin": 7500,
  "\u7591\u554f": 7501,
  "\u7db2": 7502,
  "\u8abf\u9054": 7503,
  "\u4e21\u89aa": 7504,
  "\u3048\u3066": 7505,
  "\u2581Where": 7506,
  "\u2581stack": 7507,
  "itch": 7508,
  "\u9175\u7d20": 7509,
  "\u2581Area": 7510,
  "\u2581cluster": 7511,
  "\u2581hyper": 7512,
  "\u9032\u6b69": 7513,
  "ulation": 7514,
  "\u2581Manager": 7515,
  "\u2581Card": 7516,
  "\u6642\u9593\u304c": 7517,
  "LAN": 7518,
  "\u6c17\u304c": 7519,
  "\u2581\u4eca\u56de\u306e": 7520,
  "\u2581ones": 7521,
  "meter": 7522,
  "\u2581registration": 7523,
  "\u7269\u3092": 7524,
  "\u304b\u3082": 7525,
  "\u2581availability": 7526,
  "\u5ec3": 7527,
  "\u2581Op": 7528,
  "\u2581Top": 7529,
  "\u2581forced": 7530,
  "\u30ea\u30e2\u30fc\u30c8": 7531,
  "\u751f\u7523\u6027": 7532,
  "So": 7533,
  "\u30b7\u30b9\u30c6\u30e0\u3092": 7534,
  "\u7537\u306e\u5b50": 7535,
  "pped": 7536,
  "\u2581ceremony": 7537,
  "ctor": 7538,
  "\u2581studied": 7539,
  "\u4e00\u3064\u306e": 7540,
  "sky": 7541,
  "\u30a2\u30c3\u30d7\u30b0\u30ec\u30fc\u30c9": 7542,
  "\u30d5\u30a1\u30c3\u30b7\u30e7\u30f3": 7543,
  "\u2581na": 7544,
  "\u2581User": 7545,
  "\u30ed\u30b4": 7546,
  "stone": 7547,
  "cra": 7548,
  "\u30c7\u30d9\u30ed\u30c3\u30d1\u30fc": 7549,
  "cut": 7550,
  "\u2581\u4eba\u306b": 7551,
  "\u2581tab": 7552,
  "2%": 7553,
  "sure": 7554,
  "SO": 7555,
  "\u5f53\u7136": 7556,
  "\u2581mix": 7557,
  "\u2581church": 7558,
  "\u3067\u304d\u308b\u3053\u3068": 7559,
  "\u25812001": 7560,
  "\u2581hell": 7561,
  "\u2581Click": 7562,
  "\u2581pure": 7563,
  "\u304c\u3044\u308b": 7564,
  "\u2581Year": 7565,
  "Ba": 7566,
  "\u79c1\u9054\u306e": 7567,
  "\u8d77\u52d5": 7568,
  "uro": 7569,
  "\u304f\u308c": 7570,
  "\u2581Nu": 7571,
  "\u2581Special": 7572,
  "\u2581Good": 7573,
  "\u2581permission": 7574,
  "\u2581roof": 7575,
  "\u4e8b\u52d9\u6240": 7576,
  "\u2581bottle": 7577,
  "\u2581ingredients": 7578,
  "\u2581regard": 7579,
  "\u2581constant": 7580,
  "\u306b\u304a": 7581,
  "\u306e\u7d4c\u9a13": 7582,
  "\u53f0\u6e7e": 7583,
  "\u6e6f": 7584,
  "cept": 7585,
  "\u2581compete": 7586,
  "\u30a2\u30af\u30c6\u30a3\u30d6": 7587,
  "\u4e88\u7b97": 7588,
  "\u2581opinion": 7589,
  "\u88fd\u54c1\u306f": 7590,
  "\u5275\u9020": 7591,
  "\u2581certainly": 7592,
  "screen": 7593,
  "\u2581\u541b": 7594,
  "\u2581\u30a8": 7595,
  "cr": 7596,
  "\u30db\u30fc": 7597,
  "\u81ea\u7531\u306b": 7598,
  "\u306b\u8fd1\u3044": 7599,
  "\u95a2\u7bc0": 7600,
  "\u30a4\u30ce\u30d9\u30fc\u30b7\u30e7\u30f3": 7601,
  "VM": 7602,
  "aries": 7603,
  "cc": 7604,
  "\u5965": 7605,
  "\u5b89\u5168\u306a": 7606,
  "\u30d6\u30e9\u30b8\u30eb": 7607,
  "\u306b\u53c2\u52a0": 7608,
  "\u2581ski": 7609,
  "\u521d\u671f\u306e": 7610,
  "ora": 7611,
  "\u3068\u3057\u3066\u3044\u308b": 7612,
  "\u2581Italy": 7613,
  "AD": 7614,
  "\u901a\u8ca8": 7615,
  "\u2581Government": 7616,
  "\u4f5c\u3063\u305f": 7617,
  "\u2581Best": 7618,
  "\u68d2": 7619,
  "ii": 7620,
  "\u2581murder": 7621,
  "\u2581soil": 7622,
  "\u30b9\u30b1\u30b8\u30e5\u30fc\u30eb": 7623,
  "CH": 7624,
  "\u30ed\u30b9": 7625,
  "\u30b9\u30b1\u30fc\u30eb": 7626,
  "\u7d50\u3073": 7627,
  "\u53c2": 7628,
  "\u2581lunch": 7629,
  "rum": 7630,
  "\u2581newspaper": 7631,
  "cip": 7632,
  "\u2581judge": 7633,
  "\u91cf\u306e": 7634,
  "\u79fb": 7635,
  "IO": 7636,
  "\u30b9\u30d1\u30a4": 7637,
  "\u2581Singapore": 7638,
  "\u2581Shrine": 7639,
  "\u306e\u9055\u3044": 7640,
  "\u2581recognize": 7641,
  "96": 7642,
  "\u3064\u3044\u305f": 7643,
  "\u2581bought": 7644,
  "\u30d5\u30a3\u30eb\u30bf\u30fc": 7645,
  "\u8907\u96d1": 7646,
  "\u78c1\u6c17": 7647,
  "phone": 7648,
  "\u4f1d\u7d71": 7649,
  "\u8178": 7650,
  "\u30f4\u30a7": 7651,
  "made": 7652,
  "\u2581camp": 7653,
  "\u5206\u91ce\u3067": 7654,
  "\u2581rapid": 7655,
  "\u63d0\u4f9b\u3059\u308b": 7656,
  "\u56f3\u66f8\u9928": 7657,
  "\u6a29\u9650": 7658,
  "PDF": 7659,
  "Open": 7660,
  "_{": 7661,
  "\u30df\u30f3\u30b0": 7662,
  "\u2581newly": 7663,
  "DM": 7664,
  "\u2581operated": 7665,
  "\u2581Wa": 7666,
  "\u30a2\u30c3\u30d7\u30ed\u30fc\u30c9": 7667,
  "\u2581TO": 7668,
  "98": 7669,
  "\u2581Multi": 7670,
  "site": 7671,
  "\u2581crystal": 7672,
  "\u306b\u57fa\u3065\u304d": 7673,
  "\u591a\u6570": 7674,
  "\u306b\u3082\u304b\u304b\u308f\u3089\u305a": 7675,
  "\u9996\u76f8": 7676,
  "\u307e\u3059\u304b": 7677,
  "yn": 7678,
  "\u62bd\u51fa": 7679,
  "\u305f\u3061\u306e": 7680,
  "\u3089\u305a": 7681,
  "\u306e\u9593\u3067": 7682,
  "\u6388\u696d": 7683,
  "\u30d5\u30a9\u30fc\u30c9": 7684,
  "\u5357\u90e8": 7685,
  "\u306a\u3069\u306b": 7686,
  "\u2581lighting": 7687,
  "\u2581craft": 7688,
  "\u2581officer": 7689,
  "\u5bbf\u6cca": 7690,
  "ye": 7691,
  "ese": 7692,
  "\u4f01\u696d\u306f": 7693,
  "\u2581structures": 7694,
  "\u629c": 7695,
  "\u75db\u307f": 7696,
  "cial": 7697,
  "\u5ff5": 7698,
  "{": 7699,
  "\u50cd\u304f": 7700,
  "\u3092\u77e5\u308b": 7701,
  "\u5316\u5408\u7269": 7702,
  "\u4ee3\u66ff": 7703,
  "gent": 7704,
  "\u809d": 7705,
  "struct": 7706,
  "ford": 7707,
  "\u2581transform": 7708,
  "Jo": 7709,
  "SUB": 7710,
  "\u4e8b\u3092": 7711,
  "\u30a8\u30a4": 7712,
  "\u2581signed": 7713,
  "\u5207\u65ad": 7714,
  "\u2581parallel": 7715,
  "\u2581Col": 7716,
  "tes": 7717,
  "\u2581upgrade": 7718,
  "roll": 7719,
  "\u2581Policy": 7720,
  "\u2581Kin": 7721,
  "\u30bd\u30fc\u30b7\u30e3\u30eb": 7722,
  "\u6b63\u3057\u304f": 7723,
  "\u2581clinical": 7724,
  "\u3092\u8a2d\u7acb": 7725,
  "\u767a\u8868\u3055\u308c\u305f": 7726,
  "\u3084\u308a\u65b9": 7727,
  "\u8996\u899a": 7728,
  "\u30d7\u30eb": 7729,
  "2012": 7730,
  "Po": 7731,
  "\u2581comp": 7732,
  "\u2581Tra": 7733,
  "\u3059\u308b\u306e\u306b": 7734,
  "\u5144\u5f1f": 7735,
  "\u2581hi": 7736,
  "\u2581Who": 7737,
  "\u2581Ve": 7738,
  "\u2581Pacific": 7739,
  "\u3068\u3055\u308c\u308b": 7740,
  "lim": 7741,
  "01": 7742,
  "\u2581affected": 7743,
  "\u9593\u3067": 7744,
  "vel": 7745,
  "\u51fa\u8377": 7746,
  "TER": 7747,
  "\u2581outdoor": 7748,
  "\u2581emergency": 7749,
  "\u2581films": 7750,
  "\u2581Instead": 7751,
  "\u3068\u3057": 7752,
  "shaped": 7753,
  "\u96fb\u5727": 7754,
  "\u2581accepted": 7755,
  "\u30de\u30a4\u30af\u30ed\u30b5\u30fc\u30d3\u30b9": 7756,
  "\u30a4\u30f3\u30d5\u30e9": 7757,
  "\u2581encourage": 7758,
  "tre": 7759,
  "\u2581exhibit": 7760,
  "\u5316\u3055\u308c\u305f": 7761,
  "\u3092\u652f\u63f4\u3059\u308b": 7762,
  "GE": 7763,
  "\u4ee4": 7764,
  "\u2581arrived": 7765,
  "duce": 7766,
  "\u2581Cu": 7767,
  "\u82e5\u8005": 7768,
  "\u2581IoT": 7769,
  "\u2581\u541b\u306f": 7770,
  "\u2581king": 7771,
  "\u2581properly": 7772,
  "\u3078\u306e\u30a2\u30af\u30bb\u30b9": 7773,
  "\u898f\u683c": 7774,
  "\u2581impossible": 7775,
  "\u2581Va": 7776,
  "\u30b7\u30e3\u30ef\u30fc": 7777,
  "uring": 7778,
  "\u3059\u308b\u3088\u3046": 7779,
  "\u2581wonder": 7780,
  "ign": 7781,
  "\u821e\u53f0": 7782,
  "\u6e96": 7783,
  "\u610f\u56f3": 7784,
  "\u56e0\u5b50": 7785,
  "\u307e\u305b\u3093\u3067\u3057\u305f": 7786,
  "\u30e9\u30d9\u30eb": 7787,
  "\u30a6\u30a3\u30f3\u30c9\u30a6": 7788,
  "\u63d0\u643a": 7789,
  "\u304c\u3042\u308a\u307e\u3057\u305f": 7790,
  "\u6226\u95d8": 7791,
  "\u2581syn": 7792,
  "\u308b\u3053\u3068\u304c\u3067\u304d\u307e\u3059": 7793,
  "\u3092\u4ecb\u3057\u3066": 7794,
  "\u2581guitar": 7795,
  "\u30a8\u30f3\u30bf\u30fc\u30d7\u30e9\u30a4\u30ba": 7796,
  "\u885d\u7a81": 7797,
  "69": 7798,
  "}}": 7799,
  "\u2581Digital": 7800,
  "\u2581specify": 7801,
  "\u5c06\u8ecd": 7802,
  "\u5144": 7803,
  "2018": 7804,
  "\u2581transformation": 7805,
  "\u7528\u8a9e": 7806,
  "\u2581principle": 7807,
  "\u8457\u4f5c\u6a29": 7808,
  "zz": 7809,
  "2014": 7810,
  "\u2581priest": 7811,
  "\u53f8": 7812,
  "\u652f": 7813,
  "\u2581engaged": 7814,
  "\u2581controlled": 7815,
  "\u2581communities": 7816,
  "\u4e0d\u52d5\u7523": 7817,
  "\u9769\u547d": 7818,
  "\u9752\u3044": 7819,
  "\u65d7": 7820,
  "\u7dca\u6025": 7821,
  "\u3092\u78ba\u8a8d\u3057": 7822,
  "\u5c4b\u5916": 7823,
  "OC": 7824,
  "150": 7825,
  "script": 7826,
  "\u2581Engine": 7827,
  "\u2581divided": 7828,
  "\u306b\u3068\u3063\u3066\u306f": 7829,
  "\u2581net": 7830,
  "ike": 7831,
  "\u30c7\u30fc": 7832,
  "\u2581alcohol": 7833,
  "5000": 7834,
  "\u2581Before": 7835,
  "\u30b9\u306f": 7836,
  "\u2581\u5f53": 7837,
  "VI": 7838,
  "\u2581ecosystem": 7839,
  "wise": 7840,
  "\u2581zero": 7841,
  "\u653f\u5e9c\u306f": 7842,
  "\u2581seconds": 7843,
  "\u51fa\u6765": 7844,
  "\u2581para": 7845,
  "\u3082\u306e\u3068": 7846,
  "\u2581\u7c73": 7847,
  "\u2581Electric": 7848,
  "\u81f4\u3057\u307e\u3059": 7849,
  "\u306e\u88fd\u9020": 7850,
  "scribe": 7851,
  "lly": 7852,
  "\u30b5\u30a4\u30c8\u306e": 7853,
  "\u6697\u53f7\u5316": 7854,
  "\u2581guess": 7855,
  "\u672c\u306e": 7856,
  "\u2581\u79c1\u9054\u306f": 7857,
  "eo": 7858,
  "\u2581designated": 7859,
  "\u88c5\u98fe": 7860,
  "\u9ad8\u304f": 7861,
  "\u3092\u3054": 7862,
  "\u2581estate": 7863,
  "\u2581Gar": 7864,
  "\u307e\u3055\u306b": 7865,
  "\u3060\u3051\u306e": 7866,
  "\u2581lake": 7867,
  "\u5acc": 7868,
  "\u3042\u306e": 7869,
  "\u2581XML": 7870,
  "\u2581managing": 7871,
  "\u7d99": 7872,
  "\u7d44\u307f": 7873,
  "\u30d0\u30e9\u30f3\u30b9": 7874,
  "\u2212": 7875,
  "\u2581Flow": 7876,
  "\u2581\u7c73\u56fd": 7877,
  "\u904a": 7878,
  "\u3072\u3068\u308a": 7879,
  "\u7206\u767a": 7880,
  "\u30a4\u30eb": 7881,
  "\u93e1": 7882,
  "\u2581concerns": 7883,
  "ani": 7884,
  "\u2581compliance": 7885,
  "\u4fbf\u5229\u306a": 7886,
  "\u4ee5\u524d\u306e": 7887,
  "\u73fe\u72b6": 7888,
  "\u2581truly": 7889,
  "\u2581employee": 7890,
  "\u30ce\u30fc\u30c8": 7891,
  "\u2581\u3057\u304b\u3057\u306a\u304c\u3089": 7892,
  "\u2581imagine": 7893,
  "\u3068\u540c\u69d8\u306b": 7894,
  "\u8a8c": 7895,
  "\u2581teaching": 7896,
  "\u3053\u3068\u304c\u3042\u308a\u307e\u3059": 7897,
  "\u2581rare": 7898,
  "\u5927\u91cf\u306e": 7899,
  "\u958b\u767a\u8005\u304c": 7900,
  "\u2581extract": 7901,
  "\u2581mar": 7902,
  "\u3055\u305b\u308b\u3053\u3068": 7903,
  "\u2581Only": 7904,
  "\u2581hole": 7905,
  "\u2581\u540c\u3058": 7906,
  "tur": 7907,
  "lay": 7908,
  "\u2581locations": 7909,
  "\u304c\u3042\u308c\u3070": 7910,
  "\u2581Ji": 7911,
  "\u6709\u6599": 7912,
  "\u5c31": 7913,
  "\u5e02\u5834\u3067": 7914,
  "\u2581split": 7915,
  "\u811a": 7916,
  "ros": 7917,
  "\u3082\u306e\u306b": 7918,
  "\u7df4\u7fd2": 7919,
  "\u2581shipping": 7920,
  "\u2581typically": 7921,
  "\u2581lots": 7922,
  "\u2581controller": 7923,
  "\u2581strip": 7924,
  "\u2581aluminum": 7925,
  "\u30b7\u30f3\u30ac\u30dd\u30fc\u30eb": 7926,
  "\u2581Four": 7927,
  "\u2581busy": 7928,
  "gawa": 7929,
  "\u6570\u5b66": 7930,
  "\u6c88": 7931,
  "\u81ea\u5206\u81ea\u8eab": 7932,
  "\u2581shower": 7933,
  "\u8a71\u3057": 7934,
  "\u30c6\u30eb": 7935,
  "\u3055\u3089\u306a\u308b": 7936,
  "2013": 7937,
  "\u2581streaming": 7938,
  "\u3066\u3044\u3066": 7939,
  "\u2581conventional": 7940,
  "\u4e57\u308a": 7941,
  "\u2581ads": 7942,
  "ute": 7943,
  "\u2581therapy": 7944,
  "\u95b2\u89a7": 7945,
  "\u2581@": 7946,
  "\u2581prefer": 7947,
  "\u4f1a\u5834": 7948,
  "\u2581Ed": 7949,
  "\u2581Image": 7950,
  "\u2581Resort": 7951,
  "\u2581minimum": 7952,
  "\u30d5\u30ed\u30f3\u30c8": 7953,
  "Cl": 7954,
  "\u2581curve": 7955,
  "\u51b7\u5374": 7956,
  "\u2581failed": 7957,
  "\u306b\u95a2\u9023\u3059\u308b": 7958,
  "sign": 7959,
  "\u3092\u9632\u3050": 7960,
  "\u30cf\u30f3\u30c9": 7961,
  "\u2581successfully": 7962,
  "\u2581assets": 7963,
  "\u2581disc": 7964,
  "\u2581participants": 7965,
  "\u2581rapidly": 7966,
  "\u30ef\u30fc\u30c9": 7967,
  "\u52d5\u8108": 7968,
  "\u2581OK": 7969,
  "\u4ed8\u3051\u308b": 7970,
  "\u6295\u4e0e": 7971,
  "wel": 7972,
  "\u8feb": 7973,
  "comp": 7974,
  "\u5b50\u3069\u3082\u305f\u3061": 7975,
  "\u2581differences": 7976,
  "&#39;": 7977,
  "\u30c9\u30f3": 7978,
  "\u51b7\u8535\u5eab": 7979,
  "\u30db\u30ef\u30a4\u30c8": 7980,
  "\u30af\u30e9\u30b9\u30bf": 7981,
  "EV": 7982,
  "\u258131": 7983,
  "\u5f01\u8b77\u58eb": 7984,
  "\u30b1\u30a2": 7985,
  "\u2581finding": 7986,
  "\u8fd1\u304f\u306e": 7987,
  "\u6a5f\u306e": 7988,
  "\u2581logic": 7989,
  "\u3057\u3066\u3044\u307e\u3057\u305f": 7990,
  "\u2581Bill": 7991,
  "\u2581decisions": 7992,
  "\u304b\u3064\u3066": 7993,
  "\u6295": 7994,
  "\u2581movies": 7995,
  "\u3092\u898b\u305f": 7996,
  "\u30c1\u30e5": 7997,
  "\u2581dollars": 7998,
  "\u5c0f\u3055\u304f": 7999,
  "mark": 8000,
  "\u2581Exchange": 8001,
  "\u3092\u5909\u3048\u308b": 8002,
  "\u2581journey": 8003,
  "\u306a\u308a\u307e\u3059": 8004,
  "atory": 8005,
  "\u2581laptop": 8006,
  "\u3092\u9078\u629e\u3059\u308b": 8007,
  "\u2581recognized": 8008,
  "\u2581\u73fe\u5728\u306e": 8009,
  "\u91ce\u83dc": 8010,
  "\u2581slide": 8011,
  "\u53cd\u5c04": 8012,
  "\u25812.0": 8013,
  "\u3044\u3066\u3044\u308b": 8014,
  "\u2581br": 8015,
  "\u500b\u3005\u306e": 8016,
  "\u4e2d\u9593": 8017,
  "ult": 8018,
  "ay": 8019,
  "\u6a5f\u80fd\u304c": 8020,
  "\u306e\u5185\u5bb9": 8021,
  "\u2581demo": 8022,
  "2008": 8023,
  "\u6311\u6226": 8024,
  "\u7cd6": 8025,
  "\u2581crime": 8026,
  "\u793c": 8027,
  "\u2581shut": 8028,
  "\u2581kick": 8029,
  "\u2581explains": 8030,
  "Fe": 8031,
  "Data": 8032,
  "\u2581productivity": 8033,
  "\u52e2": 8034,
  "\u2581Hat": 8035,
  "\u2581array": 8036,
  "org": 8037,
  "PP": 8038,
  "GC": 8039,
  "\u767a\u8868\u3057\u305f": 8040,
  "\u3092\u53c2\u7167": 8041,
  "EX": 8042,
  "\u30b0\u30fc\u30b0\u30eb": 8043,
  "\u89e3\u91c8": 8044,
  "\u3065\u304f\u308a": 8045,
  "\u2581Plan": 8046,
  "\u2581Win": 8047,
  "\u3057\u305f\u306e\u306f": 8048,
  "\u30d5\u30ec": 8049,
  "\u5834\u5408\u304c\u3042\u308a\u307e\u3059": 8050,
  "ms": 8051,
  "\u30d9\u30eb\u30c8": 8052,
  "\u2581calendar": 8053,
  "\u2581Domain": 8054,
  "\u2581interior": 8055,
  "\u6bbf": 8056,
  "\u2581sets": 8057,
  "\u666e\u901a": 8058,
  "rie": 8059,
  "\u2581\u5f7c\u5973\u306e": 8060,
  "\u2581whatever": 8061,
  "\u2581throw": 8062,
  "lf": 8063,
  "oli": 8064,
  "\u2581Wall": 8065,
  "\u65e5\u672c\u3067": 8066,
  "\u2581filled": 8067,
  "cap": 8068,
  "\u596a": 8069,
  "\u5f53\u6642\u306e": 8070,
  "lat": 8071,
  "\u2581Access": 8072,
  "\u2581calling": 8073,
  "\u9805": 8074,
  "\u63d0\u4f9b\u3055\u308c\u308b": 8075,
  "\u7814\u7a76\u958b\u767a": 8076,
  "\u30ea\u30c6\u30a3": 8077,
  "\u30ab\u30c3\u30c8": 8078,
  "\u8907\u5408": 8079,
  "TP": 8080,
  "\u30a4\u30ae\u30ea\u30b9\u306e": 8081,
  "br": 8082,
  "ense": 8083,
  "\u8fb2": 8084,
  "\u5305": 8085,
  "\u2581reform": 8086,
  "ivity": 8087,
  "\u3068\u8a00\u3063\u3066": 8088,
  "\u2581relative": 8089,
  "\u30b9\u30bf\u30b8\u30aa": 8090,
  "\u30d7\u30ec\u30fc\u30e4\u30fc": 8091,
  "\u2581\u3053\u3093\u306a": 8092,
  "?\u300d": 8093,
  "\u5c06\u6765\u306e": 8094,
  "\u2581\u50d5": 8095,
  "\u8a2a\u554f": 8096,
  "\u2581define": 8097,
  "hara": 8098,
  "89": 8099,
  "\u6d3b\u6027\u5316": 8100,
  "ria": 8101,
  "\u3053\u3093\u306a": 8102,
  "ough": 8103,
  "\u30bc\u30ed": 8104,
  "\u2581Den": 8105,
  "\u9032\u3080": 8106,
  "\u2581specification": 8107,
  "pon": 8108,
  "\u2581automated": 8109,
  "\u3092\u69cb\u7bc9\u3059\u308b": 8110,
  "\u2581adoption": 8111,
  "\u2581alloy": 8112,
  "\u2581\u3057\u305f\u304c\u3063\u3066": 8113,
  "\u306e\u65b9\u304c": 8114,
  "\u25811970": 8115,
  "\u614b\u5ea6": 8116,
  "\u2581treated": 8117,
  "\u2581Robert": 8118,
  "\u3068\u547c\u3070\u308c": 8119,
  "\u2581coating": 8120,
  "\u305f\u304c": 8121,
  "\u5150": 8122,
  "\u2581tradition": 8123,
  "\u2581documentation": 8124,
  "\u306e\u539f\u56e0": 8125,
  "\u96d1\u8a8c": 8126,
  "\u3092\u3054\u89a7\u304f\u3060\u3055\u3044": 8127,
  "\u2581causes": 8128,
  "\u2581predict": 8129,
  "\u2581retail": 8130,
  "\u30e9\u30b9": 8131,
  "\u30aa\u30fc\u30d0\u30fc": 8132,
  "\u30b9\u30d1": 8133,
  "\u2581argument": 8134,
  "\u2581construct": 8135,
  "\u2581nearby": 8136,
  "\u80cc": 8137,
  "\u82e6": 8138,
  "\u2581Surface": 8139,
  "\u5206\u3051": 8140,
  "\u2581baseball": 8141,
  "\u3092\u898b\u3066\u3044\u307e\u3059": 8142,
  "\u2581studio": 8143,
  "\u306e\u65b0": 8144,
  "\u5e83\u3044": 8145,
  "ule": 8146,
  "\u2581organ": 8147,
  "rid": 8148,
  "\u2581sake": 8149,
  "ific": 8150,
  "\u2581stability": 8151,
  "\u30015": 8152,
  "Net": 8153,
  "\u6c11\u9593": 8154,
  "\u9ad8\u7d1a": 8155,
  "\u63a8\u5968": 8156,
  "\u88ab\u5bb3": 8157,
  "\u5bb9\u6613\u306b": 8158,
  "\u2581cup": 8159,
  "\u3044\u304b\u306a\u308b": 8160,
  "\u2581scientists": 8161,
  "\u2581gate": 8162,
  "\u2581receiving": 8163,
  "\u2581Hill": 8164,
  "\u2581valuable": 8165,
  "\u2581Bio": 8166,
  "\u2581observation": 8167,
  "\u306e\u5b58\u5728": 8168,
  "\u78ba\u7acb": 8169,
  "\u2581recovery": 8170,
  "\u2581List": 8171,
  "\u2581hydro": 8172,
  "\u5faa\u74b0": 8173,
  "\u30c0\u30eb": 8174,
  "\u5bb6\u306b": 8175,
  "\u79fb\u690d": 8176,
  "bra": 8177,
  "\u2581interact": 8178,
  "tle": 8179,
  "\u30dd\u30ea\u30b7\u30fc": 8180,
  "\u306e\u3059\u3079\u3066\u306e": 8181,
  "\u30aa\u30d6": 8182,
  "\u30c6\u30ed": 8183,
  "2010": 8184,
  "\u554f\u984c\u3092": 8185,
  "\u2581runtime": 8186,
  "\u25813-": 8187,
  "\u30d5\u30a3\u30f3": 8188,
  "OK": 8189,
  "Linux": 8190,
  "\u2581Main": 8191,
  "try": 8192,
  "\u2581ended": 8193,
  "rac": 8194,
  "\u305f\u304f\u3055\u3093": 8195,
  "\u2581minute": 8196,
  "\u2581extended": 8197,
  "\u30aa\u30fc\u30c7\u30a3\u30aa": 8198,
  "\u2581typical": 8199,
  "\u2581libraries": 8200,
  "\u2581Ste": 8201,
  "\u2581precision": 8202,
  "\u2581tablet": 8203,
  "\u2581cooking": 8204,
  "\u306e\u751f\u7523": 8205,
  "\u60d1\u661f": 8206,
  "mate": 8207,
  "\u304c\u591a\u304f": 8208,
  "from": 8209,
  "\u5973\u6027\u306f": 8210,
  "\u2581Social": 8211,
  "\u304a\u3088\u305d": 8212,
  "\u30c6\u30c3\u30af": 8213,
  "\u2581Bur": 8214,
  "path": 8215,
  "\u2581fluid": 8216,
  "\u5c3f": 8217,
  "2020": 8218,
  "\u2581Sony": 8219,
  "\u8cc7\u672c": 8220,
  "\u5f85\u3061": 8221,
  "\u6307\u6a19": 8222,
  "\u3059\u304e": 8223,
  "\u2581Division": 8224,
  "\u81e8\u5e8a": 8225,
  "\u2581preparation": 8226,
  "\u2581spin": 8227,
  "\u4ed6\u306b": 8228,
  "\u2581Tre": 8229,
  "\u6bd2": 8230,
  "\u65e9\u671f": 8231,
  "\u30af\u30ed\u30b9": 8232,
  "\u2581appeal": 8233,
  "\u516c\u8868": 8234,
  "uts": 8235,
  "\u8208": 8236,
  "mic": 8237,
  "\u2581sight": 8238,
  "\u2581suite": 8239,
  "\u2581wheel": 8240,
  "\u30e9\u30b8\u30aa": 8241,
  "ame": 8242,
  "\u30c6\u30f3\u30d7\u30ec\u30fc\u30c8": 8243,
  "\u98db\u3073": 8244,
  "LD": 8245,
  "\u2581logo": 8246,
  "\u30de\u30b9\u30bf\u30fc": 8247,
  "\u2581Palace": 8248,
  "bot": 8249,
  "\u2581del": 8250,
  "\u2581cook": 8251,
  "\u2581venture": 8252,
  "\u2581Garden": 8253,
  "\u2581occasion": 8254,
  "\u30d5\u30e9\u30f3\u30b9\u306e": 8255,
  "\u6570\u306e": 8256,
  "\u2581Class": 8257,
  "active": 8258,
  "\u8efd\u91cf": 8259,
  "\u2581spoke": 8260,
  "\u2581algorithm": 8261,
  "\u2581REST": 8262,
  "\u52b9": 8263,
  "\u5143\u306e": 8264,
  "\u805e\u3044\u3066": 8265,
  "\u6df7\u4e71": 8266,
  "bus": 8267,
  "\u2581deposit": 8268,
  "\u3059\u308b\u3053\u3068\u306b\u3088\u308a": 8269,
  "\u3068\u601d\u3063\u305f": 8270,
  "\u2581yesterday": 8271,
  "\u5358\u8a9e": 8272,
  "\u304c\u51fa": 8273,
  "\u30d9\u30c8\u30ca\u30e0": 8274,
  "\u2581carefully": 8275,
  "\u2581integrate": 8276,
  "\u306b\u304a\u3044\u3066\u3082": 8277,
  "\u2581visited": 8278,
  "\u306e\u4f5c\u6210": 8279,
  "\u7fd2": 8280,
  "\u6c0f\u3068": 8281,
  "\u3059\u304e\u308b": 8282,
  "\u591a\u3044": 8283,
  "\u2581column": 8284,
  "\u5e1d\u56fd": 8285,
  "\u2581mechanical": 8286,
  "mura": 8287,
  "Com": 8288,
  "you": 8289,
  "\u3057\u3055": 8290,
  "\u2581increasingly": 8291,
  "\u2581resin": 8292,
  "\u2581Thank": 8293,
  "\u2581mine": 8294,
  "\u2581scope": 8295,
  "\u2581cha": 8296,
  "\u2581parent": 8297,
  "1)": 8298,
  "\u512a": 8299,
  "\u624b\u306b": 8300,
  "\u3092\u3057\u3066": 8301,
  "\u52d5\u7684": 8302,
  "\u2581writer": 8303,
  "DR": 8304,
  "\u30d7\u30ec\u30b9": 8305,
  "\u5408\u8a08": 8306,
  "\u77e5\u3089\u308c": 8307,
  "\u6700\u8fd1\u306e": 8308,
  "\u00f6": 8309,
  "\u2581Cre": 8310,
  "\u308f\u304b\u308b": 8311,
  "\u2581\u65e5\u672c\u306e": 8312,
  "ret": 8313,
  "\u2581beat": 8314,
  "BC": 8315,
  "\u795e\u793e": 8316,
  "\u2581About": 8317,
  "\u540d\u306f": 8318,
  "\u3092\u958b\u50ac": 8319,
  "8%": 8320,
  "\u2581MO": 8321,
  "gr": 8322,
  "\u8d85\u97f3\u6ce2": 8323,
  "\u7528\u610f": 8324,
  "\u5fc5\u9808": 8325,
  "\u2581urban": 8326,
  "\u767a\u73fe": 8327,
  "\u2581concrete": 8328,
  "\u4f9d\u983c": 8329,
  "ax": 8330,
  "\u2581unless": 8331,
  "\u5e78\u305b": 8332,
  "\u8cb7": 8333,
  "\u56db\u534a\u671f": 8334,
  "\u500b\u4eba\u60c5\u5831\u3092": 8335,
  "\u652f\u6255": 8336,
  "\u80b2": 8337,
  "\u78ba\u4fdd": 8338,
  "\u2581landscape": 8339,
  "\u5f93\u6765": 8340,
  "\u3068\u601d\u3063\u3066": 8341,
  "\u5883\u754c": 8342,
  "gram": 8343,
  "\u9762\u767d\u3044": 8344,
  "\u2581proceed": 8345,
  "\u2581Anti": 8346,
  "\u8f38\u5165": 8347,
  "UL": 8348,
  "\u2581pan": 8349,
  "\u2581leads": 8350,
  "\u6cd5\u306b\u3088\u308b": 8351,
  "\u2581Sal": 8352,
  "\u3044\u304d": 8353,
  "\u2581replaced": 8354,
  "\u2581hundreds": 8355,
  "\u5468\u6ce2\u6570": 8356,
  "\u30d1\u30bd\u30b3\u30f3": 8357,
  "\u8a69": 8358,
  "\u30d2\u30c8": 8359,
  "\u2581currency": 8360,
  "\u2581Make": 8361,
  "\u2581tap": 8362,
  "\u624b\u7d9a\u304d": 8363,
  "\u30c8\u30eb": 8364,
  "\u30a2\u30eb\u30b3\u30fc\u30eb": 8365,
  "\u30b9\u30af": 8366,
  "\u5bfe\u51e6": 8367,
  "\u30de\u30b9\u30af": 8368,
  "key": 8369,
  "NI": 8370,
  "KI": 8371,
  "PO": 8372,
  "\u7279\u6b8a": 8373,
  "\u2581doubt": 8374,
  "\u306a\u3044\u3053\u3068": 8375,
  "\u30c6\u30a3\u30f3\u30b0": 8376,
  "\u8a9e\u308b": 8377,
  "\u7f6e": 8378,
  "\u2581superior": 8379,
  "\u2581lu": 8380,
  "\u884c\u308f\u308c\u305f": 8381,
  "\u2581paint": 8382,
  "\u2581anywhere": 8383,
  "\u2581designs": 8384,
  "\u9f3b": 8385,
  "bin": 8386,
  "zen": 8387,
  "\u66ae\u3089\u3057": 8388,
  "\u30b4\u30e0": 8389,
  "\u697d\u5668": 8390,
  "\u307f\u305f\u3044": 8391,
  "\u2581evolution": 8392,
  "\u5854": 8393,
  "\u307b\u304b\u306e": 8394,
  "\u306e\u69cb\u7bc9": 8395,
  "\u77ac\u9593": 8396,
  "\u533b": 8397,
  "\u5bb9\u6613": 8398,
  "\u30ca\u30ce": 8399,
  "az": 8400,
  "\u5f7c\u3092": 8401,
  "\u2581leadership": 8402,
  "\u30af\u30ec\u30b8\u30c3\u30c8\u30ab\u30fc\u30c9": 8403,
  "\u30c8\u30e9\u30f3\u30b6\u30af\u30b7\u30e7\u30f3": 8404,
  "\u2581DevOps": 8405,
  "\u4eee": 8406,
  "\u2581ships": 8407,
  "\u2581lord": 8408,
  "\u30ed\u30b1\u30c3\u30c8": 8409,
  "\u306e\u5404": 8410,
  "\u8ca0\u62c5": 8411,
  "ala": 8412,
  "\u5c4b\u6839": 8413,
  "\u308d\u3046\u3068": 8414,
  "\u30ec\u30c3\u30c9": 8415,
  "\u9589\u9396": 8416,
  "\u2581regional": 8417,
  "\u30e6\u30cb\u30fc\u30af\u306a": 8418,
  "\u5c55": 8419,
  "\u2581bathroom": 8420,
  "lea": 8421,
  "\u2581Direct": 8422,
  "\u72b6\u614b\u3067": 8423,
  "\u2581tag": 8424,
  "\u3068\u8003\u3048\u3066\u3044\u308b": 8425,
  "\u4ffa": 8426,
  "\u786c": 8427,
  "\u30a2\u30d7\u30ea\u3092": 8428,
  "\u30af\u30ea\u30b9\u30de\u30b9": 8429,
  "\u2581\u30de": 8430,
  "\u5c0f\u8aac": 8431,
  "\u2581unknown": 8432,
  "\u306e\u65b9": 8433,
  "\u2581Master": 8434,
  "\u7406\u7531\u306f": 8435,
  "\u2581caught": 8436,
  "\u4e18": 8437,
  "\u2581organisation": 8438,
  "\u30c3\u30c4": 8439,
  "\u2581certification": 8440,
  "\u2581thread": 8441,
  "\u2581ta": 8442,
  "lk": 8443,
  "OP": 8444,
  "\u985e\u4f3c": 8445,
  "\u8ecd\u306e": 8446,
  "\u96fb\u6d41": 8447,
  "\u307e\u3059\u307e\u3059": 8448,
[...]
