[PAD]
[UNK]
[CLS]
[SEP]
[MASK]
<unused0>
<unused1>
<unused2>
<unused3>
<unused4>
<unused5>
<unused6>
<unused7>
<unused8>
<unused9>
!
"
#
$
%
&
'
(
)
*
+
,
-
.
/
0
1
2
3
4
5
6
7
8
9
:
;
<
=
>
?
@
A
B
C
D
E
F
G
H
I
J
K
L
M
N
O
P
Q
R
S
T
U
V
W
X
Y
Z
[
\
]
^
_
`
a
b
c
d
e
f
g
h
i
j
k
l
m
n
o
p
q
r
s
t
u
v
w
x
y
z
{
|
}
~
¡
¢
£
¥
§
©
«
¬
®
°
±
·
»
¿
À
Á
Ä
Å
Æ
Ç
É
Í
Î
Ó
Ö
×
Ø
Ú
Ü
Þ
ß
à
á
â
ã
ä
å
æ
ç
è
é
ê
ë
ì
í
î
ï
ð
ñ
ò
ó
ô
õ
ö
÷
ø
ù
ú
û
ü
ý
þ
Ā
ā
ă
ą
Ć
ć
Č
č
Đ
đ
ē
ĕ
ė
ę
ě
ĝ
ğ
ħ
ĩ
Ī
ī
İ
ı
Ł
ł
ń
ň
ŋ
ō
ŏ
ő
œ
ř
Ś
ś
Ş
ş
Š
š
ţ
ť
ũ
ū
ŭ
ů
ź
Ż
ż
Ž
ž
ơ
ư
ǁ
ǎ
ǐ
ǒ
ǔ
ǰ
ș
ȝ
ɐ
ɑ
ɒ
ɔ
ɕ
ə
ɛ
ɟ
ɡ
ɣ
ɦ
ɨ
ɪ
ɫ
ɯ
ɲ
ɴ
ɸ
ɹ
ɾ
ʁ
ʃ
ʊ
ʌ
ʎ
ʏ
ʑ
ʒ
ʔ
ʕ
ʧ
ʻ
ʼ
ʿ
ˀ
ˈ
ˌ
ː
́
̃
̈
̓
̝
̥
̩
̯
͡
Ά
Α
Β
Γ
Δ
Ε
Ζ
Η
Θ
Ι
Κ
Λ
Μ
Ν
Ξ
Ο
Π
Ρ
Σ
Τ
Φ
Χ
Ψ
Ω
ά
έ
ή
ί
α
β
γ
δ
ε
ζ
η
θ
ι
κ
λ
μ
ν
ξ
ο
π
ρ
ς
σ
τ
υ
φ
χ
ψ
ω
ό
ύ
ώ
Ё
І
Ј
А
Б
В
Г
Д
Е
Ж
З
И
Й
К
Л
М
Н
О
П
Р
С
Т
У
Ф
Х
Ц
Ч
Ш
Э
Ю
Я
а
б
в
г
д
е
ж
з
и
й
к
л
м
н
о
п
р
с
т
у
ф
х
ц
ч
ш
щ
ъ
ы
ь
э
ю
я
ё
і
ї
ј
њ
ћ
қ
ү
ө
Ա
ա
գ
ե
ի
յ
ն
ո
տ
ր
ւ
ְ
ִ
ֵ
ֶ
ַ
ָ
ֹ
ּ
ׁ
א
ב
ג
ד
ה
ו
ז
ח
ט
י
כ
ל
ם
מ
ן
נ
ס
ע
פ
צ
ק
ר
ש
ת
،
ء
آ
أ
إ
ئ
ا
ب
ة
ت
ث
ج
ح
خ
د
ر
ز
س
ش
ص
ض
ط
ظ
ع
غ
ـ
ف
ق
ك
ل
م
ن
ه
و
ى
ي
َ
ِ
ْ
پ
چ
ک
گ
ھ
ہ
ی
ە
ं
अ
क
ख
ग
च
ज
ट
ड
ण
त
द
ध
न
प
ब
भ
म
य
र
ल
व
श
स
ह
़
ा
ि
ी
ु
ू
े
ो
्
ম
র
া
ু
্
அ
க
ச
ட
த
ன
ப
ம
ய
ர
ற
ல
ழ
வ
ா
ி
ு
ை
்
ర
ರ
ು
ി
്
ක
ත
ද
න
ප
ම
ය
ර
ව
ස
්
ා
ි
ු
ก
ข
ค
ง
จ
ช
ญ
ณ
ด
ต
ถ
ท
ธ
น
บ
ป
ผ
พ
ฟ
ภ
ม
ย
ร
ล
ว
ศ
ส
ห
อ
ะ
ั
า
ิ
ี
ื
ุ
ู
เ
แ
โ
ไ
็
่
้
์
ํ
ດ
ນ
ປ
ວ
ສ
ະ
າ
ເ
་
ག
ང
ད
ན
བ
མ
ར
ལ
ས
ི
ོ
ླ
က
င
တ
န
ပ
ရ
ာ
ိ
ု
ေ
း
်
ြ
ა
ბ
გ
დ
ე
ვ
თ
ი
ლ
მ
ნ
ო
რ
ს
ტ
უ
ქ
ყ
წ
ᄇ
ᅵ
አ
ក
ង
ត
ន
ព
រ
ា
្
ᠠ
ᠡ
ᠢ
ᠣ
ᠤ
ᠨ
ᠩ
ᠪ
ᠭ
ᠮ
ᠯ
ᠷ
ᡝ
ᡞ
ᡠ
ᡥ
ḍ
Ḥ
ḥ
ḫ
ṃ
ṅ
ṇ
ṛ
ṣ
ṭ
ạ
ả
ấ
ầ
ế
ề
ệ
ị
ố
ồ
ộ
ờ
ụ
ἀ
Ἀ
ἐ
Ἑ
ἰ
ὁ
ὰ
ὶ
ῖ
‐
–
—
―
‖
‘
’
“
”
„
†
‡
•
‧
‰
′
※
⁄
←
↑
→
↓
↦
⇒
⇔
∀
∂
∃
∈
∑
−
∖
∗
√
∞
∠
∧
∨
∩
∪
∽
≈
≒
≠
≡
≤
≥
≦
≧
≪
≫
⊂
⊆
⊗
⊿
⋅
⋯
─
━
│
┃
┏
┓
┗
┣
┳
█
■
□
▲
△
▼
▽
◆
◇
○
◎
●
◯
★
☆
☉
♀
♂
♠
♡
♣
♥
♦
♪
♭
♯
✩
⟨
⟩
ⴰ
、
。
〃
々
〆
〇
〈
〉
《
》
「
」
『
』
【
】
〒
〔
〕
〜
〝
〟
〰
ぁ
あ
ぃ
い
ぅ
う
ぇ
え
ぉ
お
か
が
き
ぎ
く
ぐ
け
げ
こ
ご
さ
ざ
し
じ
す
ず
せ
ぜ
そ
ぞ
た
だ
ち
ぢ
っ
つ
づ
て
で
と
ど
な
に
ぬ
ね
の
は
ば
ぱ
ひ
び
ぴ
ふ
ぶ
ぷ
へ
べ
ぺ
ほ
ぼ
ぽ
ま
み
む
め
も
ゃ
や
ゅ
ゆ
ょ
よ
ら
り
る
れ
ろ
ゎ
わ
ゐ
ゑ
を
ん
゙
゚
ゝ
ゞ
゠
ァ
ア
ィ
イ
ゥ
ウ
ェ
エ
ォ
オ
カ
ガ
キ
ギ
ク
グ
ケ
ゲ
コ
ゴ
サ
ザ
シ
ジ
ス
ズ
セ
ゼ
ソ
ゾ
タ
ダ
チ
ヂ
ッ
ツ
ヅ
テ
デ
ト
ド
ナ
ニ
ヌ
ネ
ノ
ハ
バ
パ
ヒ
ビ
ピ
フ
ブ
プ
ヘ
ベ
ペ
ホ
ボ
ポ
マ
ミ
ム
メ
モ
ャ
ヤ
ュ
ユ
ョ
ヨ
ラ
リ
ル
レ
ロ
ヮ
ワ
ヰ
ヱ
ヲ
ン
ヴ
ヵ
ヶ
・
ー
㆑
ㇱ
ㇷ
ㇼ
一
丁
七
万
丈
三
上
下
不
与
丑
且
丕
世
丘
丙
东
丞
両
並
个
中
串
丸
丹
主
丼
乂
乃
久
么
之
乍
乎
乏
乐
乖
乗
乘
乙
九
乞
也
乭
乱
乳
乾
亀
了
予
争
事
二
于
云
互
五
井
亘
亙
些
亜
亞
亡
亢
交
亥
亦
亨
享
京
亭
亮
人
什
仁
仄
仇
今
介
仍
仏
仔
仕
他
仗
付
仙
代
令
以
仮
仰
仲
件
价
任
份
企
伊
伍
伎
伏
伐
休
会
伝
伯
伴
伶
伸
伺
似
伽
佃
但
佇
位
低
住
佐
佑
体
何
佗
余
佚
佛
作
佞
佟
你
佩
佬
佰
佳
併
佼
使
侂
侃
來
侈
例
侍
侏
侑
侗
侘
供
依
侠
価
侭
侮
侯
侵
侶
便
俀
係
促
俄
俊
俎
俑
俗
俘
俚
保
俟
俠
信
俣
修
俯
俱
俳
俵
俶
俸
俺
倅
倉
個
倍
們
倒
倖
候
倚
借
倡
倣
値
倦
倧
倩
倪
倫
倭
倶
倹
偃
假
偈
偉
偏
偕
做
停
健
偲
側
偵
偶
偽
傀
傅
傍
傑
傕
傘
備
催
傭
傲
傳
債
傷
傾
僅
僉
僊
働
像
僑
僕
僖
僚
僥
僧
僭
僻
儀
儁
儂
億
儋
儒
儔
儘
儚
償
儡
優
儲
儺
儼
兀
允
元
兄
充
兆
兇
先
光
克
兌
免
兎
児
兒
兗
党
兜
入
內
全
兩
兪
八
公
六
兮
共
兴
兵
其
具
典
兼
冀
内
円
冉
冊
册
再
冏
冑
冒
冕
冗
写
军
冠
冤
冥
冨
冪
冬
冰
冲
决
冴
冶
冷
冼
凄
准
凉
凋
凌
凍
凛
凜
凝
几
凡
処
凧
凪
凰
凱
凶
凸
凹
出
函
刀
刁
刃
刄
分
切
刈
刊
刎
刑
列
初
判
別
利
刪
到
刳
制
刷
券
刹
刺
刻
剃
剄
則
削
剋
剌
前
剖
剛
剝
剣
剤
剥
剪
副
剰
剱
割
創
剽
劃
劇
劈
劉
劍
劔
力
功
加
劣
动
助
努
劫
劭
励
労
効
劾
勁
勃
勅
勇
勉
勒
動
勗
勘
務
勛
勝
募
勢
勣
勤
勧
勲
勳
勺
勾
勿
匁
匂
包
匈
匍
匐
匕
化
北
匙
匝
匠
匡
匣
匪
匯
匱
匹
区
医
匿
區
十
千
升
午
卉
半
卍
华
卑
卒
卓
協
南
単
博
卜
卞
占
卡
卦
卬
卯
印
危
即
却
卵
卷
卸
卿
厄
厘
厙
厚
厝
原
厠
厥
厦
厨
厩
厭
厲
厳
去
参
參
又
叉
及
友
双
反
収
叔
取
受
叙
叛
叟
叡
叢
口
古
句
叩
只
叫
召
叭
可
台
叱
史
右
叶
号
司
吃
各
合
吉
吊
吋
同
名
后
吏
吐
向
吒
君
吝
吟
吠
否
含
吳
吶
吸
吹
吻
吼
吽
吾
呀
呂
呆
呈
呉
告
呑
呟
周
呪
呰
味
呵
呻
呼
命
咀
咄
咆
咋
和
咎
咒
咢
咤
咥
咨
咩
咫
咬
咲
咳
咸
咽
哀
品
哈
哉
員
哥
哨
哩
哭
哮
哲
哺
唄
唆
唇
唐
唖
唯
唱
唸
唹
唾
啄
商
問
啓
啖
啜
啤
啦
啼
喀
善
喆
喇
喉
喊
喋
喘
喙
喚
喜
喝
喧
喩
喪
喫
喬
喰
営
嗄
嗅
嗇
嗚
嗜
嗟
嗣
嗽
嘆
嘉
嘎
嘔
嘗
嘘
嘩
嘯
嘱
嘲
嘴
噂
噌
噛
器
噲
噴
噺
嚆
嚇
嚢
嚥
嚮
嚴
嚶
嚼
囁
囂
囃
囎
囚
四
回
因
团
団
园
囮
困
囲
図
围
固
国
囿
圀
圃
圉
國
圏
園
圓
圖
團
土
圧
在
圩
圭
地
圳
圻
址
坂
均
坊
坎
坏
坐
坑
坡
坤
坦
坪
坳
垂
型
垓
垠
垢
垣
埃
埈
埋
城
埒
埔
埕
埜
域
埠
埣
埴
埵
執
培
基
埼
堀
堂
堅
堆
堕
堡
堤
堪
堯
堰
報
場
堵
堺
塀
塁
塊
塑
塔
塗
塘
塙
塚
塞
塢
塩
填
塵
塹
塾
境
墅
墉
墓
増
墜
墟
墨
墩
墳
墺
墻
墾
壁
壇
壊
壌
壕
壙
壜
壢
壩
士
壬
壮
声
壱
売
壷
壹
壺
壽
変
夏
夔
夕
外
夙
多
夛
夜
夢
大
天
太
夫
夭
央
失
夷
夾
奄
奇
奈
奉
奎
奏
奐
契
奔
奕
套
奘
奚
奠
奢
奥
奧
奨
奪
奭
奮
女
奴
奸
好
如
妃
妄
妊
妍
妓
妖
妙
妤
妥
妨
妬
妲
妹
妻
妾
姆
姉
始
姐
姑
姓
委
姚
姜
姥
姦
姨
姪
姫
姶
姻
姿
威
娃
娑
娘
娜
娟
娠
娥
娩
娯
娶
娼
婁
婆
婉
婕
婚
婢
婦
婷
婿
媒
媚
媛
媯
媽
嫁
嫉
嫌
嫡
嫦
嫩
嬉
嬌
嬛
嬢
嬪
嬬
嬰
嬲
嬴
嬶
孁
子
孔
孕
字
存
孚
孜
孝
孟
季
孤
学
孩
孫
孵
學
孺
宅
宇
守
安
宋
完
宍
宏
宕
宗
官
宙
定
宛
宜
宝
実
客
宣
室
宥
宦
宮
宰
害
宴
宵
家
宸
容
宿
寂
寄
寅
密
寇
富
寒
寓
寔
寛
寝
察
寡
實
寧
寨
審
寫
寬
寮
寳
寵
寶
寸
对
寺
対
寿
封
専
射
将
將
專
尉
尊
尋
對
導
小
少
尓
尖
尚
尤
尭
就
尸
尹
尺
尻
尼
尽
尾
尿
局
屁
居
屈
届
屋
屍
屎
屏
屑
屓
展
属
屠
層
履
屬
屯
山
岌
岐
岑
岔
岡
岩
岫
岬
岱
岳
岷
岸
峅
峙
峠
峡
峨
峪
峯
峰
峴
島
峻
崇
崋
崎
崑
崔
崖
崗
崙
崧
崩
嵆
嵊
嵌
嵐
嵜
嵩
嵬
嵯
嶋
嶌
嶝
嶠
嶷
嶺
嶼
嶽
巌
巍
巒
巖
川
州
巡
巣
工
左
巧
巨
巫
差
己
已
巳
巴
巷
巻
巽
巾
市
布
帆
希
帖
帙
帚
帛
帝
帥
師
席
帯
帰
帳
帶
帷
常
帽
幀
幄
幅
幇
幌
幔
幕
幟
幡
幢
幣
干
平
年
并
幸
幹
幺
幻
幼
幽
幾
广
庁
広
庄
庇
床
序
底
店
庚
府
庠
度
座
庫
庭
庵
庶
康
庸
庾
廂
廃
廆
廈
廉
廊
廓
廖
廙
廞
廟
廠
廣
廩
廬
廳
延
廷
建
廻
廼
廿
弁
弄
弈
弉
弊
弋
弌
式
弐
弑
弓
弔
引
弖
弗
弘
弛
弟
张
弥
弦
弧
弩
弯
弱
張
強
弼
弾
彅
彊
彌
彎
当
彗
彙
彝
彡
形
彤
彦
彧
彩
彪
彫
彬
彭
彰
影
彷
役
彼
彿
往
征
徂
径
待
徊
律
後
徐
徒
従
得
徘
徙
從
徠
御
徧
徨
復
循
徭
微
徳
徴
德
徹
徽
心
必
忌
忍
志
忘
忙
応
忠
快
忱
念
忻
忽
怒
怖
怜
思
怠
怡
急
性
怨
怪
怯
恂
恆
恋
恍
恐
恒
恕
恢
恣
恤
恥
恨
恩
恪
恫
恬
恭
息
恰
恵
悉
悌
悍
悔
悛
悝
悟
悠
患
悦
悧
悩
悪
悲
悳
悴
悶
悸
悼
情
惇
惑
惚
惜
惟
惠
惡
惣
惧
惨
惰
想
惹
惺
愁
愈
愉
愍
意
愔
愕
愚
愛
感
愴
愷
愼
愾
愿
慄
慇
慈
慊
態
慌
慎
慕
慟
慢
慣
慧
慨
慮
慰
慶
慾
憂
憊
憎
憐
憑
憔
憚
憤
憧
憩
憫
憬
憮
憲
憶
憺
憾
懃
懇
應
懊
懋
懐
懣
懲
懸
懺
懼
懿
戀
戈
戊
戌
戍
戎
成
我
戒
戔
或
战
戚
戛
戟
戡
戦
戩
截
戮
戯
戰
戴
戸
戻
房
所
扁
扇
扈
扉
手
才
扎
打
払
托
扮
扱
扶
批
扼
承
技
抄
抉
把
抑
抒
投
抗
折
抜
択
披
抱
抵
抹
押
抽
担
拉
拌
拍
拐
拒
拓
拔
拗
拘
拙
招
拝
拠
拡
括
拭
拮
拯
拱
拳
拵
拶
拷
拼
拾
拿
持
挂
指
按
挑
挖
挙
挟
挨
挫
振
挹
挺
挽
挾
挿
捉
捌
捏
捐
捕
捗
捜
捧
捨
捩
据
捲
捷
捺
捻
掃
授
掌
掏
排
掖
掘
掛
掟
掠
採
探
掣
接
控
推
掩
措
掬
掲
掴
掻
掾
揃
揄
揆
揉
描
提
揖
揚
換
握
揮
援
揶
揺
損
搗
搦
搬
搭
携
搾
摂
摔
摘
摠
摩
摯
摸
摺
撃
撈
撒
撓
撚
撞
撤
撥
撫
播
撮
撰
撲
撹
撻
撼
擁
擂
擅
操
擢
擦
擬
擱
擲
擾
攀
攘
攝
攣
攪
攫
攬
支
收
攷
攸
改
攻
放
政
故
效
敎
敏
救
敖
敗
教
敞
敢
散
敦
敬
数
敲
整
敵
敷
數
斂
斃
文
斉
斌
斎
斐
斑
斗
料
斛
斜
斟
斡
斤
斥
斧
斫
斬
断
斯
新
方
於
施
旁
旅
旋
旌
族
旒
旗
旛
无
既
日
旦
旧
旨
早
旬
旭
旱
旺
旻
昀
昂
昆
昇
昉
昊
昌
明
昏
易
昔
昕
星
映
春
昧
昨
昭
是
昱
昴
昵
昶
昼
晁
時
晃
晄
晋
晏
晒
晟
晤
晦
晧
晨
晩
普
景
晰
晴
晶
智
暁
暇
暈
暉
暎
暐
暑
暖
暗
暘
暢
暦
暫
暮
暲
暴
暹
曁
曄
曇
曉
曖
曙
曜
曝
曠
曰
曲
曳
更
曷
書
曹
曺
曼
曽
曾
替
最
會
月
有
朋
服
朐
朔
朕
朗
望
朝
期
朦
朧
木
未
末
本
札
朮
朱
朴
朶
机
朽
杁
杉
李
杏
材
村
杓
杖
杙
杜
杞
束
条
杢
杣
来
杭
杮
杯
杰
東
杲
杳
杵
杷
杼
松
板
枇
枉
枋
析
枓
枕
林
枚
果
枝
枠
枡
枢
枯
枳
架
枷
枹
柄
柊
柏
某
柑
染
柔
柘
柚
柞
柩
柯
柱
柳
柴
柵
査
柾
柿
栂
栃
栄
栓
栖
栗
栞
校
栢
栩
株
栴
核
根
格
栽
桀
桁
桂
桃
框
案
桐
桑
桓
桔
桙
桜
桝
桟
桧
桴
桶
桿
梁
梃
梅
梓
梔
梗
條
梟
梠
梢
梧
梨
梭
梯
械
梱
梳
梵
梶
棄
棋
棍
棒
棕
棗
棘
棚
棟
棠
棣
森
棲
棹
棺
椀
椅
椋
植
椎
椏
椒
椙
椚
椛
検
椰
椴
椿
楊
楓
楔
楕
楚
楠
楡
楢
楨
楫
業
楮
楯
楳
極
楷
楸
楼
楽
概
榊
榎
榑
榔
榕
榛
榜
榧
榮
榴
槃
槇
槊
構
槌
槍
槎
槐
槓
様
槙
槨
槻
槽
槿
樂
樅
樊
樋
樒
樓
樗
標
樟
模
樣
権
横
樫
樵
樹
樺
樽
橇
橈
橋
橘
橙
機
橡
橿
檀
檄
檎
檗
檜
檢
檣
檬
檮
檳
檸
檻
櫂
櫃
櫓
櫚
櫛
櫟
櫨
櫻
欄
欅
權
欒
欠
次
欣
欧
欲
欺
欽
款
歆
歌
歎
歓
歙
止
正
此
步
武
歩
歪
歯
歳
歴
歸
死
歿
殆
殉
殊
残
殖
殘
殤
殲
殴
段
殷
殺
殻
殼
殿
毀
毅
毋
母
毎
毐
毒
毓
比
毖
毗
毘
毛
毫
毬
毯
氈
氏
氐
民
気
氣
水
氷
永
氾
汀
汁
求
汎
汐
汕
汗
汚
汜
汝
江
池
汪
汰
汲
汴
汶
決
汽
汾
沁
沂
沃
沅
沈
沌
沐
沓
沔
沖
沙
沛
没
沢
沪
沫
沮
沱
河
沸
油
治
沼
沽
沾
沿
況
泄
泉
泊
泌
泓
法
泗
泛
泠
泡
波
泣
泥
注
泪
泮
泰
泳
洄
洋
洌
洒
洗
洙
洛
洞
津
洩
洪
洮
洱
洲
洵
洸
活
洽
派
流
浄
浅
浙
浚
浜
浣
浦
浩
浪
浬
浮
浴
海
浸
涂
涅
涇
消
涌
涎
涙
涛
涜
涪
涯
液
涵
涸
涼
涿
淀
淄
淅
淆
淇
淋
淑
淘
淝
淞
淡
淤
淦
淨
淪
淫
淮
深
淳
淵
混
淸
淹
淺
添
清
渇
済
渉
渋
渓
渕
渙
渚
減
渝
渟
渠
渡
渣
渤
渥
渦
温
渫
測
渭
港
游
渺
渾
湊
湍
湖
湘
湛
湟
湣
湧
湫
湯
湾
湿
満
源
準
溜
溝
溟
溢
溥
溪
溯
溶
溺
滄
滅
滇
滉
滋
滎
滑
滓
滔
滕
滝
滞
滬
滲
滴
滷
滸
滾
滿
漁
漂
漆
漉
漏
漑
演
漕
漠
漢
漣
漫
漬
漱
漲
漳
漸
漿
潁
潅
潔
潘
潜
潟
潤
潭
潮
潰
潴
潼
澁
澂
澄
澈
澎
澗
澤
澧
澪
澱
澳
澹
激
濁
濂
濃
濊
濘
濟
濠
濡
濤
濫
濬
濮
濯
濰
濱
濵
濾
瀉
瀋
瀏
瀑
瀕
瀘
瀚
瀛
瀝
瀞
瀟
瀧
瀬
瀾
灌
灘
灞
灣
灤
火
灯
灰
灸
灼
災
炅
炉
炊
炎
炒
炙
炫
炬
炭
炮
炯
炳
炸
点
為
烈
烏
烙
烟
烹
烽
焉
焔
焙
焚
無
焦
焰
然
焼
煉
煌
煎
煒
煕
煖
煙
煜
煤
煥
照
煨
煩
煬
煮
煽
熈
熊
熏
熔
熕
熙
熟
熨
熱
熹
熾
燁
燃
燈
燎
燐
燕
燗
營
燥
燦
燧
燭
燮
燵
燻
燼
燾
燿
爆
爛
爨
爪
爬
爲
爵
父
爺
爻
爽
爾
牆
片
版
牌
牒
牘
牙
牛
牝
牟
牡
牢
牧
物
牲
特
牽
犀
犁
犂
犍
犠
犢
犬
犯
状
狂
狄
狆
狐
狗
狙
狛
狡
狩
独
狭
狸
狼
狽
猊
猗
猛
猜
猟
猥
猩
猪
猫
献
猴
猶
猷
猾
猿
獄
獅
獏
獠
獣
獨
獪
獰
獲
獺
玄
率
玉
王
玖
玩
玫
玲
玻
珀
珂
珈
珉
珊
珍
珠
珥
珪
班
珸
現
球
琅
理
琉
琛
琢
琥
琦
琨
琪
琬
琮
琰
琲
琳
琴
琵
琶
琺
琿
瑀
瑁
瑋
瑕
瑗
瑙
瑚
瑛
瑜
瑞
瑟
瑠
瑣
瑤
瑩
瑪
瑯
瑰
瑳
瑶
瑾
璃
璇
璋
璐
璜
璞
璟
璠
璧
璩
環
璽
璿
瓊
瓌
瓏
瓔
瓘
瓚
瓜
瓠
瓢
瓦
瓶
瓷
甄
甌
甑
甕
甘
甚
甜
生
產
産
甥
甦
用
甫
甯
田
由
甲
申
男
甸
町
画
界
畏
畑
畔
留
畚
畜
畝
畠
畢
畤
略
畦
番
畫
異
畳
當
畷
畸
畿
疆
疇
疋
疎
疏
疑
疝
疣
疫
疱
疲
疵
疸
疹
疼
疽
疾
病
症
痍
痒
痔
痕
痘
痙
痛
痢
痣
痩
痰
痴
痺
瘍
瘡
瘢
瘤
瘴
瘻
療
癇
癌
癒
癖
癩
癪
癬
癲
癸
発
登
發
白
百
的
皆
皇
皋
皎
皐
皓
皖
皝
皮
皴
皺
皿
盂
盃
盆
盈
益
盒
盗
盛
盞
盟
監
盤
盥
盧
盪
目
盲
直
相
盾
省
眈
眉
看
県
眞
真
眠
眩
眷
眸
眺
眼
着
睡
睢
督
睦
睨
睫
睺
睾
睿
瞑
瞞
瞥
瞬
瞭
瞰
瞳
瞻
瞼
瞽
瞿
矗
矛
矜
矢
矣
知
矧
矩
短
矮
矯
石
砂
砌
砒
研
砕
砥
砦
砧
砲
破
砺
砿
硝
硫
硬
硯
碁
碇
碌
碍
碑
碓
碕
碗
碣
碧
碩
碭
確
碼
碾
磁
磊
磋
磐
磔
磧
磨
磯
磾
礁
礎
礒
礙
礦
礪
礫
礬
示
礼
礽
社
祀
祁
祇
祈
祉
祐
祓
祖
祗
祚
祜
祝
神
祟
祠
祢
祥
票
祭
祷
祺
禁
禄
禅
禊
禍
禎
福
禕
禦
禧
禪
禮
禰
禹
禺
禽
禾
禿
秀
私
秉
秋
科
秒
秘
租
秣
秤
秦
秩
称
移
稀
稈
程
稍
税
稔
稗
稙
稚
稜
稟
稠
種
稲
稷
稻
稼
稽
稿
穀
穂
穆
積
穎
穏
穢
穣
穫
穴
究
穹
空
穿
突
窃
窄
窈
窒
窓
窘
窟
窠
窩
窪
窮
窯
窺
竃
竄
竇
竈
立
站
竜
竟
章
竣
童
竪
端
竴
競
竹
竺
竿
笄
笈
笊
笏
笑
笘
笙
笛
笞
笠
笥
符
第
笹
筆
筈
等
筋
筌
筍
筏
筐
筑
筒
答
策
筝
筠
筥
筧
筬
筮
筰
筵
筺
箆
箇
箋
箍
箏
箒
箔
箕
算
箙
箚
管
箪
箭
箱
箴
箸
節
篁
範
篆
篇
築
篋
篝
篠
篤
篥
篩
篪
篭
篳
簀
簑
簒
簗
簡
簪
簫
簸
簾
簿
籃
籌
籍
籐
籔
籟
籠
籤
籬
米
籾
粁
粂
粃
粉
粋
粍
粒
粕
粗
粘
粛
粟
粤
粥
粧
粲
粽
精
糀
糊
糎
糖
糜
糞
糟
糠
糧
糸
糺
系
糾
紀
紂
約
紅
紆
紇
紊
紋
納
紐
純
紗
紘
紙
級
紛
素
紡
索
紫
紬
紮
累
細
紳
紹
紺
終
絃
組
絅
絆
経
結
絞
絡
絢
絣
給
絨
統
絲
絳
絵
絶
絹
綏
經
継
続
綜
綝
綠
綫
綬
維
綰
綱
網
綴
綵
綸
綺
綻
綽
綾
綿
緊
緋
総
緑
緒
緘
線
緝
緞
締
編
緩
緬
緯
練
緻
縁
縄
縅
縉
縊
縋
縒
縛
縝
縞
縢
縣
縦
縫
縮
縯
縵
縷
縹
縺
總
績
繁
繆
繇
繊
繋
繍
織
繕
繚
繞
繪
繭
繰
繹
繼
纂
續
纏
纒
纓
红
级
线
缶
罐
网
罔
罕
罘
罠
罪
罫
置
罰
署
罵
罷
罹
羂
羅
羆
羊
羋
羌
美
羚
羞
羣
群
羨
義
羯
羲
羹
羽
翁
翅
翊
翌
翎
習
翔
翟
翠
翡
翦
翫
翰
翳
翹
翻
翼
耀
老
考
者
耆
而
耐
耕
耗
耘
耳
耶
耽
耿
聊
聖
聘
聚
聞
聟
聡
聯
聰
聲
聳
聴
聶
職
聾
肄
肆
肇
肉
肋
肌
肖
肘
肛
肜
肝
股
肢
肥
肩
肪
肯
肱
育
肴
肺
胃
胆
背
胎
胖
胚
胝
胞
胡
胤
胥
胱
胴
胸
能
脂
脅
脆
脇
脈
脊
脚
脛
脩
脱
脳
脹
脾
腋
腎
腐
腑
腓
腔
腕
腫
腰
腱
腸
腹
腺
腿
膀
膂
膊
膏
膚
膜
膝
膠
膣
膨
膳
膵
膺
膾
膿
臀
臂
臆
臈
臍
臓
臘
臙
臚
臣
臥
臧
臨
自
臭
至
致
臺
臻
臼
舁
舂
舅
與
興
舊
舌
舍
舎
舐
舒
舗
舘
舛
舜
舞
舟
舩
航
舫
般
舳
舵
舶
舷
船
艀
艇
艘
艙
艤
艦
艮
良
艱
色
艶
艸
艾
芋
芍
芎
芒
芙
芝
芥
芦
芬
芭
芮
芯
花
芳
芷
芸
芹
芻
芽
芾
苅
苑
苓
苔
苗
苛
苞
苟
若
苦
苧
苫
英
苴
苺
苻
茂
范
茄
茅
茉
茎
茗
茘
茜
茨
茫
茯
茱
茲
茶
茸
茹
荀
荃
草
荊
荏
荒
荘
荷
荻
荼
莆
莇
莉
莊
莎
莒
莘
莚
莞
莢
莫
莱
莽
菁
菅
菊
菌
菓
菖
菘
菜
菟
菩
菫
華
菰
菱
菲
菴
萄
萇
萊
萌
萍
萎
萠
萩
萬
萱
萸
萼
落
葆
葉
著
葛
葡
董
葦
葫
葬
葭
葯
葱
葵
葺
蒋
蒐
蒔
蒙
蒜
蒟
蒯
蒲
蒴
蒸
蒹
蒻
蒼
蒿
蓁
蓄
蓉
蓋
蓑
蓬
蓮
蓼
蔀
蔑
蔓
蔗
蔚
蔡
蔣
蔦
蔬
蔭
蔵
蔽
蕁
蕃
蕉
蕊
蕎
蕗
蕙
蕤
蕨
蕩
蕪
蕭
蕷
蕾
薀
薁
薄
薇
薈
薊
薔
薗
薙
薛
薦
薨
薩
薪
薫
薬
薭
薮
薯
藁
藉
藍
藏
藝
藤
藥
藩
藪
藷
藺
藻
蘂
蘄
蘆
蘇
蘊
蘋
蘚
蘭
蘿
虎
虐
虔
處
虚
虜
虞
號
虢
虫
虹
虻
蚊
蚕
蚤
蚩
蛆
蛇
蛉
蛋
蛍
蛎
蛙
蛛
蛟
蛤
蛭
蛮
蛯
蛸
蛹
蛾
蜀
蜂
蜃
蜆
蜉
蜘
蜚
蜜
蜥
蜴
蜷
蜻
蝉
蝋
蝎
蝕
蝗
蝙
蝠
蝣
蝦
蝮
蝶
蝸
蝿
螂
融
螢
螳
螺
蟄
蟇
蟠
蟲
蟷
蟹
蟻
蟾
蠅
蠍
蠕
蠡
蠢
蠣
蠱
血
衆
行
衍
衒
術
街
衙
衛
衝
衞
衡
衢
衣
表
衫
衰
衷
衾
衿
袁
袂
袈
袋
袍
袖
袞
袢
被
袰
袱
袴
袷
袿
裁
裂
裃
装
裏
裒
裔
裕
補
裝
裟
裡
裳
裴
裵
裸
製
裾
褄
複
褌
褐
褒
褚
褥
褪
褶
褸
褻
襄
襖
襞
襟
襤
襦
襲
襴
襷
西
要
覆
覇
覈
見
規
視
覗
覚
覧
親
覯
観
覺
覽
觀
视
角
觚
觜
解
触
言
訂
訃
計
訊
訌
討
訓
託
記
訛
訝
訟
訢
訣
訥
訪
設
許
訳
訴
訶
診
註
証
詁
詈
詐
詔
評
詛
詞
詠
詡
詢
詣
試
詧
詩
詫
詭
詮
詰
話
該
詳
詵
詹
誄
誅
誇
誉
誌
認
誑
誓
誕
誘
語
誠
誡
誣
誤
誥
誦
誨
說
説
読
誰
課
誹
誼
誾
調
談
請
諌
諍
諏
諒
論
諜
諝
諡
諦
諧
諫
諭
諮
諱
諳
諶
諷
諸
諺
諾
謀
謁
謂
謄
謎
謐
謔
謗
謙
講
謝
謡
謨
謬
謳
謹
證
譏
識
譙
譚
譜
警
譬
議
譲
譴
護
譽
讀
讃
變
讎
讐
讒
讓
讖
谷
谺
谿
豆
豉
豊
豎
豐
豚
象
豪
豫
豬
豳
豹
豺
貂
貉
貊
貌
貘
貝
貞
負
財
貢
貧
貨
販
貪
貫
責
貯
貰
貳
貴
貶
買
貸
費
貼
貽
貿
賀
賁
賂
賃
賄
資
賈
賊
賎
賑
賓
賛
賜
賞
賠
賢
賣
賤
賦
質
賭
購
賽
贄
贅
贈
贋
贍
贔
贖
贛
赛
赤
赦
赧
赫
赭
走
赳
赴
起
超
越
趙
趣
趨
足
趾
跆
跋
跎
跏
跗
跛
距
跡
跨
跪
路
跳
践
踊
踏
踞
踪
踰
踵
蹂
蹄
蹉
蹊
蹋
蹙
蹟
蹠
蹲
蹴
蹶
躁
躅
躇
躊
躍
躑
躓
躙
身
躬
躯
躰
躱
躾
軀
車
軋
軌
軍
軒
軕
軛
軟
転
軫
軸
軻
軼
軽
軾
較
載
輌
輓
輔
輛
輜
輝
輦
輩
輪
輯
輳
輸
輻
輿
轄
轅
轆
轍
轟
轡
轢
车
辛
辜
辞
辟
辣
辦
辨
辭
辮
辯
辰
辱
農
辷
辺
辻
込
辿
迂
迄
迅
迎
运
近
返
迢
迥
迦
迩
迪
迫
迭
述
迴
迷
迹
追
退
送
逃
逅
逆
逍
透
逐
逓
途
逖
逗
這
通
逝
逞
速
造
逡
逢
連
逮
週
進
逵
逸
逹
逼
遁
遂
遅
遇
遊
運
遍
過
遐
道
達
違
遙
遜
遠
遡
遣
遥
適
遭
遮
遵
遷
選
遹
遺
遼
遽
避
邀
邁
邂
邃
還
邇
邈
邉
邊
邏
邑
邕
邙
邠
邢
那
邦
邨
邪
邯
邱
邳
邵
邸
邽
邾
郁
郃
郅
郊
郎
郗
郛
郝
郞
郡
郢
郤
部
郭
郯
郵
郷
都
鄂
鄄
鄒
鄔
鄖
鄙
鄢
鄧
鄭
鄯
鄰
鄱
鄲
鄴
酈
酉
酊
酋
酌
配
酎
酒
酔
酘
酛
酢
酩
酪
酬
酵
酷
酸
醂
醇
醉
醍
醐
醒
醗
醜
醤
醪
醫
醸
采
釈
釉
釋
里
重
野
量
釐
金
釗
釘
釜
針
釣
釦
釧
釵
鈍
鈎
鈑
鈔
鈕
鈞
鈴
鈷
鈺
鈿
鉄
鉅
鉈
鉉
鉋
鉗
鉛
鉞
鉢
鉤
鉦
鉱
鉾
銀
銃
銅
銈
銑
銓
銕
銘
銚
銛
銜
銭
鋏
鋒
鋤
鋪
鋭
鋲
鋳
鋸
鋺
鋼
錆
錐
錕
錘
錚
錠
錢
錣
錦
錨
錫
錬
錮
錯
録
鍋
鍍
鍔
鍛
鍬
鍮
鍵
鍼
鍾
鎌
鎔
鎖
鎗
鎚
鎧
鎬
鎭
鎮
鎰
鎹
鏃
鏑
鏞
鏡
鏢
鐐
鐔
鐘
鐙
鐡
鐵
鐸
鑁
鑑
鑒
鑓
鑚
鑢
鑫
鑰
鑲
鑼
鑽
鑿
铁
長
长
門
閂
閃
閉
開
閏
閑
閒
間
閔
閖
閘
関
閣
閤
閥
閨
閩
閬
閭
閲
閻
閼
閾
闇
闊
闍
闐
闓
闕
闖
闘
關
闡
闢
闥
阜
阪
阮
阯
防
阻
阿
陀
陂
附
陋
陌
降
限
陕
陘
陛
陝
陞
陟
院
陣
除
陥
陪
陰
陳
陵
陶
陷
陸
険
陽
隅
隆
隈
隊
隋
階
随
隔
隕
隗
隘
隙
際
障
隠
隣
隧
隨
隴
隷
隻
隼
雀
雁
雄
雅
集
雇
雉
雌
雍
雎
雑
雒
雕
雖
雙
雛
雜
雞
離
難
雨
雪
雫
雰
雲
零
雷
雹
電
需
霄
霆
震
霊
霍
霑
霓
霖
霜
霞
霧
霰
露
霸
霹
霽
靂
靄
靈
靏
青
靖
静
靚
靜
非
靡
面
革
靫
靭
靱
靳
靴
靺
靼
鞄
鞅
鞆
鞋
鞍
鞏
鞘
鞜
鞠
鞨
鞬
鞭
鞮
鞴
韃
韋
韓
韜
韮
音
韶
韻
響
頁
頂
頃
項
順
須
頊
頌
預
頑
頒
頓
頗
領
頚
頠
頡
頤
頬
頭
頴
頷
頸
頻
頼
頽
顆
題
額
顎
顒
顓
顔
顕
顗
願
顛
類
顥
顧
顯
顰
風
颪
颯
飄
飛
飜
食
飡
飢
飫
飯
飲
飴
飼
飽
飾
餃
餅
餉
養
餌
餐
餓
餘
餞
餡
館
饅
饉
饋
饌
饒
饗
首
馗
香
馥
馨
馬
馮
馳
馴
駁
駄
駅
駆
駈
駐
駒
駕
駙
駝
駢
駱
駿
騎
騏
騒
験
騙
騨
騫
騭
騰
騸
驀
驃
驍
驕
驚
驛
驟
驢
驤
驥
驩
驪
骨
骸
髄
髏
髑
體
高
髙
髠
髢
髣
髦
髪
髭
髯
髴
髷
髻
鬆
鬘
鬚
鬢
鬣
鬨
鬬
鬱
鬲
鬼
魁
魂
魃
魄
魅
魍
魎
魏
魑
魔
魚
魯
鮎
鮑
鮒
鮓
鮨
鮪
鮫
鮭
鮮
鯉
鯏
鯖
鯛
鯨
鯰
鯱
鯵
鰊
鰍
鰐
鰒
鰓
鰕
鰭
鰯
鰹
鰺
鰻
鱈
鱒
鱗
鳥
鳧
鳩
鳰
鳳
鳴
鳶
鴇
鴈
鴉
鴎
鴛
鴦
鴨
鴫
鴬
鴻
鵄
鵜
鵝
鵞
鵠
鵡
鵬
鵯
鵰
鵲
鵺
鶉
鶏
鶚
鶯
鶴
鶻
鷗
鷦
鷯
鷲
鷹
鷺
鸕
鸚
鸞
鹵
鹸
鹹
鹽
鹿
麁
麒
麓
麗
麝
麟
麥
麦
麩
麵
麹
麺
麻
麾
麿
黃
黄
黌
黍
黎
黑
黒
黔
默
黙
黛
點
鼈
鼎
鼓
鼠
鼬
鼻
鼾
齊
齋
齎
齟
齢
齧
齬
齮
齲
龍
龐
龔
龕
龗
龙
龜
가
간
강
개
거
건
검
경
계
고
곡
공
과
관
광
교
구
국
군
권
규
그
글
금
기
길
김
나
낙
남
내
년
노
는
니
다
단
당
대
더
도
독
동
드
들
디
라
랑
래
레
력
로
르
리
립
마
만
말
면
명
몬
무
문
물
미
민
바
박
반
방
배
버
법
베
병
보
부
북
비
빠
사
산
삼
상
새
서
석
선
성
세
소
송
수
순
스
습
승
시
식
신
씨
아
안
야
약
양
어
언
에
여
역
연
영
오
온
와
완
요
용
우
운
울
원
위
유
윤
으
은
을
음
의
이
인
일
자
장
재
전
점
정
제
조
종
주
준
중
지
진
집
차
찬
천
철
총
추
츠
카
코
크
타
태
터
통
트
파
평
포
표
프
피
하
학
한
함
합
항
해
행
허
혁
현
협
호
홍
화
환
황
회
훈
휘
희
﨑
﨟
︎
󠄁
##テ
##マ
##キ
##ン
##出
##ロ
##グ
##無
##ピ
##オ
##ノ
##づ
##く
##り
##ガ
##ー
##コ
##ち
##肌
##ニ
##ィ
##ゴ
##・
##ク
##エ
##ス
##タ
##兵
##衛
##注
##ギ
##ヴ
##ァ
##ル
##ト
##イ
##ケ
##n
##j
##u
##r
##i
##e
##s
##満
##m
##b
##a
##y
##ジ
##ア
##ゲ
##ザ
##シ
##デ
##ャ
##明
##ベ
##ソ
##A
##M
##ポ
##リ
##ナ
##ペ
##Y
##R
##レ
##O
##T
##S
##U
##o
##伸
##歯
##6
##2
##3
##0
##8
##4
##9
##メ
##説
##и
##т
##а
##й
##с
##к
##5
##1
##k
##志
##野
##ェ
##ボ
##五
##d
##č
##た
##ぶ
##g
##弟
##P
##f
##é
##N
##I
##サ
##W
##L
##バ
##刑
##w
##×
##び
##そ
##う
##子
##降
##庭
##ッ
##版
##h
##ヤ
##l
##p
##t
##プ
##ゥ
##ヌ
##z
##c
##塚
##ツ
##ビ
##B
##呂
##敷
##モ
##ド
##パ
##ズ
##K
##J
##ラ
##ウ
##田
##로
##平
##城
##チ
##フ
##ォ
##照
##梨
##ゃ
##ら
##ば
##ん
##突
##き
##し
##品
##荷
##セ
##琢
##浜
##納
##E
##G
##然
##ュ
##弱
##C
##ワ
##件
##D
##い
##上
##げ
##家
##送
##所
##令
##ホ
##仙
##は
##ぎ
##話
##な
##数
##ネ
##県
##薬
##7
##カ
##ń
##合
##ゼ
##ブ
##京
##極
##用
##ミ
##ョ
##繁
##か
##け
##声
##н
##頼
##』
##信
##央
##龍
##宇
##程
##慶
##誇
##る
##矯
##罕
##国
##ハ
##哲
##芸
##番
##о
##е
##р
##в
##ム
##尿
##っ
##込
##め
##主
##や
##ゾ
##י
##צ
##ן
##ょ
##じ
##範
##間
##わ
##つ
##が
##民
##仲
##み
##秀
##Z
##印
##v
##号
##道
##ヨ
##鳥
##洞
##務
##郷
##祓
##攻
##媒
##守
##河
##屈
##ダ
##に
##式
##代
##流
##れ
##橋
##q
##板
##至
##V
##え
##典
##利
##ぬ
##人
##備
##中
##可
##ヒ
##津
##ı
##下
##原
##ヘ
##F
##ή
##λ
##ε
##φ
##ο
##ς
##論
##豊
##で
##]
##江
##勝
##樹
##君
##牢
##よ
##堀
##哭
##刀
##筋
##と
##の
##暮
##重
##価
##ま
##寸
##見
##柳
##返
##H
##б
##箋
##鵬
##殺
##ヰ
##帆
##庁
##鬱
##楽
##竹
##振
##匿
##ろ
##ユ
##船
##少
##牛
##々
##入
##惟
##考
##坂
##Q
##太
##也
##打
##у
##二
##郎
##葉
##원
##安
##"
##(
##機
##給
##分
##ね
##親
##之
##養
##皮
##一
##尾
##花
##小
##路
##足
##渓
##食
##九
##手
##ず
##内
##星
##馬
##荘
##口
##鎮
##さ
##廷
##л
##щ
##輿
##望
##者
##á
##浦
##X
##検
##晃
##通
##遠
##管
##す
##音
##ç
##天
##こ
##組
##鉱
##木
##底
##あ
##側
##爆
##物
##з
##与
##姫
##粉
##役
##外
##ヂ
##卸
##奏
##愛
##十
##里
##沢
##町
##胥
##神
##彦
##節
##香
##語
##谷
##病
##達
##お
##北
##券
##門
##鸞
##聡
##耳
##せ
##決
##š
##í
##ぞ
##枠
##桑
##玉
##肉
##破
##能
##斂
##x
##録
##戸
##襖
##羊
##座
##幸
##員
##佐
##象
##徳
##化
##智
##壁
##良
##助
##募
##ご
##も
##勤
##質
##減
##心
##羅
##鐸
##だ
##定
##久
##渋
##拌
##立
##て
##粲
##村
##美
##廊
##叫
##廻
##散
##源
##部
##掛
##占
##片
##ц
##進
##運
##陽
##王
##土
##べ
##鉄
##砲
##局
##堂
##離
##盞
##嗚
##石
##î
##ぐ
##低
##耕
##訳
##転
##彙
##禎
##西
##須
##ि
##र
##न
##ा
##差
##ゝ
##徒
##川
##作
##暉
##則
##鑑
##元
##陣
##又
##命
##量
##憐
##和
##潮
##測
##義
##丸
##錬
##本
##楠
##略
##席
##油
##目
##治
##ぼ
##泳
##舞
##線
##行
##割
##屑
##ل
##أ
##ر
##ض
##面
##児
##越
##力
##胞
##発
##嗣
##夫
##頭
##岳
##ρ
##ί
##σ
##ι
##輔
##有
##宣
##動
##犬
##演
##方
##三
##細
##釣
##璃
##練
##呪
##搗
##優
##歩
##材
##ǁ
##勢
##藩
##政
##屋
##軒
##色
##党
##潰
##髪
##爵
##学
##店
##身
##風
##影
##邦
##談
##ā
##飛
##む
##場
##水
##種
##笑
##農
##磯
##ู
##و
##ة
##八
##停
##ก
##ร
##ศ
##展
##詠
##草
##幅
##含
##生
##衣
##ë
##由
##,
##意
##ч
##茶
##端
##往
##岡
##ぽ
##庵
##ど
##ぷ
##落
##半
##会
##疵
##届
##侮
##林
##山
##御
##寺
##철
##산
##長
##ゆ
##加
##欣
##橘
##祗
##術
##正
##洋
##陸
##法
##期
##塗
##聯
##я
##ö
##武
##ひ
##廂
##止
##壇
##室
##瀬
##弘
##咲
##捨
##根
##ა
##ვ
##ი
##თ
##倉
##琲
##待
##欠
##禅
##銭
##司
##饌
##ふ
##記
##貴
##千
##毛
##峡
##日
##椿
##д
##м
##漸
##嘉
##藏
##取
##송
##정
##涵
##浪
##真
##球
##札
##-
##ג
##盛
##塾
##大
##図
##澄
##雄
##袴
##帰
##芽
##覚
##清
##炎
##簡
##竜
##言
##休
##吉
##針
##脱
##雑
##氷
##州
##=
##)
##抜
##辻
##娑
##起
##孝
##笠
##幹
##逐
##公
##滝
##歌
##強
##介
##迎
##貫
##栗
##賃
##ᠠ
##ᠩ
##ᡥ
##ᡝ
##ᠣ
##ㇼ
##習
##泉
##切
##渟
##状
##喰
##海
##画
##歴
##ē
##상
##북
##도
##刈
##'
##基
##疱
##詰
##湾
##ָ
##כ
##ֶ
##ם
##住
##捏
##幕
##х
##宗
##昏
##喪
##死
##景
##峰
##金
##博
##Ā
##관
##前
##俊
##남
##자
##拔
##ת
##ب
##ا
##族
##条
##ь
##放
##白
##蔵
##주
##비
##向
##訶
##波
##闍
##提
##寄
##百
##戻
##夏
##Ø
##費
##陰
##才
##>
##ä
##宏
##潤
##円
##文
##収
##閑
##瀞
##直
##隠
##設
##ū
##回
##房
##虫
##先
##琦
##嶋
##穏
##森
##崎
##尊
##脚
##奪
##伝
##相
##短
##筆
##料
##案
##週
##操
##沼
##舎
##沙
##像
##譲
##朱
##別
##尻
##ą
##男
##桜
##荊
##澤
##虎
##袋
##ַ
##ק
##ּ
##ו
##ֹ
##ד
##ש
##ׁ
##断
##昭
##妙
##黒
##疾
##ó
##知
##背
##植
##染
##永
##、
##労
##済
##池
##ゅ
##華
##刊
##事
##奨
##藍
##呆
##陀
##書
##唱
##悲
##瓦
##積
##園
##名
##輪
##害
##締
##康
##払
##紋
##肺
##成
##擅
##駅
##跡
##透
##伏
##尋
##坊
##准
##苦
##時
##ů
##念
##復
##夕
##段
##地
##探
##ú
##型
##走
##旦
##杏
##」
##อ
##ิ
##ง
##เ
##ย
##ב
##ע
##鍋
##井
##初
##培
##米
##融
##選
##償
##ž
##ć
##韓
##浩
##夢
##次
##策
##勒
##教
##陵
##柱
##帳
##邈
##斗
##窯
##母
##鎧
##松
##ê
##容
##電
##枯
##濤
##替
##梱
##雨
##刺
##勘
##効
##尺
##य
##ल
##翅
##寛
##院
##宮
##島
##服
##ǐ
##様
##引
##忠
##皿
##∂
##ò
##誦
##曲
##豆
##汚
##弾
##産
##ざ
##佑
##駁
##梅
##烏
##賊
##応
##区
##朝
##眼
##箸
##浮
##獣
##氏
##朗
##富
##追
##研
##多
##岩
##持
##ế
##ヶ
##丘
##為
##気
##祐
##闇
##章
##臣
##免
##英
##熱
##鼻
##懼
##烈
##衾
##揚
##光
##春
##理
##便
##建
##襴
##隊
##賀
##剛
##途
##碁
##ف
##س
##哉
##造
##似
##帯
##師
##境
##ɛ
##狩
##官
##連
##即
##菜
##要
##畑
##議
##喬
##ï
##辺
##酸
##点
##羽
##解
##د
##ق
##銘
##砕
##湖
##ʒ
##ə
##倫
##ü
##衡
##ύ
##δ
##ω
##魂
##丁
##찬
##換
##ほ
##མ
##་
##ག
##ླ
##ི
##ང
##ར
##ོ
##沫
##謝
##檀
##綴
##遊
##南
##総
##溢
##系
##居
##業
##暑
##曳
##謀
##劇
##求
##疫
##季
##鶴
##婿
##想
##将
##思
##ư
##環
##保
##依
##床
##臭
##्
##ग
##奈
##ל
##ח
##מ
##禽
##이
##지
##ṣ
##字
##弥
##戦
##東
##卵
##吾
##付
##関
##高
##描
##感
##自
##顔
##麹
##孫
##徹
##性
##縁
##刻
##昌
##値
##改
##ṇ
##ī
##経
##회
##撃
##ぜ
##。
##織
##ع
##ه
##視
##楼
##巻
##売
##毅
##垣
##乗
##ŭ
##ي
##ن
##腕
##霜
##韻
##盲
##麺
##交
##璧
##史
##리
##는
##프
##에
##요
##蓋
##喜
##友
##調
##老
##裏
##э
##п
##帝
##並
##迂
##董
##支
##鹵
##姉
##験
##鳴
##ð
##置
##광
##了
##指
##棒
##試
##拭
##興
##鮎
##貞
##炭
##年
##資
##広
##籠
##府
##聴
##港
##滅
##稽
##禄
##ě
##網
##艶
##規
##า
##จ
##ะ
##ไ
##ด
##้
##พ
##บ
##ธ
##菌
##è
##硫
##来
##跳
##拍
##黄
##燾
##ר
##ה
##糸
##洲
##革
##綱
##士
##緒
##特
##糜
##ص
##亮
##ė
##와
##시
##마
##七
##稜
##延
##火
##傷
##増
##珪
##仕
##涙
##計
##叙
##ج
##伊
##伎
##題
##渡
##報
##្
##រ
##ា
##ព
##宿
##過
##霊
##恵
##反
##館
##集
##.
##ы
##漁
##眉
##形
##近
##旛
##暴
##箱
##去
##科
##詞
##終
##壊
##의
##俗
##味
##à
##ヅ
##โ
##ม
##ส
##ฟ
##ุ
##ต
##ล
##ท
##ป
##ğ
##길
##剣
##ˌ
##동
##狭
##射
##示
##邊
##識
##粟
##航
##表
##疲
##і
##看
##ی
##م
##倒
##ء
##蘇
##横
##剤
##車
##布
##坪
##例
##楨
##女
##診
##継
##ט
##棋
##冠
##的
##่
##็
##น
##彬
##脳
##鏡
##隆
##額
##斎
##雲
##世
##沈
##О
##Ц
##И
##А
##Л
##С
##Т
##Ч
##Е
##К
##Х
##筒
##釜
##対
##夜
##駆
##純
##衆
##腔
##鎬
##蛇
##露
##髭
##順
##約
##装
##斜
##邑
##兆
##穴
##属
##当
##會
##酵
##後
##抱
##瀉
##乃
##聞
##祭
##騒
##浙
##左
##留
##妃
##賛
##空
##婷
##認
##庚
##竄
##圭
##ถ
##ี
##ว
##ค
##懸
##如
##棺
##雅
##े
##躯
##社
##鳶
##洙
##窓
##ぺ
##斑
##抹
##幡
##/
##;
##訓
##鞘
##鳳
##維
##繕
##憑
##働
##果
##葬
##丼
##護
##嶺
##権
##唄
##玖
##腹
##映
##ł
##瘍
##伍
##予
##邪
##鬼
##得
##速
##稀
##카
##控
##工
##胴
##祖
##宝
##職
##兼
##磁
##麻
##殻
##齢
##漢
##ᠪ
##豪
##া
##ম
##진
##”
##奕
##我
##ō
##棗
##問
##販
##岸
##婚
##澱
##邸
##ñ
##討
##鞋
##登
##亀
##무
##공
##훈
##장
##嗟
##熊
##鱗
##燃
##執
##早
##否
##共
##寇
##格
##類
##פ
##재
##민
##酉
##辞
##婦
##客
##接
##彰
##雪
##檜
##姿
##懿
##紙
##企
##痛
##軍
##ν
##繰
##ś
##г
##月
##臨
##砂
##玲
##首
##雀
##結
##消
##覧
##体
##妻
##縄
##庫
##適
##狂
##洗
##籍
##詮
##飯
##粒
##謨
##退
##타
##揮
##束
##塔
##縷
##悟
##旗
##淡
##派
##û
##斯
##脇
##ු
##ව
##න
##්
##ත
##ප
##営
##隅
##実
##医
##萇
##咩
##戯
##違
##枝
##啦
##肢
##誌
##蝋
##仏
##菲
##矢
##狐
##答
##礁
##編
##盤
##器
##υ
##β
##τ
##η
##爛
##塁
##古
##押
##繇
##頗
##競
##紗
##曄
##裳
##嫁
##酔
##怨
##希
##晩
##賤
##稿
##棚
##礼
##淳
##諧
##制
##窟
##任
##苑
##台
##征
##α
##ψ
##ό
##列
##骨
##濁
##舟
##潟
##耶
##ß
##従
##妹
##έ
##μ
##載
##幣
##証
##活
##父
##聲
##甲
##丑
##右
##畜
##圏
##ိ
##ု
##က
##်
##း
##ရ
##ာ
##掃
##兀
##杭
##願
##É
##*
##ぇ
##混
##燈
##ώ
##แ
##์
##殿
##ṅ
##輝
##κ
##眷
##鮨
##斧
##憎
##仁
##絵
##撰
##奥
##託
##功
##М
##З
##配
##級
##請
##貨
##欲
##位
##餡
##遂
##襲
##劣
##際
##槻
##僕
##於
##菱
##|
##鈴
##截
##承
##ぁ
##ර
##ා
##ද
##ි
##ය
##丹
##愷
##評
##寂
##尼
##蹴
##没
##ù
##模
##ʃ
##ˈ
##算
##頃
##度
##焚
##仰
##栽
##고
##ํ
##察
##汁
##勲
##廃
##市
##壹
##→
##ز
##ф
##蚕
##霧
##ぱ
##懐
##欧
##続
##賢
##麩
##変
##庇
##랑
##ǔ
##整
##粥
##犯
##痕
##ئ
##争
##闘
##ぴ
##「
##堅
##巳
##修
##○
##聖
##紇
##叔
##銀
##著
##郡
##福
##ň
##固
##ю
##受
##ш
##일
##우
##유
##鉋
##淵
##−
##기
##囚
##蘭
##ゐ
##青
##銅
##誠
##ర
##率
##校
##租
##螂
##〜
##辰
##전
##œ
##灯
##商
##枷
##敬
##巡
##飾
##午
##倹
##煉
##娘
##災
##ت
##گ
##鬚
##━
##┳
##┓
##審
##麓
##ช
##ั
##架
##拠
##ヲ
##損
##स
##म
##僧
##ъ
##ո
##ж
##折
##絃
##餅
##П
##訴
##娼
##籃
##製
##漬
##舌
##六
##裁
##暦
##咬
##冷
##揺
##踏
##限
##逃
##성
##희
##干
##娥
##炊
##芳
##未
##駄
##窩
##憲
##】
##년
##充
##在
##穂
##堤
##阿
##晴
##개
##대
##趾
##新
##藤
##諾
##̃
##恨
##菊
##‘
##紀
##賽
##郊
##茂
##判
##廟
##麦
##箙
##계
##함
##辛
##â
##歳
##ी
##歎
##娜
##吒
##峻
##騎
##核
##捜
##桐
##移
##鶉
##響
##曜
##腿
##미
##情
##ø
##薩
##翔
##苔
##等
##佳
##伺
##焦
##廉
##扉
##冰
##彩
##ã
##坑
##謙
##難
##踊
##頂
##煙
##密
##拙
##紫
##峠
##血
##ற
##்
##க
##ா
##ட
##ு
##駒
##以
##憤
##ŋ
##開
##潭
##索
##謔
##은
##貉
##誤
##撓
##畳
##協
##睦
##吐
##綬
##忍
##桶
##戌
##裡
##榜
##領
##Д
##歿
##喩
##惜
##茅
##嘱
##}
##忌
##勅
##毒
##爾
##逆
##軻
##着
##馴
##ş
##層
##亭
##鮮
##棟
##\
##신
##慨
##桂
##却
##터
##頊
##触
##栄
##域
##炉
##諭
##紺
##ì
##니
##코
##아
##乱
##磨
##旻
##存
##臼
##誑
##援
##頓
##封
##!
##恐
##儀
##酒
##Б
##ờ
##壺
##挙
##徐
##狼
##ё
##堵
##焼
##慧
##њ
##燕
##鹸
##匹
##항
##梁
##승
##還
##儲
##蹟
##沸
##剌
##秋
##葺
##兄
##魚
##衝
##을
##翰
##秘
##ǒ
##観
##Ž
##襟
##弓
##添
##万
##幌
##眠
##臂
##精
##俘
##國
##俵
##ǎ
##槿
##魁
##釈
##鉛
##毘
##斐
##胤
##ṭ
##角
##飲
##私
##浸
##ɑ
##瞰
##乞
##四
##張
##己
##艦
##塩
##﨑
##兴
##遭
##比
##擦
##舘
##鷯
##均
##仔
##へ
##宕
##孟
##乳
##ס
##杖
##障
##省
##湯
##:
##『
##ु
##ă
##狙
##涼
##傑
##曽
##ḥ
##肝
##撒
##削
##絶
##敵
##恩
##謡
##易
##प
##茸
##同
##蓮
##弁
##抄
##窪
##槊
##棄
##弯
##보
##통
##윤
##위
##刃
##癖
##猛
##淑
##洪
##署
##毓
##団
##腸
##종
##국
##ك
##恭
##童
##帛
##牙
##読
##翁
##煮
##監
##遮
##那
##惚
##扇
##使
##詣
##濃
##隈
##祠
##頴
##栖
##界
##倖
##惑
##ं
##द
##ү
##廬
##慮
##唇
##呑
##健
##漕
##后
##다
##善
##を
##斬
##猪
##都
##爪
##濠
##縮
##珠
##頬
##侭
##泣
##弧
##ط
##ى
##貸
##ᠭ
##ᠢ
##杯
##繍
##鷲
##貌
##態
##遺
##埜
##弐
##운
##挿
##確
##蔓
##欒
##烙
##脈
##縛
##摩
##症
##掴
##भ
##ड
##ห
##錦
##圧
##豚
##窮
##芝
##扱
##唐
##厩
##熟
##啓
##何
##写
##燁
##餓
##吏
##膏
##孔
##鳩
##鉢
##傘
##簾
##학
##鞍
##В
##Г
##У
##ゑ
##卯
##裂
##激
##称
##蝕
##蔭
##因
##巣
##墉
##遣
##軟
##噲
##兜
##鮫
##険
##需
##უ
##რ
##釐
##θ
##飴
##構
##債
##鐵
##赤
##迹
##氣
##息
##釗
##悍
##負
##猫
##寒
##紐
##塊
##π
##敏
##ʁ
##莢
##処
##彫
##ô
##罪
##昇
##全
##紅
##瓜
##•
##疹
##ő
##技
##오
##宅
##宙
##환
##深
##鼓
##温
##掲
##参
##讃
##亥
##樽
##[
##嘆
##末
##周
##峴
##及
##萬
##들
##凹
##χ
##중
##화
##嫌
##篤
##경
##皇
##肩
##溪
##嬰
##纂
##般
##畠
##丞
##粛
##戈
##誘
##卒
##祥
##轍
##嵐
##파
##트
##侍
##径
##現
##堪
##奘
##泊
##票
##粧
##捌
##Č
##浴
##徨
##瑞
##憂
##소
##휘
##騰
##瓶
##枢
##仮
##尽
##姦
##尸
##荒
##液
##⋅
##⟩
##廣
##濡
##樫
##悉
##做
##頽
##悪
##柄
##ข
##ื
##詩
##안
##彊
##授
##夷
##薄
##脂
##厚
##攘
##膜
##儺
##奠
##å
##煥
##魔
##篥
##僚
##魄
##疽
##厥
##ນ
##奴
##岐
##訪
##俎
##천
##역
##素
##串
##縫
##腱
##ũ
##ւ
##ր
##գ
##ե
##ն
##詳
##奇
##畝
##冶
##萍
##許
##榎
##莉
##翼
##委
##除
##責
##急
##裕
##墓
##襄
##朽
##階
##默
##명
##包
##貧
##溝
##+
##恒
##喚
##悳
##輌
##ნ
##築
##糖
##弦
##篇
##緑
##静
##潜
##群
##崩
##捺
##摯
##採
##蛎
##暇
##舷
##投
##街
##埴
##督
##候
##傾
##芹
##腺
##借
##異
##홍
##暎
##虐
##暖
##掌
##薯
##縋
##禍
##澳
##此
##蔡
##嬢
##當
##常
##腫
##凡
##̯
##ˀ
##ĩ
##鶏
##暗
##輸
##ヮ
##亜
##吹
##担
##誉
##芦
##奉
##膳
##偏
##涜
##歓
##鍾
##檗
##唆
##兮
##独
##係
##선
##敗
##臓
##履
##好
##雛
##剥
##瀟
##舜
##瞥
##ᡠ
##ᠨ
##褚
##倍
##痒
##르
##스
##弖
##闕
##賓
##睡
##鉾
##迷
##ம
##墅
##暁
##牧
##厭
##彼
##賜
##ぢ
##余
##雷
##弄
##巾
##劫
##ά
##肆
##冥
##龕
##震
##軽
##塞
##峯
##銃
##א
##侯
##ြ
##တ
##嬪
##俣
##昧
##佛
##餘
##ź
##愁
##旋
##柯
##庶
##浅
##瑜
##鞨
##儁
##椒
##捕
##危
##邀
##噌
##伽
##噺
##瓏
##敦
##靖
##蠍
##軸
##財
##嶽
##撲
##ح
##餉
##儡
##柩
##茎
##膝
##育
##瑁
##鍬
##피
##隋
##哀
##蜥
##蜴
##漱
##把
##廠
##概
##貿
##熙
##ज
##़
##享
##ề
##齋
##祀
##溶
##愈
##杼
##泰
##笥
##æ
##致
##腰
##擾
##循
##阪
##項
##罵
##若
##湿
##Я
##閬
##ி
##ர
##வ
##玄
##媽
##砦
##準
##瑤
##嵩
##統
##鎖
##菟
##蠡
##爽
##來
##拳
##영
##撼
##姜
##餌
##帽
##班
##璜
##導
##冊
##가
##尹
##滑
##査
##崇
##救
##麗
##益
##叢
##丈
##躍
##妾
##申
##匠
##糧
##貝
##紹
##創
##寝
##伯
##疆
##飼
##允
##覆
##峙
##徴
##桃
##糾
##推
##喝
##不
##摂
##轄
##수
##患
##濱
##盗
##ش
##芯
##講
##髄
##霖
##垂
##律
##躬
##避
##瑛
##逢
##惠
##枳
##용
##鉤
##壌
##陶
##獺
##Š
##∞
##梗
##禁
##阻
##残
##励
##্
##招
##만
##牌
##笛
##愚
##而
##柔
##杓
##硝
##該
##恬
##遷
##藁
##随
##_
##萱
##疑
##γ
##羯
##盾
##鋼
##क
##洮
##召
##績
##怠
##凝
##嵬
##詔
##欄
##辱
##寧
##箇
##문
##瞞
##椎
##灰
##尉
##頸
##句
##擂
##憩
##拝
##凶
##撞
##揃
##溟
##防
##菖
##蒲
##석
##집
##胆
##牽
##濫
##瀛
##蝶
##到
##曁
##ζ
##酢
##褄
##霞
##珉
##告
##鐘
##ạ
##腐
##珍
##賞
##빠
##攫
##鑼
##滞
##克
##蹊
##양
##온
##盆
##蕃
##課
##遁
##囲
##陂
##毎
##鯨
##噛
##溜
##伐
##騨
##曹
##錫
##祇
##胡
##음
##으
##ু
##┃
##錘
##ན
##བ
##ས
##ལ
##其
##罰
##ξ
##驚
##葵
##絡
##ன
##მ
##ე
##ტ
##ლ
##陋
##ŏ
##甸
##완
##涸
##杉
##曇
##炸
##甫
##~
##譜
##鹿
##悦
##배
##筌
##敢
##宜
##今
##鬨
##璽
##叩
##紳
##播
##壱
##宰
##秒
##隣
##株
##喉
##坎
##于
##ћ
##巧
##棠
##耽
##檎
##縵
##ố
##⇒
##但
##摸
##邏
##ý
##冲
##契
##媛
##杜
##苗
##挟
##就
##仗
##羲
##塵
##舗
##蛋
##匯
##庸
##桁
##帥
##ट
##포
##յ
##ա
##ད
##猴
##憫
##誡
##栓
##虜
##禺
##錆
##泪
##稙
##蒔
##始
##礙
##凱
##ぃ
##肥
##卓
##ồ
##ภ
##泥
##당
##규
##卑
##團
##痴
##蜂
##蒜
##叡
##ầ
##弊
##寿
##碧
##他
##袖
##矩
##竈
##柿
##腑
##忘
##況
##厳
##ヱ
##隔
##ɦ
##阜
##蟻
##Ζ
##?
##摺
##楷
##ہ
##Ш
##僑
##轅
##垢
##髏
##慢
##奮
##吻
##粋
##咽
##ө
##검
##협
##旨
##渠
##弼
##“
##麥
##埕
##葛
##汗
##榮
##<
##税
##〉
##َ
##어
##ھ
##枚
##匱
##현
##ை
##ய
##त
##坐
##郭
##蕷
##준
##赦
##鴉
##侵
##條
##弔
##搬
##ະ
##ວ
##ເ
##ດ
##猿
##Р
##蒙
##沿
##ᡞ
##ण
##橇
##碌
##순
##逸
##述
##櫃
##巨
##庄
##亨
##勧
##穎
##疸
##騫
##罠
##鞭
##襷
##酷
##宥
##楡
##閉
##圃
##標
##乾
##快
##枕
##卉
##掻
##威
##遇
##약
##사
##婆
##螺
##桝
##牟
##邇
##곡
##巌
##顕
##蓑
##具
##単
##埔
##繭
##供
##碑
##絞
##遍
##輩
##红
##،
##寓
##巍
##槌
##鄴
##彧
##掘
##籟
##失
##棲
##戒
##陳
##黍
##狄
##礬
##珂
##湊
##藻
##ɴ
##互
##址
##痍
##渕
##訂
##ї
##湛
##厨
##嘩
##爺
##閲
##하
##坦
##經
##巫
##慈
##宴
##李
##刷
##峨
##顧
##蛤
##鰭
##廓
##迢
###
##股
##叛
##綽
##酛
##ू
##व
##稼
##ᠷ
##ᠤ
##籾
##邯
##ի
##ʊ
##汀
##撫
##〈
##疏
##嘗
##瓊
##渇
##ộ
##泡
##姪
##鷹
##്
##覯
##懲
##椰
##ː
##髴
##吟
##蜀
##ị
##縦
##獄
##埋
##邕
##ผ
##醜
##篭
##淀
##호
##迦
##씨
##幽
##婁
##衰
##盃
##究
##ぉ
##寮
##桓
##迫
##琶
##ო
##錨
##ְ
##礪
##肴
##盧
##团
##遼
##箚
##ە
##杵
##帷
##冬
##芷
##匡
##©
##壽
##醇
##ک
##鴻
##朋
##禦
##淮
##င
##呉
##錯
##杞
##ơ
##ப
##건
##榴
##堕
##渉
##顥
##个
##畿
##緻
##қ
##세
##析
##鴎
##노
##卦
##蚊
##鋒
##胃
##瑪
##惣
##癬
##&
##芻
##弗
##補
##寡
##淄
##芋
##ყ
##ţ
##妓
##邨
##战
##册
##ɡ
##ɪ
##茨
##践
##逓
##ន
##函
##薔
##隘
##楯
##併
##稟
##副
##聚
##魯
##躁
##倶
##沽
##煩
##글
##奚
##恥
##바
##胸
##금
##崗
##冨
##麿
##窒
##臥
##煌
##兒
##槍
##迪
##蕩
##筰
##猷
##餞
##鍛
##笹
##掖
##璋
##殖
##稲
##靴
##贋
##凛
##綜
##莎
##浚
##雍
##洄
##蘿
##墨
##ㇷ
##غ
##箔
##誨
##朮
##悠
##是
##淪
##櫓
##戟
##나
##恋
##煎
##幇
##鄙
##獲
##框
##韮
##虚
##裟
##ბ
##ს
##吊
##沖
##簀
##燧
##더
##鞮
##妄
##鋺
##拐
##幻
##畔
##匪
##累
##祷
##碣
##微
##昔
##更
##儒
##諜
##壕
##蹄
##灘
##怪
##狗
##挫
##煕
##潔
##紮
##綿
##±
##薇
##버
##蹙
##符
##昂
##燥
##専
##蜜
##笙
##ظ
##浄
##胎
##茹
##這
##琬
##諸
##誓
##姑
##遐
##攷
##翠
##箕
##痰
##騏
##已
##籬
##筍
##缶
##ត
##亡
##茄
##且
##鯛
##勉
##鑿
##면
##허
##琴
##尚
##匙
##悶
##야
##鷺
##非
##嗇
##래
##療
##柴
##식
##교
##稔
##邉
##麟
##Ş
##實
##嫡
##甌
##痺
##覺
##Ī
##נ
##呼
##礫
##曾
##█
##琳
##倭
##ȝ
##臈
##þ
##耗
##笏
##傭
##宵
##레
##拼
##淞
##亞
##戮
##구
##堰
##ㇱ
##芥
##Э
##幢
##藪
##ʏ
##被
##堯
##蘋
##擲
##竺
##謹
##榑
##蛮
##斉
##鎚
##纏
##鼎
##邱
##ह
##薙
##縣
##滾
##眸
##郞
##해
##蒻
##警
##澹
##菘
##孚
##械
##군
##躾
##ɔ
##學
##帖
##衍
##梯
##奔
##漆
##搾
##徧
##인
##劾
##鑰
##施
##褸
##黙
##苺
##蟄
##연
##蕊
##岱
##盟
##த
##ṛ
##단
##伴
##ब
##超
##括
##♡
##酌
##菴
##怒
##赴
##舶
##埼
##乏
##卿
##謐
##Á
##擁
##ณ
##睺
##磐
##Ä
##慣
##囃
##鋳
##츠
##크
##簿
##壮
##Ф
##遥
##麵
##ख
##च
##寶
##塑
##紛
##紡
##距
##銑
##德
##醒
##爬
##蓄
##裾
##焔
##내
##痘
##樋
##闢
##ث
##鵞
##蟇
##õ
##踞
##伶
##鎌
##衙
##旭
##汐
##槽
##權
##奢
##鈞
##한
##謬
##梓
##痩
##握
##捲
##ј
##瞼
##刹
##라
##櫻
##▲
##△
##☆
##戴
##畫
##ປ
##趣
##啼
##韋
##嘴
##敞
##樵
##》
##滴
##殊
##ゞ
##悸
##毫
##@
##緘
##疇
##毗
##ụ
##綻
##縢
##悛
##旅
##勇
##砥
##여
##荼
##宸
##戍
##汎
##薦
##璞
##ĝ
##絹
##晒
##梶
##墻
##嶌
##珥
##骸
##漏
##旧
##謗
##鴨
##慕
##ᠯ
##♭
##濟
##繋
##訌
##玩
##猟
##宛
##菅
##价
##晋
##^
##旱
##姓
##艇
##妖
##晶
##厄
##菓
##刁
##釉
##苧
##覇
##đ
##萌
##洛
##●
##鋸
##汜
##ḍ
##ង
##翎
##瀧
##褥
##閥
##舒
##痔
##升
##轆
##傍
##«
##哨
##碩
##悔
##ʎ
##霰
##註
##鍵
##寵
##隨
##萊
##糞
##조
##閭
##竃
##【
##跋
##黎
##竇
##咋
##寅
##閏
##僊
##巴
##梧
##遜
##塹
##濂
##丕
##禰
##독
##溥
##宋
##ក
##飽
##塘
##ř
##Í
##悩
##膚
##倩
##皓
##洒
##畷
##訥
##朴
##跏
##抗
##秦
##평
##附
##鉈
##袱
##ो
##军
##侶
##幼
##ِ
##瑗
##昆
##태
##第
##ả
##献
##燵
##祝
##藝
##駐
##躅
##拓
##蒋
##抑
##琮
##愴
##嚢
##閣
##湫
##奸
##거
##藉
##瞳
##墳
##促
##訢
##그
##貼
##东
##皋
##筵
##盪
##岬
##ִ
##咫
##硬
##鞏
##灸
##鐡
##聟
##ು
##隷
##徽
##漿
##翦
##ல
##병
##乎
##攸
##鶚
##唾
##偶
##霄
##蔑
##排
##凄
##你
##베
##舊
##გ
##遽
##蛙
##憶
##鏞
##稠
##嶠
##ぅ
##碕
##辟
##縹
##勃
##款
##陥
##焉
##狸
##ɲ
##肋
##膿
##Φ
##萩
##ֵ
##訝
##Ο
##Ε
##Λ
##啜
##吠
##罐
##跪
##滋
##轡
##輦
##靡
##諦
##戚
##橿
##菩
##Й
##鼠
##혁
##鬘
##迅
##Ю
##愍
##昊
##彌
##蝠
##涎
##서
##汰
##釘
##觜
##凋
##諍
##莘
##甚
##偉
##姥
##脾
##Н
##餐
##裔
##ĕ
##墟
##貯
##催
##輳
##腎
##漫
##愾
##洩
##蟠
##箭
##侠
##埃
##諱
##揄
##柏
##朔
##證
##郁
##甕
##禾
##汲
##虞
##佗
##雎
##訟
##憺
##습
##甥
##蕭
##捐
##蒸
##坡
##峪
##眩
##瘤
##買
##机
##冉
##阯
##圀
##顎
##馗
##차
##双
##湍
##膊
##儘
##攬
##瑠
##ေ
##臺
##澂
##Α
##Η
##Θ
##叉
##緋
##虔
##蝉
##絆
##殴
##ę
##錕
##琰
##拵
##篆
##葱
##ṃ
##凪
##ɫ
##筏
##吽
##藷
##瀝
##خ
##晟
##鏑
##Ü
##¥
##爲
##屯
##縞
##ස
##ක
##າ
##碍
##耘
##詵
##溺
##鄯
##陕
##彭
##Π
##曰
##慰
##摘
##ச
##慟
##粽
##慄
##苓
##秤
##ْ
##ـ
##昼
##드
##ș
##력
##과
##冴
##驥
##ญ
##誼
##»
##恪
##蟹
##寨
##沪
##慌
##滓
##پ
##鷗
##蠣
##必
##决
##汽
##鏃
##祉
##舵
##巷
##拉
##韜
##傅
##Μ
##Τ
##Ρ
##Ι
##Σ
##砺
##癌
##蕗
##渾
##賑
##窠
##ᠡ
##偵
##肯
##殆
##吼
##│
##糠
##完
##矧
##抽
##訛
##爻
##篠
##虹
##울
##嶼
##渭
##آ
##繚
##脛
##崧
##І
##濮
##몬
##დ
##涌
##Ç
##{
##擬
##孜
##茫
##褻
##叟
##鋪
##錠
##筑
##枇
##杷
##疎
##醤
##薪
##棹
##ḫ
##懃
##痢
##觚
##呈
##旬
##瀚
##饒
##軌
##崖
##錮
##塀
##鯉
##새
##耐
##氐
##嗽
##說
##강
##乙
##沁
##筈
##菰
##篋
##穀
##埒
##拗
##厦
##鵄
##鐐
##灣
##چ
##禧
##盂
##梠
##苅
##勾
##怖
##燗
##부
##癒
##雜
##陘
##咳
##緬
##緊
##逅
##蔣
##涛
##躙
##両
##粕
##喙
##緯
##鼬
##俑
##ழ
##漉
##灼
##赫
##酊
##靄
##戰
##ɹ
##咄
##壷
##哥
##盒
##歪
##廳
##袂
##酪
##柚
##皆
##隻
##徭
##釧
##⟨
##إ
##諡
##頤
##驤
##誕
##靂
##°
##凸
##湘
##ệ
##ම
##傳
##絲
##祈
##總
##挽
##荻
##梢
##呰
##敖
##頡
##凌
##掩
##稚
##櫛
##剃
##屓
##胝
##惇
##棍
##물
##琛
##脩
##ʌ
##茲
##冒
##蒼
##蝦
##蔽
##抵
##擢
##腋
##步
##鋲
##鋏
##Ж
##砧
##醸
##穆
##躇
##灌
##朶
##剋
##蜘
##蛛
##楊
##拾
##嬌
##鞬
##熹
##Ö
##壜
##瘡
##菁
##兎
##俳
##馨
##牒
##Β
##Κ
##幟
##箏
##慎
##廼
##Ł
##←
##憬
##瑾
##熏
##淆
##勺
##̈
##毀
##呵
##沃
##翫
##侃
##酬
##埵
##蔀
##妊
##妬
##苫
##烟
##杲
##裸
##肘
##努
##芎
##礎
##喊
##普
##謁
##泄
##ɐ
##视
##筐
##ɣ
##莱
##蛟
##刎
##憊
##표
##鮪
##繹
##汾
##胚
##序
##爨
##鰓
##鈷
##揆
##邃
##們
##屏
##癪
##故
##粘
##广
##隙
##預
##鱒
##剝
##崙
##顗
##―
##兌
##複
##褒
##≤
##蹠
##蝮
##祚
##耀
##曙
##雇
##祢
##孺
##Ú
##Đ
##炯
##勿
##詛
##ध
##隧
##椀
##怯
##賣
##杙
##賁
##沂
##綏
##薮
##蠕
##瀾
##齬
##淫
##桿
##昱
##袢
##楓
##捉
##彪
##臧
##嘎
##槐
##廈
##刳
##디
##莞
##撻
##輯
##鉉
##墜
##淨
##泌
##賎
##恂
##ɾ
##稷
##逝
##տ
##鹹
##ᠮ
##填
##娩
##彅
##瞬
##岑
##吸
##冑
##剖
##躑
##栩
##捻
##颪
##綺
##嬛
##棘
##말
##扎
##剰
##縊
##懇
##ರ
##槨
##唖
##掾
##圓
##愿
##饉
##廖
##槓
##簪
##蕙
##凜
##〆
##涯
##埠
##秩
##贄
##癇
##譴
##甑
##貢
##羹
##蝗
##鋭
##瑙
##滔
##竿
##筮
##俸
##苞
##偃
##秣
##鄰
##屍
##訣
##嵌
##漑
##ɕ
##蟲
##套
##弋
##赛
##晦
##̓
##籤
##膠
##繊
##渣
##寔
##哺
##蘊
##제
##燮
##鏢
##据
##孁
##弉
##托
##姆
##肄
##個
##皐
##臍
##犠
##蕾
##贛
##站
##賠
##̝
##凉
##鍼
##芾
##ပ
##န
##喫
##譙
##軀
##髷
##譚
##惧
##箒
##樣
##屁
##櫚
##轟
##斛
##駕
##鱈
##র
##幾
##顆
##暈
##柵
##亙
##합
##蕎
##酎
##渦
##頚
##방
##雫
##–
##駈
##鉦
##數
##冕
##⁄
##漠
##云
##陟
##瀑
##霆
##肪
##綸
##奎
##瑯
##蘂
##郵
##逞
##蝎
##屎
##侘
##恕
##耆
##紘
##√
##昀
##忙
##澗
##衷
##諌
##﨟
##ż
##澈
##狡
##窃
##闊
##椅
##綵
##讐
##褪
##暢
##唯
##炳
##遵
##莽
##賦
##邳
##贈
##鯰
##軾
##妨
##奭
##惨
##秉
##獅
##赭
##褐
##ɒ
##猥
##ສ
##%
##啖
##穹
##頻
##彡
##蓉
##撮
##권
##립
##豹
##貂
##檬
##ʼ
##ി
##湧
##鎔
##獪
##坏
##扶
##鈿
##亦
##鈔
##萸
##絨
##堆
##戩
##掠
##緩
##蓼
##행
##황
##霓
##蔦
##嵯
##錐
##柑
##眞
##珈
##睨
##遅
##咸
##반
##憚
##屠
##筠
##鴦
##訊
##檣
##鞅
##《
##堺
##黛
##芬
##鞠
##박
##蛸
##낙
##碓
##葡
##昨
##坤
##鉞
##潼
##蛹
##燭
##蕪
##Ó
##♪
##茗
##榔
##匐
##凧
##鈍
##頌
##桧
##魃
##瓢
##鴬
##尤
##讀
##措
##戎
##硯
##韶
##飢
##ⴰ
##婢
##困
##綾
##泗
##점
##碗
##偽
##迭
##哈
##贅
##倣
##癩
##珀
##ɨ
##楚
##諫
##沌
##懣
##匝
##襦
##炙
##魎
##袈
##衞
##恤
##槃
##煤
##辣
##佚
##胱
##蝿
##既
##脆
##椏
##拡
##犀
##滄
##鮑
##雹
##燼
##毬
##鞄
##肱
##犢
##Ć
##臚
##ť
##與
##∀
##※
##択
##杢
##鰹
##携
##豫
##⊗
##◇
##법
##谿
##氈
##网
##糊
##對
##磊
##悼
##箍
##匂
##甘
##拶
##卜
##琉
##瑶
##聘
##逵
##沮
##斤
##桟
##游
##詈
##荃
##琅
##肖
##蕉
##轢
##謂
##龗
##魏
##娟
##蠱
##采
##辜
##億
##斥
##賄
##圳
##詢
##几
##礦
##穫
##鑒
##衫
##羨
##鞜
##雉
##慾
##窄
##渤
##尖
##围
##铁
##憾
##椋
##瑣
##哮
##俠
##崋
##Ż
##垠
##⊿
##袷
##瑳
##醂
##ǰ
##雁
##鈑
##沅
##滬
##扁
##曼
##攀
##狽
##瑩
##晰
##閤
##翳
##蔗
##ז
##佩
##戀
##冀
##언
##渫
##晁
##髯
##簫
##薫
##曝
##媚
##动
##瞭
##鰻
##營
##壙
##श
##간
##樊
##叶
##♀
##♂
##鍮
##淹
##捷
##踪
##臘
##悴
##黔
##ấ
##嘲
##矛
##駝
##蛾
##覈
##綰
##艙
##檻
##嚇
##祁
##萄
##欽
##璿
##巒
##仇
##枉
##璇
##隗
##燐
##各
##猾
##芒
##顯
##悧
##牲
##娃
##縒
##咎
##撈
##盈
##鄧
##戛
##杣
##鈺
##倚
##艾
##∠
##堡
##鍔
##駱
##勳
##號
##閃
##瑰
##再
##徊
##圻
##靼
##皴
##弩
##沓
##惰
##痣
##蛉
##蝣
##濯
##翻
##侑
##羣
##較
##諏
##欅
##煨
##鰯
##炮
##璟
##牘
##梔
##膣
##忽
##葦
##͡
##凍
##袍
##詡
##薗
##渝
##只
##邁
##橡
##鄭
##Χ
##恰
##彿
##苛
##兩
##咤
##熈
##墺
##詁
##緞
##罔
##諺
##娯
##俺
##嘘
##萎
##醫
##鸚
##翹
##蓬
##沱
##鑚
##吶
##魅
##馳
##錢
##喆
##酘
##殼
##甜
##ქ
##▼
##掬
##瑚
##豐
##誅
##ʧ
##敎
##靱
##褌
##闡
##瑟
##妤
##昉
##雌
##烹
##Ё
##琨
##潴
##牆
##醐
##膨
##姻
##ɸ
##徠
##劭
##鵡
##咀
##櫨
##朧
##汶
##什
##`
##跎
##拱
##泠
##貪
##徙
##悌
##槙
##揉
##駿
##毐
##凰
##♠
##♣
##幄
##體
##冤
##鰐
##尭
##脹
##撥
##戔
##鬆
##扼
##應
##賂
##晏
##蘆
##繞
##拒
##扈
##濘
##—
##牡
##箪
##遙
##續
##枡
##衿
##琿
##姐
##墾
##磋
##聾
##洱
##滸
##猩
##禹
##攣
##趨
##滉
##◎
##挺
##瘻
##毯
##牝
##覽
##竟
##疋
##舅
##翊
##燦
##靭
##嚥
##傕
##嚼
##貶
##鞴
##飡
##汝
##縅
##莫
##舫
##欺
##筝
##ʔ
##糟
##肛
##柘
##喀
##猊
##敲
##觀
##侈
##愕
##幀
##祺
##諶
##挖
##箆
##芮
##총
##娶
##鮭
##唹
##闐
##仄
##驢
##鮒
##颯
##豉
##娠
##馥
##葭
##殘
##鄲
##處
##輛
##峅
##某
##蕨
##旁
##炒
##夛
##衒
##拿
##噴
##醍
##叭
##陌
##盥
##雒
##闥
##鯱
##熕
##呀
##추
##樺
##篁
##禿
##豳
##蜻
##鑽
##ɟ
##穣
##瓠
##閘
##帙
##軛
##捗
する
いる
ある
19
20
から
こと
201
その
れる
なっ
ない
200
など
##ール
ため
日本
##ック
##ター
この
##リー
られ
より
##ット
10
##ング
いう
なる
##ラン
##スト
##ート
また
よう
あっ
もの
まで
##ーム
##ュー
あり
##ード
##ント
18
12
##ティ
199
##ョン
##ンド
11
学校
##00
でき
大学
おり
これ
##かっ
##イン
##ース
##ディ
よる
##リア
放送
##er
それ
198
よっ
昭和
##ップ
##ーク
##ション
##ージ
##リカ
プロ
##ーン
現在
##ーズ
15
アル
197
##イト
なく
だっ
なり
受け
しか
アメ
世界
##バー
東京
##on
キャ
アメリカ
##える
##する
17
時代
なかっ
16
使用
##in
##an
つい
テレ
登場
英語
196
ファ
会社
できる
おい
場合
られる
平成
##レー
テレビ
イン
コン
##ラー
行わ
選手
##ープ
ジャ
しかし
##ライ
##ar
研究
作品
##める
13
##しい
##リス
194
30
##リン
14
番組
ライ
195
##ッド
存在
多く
##ンジ
##ンス
##en
発売
##or
可能
##ルト
##カー
とも
活動
##ナー
たち
##ランド
##ーマ
##イル
映画
開始
クラ
のみ
リー
当時
およ
同じ
フラン
##al
##at
しま
##れる
バス
呼ば
鉄道
##シュ
フィ
25
対し
チャ
明治
一部
および
##ダー
スタ
タイ
時間
チーム
##es
##ックス
にて
21
ゲーム
行っ
なお
大き
ディ
開発
##ける
##ニア
代表
取り
発表
出演
22
##リーズ
##イツ
##シア
ドラ
##ic
アルバ
193
開催
大会
オー
以降
同年
だけ
地域
参加
24
変更
##ステ
アイ
##ャー
ニュー
スト
フォ
関係
##ナル
23
##がら
さら
##レイ
せる
シリーズ
所属
以下
用い
たり
持つ
##it
##ンター
おけ
出場
##ロー
ドイツ
自分
いっ
中心
2010
試合
担当
利用
設置
##クター
##is
アルバム
##オン
出身
ながら
##サー
記録
多い
##ッチ
192
フランス
音楽
コー
さらに
以上
国際
中国
大阪
##しく
なら
かつ
##クト
##ウン
##シャ
##ニー
株式
引き
一般
行う
事業
2009
サン
##ブル
##ょう
攻撃
自身
リーグ
2011
##ーズン
2007
ステ
考え
2008
高等
生ま
28
シーズン
26
監督
##ンバー
2012
優勝
##フィ
##ーツ
アニ
必要
委員
かけ
##デル
27
収録
ウィ
中央
女性
##ソン
##ングル
31
アン
##まり
##he
##ビュー
フェ
##ベル
グル
卒業
知ら
2013
##パー
2006
スペ
マン
##レス
##le
2014
務め
##ジオ
29
教育
ラン
設立
##ウス
位置
文化
社会
イギ
情報
事件
2016
ジェ
2015
地方
問題
イギリス
##めて
ほか
##スタ
##フト
自動
いく
都市
キャラ
ただ
ブラ
シングル
通り
アニメ
##ファ
2017
##マン
サー
とき
191
ジョ
うち
##して
##ion
##フォ
##el
##ールド
世紀
計画
ほど
##上げ
サイ
高校
##わり
ショ
シャ
##ータ
戦争
##as
##ネル
##わっ
同様
影響
販売
##ラス
##ーション
2005
結果
最初
##ロン
2018
##ou
ウェ
作曲
##ウェ
##ッカー
当初
##ヴァ
最終
##ころ
異な
##ol
終了
一方
##ヴィ
100
km
人間
及び
部分
以外
##ジア
##よう
建設
地区
センター
機関
人物
2000
生まれ
##キー
2019
メンバー
特に
獲得
グループ
そして
スター
かつて
状態
アー
最後
政府
##ーター
##ンク
彼女
##om
##re
##まっ
##ステム
発生
##ンタ
まま
選挙
技術
##リング
##わせ
意味
野球
経済
航空
廃止
システム
場所
年間
スポ
持ち
ところ
##ッシュ
モデル
政治
##カル
##ぞれ
##am
それぞれ
##il
デビュー
##メント
全国
制作
50
教授
調査
就任
マイ
##スター
しまう
キャラクター
戦闘
施設
構成
ブル
2004
合衆
持っ
##et
年度
決定
女子
##20
主義
向け
##ビー
##イス
##ケット
京都
ただし
名前
能力
##レン
##アン
記念
##ラム
関する
##ac
40
歴史
チェ
同時
ヴァ
全て
路線
オリ
##ro
##イド
##デン
##ザー
こう
高い
スー
設定
公開
列車
採用
デザ
生活
カー
製造
ロシア
相手
機能
##フェ
契約
合併
##us
戦い
ホーム
車両
さん
公式
190
ダイ
##エル
##ーロ
ドラマ
初めて
組織
管理
通常
エンジ
最も
特別
##ジェ
道路
入り
起こ
##テン
果た
実施
##シー
##ルス
目的
##んど
運行
シュ
出来
指定
##海道
あた
名称
帝国
たい
出版
##出し
2003
最大
ヴィ
ロー
ベル
使わ
サッカー
生産
##ンチ
受賞
議員
丁目
対する
##リスト
部隊
本作
少な
共和
##ろう
##ートル
クロ
IS
漫画
始め
##ンプ
最高
##ッツ
交通
イタ
##かり
企業
警察
そこ
##ビス
##リオ
リリー
##ンダ
##ing
勝利
##クション
対応
コミ
トラ
運転
アナ
搭載
与え
基本
ライブ
##コン
海軍
ラジオ
カード
188
協会
公園
##タル
189
##ーナ
一人
製作
クラブ
主人
続け
00
運動
自由
ハイ
伴い
独立
もっ
##スク
科学
時期
##ニング
##わる
パー
##ンガ
大きな
##ER
2002
事務
イタリア
完成
内容
ほと
バンド
##ッパ
プレイ
実際
主に
##ch
大正
営業
##ディング
デザイン
マル
北海道
いわ
リリース
バイ
飛行
結婚
人口
総合
含む
ユニ
活躍
##アル
ほとんど
##アー
2001
作詞
ティ
発見
ソフト
新聞
江戸
移籍
##ter
エンジン
インター
自ら
小説
予定
特徴
以前
##かけ
##イトル
参照
専門
宇宙
レー
成功
一覧
##ッグ
編成
ジュ
##チャ
##がっ
決勝
##モン
重要
バー
構造
入っ
##テル
##ヤー
神社
JR
しまっ
理由
##ディア
完全
##付け
性格
提供
様々
ウォ
ミュー
行動
オープ
1990
サービス
カップ
マー
連続
##ay
加え
000
##ビア
##ed
ビル
プレ
初期
##リック
よく
時点
再び
タイトル
異なる
経営
評価
187
##ワー
ネット
スーパー
導入
##ルフ
スポーツ
文字
言わ
挙げ
of
35
改称
対象
運営
##nd
子供
##ギー
イベ
##AN
設計
開業
すべ
チャン
移動
期間
##ティー
ちゃ
規模
データ
人気
##タン
##ad
指導
新た
非常
とっ
##クス
指揮
スク
##ーカー
撮影
もと
連合
病院
すべて
付け
企画
認め
不明
ファン
ひと
支援
cm
ここ
表示
そう
1999
イベント
紹介
##ig
表記
##古屋
クラス
##まる
##id
名古屋
装備
述べ
##IN
2020
##ピック
ライン
フリー
舞台
国家
ボー
##バル
##トル
国道
工業
45
変化
ブロ
程度
##000
結成
レース
環境
##ゅう
競技
国民
大きく
##os
##BN
##ur
法人
由来
展開
男性
##入れ
##わら
物語
学園
距離
広島
##ッジ
工場
##ation
以来
共同
mm
インド
労働
多数
教会
1998
番号
ISBN
##リンピック
団体
ミュージ
ヨーロ
プラ
##ot
県道
電気
NH
関連
##ON
テーマ
1980
サイト
##ボール
強い
全体
ほぼ
方法
ヨーロッパ
文学
果たし
レコ
##じる
作戦
ジョン
写真
##ミー
コーナー
CD
追加
銀行
のち
カル
ローマ
いず
60
##込み
##じめ
グラ
くる
小さ
高速
##らし
##ストラ
天皇
少年
##プリ
楽曲
試験
乗り
##ir
##マー
自治
レイ
息子
議会
##込ん
##込ま
過去
##ent
言葉
統合
スペイン
1997
事故
限定
##ンパ
アク
##ルド
NHK
空港
陸軍
アレ
打ち
The
入れ
地下
1996
##シャル
裁判
##キング
##らか
死去
##いは
どう
見せ
韓国
会議
オリジ
St
周辺
大統
大統領
アップ
アジア
地球
協力
国内
##AR
形式
##けれ
##ショ
演奏
##ウンド
整備
通信
発行
区間
##ッセ
##ウム
会長
思い
オリジナル
ワールド
自然
##げる
連邦
オリンピック
横浜
装置
ちゃん
普通
ドル
福岡
32
ぶり
##ag
ロック
ユー
美術
候補
支配
建築
##iv
同じく
II
いずれ
初代
対戦
社長
48
大戦
少女
##ギュ
##太郎
エン
誕生
##um
方面
##なり
##ow
1995
##チェ
使っ
トン
組み
##ドル
原作
民主
36
##ジー
引退
##BS
種類
べき
劇場
状況
1970
##ヴェ
タイム
あるいは
効果
##リエ
##イズ
##シン
生徒
立ち
経験
動物
掲載
行い
専用
登録
運用
唯一
しよう
##んな
好き
含ま
##メージ
制度
発足
##かる
##スコ
破壊
##ゴン
仕事
産業
成立
##ネット
##ガー
学生
シェ
ター
ホール
トップ
複数
映像
1993
ベース
千葉
確認
ステージ
##なっ
本部
1992
繰り
出し
大臣
なけれ
輸送
##AS
郵便
##イント
エル
基づ
##em
186
配信
元年
移転
##たり
近く
やす
スピ
タイプ
ハー
形成
##un
主張
付近
生き
朝鮮
人々
比較
表現
##えば
ファイ
33
##im
##デュー
個人
途中
1994
死亡
##パン
ごと
##ec
県立
##ジャ
部門
条件
##ジャー
メートル
反対
編集
新しい
##78
工事
王国
アフ
行政
##od
入る
勝ち
編曲
スカ
報告
ニューヨ
家族
受ける
言う
料理
クレ
モン
##AT
ニュース
34
##ダル
1989
ニューヨーク
ヴェ
中継
追い
朝日
選出
##レーション
主要
合わせ
##ia
正式
拡大
取得
オープン
IC
ベスト
1991
発展
図書
復帰
直接
保護
業務
FC
プロデュー
ます
現代
目指
切り
##ーリー
以後
男子
系統
##st
##ウト
##ルム
フル
フレ
魔法
ガン
##ティング
方式
成績
本人
連載
九州
所在
いい
アド
##ちら
##ばし
付き
有名
開設
##クロ
描か
つけ
##替え
店舗
##ネス
方向
言語
##ut
スコ
500
##ラル
バージ
競馬
55
ゴール
使い
##ポート
武器
観光
父親
38
##ッション
##こう
##サン
1988
##ズム
##セン
##OR
司令
##ap
施行
パイ
国立
##つけ
フロ
続い
食べ
1987
大型
##がる
呼び
プレー
愛知
南部
きっ
作ら
行き
求め
##ゆる
##チュ
スタジオ
はじめ
##ントン
Ch
あまり
公演
##プト
本社
もう
俳優
芸術
80
博士
関し
コース
電話
選択
精神
##かし
シン
人民
率い
##キシ
周年
含め
##ul
メイン
編入
##リティ
向か
地上
ギャ
デジ
つつ
地元
後半
進出
カナ
です
ジャン
迎え
##合わせ
オン
得点
分類
事実
新潟
務める
##リーン
アラ
バル
ワン
雑誌
示す
選ば
41
the
##oc
特定
本線
作家
##キュ
##ジェクト
##and
フラ
生物
##ンドン
組合
近い
批判
特殊
##ールズ
外国
42
支持
##デオ
プログ
##らい
1960
In
37
流れ
取締
ピア
将軍
被害
オブ
復活
艦隊
思わ
平均
カリ
##がり
1986
神戸
アンド
防衛
よれ
地名
翌年
コンピ
ポイント
ツアー
植物
##イア
イス
ゲスト
1985
##ES
入学
トレ
##メン
##BC
女優
##せる
やっ
なか
決め
台湾
アカ
細胞
購入
kg
メーカー
王座
所有
DV
すぐ
直後
系列
##EN
市民
増加
医療
惑星
カン
ハン
実験
障害
43
ページ
原因
##ジュ
シーン
敗れ
バック
電子
##ースト
##なわ
ルー
レベル
##合い
あたる
ドライ
中学
電車
1984
メディア
44
関東
##セス
70
##リート
リン
ロンドン
##らく
グラン
39
無い
キー
バラ
設け
##IC
高く
クリス
加入
##ウル
各地
##50
商品
仲間
パリ
神奈
安全
フジ
基地
建物
住民
政策
東北
代わり
説明
関西
達成
配置
わた
行為
DVD
沖縄
##レット
##ークス
成長
1982
通じ
市場
ホテル
内閣
派遣
改正
パン
政権
離れ
カメ
出会
従来
##ウェー
90
旅客
長崎
静岡
記述
延長
ダム
モード
##ak
##トロ
温泉
スケ
##ガン
##AL
神奈川
作り
##ers
明らか
失敗
シー
語っ
エネル
発電
作業
停車
呼ぶ
拠点
同社
経由
##イク
コンピュー
土地
速度
標準
##シング
使う
製品
少ない
グレ
歌手
in
建て
##av
制御
山口
例えば
##ロス
ビデオ
太平
##なる
兄弟
ロボ
長野
ユニット
##ルク
上記
ギリ
強化
海外
富士
巨大
レコード
エネルギー
CM
北部
ガス
機体
改造
残し
##AM
違い
ソング
仕様
軍事
レギュ
年代
化学
連盟
##op
少なく
トリ
独自
太陽
空間
面積
1983
言っ
46
##スタン
##出す
一時
プレイヤー
停止
##ッケ
きっかけ
##ウンサー
分離
##ピー
トラン
プロジェクト
形態
軌道
アナウンサー
##IS
作っ
処理
福島
イラ
なし
47
競走
埼玉
オール
投票
##ov
戦後
1972
規定
継承
ブリ
バージョン
978
本来
##込む
デジタル
ヒット
ポー
中華
分野
置か
##ランダ
理事
##ri
##ストン
セル
指摘
イメージ
示し
記載
伝え
安定
母親
比べ
法律
実現
残っ
言い
同盟
かなり
マーク
創設
解散
##ub
##ニュー
至る
##ュニ
作成
おら
ブランド
周囲
商業
定期
機械
革命
パート
二人
落ち
紀元
名誉
##ゲン
レギュラー
エレ
##ロット
主演
接続
貢献
パラ
報道
強く
51
見る
記事
新設
300
近年
反応
描い
刊行
1975
制限
部屋
米国
##OM
スパ
##ルー
##AC
トラック
維持
トゥ
共通
ミニ
集団
ミュージック
古代
1981
オフ
まと
1979
住宅
##ウェア
統一
##ce
披露
理論
##スティ
アイドル
機構
スタート
博物
集め
th
相当
1978
条約
##ブルク
毎年
##ピオン
##返し
通称
いつ
資料
##ニック
ランド
参戦
たら
イング
交差
意識
限り
ルート
レス
書か
岡山
##VE
民族
##og
##ッフ
ボール
スキ
操作
命令
オーストラ
カラー
エリア
内部
段階
責任
書き
自体
要素
優秀
TV
ヶ月
交流
##ディー
オーストラリア
シティ
予選
学院
文庫
現れ
訓練
##ーフ
クリ
##ab
交換
昇格
詳細
##ンズ
1973
殺害
1971
##ウィ
エア
##ie
脚本
農業
TH
全員
続く
ブルー
役割
伝統
陸上
キング
展示
感じ
カナダ
コロ
挑戦
メダル
ジョージ
友人
##OS
振り
コンサ
読み
##th
ちな
家庭
勢力
オランダ
皇帝
貨物
つく
本名
逮捕
宗教
長い
体制
##しくは
鹿児
ライト
身長
##ジョン
##ッキ
鹿児島
性能
##リアム
ストーリー
判断
単位
基準
大陸
主催
ノー
演出
1950
49
宣言
1976
##ill
53
進め
58
コード
##ダム
##ard
##ワーク
##掛け
みな
ダン
回転
観測
奈良
ダイヤ
思っ
前後
医学
向上
解説
##EC
行く
ポジ
せい
生まれる
熊本
つな
減少
1969
##立て
起き
範囲
継続
開通
ソ連
兵庫
1968
貴族
TBS
取引
チャンピオン
原子
良い
54
広く
当た
田中
認定
通過
##シェ
en
地震
##ワード
1945
出来る
プリ
##ずか
あれ
##ブリ
1974
ブラック
首都
訪れ
コミュニ
de
一緒
コンピュータ
仙台
扱い
現役
スタイル
やま
全く
1977
動き
##ミア
コーチ
発言
ミサ
伝説
##ファー
キリスト
声優
治療
TO
##ーネ
##エン
##ボン
前作
ギター
得意
##eb
課程
鈴木
キロ
結ぶ
要求
小学
校舎
中村
会員
52
しょう
備え
ヴォ
##ショナル
もら
勤務
ST
体育
帰国
提案
さま
札幌
終わっ
禁止
アフリカ
定義
あら
知っ
ショー
再開
##マス
除く
アト
定め
得る
戻っ
プロデューサー
プログラム
始める
##ッサ
しまい
異なり
小型
スペシャル
まだ
岐阜
首相
##ガル
##バイ
ロード
連絡
セント
カメラ
なさ
分割
##やか
更に
防御
##切り
フォー
セット
消滅
がっ
##AP
185
用いる
指す
けん
立て
##ine
回復
##ra
騎士
1967
起こし
更新
##ニス
制定
隣接
##ッキー
フィリ
電力
発射
もしくは
マネ
欧州
スタッフ
しばし
工学
##ッカ
##ell
ダウン
後継
かか
インターネット
ポジション
巻き
改革
消費
##出さ
##FA
ソロ
主な
負け
1964
ウィリアム
様子
らしい
モー
大字
##ist
パワー
西部
世代
基礎
毎日
メジャー
名乗
知り
##igh
グリ
同一
対策
東海
1000
長官
改良
向かう
進学
##ーチ
SP
向かっ
移行
62
既に
##続き
コンビ
しばしば
ペン
投手
イングランド
秋田
諸島
兵器
出る
1965
危険
戦車
国鉄
Re
年齢
飛び
##ナム
##テム
##ミング
##レント
##クラ
ずつ
##そう
##かい
推進
自己
インタ
当選
依頼
##ミン
主題
##ーラ
ドラゴン
近代
単独
レッド
知事
##ンスター
カバー
ニコ
分か
収め
始まっ
押し
車体
建造
1966
連れ
長男
すれ
##おり
サイズ
THE
エイ
Al
56
st
週間
ユダ
吉田
エピ
デュ
消防
あたり
衆議
海岸
184
いわゆる
まし
##est
任務
オル
バン
ラー
チョ
刑事
後述
小さな
投げ
文書
管轄
キャン
半島
命名
オス
一定
57
亡く
##バート
駆逐
##テナ
出現
書い
ダンス
##ルン
到着
ブレ
マシン
応じ
対立
画面
資格
保険
助け
芸能
置く
視聴
##らす
##くり
保存
傾向
ポーランド
指名
確保
フォン
アマ
サポート
佐藤
教師
青年
アイテム
トル
機器
中止
ランキング
ピアノ
ナイト
演じ
カラ
##とう
共産
困難
大量
戦士
解放
##ジン
著作
幕府
会場
旅行
1954
わずか
##トゥ
児童
##ID
##ビン
##BA
##ティスト
阪神
ハウス
急行
ほう
土曜
コント
後期
ヘル
)-
区域
実行
##ッコ
リア
練習
ジャパン
##レンジ
やすい
ロボット
作る
進行
起用
1961
与える
##ip
400
作用
石川
1963
東部
記憶
無く
##ヴォ
ユダヤ
1947
処分
理解
##ct
タウン
##トン
##all
低い
判定
師団
1948
身体
1955
デイ
価格
すぎ
前述
いち
供給
始まる
##ob
##ゼル
##ess
ボス
##ノン
##・ア
在籍
##ーニ
ミサイル
##ダン
乗車
ルール
目標
##ポン
サラ
パーク
階級
目指し
ネットワーク
民国
感染
##IT
リーダー
オペ
本塁
意見
##AD
ファミ
180
64
ラグ
立場
##ッター
スマ
##ーブル
##ok
エンディング
マク
属する
通算
一種
##カン
アス
注目
伴う
##フォル
分け
日曜
1944
体重
形状
An
有する
75
話し
物質
街道
趣味
元々
資金
##リアン
ゆう
##ジル
どの
対抗
青森
##ind
平和
物理
出す
山田
##ジアム
金曜
##ケーション
61
か月
エド
ムー
思想
愛称
計算
吸収
##art
捜査
通し
##ET
機動
##取り
売り
任命
河川
準備
直前
設備
撤退
59
PC
##OL
教え
固定
##バン
アシ
開幕
もっと
ばかり
創立
##チン
##リーム
引き継
バトル
模様
領域
南北
憲法
1959
信号
初回
##ツィ
リス
63
##ども
健康
徒歩
1949
わけ
連隊
休止
爆発
##ストリア
新宿
入団
##ッピ
##ブン
アリ
もた
前年
特急
##US
##NA
##ッシ
183
出力
合計
コンサート
リング
##ソード
1962
アカデ
US
ルイ
##グラ
##ザン
執筆
徳島
置き
幹線
遺跡
潜水
##シャン
ブロック
占領
大分
普及
空軍
弁護
##ンマ
学会
まず
シナ
残り
民間
コレ
アーティスト
記者
##ケル
チャンネル
天文
生命
ナイ
両親
入社
取っ
なん
一番
呼ん
寺院
##トリック
FM
金属
FI
新人
歌詞
地点
崩壊
Ar
機会
過ぎ
##持ち
とり
免許
インディ
地位
学科
##セル
ブラジル
大きい
65
##UR
##ik
1956
伊勢
1943
##ルトラ
##もと
エス
富山
##イオ
グリーン
ヒロ
##80
1940
呼称
本格
犯罪
コマ
1941
姉妹
徳川
Pl
小林
期待
見える
互い
敗北
自衛
持た
松本
同日
率いる
ガー
和歌
日間
無料
組み合わせ
サブ
解決
許可
あい
せん
シル
同士
##換え
ライダー
山本
三重
危機
必ず
審査
知識
認識
希望
##ッハ
公立
##一郎
エピソード
ブレー
大幅
未来
球団
短期
##OW
ポール
##ンサー
##10
1958
##キシコ
失っ
1930
ベイ
ちょう
川崎
上昇
宮城
送り
くれ
エリ
宮崎
やや
哲学
##ざま
1952
and
医師
収容
##サス
##ろし
判明
AT
検査
##ミュ
##っと
つき
今日
変え
大和
注意
スコット
トロ
市街
##ライナ
イラスト
べく
ビジ
次第
ジャンプ
##フォルニア
さい
上位
落と
襲撃
交渉
##かさ
優れ
買収
##でに
パス
ボク
ジュニア
##ran
ライフ
マイル
停留
戦う
楽し
結ん
テスト
モンスター
遺伝
登板
どちら
高橋
##if
##ort
##ルツ
アカデミー
公共
区別
負傷
イスラ
Sp
すでに
ウルトラ
再生
トンネル
名義
用意
1942
合流
始まり
##タイ
ハード
タレント
ヘッド
分析
背景
ヘン
逃げ
通っ
カリフォルニア
北緯
弟子
概念
まつ
ミス
置い
You
大半
表明
##ーグ
##サル
臨時
プロレス
クロス
検討
調整
少し
進ん
Bl
ヤマ
十字
武装
続ける
十分
命じ
大使
グランプリ
拒否
開校
やが
テキ
神経
##トリ
有効
シンガ
だろう
書店
過ご
結局
藤原
ダブル
清水
閉鎖
##エスト
##ue
##ターン
南西
1946
おお
乗っ
香港
コンク
仮面
合格
強制
改善
流れる
##ーンズ
Sh
試み
鎌倉
##ge
##ティブ
サイド
果たす
分布
空気
録音
オープニング
権利
##ノー
##シス
じゃ
たく
イオン
マスター
現場
衛星
##衛門
1951
##ーマン
メモ
適用
##ーブ
提出
各種
講師
##ne
オーストリア
戦隊
携帯
##ian
カット
スウェー
テロ
積極
スイ
一族
インタビュー
やがて
前身
興味
スウェーデン
##チャー
三菱
表す
##ンタル
がっこう
福井
ディー
よし
前半
現象
##ッテ
プライ
次い
動画
場面
150
スペース
モノ
往復
規制
食品
移管
住む
兵士
##メートル
スクール
加盟
方針
護衛
##ud
1953
不足
増え
##UN
変身
竣工
こそ
クリア
トレー
自転
##ワイト
アウト
伊藤
合成
自宅
藩主
##スタント
アプリ
人類
手段
メキシコ
患者
現実
守る
拡張
アイル
##ブラ
ケース
創業
殺人
カール
スキー
差し
##ピン
推定
チャート
PS
中部
秘密
しん
クル
司会
海上
##レート
否定
案内
歩兵
集合
アレク
BS
多かっ
オーディ
バレー
メル
共演
##パス
マラ
描写
フィールド
ノル
低下
執行
統治
北西
燃料
##ティック
1957
やり
ベト
古い
軍人
##ベルク
##ight
付属
あと
先発
左右
##ity
かかわら
ラテン
指示
##ルタ
クー
市長
##レーター
ソフトウェア
ウェブ
すなわ
ヒト
リスト
すなわち
国会
笑い
信頼
金融
オート
フライ
プリン
支店
深夜
##イヤ
##イム
##ドリ
サウンド
専攻
バンク
マス
生じ
略称
遺産
原則
##ログ
送っ
##io
##ッタ
パーソ
De
ドア
結び
掛け
毎週
駅前
属し
数多
学習
支払
こちら
抵抗
相互
加藤
##シック
1889
作中
広告
月曜
結合
翻訳
テン
##OC
##ウント
ヒル
見つ
##ry
##ラク
プラン
死後
##リコ
##ロール
##ティア
植民
渋谷
論文
##てる
ころ
アクション
イエ
コム
走行
開か
侵攻
広場
パイロット
メイ
判決
いき
##ナイ
##リーナ
##ビエ
##イルス
ホワイト
財団
##ive
アイルランド
かん
戦略
称し
##起こ
国王
正体
##リウス
##ペン
ロケット
証明
フランク
72
Mar
本拠
GP
山形
小田
改名
ターミ
留学
表面
はず
装甲
##デー
##ate
ボタン
政党
格闘
スタジアム
見え
震災
##キン
残る
まとめ
ビジネス
だい
用語
茨城
貿易
##トラ
ファイル
価値
考える
重量
1920
エク
##次郎
さまざま
集落
##ED
##ンダム
投資
話題
Ne
強力
修道
楽器
チュー
マグ
法学
##ッズ
##ant
長く
Com
ポルト
事態
##ビル
コミック
ボーカル
四国
集中
電鉄
駅舎
トーク
実業
SH
まさ
コラ
歴任
めぐ
募集
八幡
次元
数学
王者
予備
北東
遅れ
##ph
ベトナム
数多く
衝突
##リュー
目指す
マッチ
満た
個体
##30
##ねる
シート
議論
##FC
##ティン
本編
生息
祖父
もつ
実力
申し
##イング
代理
高度
76
Le
移住
資本
基づく
どこ
有し
東経
知る
##モンド
求める
##11
##ゼン
事情
バレ
改修
##IR
ダー
テク
中間
動作
古墳
吹き
超える
諸国
至っ
暮らし
##ーマー
東西
東洋
福祉
ジャック
ワシ
##ジット
Un
つまり
感情
800
分子
無線
引き続き
Pro
シア
若い
##ワイ
##チュア
120
ケン
##組み
85
暗殺
従っ
武蔵
深い
突き
脱出
英国
フィン
バスケット
井上
86
職員
##デス
ターミナル
カイ
クライ
新田
残さ
画家
##フレ
うえ
ハリ
超え
過程
ハンド
完了
保有
将来
スプ
入手
部下
アイス
いか
メッセ
居住
週刊
受け入れ
カトリック
平日
179
##our
群馬
しゃ
協議
幹部
終わり
進む
##フォード
77
Th
ドン
各国
生み
わたっ
箇所
現地
限ら
南東
大賞
コス
ネタ
フット
天然
戦艦
渡辺
上げ
##ランス
600
地帯
従事
承認
##から
182
役所
手が
渡り
たま
外交
西側
体験
手法
##OT
再建
描く
エジ
マリア
北京
規格
当たる
上野
発着
相撲
ギリシャ
##レッジ
プロダ
協定
##per
##ゼルス
99
おか
ヒュー
着用
軍団
##違い
戻る
ハンガ
平方
投入
ウイルス
聞い
進化
##ハー
##やし
アクセス
じょう
学者
早く
発達
終点
1937
プレミア
マリ
ガンダム
ビッグ
##EL
レコー
初頭
達し
##IG
##合っ
##ントリー
リンク
住ん
放射
沿い
補助
ウェイ
PR
プラス
先生
反乱
##ルトン
くん
警備
##ニュ
##ich
ネーム
人形
信仰
発揮
相談
ちなみ
あげ
出さ
大人
恐れ
歴代
王子
##ows
SS
ヒー
機種
##ING
人生
商店
悪魔
伸び
##ナン
一切
普段
No
シャー
守備
締結
銀河
側面
応援
末期
終盤
統計
育成
輸入
全米
名付け
提携
買い
##ack
カタ
殺し
男女
基づい
リュ
全長
##取っ
きょう
ドー
徐々
シュー
昇進
要請
##II
##ord
1936
スピード
##ION
繰り返し
##コール
モチ
学ん
選抜
1939
中世
01
コロン
リニュー
終え
レーベル
オフィ
セイ
ハル
ペル
人工
決意
##ヌス
取材
世帯
変わっ
ラグビー
生成
訪問
##IM
##te
##ass
争い
譲渡
リニューアル
セレ
幼少
##ib
オーバー
66
午後
大将
さく
池田
アメリカン
ワシントン
キュー
絶対
##プロ
##ッピング
AC
メガ
ロバート
音声
##ベルト
接触
##LE
##ヴァー
議長
とう
ソウル
ミュ
標高
正確
職業
付い
操縦
教室
良く
パートナー
タン
ロス
##カイ
##セント
##ハン
##上げる
コメント
長期
##ゴル
##分け
起こっ
そんな
演劇
翌日
1938
クイズ
授与
養子
##プス
ディレ
栽培
渡っ
金沢
##立っ
古く
際し
##稲田
収入
心理
爆弾
画像
解体
##40
両方
現存
和歌山
タク
打率
##AG
授業
明る
ソビエ
冒険
初め
姿勢
ランク
下記
証券
具体
隠し
##カス
プロデュース
ドーム
ボディ
##ベット
キャリア
88
子ども
早稲田
転換
##AK
78
ベルリン
ソビエト
アウ
アム
ソー
手紙
スイス
連結
殺さ
##立つ
バスケットボール
NE
コピー
メール
参議
手術
流行
約束
芸人
辞典
178
半分
顧問
鳥取
たと
構想
沿岸
##ドゥ
73
岩手
観客
項目
##兵衛
##ームズ
傘下
女王
実質
社名
離脱
ブラン
発動
高知
神話
エジプト
同期
巨人
性質
血液
複雑
規則
いえ
エース
モスク
181
Wind
合意
多様
##ーリ
マジ
ヤン
料金
栃木
##合う
71
グロー
記さ
境界
売却
態度
はる
修正
公表
経緯
人員
極めて
私立
起点
##ボー
ブレーキ
パーソナ
武田
確立
##マル
グランド
レスト
大手
災害
講談
ごろ
たる
ロサン
午前
##ff
##ーナメント
Cl
酸化
##なた
160
ロサンゼルス
アタ
取る
必殺
戦死
##コー
答え
##end
コミュニティ
プロダクション
サル
ベン
##フィア
仏教
ポルトガル
ハンガリー
義務
##ain
##ボード
コル
上下
曰く
##キャ
即位
太郎
緊急
類似
ウク
下り
##つき
クイ
守護
社員
エンター
悪い
Su
ダメージ
書籍
ドライバー
LI
ブレイ
ロング
活用
附属
##21
##ver
##ect
ユーザー
スティー
先行
単行
夫人
扱う
死ん
##ブレ
容易
小さい
あらゆる
アント
ドゥ
レオ
##GM
1933
モチーフ
づけ
トーナメント
山梨
快速
最多
本当
来る
蒸気
キャッチ
けい
両者
病気
頭部
##AY
順位
##たい
働き
回避
ギリシア
自殺
ジョー
放映
止め
監視
駐車
##クル
評論
1928
テニス
尋常
##プレ
##々木
BO
材料
##ロード
サム
予想
しば
国勢
恋人
搭乗
赤い
##之助
1934
95
すら
構築
激しい
##フィック
ブログ
コア
会話
称号
解釈
##の子
トイ
脱退
##レル
##ッス
ポート
ロン
主力
創刊
悪化
改札
数字
次男
開い
##テイン
##バス
68
AS
センチ
上映
先端
外見
敷地
##ピア
##シップ
MC
コメ
加工
道具
##ah
87
上陸
北朝
古典
よい
##ウェイ
もっとも
スカイ
Am
ウル
様式
混乱
##RE
ハート
攻略
違う
##セプト
コラボ
モーター
出会い
中山
圧倒
帰還
ゴールデン
ゼロ
ロゴ
区分
国境
対決
##シル
フィルム
さえ
爆撃
続き
##ly
##ない
III
戦国
連携
##ン・
ウクライナ
パル
ワイド
働い
出入
##たま
##シュタ
ナンバー
ライバル
com
おこ
アート
劇中
伯爵
##ミス
スラ
併設
暴力
##パート
ステーション
オペラ
整理
シナリオ
変換
ホイ
再度
史上
復興
現れる
##se
およそ
フェル
ニッ
象徴
ドラム
バラエ
74
後方
短い
ハム
ラブ
優先
防止
##オス
##どり
誘導
##ンバ
まっ
劇団
測定
称さ
たび
とど
一致
上海
外部
1935
保持
聞き
西武
利益
かわ
リチャ
一体
改め
異常
##ast
ジム
財政
関数
##キア
トルコ
メッセージ
ヒーロー
MS
差別
輸出
##サイ
04
一員
確定
##リル
##らえ
ディスク
たか
メカ
勝負
在学
装着
1932
フィリピン
分かれ
トライ
交代
重視
##ーバー
見せる
投稿
著書
##az
ショップ
Windows
佐賀
##ーナス
交響
作者
興行
許さ
##ステル
マイケル
ゴルフ
小野
本体
##ld
寄せ
新型
最近
ごう
シカ
保守
##プラ
意思
戦線
一家
割り
明確
##メイト
##サイト
東側
ファッション
かかる
ユース
千代
黒い
ジャズ
05
700
効率
参謀
当主
探し
平安
戻り
新規
柔道
電動
##直し
##ice
アレンジ
団地
##三郎
先輩
出走
著名
関与
コレクション
83
EX
主体
問わ
通う
ジャケット
ウィル
ガラス
合同
木村
##ルター
for
公認
##・デ
##ライト
しばらく
SC
ポリ
会館
滞在
81
98
再現
台風
有力
深く
##ong
奴隷
##ミニ
レコーディング
デモ
書房
単純
申請
ミュージシャン
96
TR
推薦
月刊
聖書
##たく
あき
不詳
回数
歌っ
突然
トランス
とる
##なし
##ラント
スコットランド
レストラン
89
北側
木曜
SF
過ごし
Tw
上部
入口
半ば
受験
##テッド
##ケン
##PG
176
67
下部
##セット
ヴァン
ローカル
02
修了
子孫
支部
##ライズ
ヘンリー
タッグ
以内
印刷
盛ん
空中
愛媛
違反
##ルズ
1923
北朝鮮
06
SU
マスコ
入れる
組ん
##EM
##ang
にく
エディ
大隊
妖怪
戦っ
有限
温度
考慮
関心
##ージュ
てる
ひろ
バイパス
出発
幼稚
##ロディ
取り上げ
1927
もともと
##age
イスラエル
Pr
キック
遠征
##ーレ
ヒロイン
82
中野
時計
石油
##ドン
##ナルド
##EST
ファミリー
##テインメント
ワイン
幼い
##越し
コール
動産
直通
オーディション
キン
権力
費用
ボル
##ニャ
トヨ
ピン
退職
##ノス
##クソン
ディズ
スケート
させ
南側
印象
怒り
恋愛
敗退
最低
火災
球場
ジャンル
デンマ
短編
苦し
解除
跡地
インチ
1931
1926
引き起こ
クレジット
デンマーク
下車
入力
学ぶ
少将
離婚
##回り
250
チャールズ
69
Gr
トム
ドロ
抱い
##フス
##んじ
##べる
リード
振る
来日
決まっ
駆け
異なっ
リチャード
イー
分岐
故障
##さい
##ートン
ドラフト
合戦
##フィー
アニメーション
振興
英雄
##チェンジ
DS
Go
とおり
メン
同級
##ber
##受け
文献
ディレクター
東映
沿っ
看護
##向き
ニッポン
ケーブル
##サンド
##回る
##ストロ
1929
03
当日
流通
負担
##ボル
##ite
コート
スリー
##TR
177
射撃
1924
亡くなっ
92
信用
白い
除い
##イナー
##チス
170
ジェット
むら
スーツ
太田
簡単
親友
予算
侵入
##man
##ンジャ
En
ラム
##リズム
##oh
食べる
08
CH
パターン
岡田
配備
マネージ
パフォ
衣装
角川
ビット
楽団
通行
モンゴル
モスクワ
84
Be
Se
ビーム
マガ
信じ
活性
##ith
山脈
次々
コンセプト
市内
##チョ
あろう
まる
デス
宝塚
措置
##ナス
##KO
失わ
学年
##IL
もち
フリ
依存
当たり
言及
部品
黄色
ストリート
パーソナリティ
任意
委託
引っ
意図
試作
該当
ヴィル
フロント
いけ
プール
再会
収集
あなた
触れ
##チュー
取り戻
デー
上り
屋根
##ネシア
##もり
かた
代わっ
忘れ
生涯
線路
議席
まち
ノース
包囲
松山
漢字
起源
##ニン
##・マ
##ial
スタン
79
所持
抜け
特性
証拠
##レンス
テキサス
Br
Con
撤去
##止め
スポンサー
出来事
##ide
91
クリー
地図
天使
育て
マイクロ
AK
ゆえ
既存
重ね
願い
##ST
探偵
自社
##iz
屋敷
言え
ディズニー
ゴールド
夫婦
神宮
走る
##pp
取り扱
1925
天王
総督
##ブス
##one
##ase
ドライブ
一連
不可
##qu
##フォーム
くれる
たけ
倒し
別名
回収
##プター
キャスト
##ore
スパイ
落とし
トヨタ
NT
全域
到達
用途
絵画
読売
Play
上田
伝承
観音
##ix
1919
インターチェンジ
しも
学び
座席
当該
滋賀
生じる
高級
##ンジャー
##ッケージ
タンク
今後
代替
無人
訴訟
##AA
##立ち
##ティス
1922
リスナー
AV
GT
中島
伝える
折り
接近
気持ち
nd
出馬
前期
思う
援助
日常
##ッパー
スリ
タンパ
メタル
教皇
粒子
菓子
行方
高松
エンド
エクス
修理
移り
語り
##ちゃ
##なか
ファンタ
バラエティ
ノン
循環
##KY
シャル
分裂
家臣
##センス
ケイ
国土
##アイ
##oy
起こる
コスト
ユーロ
厳しい
大佐
継い
記し
長年
##ヘン
アミ
パッケージ
兼ね
占め
経路
続編
タクシー
CP
##ツェ
取り入れ
塗装
将棋
後ろ
##当たり
不良
マルチ
住居
共有
分解
前方
抑え
##ミネ
ジェームズ
トレード
IN
天正
怪我
才能
犠牲
##uc
##アス
ショート
ポル
中期
打撃
瀬戸
資産
通る
##ッティ
ライオン
クラシック
ベルギー
うる
変形
推測
気象
終わる
選ん
えき
した
ソン
##ヴァン
##フェン
アシスタント
ラウンド
借り
変わら
##モア
110
##クトル
ジェイ
##ンパス
しょ
アブ
国有
平野
当て
応用
##ure
##ンチン
オプ
全面
田村
ミッション
学区
盛り
観察
##しろ
ませ
キュ
最新
訴え
診断
##くま
##っき
もし
ホー
肉体
追放
##ジョ
101
175
トー
佐々木
方言
立っ
ML
ゴー
再編
##ポール
ブラウン
今回
犯人
賞金
辞任
##ニスト
なぜ
##OP
キャンパス
##ary
バイオ
とて
単に
最強
発明
##OD
のり
リオ
双方
周り
水曜
詩人
##・オ
FIFA
ポスト
保障
同名
直線
連覇
建立
後者
捨て
研修
言える
送信
香川
##aw
##ザベ
スマート
おそ
スロ
パソ
並び
伴っ
在住
審議
故郷
気候
He
らしく
ナショナル
ボックス
大橋
演じる
キャンプ
##ica
ガル
マリオ
封印
幅広
複合
ピエ
修行
出張
演技
##ージェ
取り付け
##ish
自民
解析
降格
##ポーター
##須賀
ホル
処刑
攻め
校長
症状
近鉄
死者
食事
##下げ
出会っ
AR
定着
素材
記号
コンテ
シリア
ブック
原題
解消
資源
進み
1921
チェンジ
インディアン
出資
近郊
1914
3000
As
ごく
つか
地形
学術
安打
表彰
##らさ
##つい
ch
ざる
つける
司法
示さ
##ox
デル
属性
財産
一環
参考
取扱
地理
大名
発掘
DJ
ナポ
モル
仕え
区画
短縮
自主
あたっ
シカゴ
ボーナス
実装
挿入
森林
突破
養成
イラン
ヤング
低く
扱わ
日記
期限
民営
西洋
閲覧
##ウッド
##おう
コンパ
##ace
タワー
勲章
架空
##リット
キャプ
1918
起こす
ソニー
ダーク
パーツ
メトロ
令和
前田
国防
埋め
庁舎
造船
5000
功績
実績
##ラ・
##まら
##ens
ディス
ステークス
1917
フットボール
93
Te
ガイド
創造
少数
特典
Co
##ーマンス
09
ピーター
宣伝
後任
無かっ
独特
苦手
##ft
バレーボール
カウ
成分
文部
総理
親王
手がけ
全線
端末
ボーイ
SE
いた
三角
出席
##ペーン
##UT
ウィン
マイナー
##ock
巻き込ま
さくら
合唱
運航
領土
基づき
冒頭
想定
死刑
チェコ
ワイ
奪わ
掲げ
焼き
130
SM
##プル
LO
下位
会見
図る
説得
転じ
##ジラ
##ウォ
アマチュア
コムーネ
たとえば
ツー
マレー
次ぐ
近畿
避難
開館
小さく
ファイナル
トイレ
パフォーマンス
ハワイ
夜間
日中
水戸
認可
##・エ
##ug
##ire
プロモ
ジャイ
Ph
バリ
損害
気づ
警視
##IA
##IP
フレーム
広い
栄養
退団
##ライン
##しま
##ond
to
ガイ
上級
市川
批評
番地
マイク
##ational
中隊
同月
報じ
派生
火山
祭り
要塞
閉店
##クタ
はじ
発音
移民
証言
音源
##ャン
##itter
AN
BGM
ミラ
働く
国外
衝撃
##22
##チア
フェア
##tern
プレゼ
スキル
固有
大西
戦時
救出
織田
越え
開店
##ドロ
Dr
ドキュ
乗客
相続
##ソー
アルゼ
##ギュア
パソコン
KO
いえる
ミリ
山崎
教員
除き
レーザー
FA
ピンク
中日
勃発
勉強
抱え
損傷
文明
高山
##チル
ファースト
やすく
ロイヤ
北陸
正面
レーダー
友達
決める
##バラ
##かす
1912
イスラム
おも
ラス
人数
助手
周波
火曜
総称
##ミック
1911
ひとり
マラソン
07
ガール
ガード
現行
足利
マガジン
OS
成田
未満
質量
他人
需要
##VA
ニー
保安
信長
倒す
春日
黄金
NP
加わっ
大宮
武将
運輸
デザイナー
接し
相模
落語
阪急
ライセンス
レスラー
パック
切れ
数々
疑問
船団
##シスコ
##フル
##っくり
アレクサンド
フィンランド
事例
実家
移植
若干
衛生
##ウルス
トラブル
うま
ミッド
ラスト
提唱
暴走
最中
課題
防ぐ
##ies
##やく
フィギュア
みんな
ボン
努力
士官
歌う
特許
甲子
駆動
##・ス
##バイス
##ゾン
##寄り
北条
反発
抗議
ポケ
リアル
上演
##St
ヤク
並行
商人
放つ
書記
##ヒー
タンパク
うた
アダ
ヨー
例外
多摩
##ネマ
セミ
事前
厚生
役員
打点
競争
##上がっ
159
トレーニング
ウェブサイト
ベルト
広域
##WA
##ワン
ロール
倒れ
小倉
158
##ory
キャンペーン
ビー
マスク
運賃
題材
##取る
##ージー
CS
チャレンジ
入院
合体
想い
戦前
簡易
##ナショナル
##しゃ
##返す
カレッジ
高田
受け継
ショッピング
アナログ
ちゅう
体系
台車
美しい
行なっ
近隣
開拓
繰り広
Sc
サス
適切
関わっ
分校
怪獣
捕虜
構内
特技
琉球
車線
電波
Ex
しれ
ヘビー
ポップ
レンズ
大野
ついに
##orld
##ube
コミュニケーション
コロンビア
94
浴び
海洋
キャスター
まん
併せ
先頭
##・カ
174
ウィーン
##oun
ファイター
したがっ
97
カム
南海
味方
描き
特集
融合
送る
選定
BL
占める
司教
郊外
降り
魔王
フォード
ディーゼル
AL
ポンド
保健
別れ
外務
逃亡
##ゲル
##レオ
165
ストライ
チェーン
くらい
エー
一旦
実用
破り
1915
かける
三島
不満
##ネイ
##ach
プラット
一帯
宇都
工作
急速
正規
水素
航路
航海
降伏
1900
ウォー
って
カテ
及ぶ
支え
激しく
疾患
頻繁
##ラリー
フィリップ
コンクリート
とても
アルゼンチン
三十
容疑
師範
艦長
送ら
サンタ
ショック
主導
函館
家督
救助
王朝
競輪
経過
豊富
コンテン
あの
恐怖
終戦
総務
若者
ウェスト
ノルウェー
Sch
仕掛け
戦力
聖堂
##なう
##ust
And
Web
ニック
慶長
木造
番台
##・ド
##60
##iss
ON
大韓
松平
秀吉
空母
行なわ
##ッキング
##ツァ
##当て
カフェ
山陽
張り
歌劇
海賊
質問
開局
##書き
打ち上げ
宇都宮
アキ
グロ
ポン
偶然
暫定
雰囲
オプション
雰囲気
ロケ
中将
##われ
コミックス
ブライ
レジ
帰っ
難しい
##ベース
##レード
##入れる
男爵
訪れる
遺体
##エー
##ークル
エレクト
ボクシング
中川
嫌い
改めて
軍隊
開放
##イラー
##フラン
##好き
1913
##ジュール
##ove
コントロール
CR
Sy
悪く
終結
迎える
騎手
ミュージカル
-)
AM
エンタ
マリー
ミル
三井
大島
存続
水系
決戦
相対
移っ
空襲
立つ
関わる
駐屯
##エフ
168
かかっ
てん
パンチ
五十
召喚
成果
登山
##pe
1910
Me
しゅ
容量
村上
歌唱
##ment
持ち主
じゅ
カス
タッチ
ベンチ
促進
169
##ディングス
HP
改編
繁殖
間違
加速
奉行
憧れ
##int
ジャー
##ath
アラブ
New
ゲート
スライ
回路
気付
生存
近づ
逆転
##ロジー
##チック
##つける
##むら
マップ
提示
話す
##ile
バイク
ゾーン
上京
並ん
任じ
旅団
権限
##ッセル
イラク
かい
カロ
ゲル
偵察
女神
家康
見つけ
飼育
##UM
173
グレイ
テル
取ら
受信
打者
非難
騎兵
向かい
コメディ
マックス
北米
売上
威力
気温
請求
雇用
騒動
##pt
##プレイ
##カリ
##ッシャー
メモリ
とら
わたり
応募
日立
日産
紛争
走り
長女
関わら
パネル
ベー
伊達
この頃
157
ステップ
LIVE
ちょ
同僚
変える
官僚
待ち
読者
風景
##ケード
##EE
ハーフ
Ad
接する
秘書
見解
魚雷
##カラ
##arl
つれ
二十
圧力
密度
横須賀
##スラ
##付ける
モール
喫し
就職
撃破
##しみ
プレゼント
坂本
施さ
若手
##イセン
主流
控え
海峡
阻止
オーナー
ポケモン
根拠
正義
正月
本土
##ii
##ence
ちなん
OF
al
ウッド
ソース
修復
北九
小川
引用
編纂
##エラ
##ier
ないし
クリスマス
北九州
Mus
Tr
オレンジ
一貫
協同
指し
示唆
都合
##たび
##わし
シンガポール
IB
ギア
地獄
東方
突入
配布
ショット
シンガー
ゆき
イル
カンパ
ハンター
手掛け
限界
魔女
##ミル
あくま
ペット
反映
感謝
排除
日々
王位
町名
番線
行事
補給
認める
豊か
魔術
インターナショナル
Twitter
テープ
当局
表し
評し
長谷
##エット
オスマン
吉野
豊田
##イルド
##ick
ヴェル
キャプテン
DC
全身
女の子
延伸
高齢
取り組
UE
Vol
サウス
ビール
乗降
会計
放棄
老人
##マイ
##ェル
オリコン
キロメートル
ふく
史料
名乗っ
cc
有料
種目
量産
##フラ
##ros
インドネシア
もらう
保育
当地
心臓
##もん
##取ら
天体
義塾
##FL
さいたま
やる
マニ
山岳
退任
どんな
乗せ
休日
変わる
度々
徹底
移し
青山
##OK
##かける
La
オーク
ネオ
上流
制覇
壊滅
船舶
##リフ
ジャーナ
でし
ブーム
レール
中断
出産
前提
同行
実況
タイヤ
IT
クロー
一郎
君主
地中
師事
ヴァイオ
Ed
博多
妨害
踏み
連勝
野村
##ヨン
1907
オフィス
コンテンツ
三振
宮殿
山頂
本店
##ドウ
あくまで
一面
小山
座標
時刻
##タウン
##切っ
名乗る
通学
陥っ
##テーション
アポ
マサ
日野
##上がり
164
メタ
ローズ
入賞
浜松
覚え
語る
高原
1909
バレエ
いま
叩き
和田
避け
YouT
MLB
アサ
ルイス
市営
数値
牽引
ヴァル
##ジーランド
りん
亡命
境内
彫刻
浦和
##とめ
##まれ
プロイセン
##ivers
##スティバル
アトラン
コマンド
アリス
庭園
戦場
語ら
遭遇
##リダ
なくなっ
163
ニュージーランド
ランプ
データベース
保管
動員
告白
弱い
慶應
皇后
##ロウ
1916
生き残
CO
スミス
トーマ
ドリーム
世話
伊豆
入門
岡崎
従業
種族
156
アルファ
おく
セー
ペア
前線
島根
認知
##テス
161
クール
上場
囲ま
閉じ
##キスタン
もらっ
告げ
武士
石井
破っ
##DS
140
アンダー
1908
クリエ
ツール
切っ
積み
署名
要因
転向
##ペル
UEFA
HD
マド
大谷
後藤
毎回
環状
装飾
スコア
##っきり
ウラ
文章
渡る
階段
##ガス
ユニバー
挙げる
ニン
##ae
##シオ
マネージャー
圧縮
変動
実践
放出
検出
美濃
##ニコ
My
UN
レンタル
下し
正解
甲板
財務
##アフ
##かく
##日市
1906
会津
山地
縮小
##久保
キス
グラス
サイン
戦術
招待
選ぶ
##クセン
##メル
##まえ
カップリング
エキ
手伝
瞬間
落下
##AX
##ert
ディア
ダニ
ニュ
乾燥
北方
広がっ
書く
東急
社団
遊び
隠れ
##ook
##24
##ハラ
マンション
三浦
削減
創作
医薬
外観
##ーノ
##さん
Col
かね
チップ
マツ
供用
制服
双子
守り
抑制
誇る
##渡し
##フィール
りゅう
フー
久保
強調
確率
黒人
155
スタンド
エリザベ
ふる
スロー
小松
橋本
講演
ホールディングス
アプリケーション
900
がん
リスク
内側
##イラ
フェリー
プロモーション
バランス
半年
墜落
奏者
車庫
171
セルビア
なれ
出土
大気
成り
野田
飲み
##トー
##メンタ
##美子
JC
ゲージ
出典
支流
独占
目撃
補佐
##右衛門
入場
兼任
好意
流域
青い
##ベン
フェスティバル
1903
エドワード
引き継い
##Station
ナビ
リバ
内蔵
勧め
東海道
検索
混合
通貨
##アップ
167
もたらし
にくい
-』
カプ
化合
大切
容姿
敗戦
教科
消え
表紙
踊り
高野
##sh
ダウンロード
コンテスト
図っ
夕方
晩年
鉱山
##オル
当たっ
ロイヤル
SD
リベ
感覚
無視
米軍
##リヒ
##tt
ルーム
交点
前日
国連
軽量
##エム
ようやく
フォーク
トーマス
ED
ベネ
レン
但し
同人
直径
##テク
##ベニア
コーヒー
ファンタジー
MV
オレ
初演
天才
山下
廃車
消し
ストーン
ラーメン
ムービー
売り上げ
みや
ワー
主任
毛利
海戦
##ニエ
##99
##ースター
アーム
不能
人種
基盤
天保
流し
源氏
漁業
集まっ
##apan
PlayStation
アベ
ネイ
倒さ
埋葬
寄り
改装
数え
##セロ
##わさ
立ち上げ
アラビア
シルバー
コンクール
ヤード
リク
並ぶ
##っかり
##ost
じゅう
とく
プロセス
##バーグ
わたる
意向
死ぬ
沈没
着手
背中
##モス
ビュー
レディ
使える
墓地
考案
酵素
##ブロ
あさ
イリ
刑務
在位
決議
純粋
避ける
##レオン
##ヴィッド
1905
おそらく
捕らえ
落選
諏訪
選考
配属
##ノール
##バード
乗り入れ
DD
SN
シド
ムーン
三郎
動力
司馬
品種
夫妻
所蔵
水上
百貨
自称
酸素
##son
##TA
フィル
スカウト
##KYO
先駆
愛し
成人
##オー
##ail
##チナ
ブルース
ガリ
サークル
予告
修士
公社
室町
復讐
満州
砂漠
結ば
##IX
IP
せよう
ギル
視点
評議
魅力
##ニオ
##・ク
チェック
パーティー
両国
中盤
余儀
延期
車内
オーケ
カート
チュ
上杉
体力
内戦
前面
審判
文芸
##アリー
##TC
1897
ヘリコ
力士
旧制
読む
部族
重力
##思議
ダイヤモンド
征服
後輩
##BO
##ark
ゲイ
プル
役場
最古
液体
発覚
維新
##uk
##25
##ve
166
##ime
JAP
ツイン
後部
最小
河内
無理
甲斐
著者
調達
電池
##NN
125
むしろ
ノート
恒星
総裁
飾っ
鹿島
##TV
##Hz
##詰め
##ットー
##ern
##シュタイン
AP
For
バッ
事典
南方
含ん
無効
療法
神田
道場
間隔
##ドラ
##入り
インスト
しり
学問
山城
##28
しかも
フリードリ
バット
五輪
交際
去っ
向き
横断
贈ら
##・バ
TOKYO
World
伝わる
放っ
薩摩
逃れ
##IO
ダイナ
コウ
ゴム
リミ
交戦
学名
操る
水産
農民
##ビング
##ウロ
##ical
デッキ
ボート
リゾ
刺激
原理
大坂
紋章
##33
##リアル
プロテ
1896
儀式
制し
尽力
比例
理想
襲わ
コロナ
CL
DNA
出撃
炭素
福田
警戒
バイエル
ID
かみ
ターン
プレス
参入
同等
変わり
大衆
武道
##ズマ
##カンド
スターズ
プログラ
ゆく
大公
絶滅
通勤
電機
スイッチ
##メンタリー
ヘリコプター
敷設
気筒
浮か
##レム
フォース
##チャン
予測
増大
尽く
抗争
##ナイテッド
テクノ
不正
付与
拘束
構え
##ニックス
##シャー
##ool
##ージャ
##アフリカ
Joh
イェ
セブン
ボストン
レイン
上手
前者
監修
##・コ
1500
まったく
くだ
東武
欧米
配給
飯田
##アニア
##はり
##掛ける
##ound
キル
ボード
主役
予約
室内
師匠
抜き
整数
珍しい
白人
釣り
##・パ
##サウルス
##なす
タイガ
プレミアム
アプ
南アフリカ
山中
福山
##いち
出会う
グレート
あわせ
不思議
車種
##づけ
##rom
##27
アーケード
ダービー
もり
ハイン
渡し
看板
陥落
スル
バーン
ラウ
ロウ
不安
全般
勝手
外れ
大津
役者
歌舞
狙っ
調べ
論理
近衛
配下
##テネ
アルコール
カテゴ
JAPAN
ビーチ
公爵
式典
抱き
担っ
明日
確実
運河
##ep
##なく
##リード
##ont
ドキュメンタリー
スティ
チベット
ミシ
ロマン
敵対
講座
##ium
ジャクソン
クラウ
ターボ
##ーニャ
割合
喧嘩
皮膚
藤田
運命
降板
電化
電源
##hy
##ライター
プレート
##ッスル
Japan
NBA
ウイ
コイン
勤め
我々
被災
透明
隊長
##ハウ
ファー
##ork
ジェネ
ジャーナリスト
バカ
内務
出店
外野
学位
寄付
有機
##五郎
フロリダ
いろ
ヘリ
侵略
歯科
決して
物資
ならび
プラザ
エレベ
Fl
Or
がち
ルーマ
冬季
模型
謝罪
高架
##エア
##ズル
エンジニア
ヒトラー
RPG
きれ
ミステ
モニ
人格
同意
学長
通路
##23
##しき
##がし
NTT
ルーマニア
エージェ
オオ
ラッシュ
事項
斎藤
昆虫
本項
繊維
考古
領主
首位
##ウィン
しゅう
ほしい
ブー
メス
出雲
大変
天神
宮廷
専属
就い
東大
評さ
##デア
135
スーパ
1904
スピン
PV
ねん
三河
外側
客車
焼失
着陸
称する
##ux
##リュ
##amp
シュート
1890
AD
PD
vs
パナ
保証
前回
外科
褐色
覚醒
賛成
##ビジョン
述べる
YouTube
オーケストラ
Ver
やはり
スズ
モバ
ユナイテッド
人事
季節
挟ん
配慮
開き
##テイ
シャン
センチメートル
乗員
加賀
和解
探検
楽章
次郎
フリードリヒ
みず
今作
安倍
懸念
模し
眼鏡
言動
食料
##ニズム
##ann
カンパニー
GO
住友
元気
婦人
救う
東宝
正しい
立体
##ai
##ばさ
ABC
ガソ
リト
命中
天気
失い
立地
達する
##ッソ
フィート
スポット
WW
か所
ずっと
エミ
後年
松田
空手
開く
##がい
##ぐる
##捨て
Ser
イースト
京阪
個別
回答
定員
巡洋
浅草
無限
貸し
集会
##コース
##TS
##プレス
切り替え
LOVE
ドクター
ローン
単語
水道
##回っ
##馴染
115
品質
建国
暗号
熊野
築い
結晶
退社
##ナント
##落と
プロト
クイーン
ミラー
ロマ
三木
公国
削除
宿泊
小屋
近藤
重複
長岡
##oo
##ビュ
グラフィック
COM
OP
どれ
ケー
体操
喪失
担う
耐え
進める
長編
##ハイム
##ウェル
1902
クルー
下旬
中核
吉川
回想
胴体
##MS
##ビリ
##引き
ジャイアン
ガソリン
みる
ペース
上院
典型
施工
椅子
検察
演説
臨床
IV
リズム
ワーク
上回る
傍ら
歌謡
死体
込め
##ey
##stem
ミュン
いれ
そば
りつ
セン
ナレーション
五郎
余り
就航
##ナップ
##ョウ
105
ライター
1901
AKB
##ount
もん
厳しく
水中
真っ
要望
##ゼフ
##太子
##isc
レーシング
きょ
みち
アラン
アリーナ
叔父
捜索
歩行
緑色
解雇
討伐
走っ
退役
降下
##ろん
##ina
コーラス
ティー
ブロード
歌舞伎
実在
東南
正教
観点
負っ
##ロイド
##ザーズ
##切ら
ライナー
ヤマト
はら
みどり
ヘイ
付ける
国籍
定める
心配
性的
捕手
撃墜
調教
##ダイ
##ずる
アルバイト
サンフラン
##ash
起こり
##ction
すぎる
千代田
ゾン
半数
回り
序盤
救援
確か
##ton
##ドイツ
##しかっ
ブルガ
キーボード
マジック
El
カスタ
ゴル
サウ
信濃
全集
地面
垂直
松竹
業績
海水
無し
目覚
調理
追っ
野菜
闘争
阿部
##グル
##シエ
##ばす
シアター
バイエルン
サンフランシスコ
on
任期
土佐
無事
起動
##打ち
ラジ
会談
婚約
検定
盛岡
神殿
荷物
高め
こだ
させる
ナン
ピク
僅か
周期
大山
大地
定年
稼働
結論
荒川
親交
診療
##ノイ
##IV
##どう
ガーデン
あん
ミズ
使え
口径
大い
春秋
流用
総会
討ち
野生
##面目
リゾート
Car
MP
Wh
ビン
ロッテ
代行
商号
扱っ
条例
甲府
福音
##フォン
グレード
たびたび
はっきり
コネ
人権
公務
化石
濃度
牧場
##ax
##land
コンテナ
ウェル
置き換え
りょう
ガールズ
可愛
法的
狭い
買っ
1898
つながっ
チョコ
おき
従軍
法則
路面
##ズミ
##ネー
##ムス
バージニア
Lin
rd
マシ
意志
数十
日光
早い
東芝
真実
近江
##デター
##しん
##ヴェル
ブリッジ
##ツィア
きり
作画
分間
創建
幼馴染
新築
施し
望む
統括
豊臣
##ロフ
##えもん
ジョンソン
シャルル
##ミネート
ナポレオン
タイガース
Ab
Man
VS
あや
下院
寛永
技能
改組
断念
省略
親子
長らく
青木
青春
##47
##セイ
##楽部
##att
エフ
ベア
併用
対照
欲しい
飲食
##・ハ
##リーグ
ドラえもん
なかなか
コラボレーション
ラリー
国務
妊娠
法務
生かし
県内
真理
総長
衰退
譲り
##・ディ
##old
うまく
EC
なき
ふじ
シミュ
ミドル
下流
倶楽部
反射
推理
賠償
1899
##ンガー
ナチス
バンダ
ボウ
妖精
幕末
広報
職人
違っ
騎乗
##PER
##揚げ
ライヴ
フィラ
ジョーンズ
はるか
ココ
ハロ
併合
南極
歌い
滅亡
行使
##オケ
##oft
##らしい
満たす
エリザベス
ネル
尊敬
推移
祖母
習得
##66
PL
トウ
ドレス
佐世
同国
土木
抜擢
水平
発し
発症
超人
進歩
シェア
ライフル
佐世保
主宰
大塚
年末
支社
滑走
精霊
面し
##HI
##王子
モバイル
Fran
クリーム
交易
太字
本町
艦艇
行列
造ら
##バーン
ストック
シンボル
##ACK
グア
ピー
メダ
メニュー
熱帯
特化
玩具
筆頭
##ワール
##やす
Intern
アダム
ソル
ノミネート
フロー
元禄
哨戒
奨励
川口
干渉
年次
検証
航行
薬物
鑑賞
##au
##90
ジョージア
エレベーター
出口
緩和
##・サ
ストア
ヴォー
アタック
分かっ
明石
毎月
読ん
##ロニ
##ローズ
##ガニ
##ゴー
##AI
##ラト
レスリング
USS
DE
Love
an
or
クレイ
ネコ
ママ
ラップ
分散
受章
大輔
教養
異名
管弦
評判
##込め
キューバ
クリエイ
介し
原料
天井
忍者
高木
黒田
##せん
ファル
みなさ
キム
レビュー
辞職
重賞
銀座
##モリ
##ネン
##ゆき
こく
ケル
加える
島津
恐竜
母音
科目
適し
配列
題し
##31
繰り広げ
RE
シネマ
ジー
セール
中退
全部
八王子
吹替
港湾
盗塁
船体
論争
身分
重傷
面白
##ベンチ
##着い
BM
グッズ
上げる
大田
大尉
窓口
顧客
##キュー
##まし
小田原
エンタテインメント
ブルガリア
京王
尾張
朝廷
松井
治安
##ヘルム
マルクス
カラオケ
長谷川
ミネ
上空
広がる
短く
##コス
ヴァイオリン
GI
SR
及ぼ
台詞
当然
復元
筋肉
金額
開け
首長
##mp
##たん
##クトリア
1871
##リエーション
ボクサー
Comp
NEW
クエスト
ジュー
セカンド
上がっ
優しい
奪い
活発
経歴
脅威
芸名
##なさ
##張り
サンデー
アーカイ
EM
GR
つもり
シロ
人材
伸ばし
商工
拳銃
改築
楽天
海兵
筑波
老朽
要する
##リラ
ブラッド
ペンシル
引き継が
ホイール
EP
ダル
同作
排出
農林
128
ジェフ
##シェル
いじめ
ジン
バード
住み
失う
砲撃
磁気
被告
認証
都心
集める
##ron
##ザス
##AB
##ローチ
John
SL
上述
乗務
人称
将校
支線
本種
細川
統制
締め
誘拐
##OU
アルゴ
##AND
生きる
##ult
##ジュアル
ボラン
メロ
リトル
ワード
予防
倉庫
名鉄
大好き
排気
教団
新潮
水泳
流出
町内
西口
過剰
馬場
##ニオン
1873
ヴェネ
サンド
テーブル
失点
王立
##KE
インディア
##ヴィチ
ウォーター
バルセロ
ブレイク
アパート
住所
府中
成し
河口
滅ぼ
##ゲーム
##TER
明るい
マスコミ
AAA
初戦
化粧
岡本
招い
民俗
魔力
##ペラ
111
1872
マレーシア
チリ
ポケット
レンジャー
丘陵
対称
救急
牡馬
立川
聞く
食い
##ee
##ッセン
ユニバーサル
ミュンヘン
バルセロナ
きゅう
ドール
ハリー
八戸
出品
史跡
城下
特撮
白石
覆わ
返還
隊員
##ニョ
##41
##かん
BOX
CPU
リレー
上がる
住人
先代
出生
友好
対処
後退
疑い
##ポリス
##GA
##ree
アダルト
MUS
ヨハン
奪取
封じ
小島
精度
139
アンテナ
パーティ
ダニエル
くら
ゴジラ
切断
完結
定理
手続き
技法
横山
深刻
見舞
遠藤
##ッピー
シャツ
##ome
##ame
支払い
かず
だん
カントリー
セガ
ピッチ
付加
充実
呼吸
品川
多用
大河
小泉
左翼
従い
殆ど
特異
至ら
高崎
##コモ
##61
固め
強度
忠実
生態
石炭
順次
##gr
##っぽ
##切る
チャンス
アーサー
##act
イエス
ほん
パレス
リメ
改訂
水準
永遠
照明
##AZ
##ky
マーケット
OVA
シード
名詞
城主
大蔵
数百
海底
漫才
貫通
##ノフ
##バッハ
113
##ンジェ
ギャグ
ナイフ
だり
バイト
助言
半身
告知
平面
幸せ
有利
果実
桜井
樹立
獅子
追わ
##リティー
##70
たん
たっ
フード
レア
天下
学級
曖昧
育っ
講義
越後
転用
関節
##コフ
##メラ
##フィン
マンガ
##ode
もちろん
NC
Sm
いし
わかる
ダグ
ビス
前橋
姫路
最寄り
突撃
電流
##MA
##ild
スクリーン
クラスメイト
##ART
食べ物
モーニング
取り戻し
クラン
シグ
セキュ
セーブ
ドメ
ピース
リッチ
ヶ所
低迷
唱え
帽子
誤解
貴重
##oci
イスラーム
幅広い
Air
わかっ
メー
人質
今度
伊東
奪っ
少佐
東山
燃焼
石田
砲兵
集英
##mer
##ッポ
118
ジャイアンツ
Mk
TS
モント
公民
冷却
指令
掲示
敗れる
民衆
汚染
着工
花火
虐殺
解任
##ジメント
##29
##are
しろ
カレー
バグ
介入
国分
手前
振動
景観
暮らす
本物
表題
##ッヒ
##ッシング
フォル
##ヴィス
1893
360
じん
まり
エコ
日米
極端
##yn
##まい
コーポ
アドレス
プラットフォーム
グッド
ペイ
勝っ
島田
美人
西村
##ict
アドベンチ
もたらす
TKO
モロ
個々
売れ
定数
残留
河原
満足
襲い
都立
##ear
##IE
ストロ
シュタ
350
NAS
Rec
けど
みつ
ケンタ
ヨハ
一行
原田
権威
白色
監査
耐久
肖像
##・イ
##ザード
##ベート
インテ
生み出し
Is
ぶん
互換
捕獲
背後
##・ラ
##ood
##リンズ
Blu
Music
でん
セラ
ルネ
伝達
体内
債務
再婚
大王
幹事
後日
早期
横綱
##アウト
1895
見つかっ
グローバル
kW
おう
リボン
世間
加わり
商標
恵まれ
教諭
望ん
残す
##グロ
##ject
##アント
103
リトアニア
オハ
マカ
中等
乗る
備える
厳密
反面
夏季
岩波
工芸
留まっ
郷土
##ハイ
##orm
1886
##ヴェン
ダンサー
つながる
##OCK
Gu
MO
ゲー
シールド
パロディ
ワル
交付
佐久
博覧
同市
好み
小笠
種子
管制
繋がっ
親衛
顕著
##合わ
クロア
フラッシュ
セントラル
プリンス
あお
トロン
京成
代々
広げ
船橋
##ata
サーバ
1875
名乗り
マスコット
マドリード
予報
反撃
就役
捉え
理学
神聖
葬儀
##26
##44
##CE
##あい
アンドレ
知り合い
ヴィルヘルム
SA
かぶ
ロイ
同志
同型
我が
所長
細菌
電圧
麻雀
##iel
##ale
##フスキー
アプローチ
Qu
イチ
イヤー
ボブ
マウス
享保
体調
個性
列島
加わる
曲線
浜田
済み
王女
珍しく
表情
連動
部位
##リャ
##っこ
チャイ
ハリウッド
ループ
新作
要件
適応
##ミット
##抜き
153
ギタ
借金
光線
勇者
地質
小隊
押さ
挙行
旭川
株主
生前
立法
自信
遅く
##ータス
##ンプル
HE
こん
バリア
吉本
洪水
海域
異動
藤井
##ガイ
##リム
##ブリン
##つく
シングルス
##ヴィア
スプリング
リメイク
クロアチア
")
UFC
アバ
シフト
バナ
入ら
原型
受容
引く
復旧
果て
##ウンス
##ics
ストレート
1892
ダブルス
Live
っぽ
ゲン
展望
水域
特番
紅白
遠く
電磁
##af
##セフ
##左衛門
##itt
1888
##INE
組み込ま
呼びかけ
##ake
過ごす
グレン
マクロ
メイド
一気
撃ち
沿線
爵位
近世
関わり
電撃
##シスト
##UE
121
##enn
##ream
グラウンド
with
いす
かく
セク
マット
公益
太鼓
常務
探査
業界
湘南
現状
興業
##レスト
##ホー
マネジメント
まつり
シドニー
Ge
Sw
あだ
ベリー
ボリ
公的
動く
基金
思考
新しく
発注
赴任
集まり
アイランド
##ERO
アシスト
CF
ペー
メアリー
使者
出荷
努め
在任
弱点
支所
概ね
生え
##ance
##ition
##olog
ISO
1880
ユニオン
エクスプレス
デラ
パンク
下関
拉致
礼拝
稲荷
赤坂
領地
駅名
取り組み
サンダー
1876
思い出
Inst
アドベンチャー
ギタリスト
Mac
sp
不動
内野
勢い
和泉
所得
携わっ
殿堂
準々
部長
##まさ
##四郎
スティーヴ
チケット
ホット
ワークス
信者
大井
富田
鎮圧
難易
露出
##キット
##iam
##EO
チームメイト
シャトル
##oll
ソングライター
テキスト
GM
re
まい
やら
ガラ
タル
住吉
光学
大久保
守っ
挑む
探索
発信
解答
詳しく
除去
##eat
##ッペ
##ッサー
##っち
申し出
小笠原
制圧
台北
安政
対面
年金
改定
日向
熱心
識別
違法
##up
##ris
##寄せ
##ose
EN
MBS
グレー
バルト
内海
比率
製薬
西暦
見なさ
##ロック
##リオン
##ナミ
##UB
##ッシー
##モニー
##anc
##ンジョン
大いに
FR
NO
ウエ
チン
バート
ホラー
メソ
医科
各駅
四日市
宮本
標本
##通り
##だい
##ous
入れ替
1868
割り当て
System
ES
Met
ひら
めい
らん
ビジョン
ミー
レオン
浅野
王妃
秩父
警告
##ス・
コンスタン
サイクル
##ower
おと
ピット
ヘア
ロープ
名人
喫茶
因子
標的
菊池
赤色
阻害
飲料
108
ファイト
1884
1870
明るく
Bar
アース
タマ
ベッド
メロディ
不要
払い
投与
服装
未だ
柴田
洞窟
物体
辞退
追跡
運搬
151
ショウ
カーブ
##ERS
ボーイング
Univers
ピエール
CG
EU
せよ
ひろし
ジオ
メディ
介護
側近
専念
慶応
法令
隠居
音響
飾り
##グラム
##プライズ
##かせ
スタンダ
##ley
CC
パシ
佐野
剣道
報酬
市制
暗黒
次官
神学
薄い
転校
酒井
##けん
##えて
Ste
起きる
UF
アグ
カウント
ホークス
レーン
中佐
大神
契機
性別
本質
格納
淡路
火力
療養
誤っ
週末
##エンス
##セッツ
##ung
ペルシア
ヤクルト
フュー
ミックス
公募
右側
噴火
増設
変遷
多少
招集
狙う
遂げ
##HT
106
1894
わたし
出入り
RC
サト
中旬
右手
同校
宮内
待っ
把握
牝馬
符号
管区
藤沢
##ニル
##ギス
##もの
1878
##ott
ピアニスト
クーデター
吹き替え
##チューセッツ
マサチューセッツ
あし
ビート
マキ
判事
届け
川越
決着
浮上
牧師
職務
##ニーズ
##ポリ
##チオ
##らっ
##ハム
##ere
ストップ
イーグ
倫理
可決
呪い
感じる
技師
抽選
狙撃
##バキア
##ps
##チェスター
ぞう
ふた
バク
不振
入居
外伝
定時
新生
津波
症候
秋葉
策定
習慣
詰め
釈放
金庫
##コル
##yl
##ペット
##ドー
##わけ
アイデア
アナウンス
パーセント
##irl
繰り返す
チャンピオンシップ
分から
取り組ん
わが
トニー
ホンダ
上司
他社
問い
潜入
皇太子
祝日
禁じ
院長
##コロ
##・ロ
##ツォ
テレビジョン
##orn
1885
あか
ウエスト
エントリー
オタ
両手
囲碁
密か
明かさ
時折
気圧
町田
良好
落成
西方
誇り
駆使
##トリー
##ナーズ
##ホン
##ank
フォーマ
ティア
##チンコ
SO
アピ
カ国
ナム
ノベル
ハウ
パト
ロビン
伏見
因ん
年少
惚れ
本国
種別
脂肪
##ちに
##デルフィア
1881
1887
1891
##ade
All
プログラミング
なす
オイル
仕組み
会っ
先住
南京
広大
弾薬
怪人
懲役
挨拶
最適
根本
欠点
渓谷
皇子
競合
背負
見送
頂点
食堂
##ネタ
##ましい
117
##ッセイ
フィラデルフィア
キリ
セッション
タカ
トマス
ネー
ワイルド
不在
並べ
中原
任さ
出題
幼児
移さ
阿波
##ナラ
##oth
ニコニコ
エージェント
##ぐるみ
ケア
マウント
ヨーク
分かる
声明
怪物
撃退
明かし
正当
発祥
秩序
面倒
##48
##edia
1874
たけし
カウンター
アトランタ
),
お前
こなす
ポスター
レク
入植
入隊
内田
商事
変異
方程
明け
星野
没し
真面目
集配
##ノコ
##スカ
##45
##回し
ウェールズ
##ジェリア
ファミコン
オフィシャル
Op
はな
ナイン
前進
創始
官房
家系
対空
平行
廃棄
引い
許し
軍艦
##ピュ
##すけ
アルメ
タイガー
ボランティア
Ac
NS
げん
れい
アッ
アテネ
スワ
ブロン
各社
売買
急遽
拍子
支える
望遠
育ち
西鉄
##ェン
チャージ
##ames
ウィリアムズ
プライベート
ミラノ
WBC
ピーク
初版
同性
太子
安田
宣教
抱く
真珠
退官
陣営
##・モ
##タール
##リウム
SUPER
しき
てつ
カレン
ツァ
党首
国産
巡る
市電
帰り
推奨
突如
起訴
高める
##ニカ
##ネーム
##下ろし
比べる
引き起こし
ろう
仮説
兵力
合い
吹奏
由紀
目立つ
神々
箱根
##ベリー
119
ランダム
ユーゴ
1869
IBM
Jr
スモ
メリー
ルパン
兼務
右翼
土壌
増し
増強
左側
演習
警部
軽減
##bo
##ゲット
##レッド
インス
##ープル
by
やめ
わから
ウルフ
デッド
作動
債権
急激
母体
重い
飛ぶ
みなみ
楽しむ
MF
Mic
On
Will
エロ
クリスト
三田
公司
増える
実体
庶民
探す
支給
昼間
校区
立た
近接
鳥類
##リク
##ов
##よし
##ンドラ
クラーク
コンパクト
ブライアン
セキュリティ
うら
ぼく
キット
助ける
想像
担任
旅館
日付
棋士
法廷
浄土
田原
運送
革新
馬力
駐在
##シカ
##シウム
##レール
##ラド
109
フォックス
##own
ヴォル
Gre
ドリ
ブリー
付く
冷静
千歳
口調
右腕
本郷
移設
聞か
自覚
豊橋
重大
##AF
##はや
##抜け
##ューン
##クトリー
1879
モンテ
パレード
中東
初日
替え
最期
水路
池袋
笑顔
越前
##PS
##HC
##ージョン
プロフィール
##ara
145
マーティン
とりわけ
振る舞
ニックネーム
Part
かな
ハミ
パール
マケ
一目
佐伯
実戦
排水
機材
永禄
石原
見直し
退学
##ギン
##シオン
##がわ
アンナ
ベースボール
##・デ・
のりば
ヴェネツィア
at
デン
デバイス
ラフ
伊予
寿命
工程
所領
旗艦
橋梁
活かし
消化
液晶
火星
爆破
著しく
起工
農場
陰謀
陸奥
頻度
骨折
##res
##HS
##ゆみ
##ックル
タイミング
##row
##フェル
シェル
ドロップ
##テイメント
スタンダード
こんな
ゴン
ノイ
公衆
博し
奇跡
撃沈
政務
木材
町制
白鳥
真相
自作
##35
##じみ
##討ち
##早く
107
カルロス
##ava
すみ
アール
ツイ
力学
功労
市販
帯び
絵本
角度
還元
鶴見
##ナイト
##ヒト
##ヶ丘
##ぱい
##ディアン
##ini
ブルック
アロ
ペルー
共著
内陸
円形
拒絶
文政
書類
松尾
梅田
決断
視覚
那覇
##und
##デント
##KA
##ミナ
##とり
##ディス
アウグ
ディスプレイ
シミュレーション
こども
サント
上方
主砲
乙女
今井
射殺
弾き
彗星
得票
打っ
格好
満了
薬剤
記す
貧困
順番
##ッラ
##ュル
##がく
102
##ンドゥ
フェイス
ドメイン
DR
カブ
マリン
リム
優位
単一
好む
安藤
抜い
摂取
理念
野党
量子
##サギ
##ドニア
##ハルト
##0000
##ディン
##ator
##ヴィヒ
アーキ
ギャラリー
次いで
BE
がわ
アパ
トリオ
倉敷
工科
打席
日蓮
早朝
穏やか
舞鶴
金田
クリスタル
落とす
バンダイ
アーカイブ
-」
mi
せき
ボイス
世田
伊賀
体格
宝石
損失
最上
東口
盆地
矛盾
絶望
賭け
開戦
##エゴ
##タス
##タミン
##ソワ
##ヴィル
グラフ
カウン
セルフ
ムス
中京
乗組
二塁
割引
合理
実態
志願
招き
歌わ
正常
殺す
水雷
治世
熊谷
白山
知的
苦労
金銭
高層
##メット
##ホール
##ヶ谷
##ett
ペンシルベニア
じょ
つる
もらい
仮想
南米
寄生
川上
手続
本田
正室
真言
防災
##me
##デート
##UC
##休み
ブラウ
##ife
リュウ
4000
BEST
テイ
バブル
ボルト
ポンプ
左手
擁立
桐生
泣き
目論
稽古
紀伊
##ーシ
##レア
##押し
##タイプ
ハンドル
ポルノ
すけ
シベ
ボウル
両側
化し
羽田
車輪
都内
金剛
間接
##上がる
116
##ンスク
##ータル
##ヴィン
リクエスト
つとめ
ウー
ウイング
ゼネ
リース
便宜
孤立
斉藤
注文
石垣
被っ
陽子
魔物
##ケート
引き上げ
##ヴァル
コンピューター
Comm
MUSIC
イレ
ソニック
デュー
一撃
傾斜
取れ
同局
変数
天国
山陰
幽霊
悩み
激怒
計測
誘い
語源
農家
##マト
##sk
##ヤン
1600
##ツィオ
とどまっ
AB
DO
中田
丸山
保全
化け
協奏
名づけ
巡っ
常識
換装
日高
焦点
発する
直轄
貨幣
赤字
##ジウム
ストラ
オハイオ
世田谷
BR
RS
ザン
セリフ
リタ
久留
如来
射程
島式
後世
教官
武術
気味
首脳
##・フ
FL
ばら
クモ
サクラ
ツッコ
モリ
リック
基幹
奪う
弘前
強盗
投球
時空
森田
楕円
町域
管内
製鉄
間違い
風呂
##・シ
##46
サーキット
ベルク
"(
App
NET
コラム
ハナ
ベクトル
ミン
ユリウス
他者
会合
元素
出向
北口
名目
岩崎
平等
必須
没後
輩出
通商
##ピング
アンティ
##ign
じゅん
International
Par
アーク
オカ
バッテ
フロン
マント
一見
公会
単なる
厩舎
嫌っ
山内
平凡
廃校
斬り
本多
正しく
永久
狩り
狩猟
継ぐ
著し
血管
##エス
##ius
##ビィ
##さと
126
フォワード
ヴァイ
タイムズ
##ATION
セリエ
ダンジョン
ハド
安芸
実写
小沢
新曲
移る
農村
金子
髪型
##・ダ
##デリック
##リッツ
##43
##ドルフ
##和田
あだ名
NA
pl
キラ
一門
不全
先祖
公布
収益
安価
忠誠
松原
美女
##明け
##88
アイヌ
##able
##ECT
武蔵野
プラスチック
Har
こなし
しっかり
サク
ナル
パチンコ
リモ
司祭
奪還
学士
対峙
情勢
採択
有馬
略奪
菩薩
負う
題名
##LD
##ほん
##ほど
##ana
MVP
AG
GB
PA
がた
ゆかり
イブ
チーフ
ハット
制約
同地
抑える
繁栄
腹部
英文
載せ
造り
鉱物
##ナ・
##のり
アルミ
##ローラ
##サンダー
##ogle
チャンピオンズ
たくさん
きん
まれ
スラム
タラ
パキスタン
マイン
リポーター
不二
呪文
大森
子爵
客員
寛政
小売
気動
流入
目黒
薬師
郡区
##テレ
##sp
##ジング
##ます
受け取っ
##ino
サンディ
グラビア
##ENT
取り扱い
きち
エスト
ドコモ
中毒
主教
任ぜ
別府
南端
好ん
止める
河野
破損
調子
警官
迎撃
逃走
適合
1800
##フィールド
フェラー
マルコ
ターゲット
プロテスタント
すず
シニア
バリエーション
入会
全車
動機
動詞
執政
家老
救済
本数
染色
見事
触媒
返し
重点
##49
##カーン
##もう
アンリ
##red
プレーヤー
ナイター
アントニオ
ユーゴスラ
Cor
Mo
UP
イノ
ドミニ
マニュ
一塁
井戸
八重
写本
初出
卓球
成る
暴行
水力
砲塔
聞こ
軍用
返り
鳥居
##ロル
##いろ
##つか
123
##リアス
オブジェクト
IM
MR
ME
Mag
MHz
レシ
下げ
中立
寄与
幾何
教える
旗本
校歌
検事
欠場
氏族
浸透
表さ
駅伝
##ype
##way
220
##ラスカ
ヴィン
バーグ
6000
Gl
Ind
Off
RO
アジ
エリック
カジ
シンク
スプリ
タバ
テー
ネク
バト
加算
帰る
役職
招聘
植え
軍勢
遊撃
門下
##DA
##ink
インパ
シェイ
パイプ
ちょっと
アルゴリズム
Cr
Pe
WA
さき
さか
すす
もはや
ハイド
マール
中津
元帥
大村
天候
常陸
御所
押す
持続
楽譜
異例
知名
組む
踏襲
転落
鎮座
領事
##ビッド
アンソ
##ATO
スケジュール
プリンセス
小田急
##ords
ha
かかり
サマー
ジル
リバー
位相
利根
合法
回っ
始動
工夫
流さ
絶え
艦船
難民
##マラ
##ピオ
##さき
リーチ
引き分け
チェル
アップデート
フロア
##ave
ライオンズ
ゾンビ
しの
ダッシュ
ドナルド
ブドウ
公安
動脈
塗り
多発
宇治
客室
常連
木製
木曽
水野
津軽
燃え
競艇
順序
##ress
##ML
##ラシ
グルメ
もうけ
ノーベル
ハインリヒ
バッテリー
750
Mi
Rob
たかっ
ハマ
中型
乗用
倒産
先進
冠し
増刊
官位
役目
教区
直営
祖先
秋山
緊張
西宮
諦め
##ke
##ボーン
##ヌー
##わす
##ons
##ーマル
バスター
ステン
アドバイス
Inc
ブレード
差し替え
##リューション
先駆け
ください
8000
JA
ray
エビ
シチ
ビートル
主将
代官
和平
好評
孤児
巡回
愛情
有形
生育
苦戦
鎮守
高まっ
麻薬
##マーク
##ハンマ
##がみ
##ヶ原
##ファン
オリックス
WOR
ne
pro
おん
なつ
ゆり
イカ
オックス
コック
崩れ
従兄
所要
捕食
標識
津田
貨車
追う
##ケイ
##fer
##ひろ
##渡さ
##ンドウ
149
フランソワ
きょく
LED
いん
カツ
カタル
センサー
危惧
基調
大夫
始発
真田
郡庁
##ニウム
##替える
1883
アフガニ
TOUR
エンターテインメント
フォーマット
TD
アビ
タブ
ピカ
ミカ
北上
千里
年上
放置
木下
田舎
素晴
西郷
過激
鉄筋
##バマ
127
##ita
コミューン
ドラゴンズ
スティーブ
アフガニスタン
Mr
カザ
ソード
リサ
一角
単体
反論
寄贈
州都
日程
決まり
自立
自在
見学
遺族
邸宅
高岡
##シナ
##ward
133
フェン
##フェクト
追い込ま
Google
Ass
パシフィック
ユーゴスラビア
のび
スープ
パパ
上限
天満
寸前
時々
狙い
皇族
砂糖
辞め
釧路
陸地
集積
##ソル
##ナウ
##CO
ウィーク
ハイパー
##ジャン
トランプ
##ハンマド
オマ
コク
パワ
マニア
具合
勧告
及ん
地蔵
多大
宰相
広まっ
書院
演算
矢野
越える
那須
銃撃
馬車
##・ヘ
##ys
##NS
##KI
##こと
キャップ
フランツ
アーチ
イエロー
めぐる
引き起こす
AI
ねじ
のぞ
テイラー
パウ
レバー
上がり
再発
勇気
吸い
四郎
増やし
家屋
掘り
竹内
触れる
途上
道徳
##ダーズ
##ise
亡くし
とくに
丹波
主席
依然
就く
常勤
斜面
本堂
歩道
民放
産地
田園
登記
虐待
詐欺
長調
駿河
鳥羽
##ma
##ラマ
##ブライ
##わしい
##インズ
フランシス
##let
入れ替え
##ALL
VTR
ar
ex
テール
仲良
入部
出港
大友
据え
方形
残存
知れ
納言
総額
行える
豊島
##ウマ
##じょう
##返さ
フェリ
##ヴィー
JRA
トゥー
まんが
BBC
War
sh
あて
くろ
とん
セラー
一宮
交互
代数
免疫
北軍
国語
型式
専務
改題
数列
田辺
蜂起
行なう
裏切り
補償
調節
踏切
##ドール
##ald
ダイア
入り口
スケール
インディーズ
##プレックス
間違え
アルメニア
FF
エール
ビリー
モナ
加茂
及ば
吸血
容器
後楽
新井
最長
玄関
読書
##バース
##ョー
##ある
##ごう
##ンジュ
##hel
アップル
ハンマー
クリスティ
つながり
セールス
BB
WE
Wii
くま
ふさ
ふたり
テオ
ピラ
切る
刺史
勘違い
古川
実務
実証
本願
砲弾
襲名
##co
##リンク
サイク
取り戻す
##ハウゼン
ツッコミ
RA
とある
テネ
ボム
与党
占い
名所
商会
広がり
従う
愛する
松江
概要
百科
自国
蓄積
進路
青色
馬鹿
##・ブ
##ng
137
フォーム
ジョル
グローブ
目覚め
Net
ホスト
上旬
列伝
土器
大内
大関
情熱
意気
戸田
旋回
本尊
母艦
浮世
犯行
石橋
組ま
誤り
金山
高麗
##リッシュ
##モント
##なら
日本橋
1882
マーケ
ウィルソン
あきら
School
DF
Gen
エグ
京浜
代役
伝道
勾配
堆積
少尉
新町
炭鉱
知能
立花
詳しい
転送
首席
##テー
##aj
##ler
##BI
##換える
##ans
ディオ
ウィキ
ラインナップ
450
##キュア
ヤマハ
クルーズ
満たし
イリノイ
ダグラス
DM
エルフ
トリック
ハヤ
ビクター
マナ
メイク
予言
健一
傭兵
医者
友情
受付
喫煙
図ら
好物
市道
有数
決まる
測量
王家
祈り
行進
逃し
選び
鑑定
##そも
##ハウス
ジャンク
つくば
おさ
かす
そも
ぼう
わか
アシュ
オム
スロット
タケ
ハーン
三宅
作風
八木
刻ま
加熱
在日
戦法
書物
薬品
解明
語尾
連敗
進水
##・レ
##パール
##フルト
##HO
スクエア
##ESS
めぐみ
カタログ
そもそも
Her
MT
ビア
ブッシュ
三塁
侯爵
侵害
保っ
告発
大川
大社
弥生
弾圧
政令
松浦
混同
特攻
色々
車輌
追撃
長州
##カット
ジェイム
ダイエー
トレイン
ルーキー
##ッケン
アレクサンドル
##ネイロ
JCT
UC
ぎょう
くに
オファー
クォ
サロン
チーズ
ユウ
レポート
不死
動向
口癖
大石
手塚
投下
極東
樹脂
芝居
集まる
頼り
1200
136
147
##lex
カプセル
ケンタッキー
AA
BD
Em
HT
Per
ROM
cl
iP
にほん
ばん
ひょう
モジュール
ラク
ラト
一斉
伝記
全曲
原始
大国
対馬
差異
支局
書簡
本家
村立
枚数
立憲
行か
西川
豪華
酒造
高温
##ニッシュ
##サイド
##バック
##がれ
##VER
129
210
1877
カテゴリ
モニター
NFL
OR
We
WBA
エマ
コーン
ゴースト
タム
ボーン
会い
括弧
永井
語学
転写
運ば
##ニティ
##・ザ
##ベール
##LC
##ビット
##延び
##ームス
##ony
フェニックス
##トリウム
見つける
.,
Ro
かし
かえ
セックス
ヒント
ピック
ボケ
仕える
南軍
原稿
名門
奇妙
小樽
尼崎
尾崎
工房
幻想
悲劇
樺太
発車
皮切り
破産
究極
警報
醸造
隠さ
青少
##オニア
##ガメ
##・リーグ
##トレ
##sch
##やま
240
ティム
##osh
グレゴ
ブリュ
ONE
リミックス
青少年
Aut
PK
Tom
がら
みたい
エム
サマ
ノット
モス
収穫
喜び
喜多
媒体
強豪
愛好
戻す
松下
校名
機銃
痛み
解剖
赤軍
蹴り
香り
高島
##air
##ベック
##UD
104
##レータ
141
クラッシュ
230
ジョセフ
##ンパイア
##グラフ
ヴォーカル
マーケティング
MB
au
カーン
ニア
ブン
ミルク
中西
八代
利点
台頭
各々
告示
女流
常磐
播磨
本州
東亜
独裁
祭神
船長
西経
賃金
造形
道中
釜山
飲ん
##ピット
##LS
##立た
フォト
組み立て
Linux
エフエム
パレスチナ
LE
MG
ウズ
オットー
ザクセン
ナー
ハワード
ルナ
ワク
全滅
北斗
受託
営む
四季
国旗
好ま
封入
岡村
挿絵
文法
景気
村田
武力
点数
特有
王室
生体
生没
細長
緑地
美容
脱走
親族
迫る
追悼
遂行
階層
飛ん
飛鳥
##スパ
##アミ
##えん
ボーイズ
##ARD
クレーン
##ンジャーズ
シップ
レアル
三条
不利
仲介
全日
含める
図鑑
基部
多額
学制
小児
常時
後援
無数
知人
社内
積ん
茶屋
観戦
進展
預け
##・グ
##na
##ダウン
##二郎
##之介
アルカ
138
フォーラム
Amer
コーポレーション
マケドニア
NG
たた
たろう
デヴィッド
バウ
ランス
交わし
占拠
営利
器具
大原
平田
感動
打つ
擁護
減っ
番手
真空
膨大
視察
鈴鹿
難しく
食糧
##ラード
##返っ
##並み
##app
ニコラ
オートバイ
幅広く
ワーナー
ミステリー
NASA
7000
JP
あらか
ソックス
トス
ミスター
任せ
僧侶
意義
揃っ
朝倉
模索
正統
生理
遭い
邪魔
##デレ
##リッジ
##que
##ごと
##ぼう
##ato
フィッシュ
Art
おかげ
フェラーリ
LP
うつ
きわ
スノー
ドッグ
リュー
出家
古河
和名
安置
屋外
年始
待機
惹か
薬学
足り
通知
野外
離れる
##テラン
##51
##pl
##殺し
##切れ
148
##alk
バスク
リンカーン
##ブリッド
セントル
クラウド
インディアナ
It
JST
えい
たつ
アーマー
エウ
スチ
一橋
中性
伝わっ
全土
太守
学部
導体
杉山
汽船
破綻
襲っ
訪ね
軽い
通い
運び
##グマ
##シティ
##セラ
1862
1864
##ジャネイロ
シベリア
Je
et
まき
コカ
リハ
ログ
上層
代謝
偉大
初等
名声
本山
歩い
汎用
犯し
玉川
現金
累計
親しま
##ual
##yo
##ナンド
##作り
さらなる
コーラ
シャイ
##ッケー
アピール
BC
Girl
Res
なに
シール
シーク
デビル
ナトリウム
ポニー
ラファ
下野
反し
小室
屋上
広東
掌握
政界
明神
硬式
等級
補強
複線
負い
買う
除外
食材
高価
高雄
##ner
##ren
##YS
##払い
付き合い
オルガン
サスペン
##落とし
Day
けんど
そっくり
レバ
三好
人文
会う
修業
再興
南口
園芸
定住
当社
王族
現職
硫黄
西ドイツ
譲っ
踏まえ
迫っ
##だし
##ema
ちょうど
ハードウェア
セーラー
ムスリム
Java
Pa
アーツ
エッセイ
バーク
フレン
ホリ
ホセ
半径
大事
失踪
婚姻
川村
放ち
湾岸
積載
運休
魔界
##ya
##ッタン
##ズエラ
ウィス
##チャル
##モンズ
##ubl
亡くなる
生き残っ
生没年
Bo
Count
OB
vol
たどり
はし
ふれ
セグ
ゾイド
テック
ハンス
ムハンマド
ラック
ロッド
交え
冷房
同居
向い
導い
工藤
待つ
気分
水面
法政
発現
親善
転生
輝い
遅い
飼い
麻生
##リッド
##レージ
キャス
##roid
##フェンス
ドラマー
##ンガム
イラストレーター
クマ
トルク
中尉
人体
克服
平原
慢性
拡散
有無
未明
死に
牧野
百合
突っ
速く
造成
遺構
##・アル
##ナタ
##ゾナ
ブラザーズ
マネー
マクド
Super
カタルーニャ
あらかじめ
Ag
Pre
あえて
ぶつ
ノア
ブース
ブロー
ボトル
争う
係数
再選
吾妻
執り
嫉妬
専修
戻し
指数
断層
桃山
派手
神道
腫瘍
青葉
##キンス
##ゲート
##じっ
##より
フィー
ステレオ
##ファレンス
ウォーカー
アクア
カンザス
##AGE
アーキテク
きら
しら
もも
わざ
アテナ
主翼
他方
原爆
在来
慕容
招か
有罪
没収
破棄
考察
複製
農地
速い
遊園
閣僚
防空
順調
##テール
##MO
コンポ
ジョニー
こうとう
プラズマ
フラワー
リンゴ
クリスチャン
いかに
ベネズエラ
ハミルトン
メリ
不法
信託
国体
大師
天津
小柄
屋内
戯曲
打た
細かい
静か
##ッリ
ワンダー
分かれる
##IDE
成し遂
Open
すご
シリン
ネズミ
バッハ
ミク
ルーズ
主権
任天
任官
出血
函数
広瀬
御殿
手掛ける
捧げ
栄え
疑惑
聖職
進軍
釈迦
頂上
##ロコ
##しょ
##ぎり
アイアン
1860
ハーバード
アカウント
パラダ
もたらさ
支払う
##IGHT
アルファベット
チョコレート
Do
ギルド
トキ
パズル
マート
体型
台地
固体
奉納
日露
最速
次期
添加
相違
肯定
舞踊
見出し
親戚
転移
農学
連装
遮断
郡山
養護
##rum
##rist
##cl
##セッサ
##って
114
キャッシュ
クラフト
ディフェン
ドラッグ
追い詰め
リン酸
知り合っ
尽くし
ペーパー
オックスフォード
いと
はい
ひど
一色
亡き
北極
国営
実習
微分
控訴
攻勢
武者
留守
系図
総統
聖母
補充
鋭い
頭脳
##タゴ
##ger
##ンドル
##ari
ニュージャ
##フォー
ハイブリッド
バルブ
富士見
スキャ
相模原
ケーキ
NEWS
うけ
スナ
一揆
四方
外し
外来
家畜
巡査
当事
拷問
本機
柔らか
注釈
灰色
理科
男優
石灰
##コク
##・ミ
##IB
##ille
1867
##ジャース
アトラ
ムーア
おこなっ
駆けつけ
アポロ
Colle
リハビリ
TC
feat
ケネ
サポーター
ビジュアル
ホッケー
ラマ
付随
佐竹
問う
夜行
巫女
弱く
強大
斜め
造営
##デュ
##デジャネイロ
##RC
##GE
131
##ese
いっぱい
サーバー
クローン
ユニフォーム
オーディオ
リオデジャネイロ
ふるさと
久留米
ビートルズ
MD
ボンバー
中枢
久米
分泌
包括
原発
原案
急性
授け
採取
松岡
混ぜ
灯台
片岡
群れ
聖人
背面
菅原
谷川
##グアイ
##・ボ
##・マン
##uro
##越え
##むね
アルト
フォール
##ンタム
トロント
伸びる
アミノ
NPB
エキス
手伝い
メダリスト
タバコ
ニュージャージー
カセット
クビ
ハリス
リフト
今川
休暇
低減
佐渡
千秋
参事
収納
回線
増築
形容
徴収
数千
日比
水田
氷河
津山
異母
着け
縄文
配達
醤油
陥る
食用
##ラーズ
##ブリック
##ンジー
##ited
ヴァー
エンジェル
ヴィクトリア
プリキュア
アリゾナ
楽しみ
##UND
クライアント
AFC
PH
SW
どおり
キエフ
ドック
ポーズ
主婦
円盤
凍結
出世
学芸
密着
撤回
新興
新制
聴い
親しく
課税
論じ
途絶
運ぶ
遠隔
閉校
##ラート
##ットン
コンプレックス
リーガ
打ち切り
国内外
おおむね
コスプレ
でしょう
バナナ
320
la
はん
カワ
サハ
デルタ
ヒュ
ホン
二郎
処置
大沢
封鎖
役人
慣習
採掘
救わ
相応
突起
設ける
追求
##ノキ
##タナ
##デンス
##ナード
##td
##ゥス
##ラルド
##やり
##せい
##ードン
##ントロ
112
ストレス
ランナー
ジェリー
##oup
ギャング
たとえ
One
Val
シンプル
ソウ
ベテラン
党員
単発
墓所
増殖
宮古
摂津
散歩
新書
本館
次女
特色
足立
録画
集結
##ロメ
##クレ
##ru
##かわ
##ダース
##さま
##去っ
アルミニ
スペクトル
##eth
##ンダル
レーサー
##ents
アクセント
##AST
スカート
ヒューストン
折り返し
スズキ
カスタム
High
ぜん
ひさ
エヴァ
カ月
ゴッド
ホップ
ヤー
一瞬
仕立て
増田
多彩
寛文
巡礼
成熟
於い
色彩
薄く
融資
長老
離陸
##ケー
##ばら
##ano
マンチェスター
生み出す
Eng
見舞わ
MAX
さと
グリー
ポリス
ラッセル
公正
動い
合宿
娯楽
所管
教職
文藝
断っ
有人
末裔
次回
片側
見守
##・セ
##リヤ
##通し
ファーム
コンボ
##フォーク
ウォール
##ブリッジ
南北朝
テロップ
気づい
カロライナ
University
DX
うん
ゴミ
サテ
フレイ
上越
亜種
仕上げ
代用
保つ
共闘
好調
完璧
強引
携わる
本気
民事
目立っ
直ちに
紙幣
胞子
要し
講習
難波
##yd
##ソール
##YA
##ボルン
キャノン
##any
##out
##テンベルク
レイク
Android
シチリア
セントルイス
おじ
か国
ゆめ
アオ
仮定
出番
右衛門
嘉永
回し
土俵
地裁
市中
復刻
愛人
曜日
服部
海老
直樹
確信
財閥
頼朝
##コブ
##・ファ
##スロ
##ゥル
##まね
143
オーダー
ウェーブ
ナポリ
あつ
くじ
ゲリラ
タコ
余裕
免れ
公明
厳格
家政
幸福
掲げる
書紀
満ち
県庁
竹田
素直
育つ
誘わ
遂に
食物
##ric
##ナール
##サンス
##ラリ
##きん
##GP
##リーガ
プロフェ
ファクトリー
乗り換え
##ental
Star
アレクサンダー
メガネ
PDF
CV
はた
よば
イグ
ウサギ
サード
ブリティ
内藤
勝者
去る
合金
届か
搬送
片方
石器
要員
起因
軽く
都営
##・リ
##しょう
##小路
クラウン
##ッチャー
アレックス
チョウ
フランクリン
めぐっ
エンターテイメント
受け継い
上手く
William
アルミニウム
Night
ROCK
des
ver
こい
オース
ネック
ホス
世論
中古
休養
北野
参画
史学
夏休み
天狗
強烈
志摩
戦果
春季
発作
系譜
裕福
豪雨
陣地
飾る
高かっ
##ニバル
##91
##ッテル
##XT
プラハ
##iver
スカパー
手がける
天王寺
エレクトリック
MA
Win
is
たて
ひた
ニール
ヘー
マザー
出動
参拝
展覧
志望
文久
椎名
流す
温暖
湿地
無償
覚悟
踊る
近所
黒色
##ナート
##ан
##プリング
##落ち
アルマ
フォート
マーガ
コロム
エスカ
はじめて
CT
National
あげる
くり
さわ
しめ
やむ
ケリー
ヘブライ
以南
免除
内装
原画
壊れ
援護
旋律
桑田
男の子
装填
講和
趣旨
郵政
##・ベ
##box
##UL
##メイ
##ネーション
##じり
##ane
##ローグ
パンツ
##テナンス
##ミュエル
シューティング
トライアル
ミシガン
アウグスト
ステンレス
GS
ひがし
サヨ
デトロ
ドレ
ナノ
ナス
プエ
マフィア
ラヴ
三原
他国
仮名
体質
双葉
吊り
地盤
大砲
家具
意欲
提督
早川
満点
特例
立方
立案
能登
荒木
進入
風俗
##アンス
##きゅう
プロペラ
##イトン
持ち帰
チェロ
1866
呼び出し
##ull
コロラド
ブロードウェイ
サスペンション
デトロイト
CEO
Pet
エナ
キッド
ジミー
ナッシュ
マック
争っ
俳句
処女
剣術
台数
周回
報復
密接
寝台
対局
対談
左派
店員
悟空
掃除
改変
沼津
火器
点在
直流
神楽
繋がり
若松
誇っ
通じる
遥か
高圧
##メンタル
##ブール
##ブック
##もっ
この世
##ッチン
##ウンテン
フェイ
1861
##ッスン
メンテナンス
ゼネラル
GL
MON
POP
di
あゆみ
すい
れん
テリー
バッグ
ホーク
休憩
優しく
天野
抹消
暗い
産駒
痕跡
笑っ
金髪
電信
飛騨
##テージ
##ノム
##がき
146
##ism
引き受け
##aster
アクティブ
シンセ
アンドリュー
もらえる
取り扱う
及ぼす
アトラクション
コロムビア
GN
ケータ
ヌー
バンタム
休刊
会派
召集
右投
同誌
喜劇
寿司
市原
待合
戻さ
本殿
浅井
深め
源流
準じ
産出
異性
精密
致命
見習
視野
通話
馴染
高額
##遣い
サイバー
サイエンス
タービン
切り離
ルートヴィヒ
デイリー
マツダ
フロンティア
テネシー
ブリティッシュ
Ele
me
アンジェ
ウラン
サミュエル
トーン
ベール
元来
収束
川島
年下
慣れ
新羅
本校
樹木
無罪
特権
町長
留まり
直結
窒素
自家
豊川
負荷
貯金
軽巡
退け
通報
降水
顔面
魔導
##rap
##デイ
##ナギ
##pm
##ヨー
##まち
ストン
いったん
ジェン
##amb
合わせる
立てる
気付い
レインボー
モロッコ
TE
from
はち
アソ
エリート
セメント
ツリー
ドミ
リヴァ
一生
事変
仕方
弾丸
新造
未遂
消失
為替
甘い
着任
耐性
##ラフ
##じて
##ティウス
受け入れる
ウェア
チェス
クロム
ユーザ
##ute
飛び出し
まつわる
シアトル
かわい
ファイターズ
レジスタ
Micros
のび太
かき
ゆる
わかり
アセ
サザン
ネパール
ハチ
ルーツ
ルノー
亜科
哲也
土砂
増やす
専任
尋ね
成年
日清
歓迎
永田
準拠
盗賊
稲葉
築か
調和
逝去
進撃
##キース
##クシ
##ハッタン
##レーヌ
ともない
アイオ
スターリン
##udio
まるで
受け継が
ジャーナル
バッファ
At
Mc
Red
あず
ろく
サタ
ツェ
ノーマル
ラング
一新
元老
内科
動か
天平
嫡男
尊重
平家
曹操
村山
次長
民法
激突
白川
相馬
納入
総数
脱落
若き
荒廃
薔薇
衛門
遡る
##づくり
##ニール
##ソタ
##DD
##かかっ
##めき
##じん
##返り
少なかっ
##ASH
1865
クレア
グラント
##ersion
試みる
##III
クイーンズ
ヨーゼフ
近づく
っぽい
GH
se
はや
オズ
カエ
テラ
バド
ヘッセン
ミツ
レート
佐倉
入試
切手
単式
営ん
岩石
往来
機雷
相棒
線形
調べる
通訳
金色
阿弥
養父
骨格
魔神
##コンド
##チウム
1850
##eral
##バータ
1863
Project
生み出さ
アベニュー
仲良く
マーガレット
(-
Pol
To
みゆき
アイン
グラム
スウィ
ボイ
ロイド
一条
下ろし
党派
別々
哺乳
商船
太刀
家事
左岸
水深
私鉄
素子
経っ
結城
繋がる
郡内
除籍
驚い
##ロイ
##コム
##gh
##ッダ
##por
##ディーン
マンハッタン
フレーズ
コロニー
つくる
みなと
フォーミュ
スライド
ナビゲ
ジェイムズ
Hot
Ltd
SON
あす
タス
パトリック
ホーン
ラバ
リヒ
便利
割れ
南下
単身
収める
基督
奥州
子女
市域
広義
投じ
救っ
最悪
本文
条項
民謡
病死
真宗
神秘
組成
自慢
路上
連行
高まり
##デラ
##56
##おか
##ins
ライプ
ホームズ
##リオール
フレンド
フレデリック
##ツィヒ
テクノロジー
ミズーリ
カザフ
アーキテクチャ
ケネディ
CA
LT
きみ
イド
オト
クス
グスタ
ヨシ
リプレイ
八十
劣る
山手
当てる
悲しみ
愛用
摂政
業者
破る
稼動
築き
西尾
諸説
賞賛
連鎖
鋳造
##バリー
##les
##ラビア
##リンゲン
##フェース
##ution
パラメ
##rans
SHOW
テクニック
NPO
サンディエゴ
Can
Rad
Sou
Sec
ぐらい
のぼ
イケ
ゼル
ピッツ
上原
乃木
住職
出羽
制裁
厚い
原産
囚人
城壁
天地
対話
対外
対岸
屈指
左腕
廃業
慰安
挑ん
探知
特設
生地
米子
精力
細い
興奮
適当
部落
##らん
##継ぎ
##ランカ
インテル
知らさ
マーシャル
アムステル
エンタープライズ
##lymp
生き残り
ニンテン
ミシシ
WWE
イレブン
WORLD
素晴らしい
-(
FO
PP
YOU
エリー
オイ
ミハ
ルビー
レフ
別冊
勤める
右岸
国府
大敗
宝暦
家電
巡り
巧み
明和
松島
柔軟
浄化
炎上
煙突
疑わ
発酵
皮肉
落合
通用
逸話
閉館
開園
麻痺
##ばり
##なみ
##ven
##替わり
なくし
ライアン
##ニアン
シャッター
##ヴィエ
##ings
書き下ろし
楽しめる
インストール
ミネソタ
サヨナラ
IR
アリー
ウス
スティック
ソナタ
テナント
トミー
ベラル
ユリ
充分
凱旋
出航
加古
勝つ
合う
山川
現し
発光
転属
電灯
養老
黒川
##ミール
##ミントン
##さか
##本木
キャサ
##inal
ディーン
コーディ
ランチャー
##ama
デジモン
バルカン
作り上げ
ハンドボール
ヤンキース
ハドソン
Microsoft
アムステルダム
Dav
GE
am
おは
ざわ
ふり
テイク
ナチ
交番
代わる
仮称
動かす
北村
吉岡
味噌
大江
小麦
居城
布告
振付
断絶
暴動
母方
生駒
目録
睡眠
移す
結核
給食
職場
藤本
詩集
議事
高地
##マリ
##マックス
##キル
##・ト
##ene
フェス
グルジア
Black
アイスランド
大将軍
アンダーソン
成し遂げ
Fr
だら
セネ
ドット
バリー
ミヤ
ワープ
冷戦
北端
史実
孤独
室蘭
小銃
局所
山村
抱える
最短
洋画
漏れ
見下
賛同
送電
隕石
飲む
##ルカ
##ソニック
##ぐり
取り除
##ヴィッチ
##ura
##ショップ
ニコライ
久保田
いろいろ
ウズベ
きわめて
CBC
le
どころ
カヴァー
センス
タグ
ヒップ
一言
下さ
休業
分かり
合わ
告げる
商用
大同
奨学
字幕
導く
小池
救命
日活
有田
浸水
清掃
濃い
火薬
無名
生誕
留め
短調
硬貨
社殿
立命
話さ
跳ね
##・メ
##リントン
##プライ
##消し
##itch
##イクル
落ちる
##ACE
引き継ぎ
BAS
FW
ZERO
fl
ひかり
エチオ
スネ
バース
使徒
兄妹
先述
公職
共々
反省
同梱
商売
宇佐
尚書
広州
応え
慎重
木場
本戦
火炎
物産
紳士
続行
脅迫
辺境
退い
遅延
開花
隼人
風土
##ルティング
##プール
##ぐち
アルフレ
取り壊
カービィ
ヴィー
使い手
ソロモン
("
Tour
クア
トール
ナレーター
バビ
下田
包ま
北見
回る
大崎
崩し
投げる
持株
指輪
死神
給与
罰金
腕前
草津
見抜
諸侯
貼り
辺り
長身
##カリスト
##っぱ
##付い
##焼き
ファイン
##ンスキー
フランチャ
##ason
いわき
ヘルメット
##orts
プライム
##シュタット
フェルディ
繰り広げる
ロマンス
AF
Bill
JS
Mod
NATO
えん
さし
つづ
なみ
ゴードン
ナウ
メド
モア
レジェ
公言
宿主
応答
愛国
歩く
水分
洗礼
補正
誘致
部員
長尾
雇わ
##ロド
##ka
##ツキ
##ムシ
コンタ
ウィング
##oss
##ations
スピーカー
アドルフ
550
ギャン
ギャラク
ミニゲーム
クリエイティブ
マニュアル
NEC
San
キッズ
コパ
セダン
ノイズ
パンタ
マスト
マディ
ユキ
中高
信任
公平
共用
共鳴
合弁
大勢
大洋
太夫
奇襲
小牧
崇拝
店長
悩まさ
推し
波動
表向き
読ま
通告
野口
長け
##ガンダ
##ral
##IAL
##めん
##ざし
オーガ
バーチャル
ウォルター
エアロ
サラリー
ケンブリッジ
ストライク
##コースティック
キャサリン
PAS
Rock
TAK
you
ぬい
ゆっくり
アコースティック
カープ
ガイア
コング
サビ
パルス
ビタミン
ムシ
リカ
ロータ
亀山
傑作
内外
別荘
塩基
大介
始末
宇部
宇和
張っ
握っ
注ぐ
町立
発案
神父
窮地
等しい
臨ん
見かけ
調印
豊後
騒ぎ
##work
##フマン
##vel
##沿い
##ストル
##ューズ
##ater
オーラ
##サーチ
ジョイ
シャープ
ウォーク
カップル
スクウェア
##oph
ダウンタウン
パーソナル
マニラ
Records
振る舞い
ディフェンダー
エチオピア
FS
Olymp
net
ジオン
ヒール
ビュ
フン
一流
何者
使命
優勢
内包
前部
剥奪
大垣
帯広
日経
有志
有用
望月
村長
渡さ
潜在
病理
知恵
答える
築城
門司
鬼太郎
鶴岡
##ギリ
##ビアン
##GB
##ワーズ
インフラ
##enc
##イルズ
フォント
サンプル
##ッケル
##バイザー
フランクフルト
閉じ込め
SNS
##ology
ac
アラスカ
イザ
ゲオ
シス
一括
供養
入国
出展
反転
失業
平地
弁当
救い
晴れ
派閥
留置
艦名
要領
配分
関ヶ原
預金
##・ポ
##メーション
##ゃく
##ばん
##CH
##まつ
##ouse
マーチ
##oto
ファイブ
無くなっ
Ann
なんて
まさに
フォーミュラ
SG
だし
アズ
カニ
クワ
テム
デート
ハロー
ホウ
中頃
優等
反則
収蔵
多岐
夢見
大破
川内
更なる
水源
特筆
産経
莫大
製紙
遠い
面会
##クリ
##シュー
##きょう
##わい
グラフィ
フルート
Christ
##バイバル
コンスタンティ
秋葉原
Vo
ml
アレン
イマ
クッパ
ゴス
ピュ
ポッド
マウンテン
ヵ月
並み
今治
代打
何故
使節
充電
券売
可動
四角
外さ
店主
建っ
意匠
承諾
抽象
早々
流派
渡す
溶接
狭義
瑞穂
生ん
衰え
貧しい
近辺
陰陽
隷下
高砂
##レックス
##37
##ネスコ
##ヒル
##てい
##ぐれ
##ディオ
引き換え
マイアミ
ファイア
カンボ
楽しん
ノルマン
スパイダー
パナソニック
ブラウザ
ワクチン
CON
Tok
htt
うど
ずれ
つぶ
ひめ
カク
コト
ラボ
レモン
不調
公使
分断
動かし
北欧
匹敵
塩化
天台
妄想
州道
成す
手順
日系
旭日
木星
殴り
祈願
穀物
継ぎ
逃れる
進級
遺言
配合
酷似
鉱業
陥り
頼ま
##キサ
##ノア
##・ル
##・イン
##ゲイ
##TH
##ск
##FE
##inc
チャーリー
アンチ
ブルク
ハイウェイ
##ody
Reg
ボスニア
Tech
UFO
ミシシッピ
MI
REC
Sal
ふみ
イオ
カネ
シリ
スミ
両腕
名残
天草
奈々
年表
後漢
志向
暴露
書道
未知
母国
減らす
爆笑
理工
自爆
蔵書
見込み
迷宮
遭っ
##ガラ
##の丸
##着く
アルバート
ハイビジョン
カリブ
##スティック
ブレイン
アスレ
Spec
プラント
吹き飛
##んじゃ
取り組む
グスタフ
CB
ER
UH
アザ
アストロ
ウン
セクション
ハッピー
ホース
マフ
ムラ
リット
ルカ
レッスン
分配
勅令
参道
子音
島原
工廠
年長
手配
指向
新社
架け
止まっ
民兵
献上
発想
神崎
筑紫
聴取
茶色
菩提
赴き
領有
##・ム
##メガ
##ze
##らぎ
##DP
##ブランド
##リーニ
##ートー
152
ライド
アンケート
フェザー
##デンブルク
ミュージアム
ヴェー
埋め立て
いすゞ
Geor
ベラルーシ
City
Wi
へい
アワー
ケント
ブエ
ロジャー
乗合
伊丹
延び
抽出
担い
整え
旧称
板橋
武家
沼田
炭酸
白河
真似
祀る
福知
萩原
重臣
開港
飼っ
##リッヒ
##oot
##38
##チド
##DL
##ミュー
##十郎
##直す
スタメン
マイナス
チェン
バースト
カラーリング
プリント
バンコク
キャンセル
いかなる
オレゴン
リタイア
カンボジア
福知山
Bro
Mon
メリット
児玉
公卿
出自
刺さ
台東
培養
大門
宗家
少々
平井
援軍
最盛
本書
海運
渋滞
物流
番外
皇室
競う
衣服
話者
諜報
輝く
連立
除け
静止
##グレ
##コーン
##ニウス
##助け
##ヶ崎
##ストリ
270
ウェルター
##ジアナ
##テルブルク
##チューム
コスチューム
Best
OH
fr
さす
じんじゃ
どん
アライ
ウマ
ソラ
一説
一騎
外相
失脚
宅地
川端
幼虫
延喜
弾道
志村
指標
流星
父子
空き
蝦夷
転身
逃げる
長門
##トリア
##ザール
##ワット
##ホルム
##ードル
1400
サーカス
##INAL
Charl
トレーナー
スロベニア
佐久間
Don
it
がく
なぞ
イサ
イヌ
ガム
グー
ミャン
ワゴン
不幸
信州
信念
名物
名簿
吐き
多重
守ら
山麓
幅員
平山
強め
承継
支出
朗読
杉並
極め
機密
消息
特命
直面
祀ら
編制
西端
返済
退治
退場
集約
##オウ
##コード
##ニカル
##42
##メリカ
##form
##カナ
なくなり
オリエ
ローリング
ウォーズ
エルサ
ブリテン
ヴォルフ
エイジ
Ang
テンポ
いきなり
##ーマーケット
ハリケ
カテゴリー
スーパーマーケット
ルネサンス
Life
Song
みせ
よこ
カミ
ベビー
モデ
ヨン
初心
古来
変装
天明
属す
徴兵
志賀
急死
意外
挟ま
揺れ
放浪
断片
決闘
浪人
火事
納得
舗装
葛飾
貯蔵
赤外
迅速
連射
間に
麻衣
##ベイ
##ッロ
##っ子
##ダス
##さつ
##戻し
フィニッシュ
ディープ
アンディ
ジェーン
ジュリア
##チェン
追いかけ
ATM
##ラクル
コミュニケーションズ
ネルソン
エストニア
Bas
FOR
Os
ささ
すり
やく
クイン
パド
ボロ
ミシェル
上回っ
以っ
体長
刺し
南朝
合っ
定番
宛て
常設
柔術
洗脳
浅間
激化
経費
総監
訳さ
音色
飯塚
##マリア
##・フォ
##ram
##AWA
##ポー
##張っ
##hem
サイコ
330
パイオニア
つくり
##REAM
ヤクザ
メロディー
サテライト
ミャンマー
Fac
Min
WD
バタ
ポピュ
不当
伝導
入選
再戦
分家
制式
勝て
即座
反動
国々
大通り
宣告
寺社
対潜
崩御
年寄
後進
志し
戸籍
摩擦
旧暦
明記
東郷
栗原
池上
百済
直撃
置換
義勇
葬ら
調停
請け
連想
遺物
防護
頼み
驚く
##・タ
##ソス
##らう
##のう
##祭り
##受ける
ステア
##ーツァ
##ンプソン
江戸川
ビルボード
いずみ
アクセ
トリプル
つなぐ
##ific
パナマ
モントリオール
##board
シリンダー
うどん
Hi
Ter
さよ
アデ
アワード
イズ
エラー
キラー
ダス
ノリ
ハッチ
ホモ
リマ
ロット
八千
古賀
各所
四十
小金
届く
山東
征伐
所沢
招く
歌人
水島
渡米
準急
演歌
牛乳
犬種
監禁
砲台
祖国
絶賛
肺炎
艦載
西田
西山
赴く
運ん
##ble
##びき
##to
##のぼ
##寄っ
##ティエ
アルジェリア
##ラーゼ
##ision
##マーシャル
スパルタ
サウジア
オタク
ふれあい
さよなら
DA
GA
RAD
エッジ
グライ
コナン
ゾウ
デカ
ノック
ベリ
マッド
メチル
ヨル
ロスト
一応
付録
全盛
学期
御前
微妙
怒っ
旧姓
河合
発砲
県民
若く
見受け
親方
託し
軌間
離党
青島
##アム
##サリー
##パル
205
ありが
122
##ero
なくなる
##ital
フェロー
スペック
ウォン
ウォッチ
mmF
##ement
Inter
だいがく
めぐり
にくく
苦しみ
##ちゃん
国分寺
ルーズベルト
パラダイス
サウジアラビア
--
Disc
ru
プー
備前
公転
公示
写像
噛み
土屋
地主
奮闘
嫌悪
寄稿
幕内
必死
掃海
新編
松戸
桑名
模倣
洗浄
産卵
端子
終着
結末
給油
胸部
西南
西欧
覆う
閉塞
電報
首領
##トロン
##ベス
##LA
##ha
##ling
##ホーム
##ずみ
##こん
フランシスコ
ステータス
ローラ
リリーフ
バラード
##aka
ノーザン
1855
ヒルズ
##ブレム
Cont
クリーク
##ship
EMI
由紀夫
レシピ
インパクト
GK
LS
Power
RT
はく
イヴ
クック
サング
ノブ
バレン
マテ
マヌ
モーション
リサーチ
寄進
待遇
打倒
新党
日刊
本能
権現
法華
浮遊
激戦
燃費
狭く
硫酸
篠原
練馬
花園
襲う
資材
赴い
転入
那珂
開閉
魚類
##ガタ
##bur
##しゅ
##ミッション
##れん
##付き
受け取る
キャピ
インデ
##ats
280
サイモン
ショーン
ビルマ
プラグ
カンファレンス
みなし
Club
SMAP
マクロス
Ber
LC
MM
Up
あふ
ギュ
クオ
スカル
モーツァ
レンジ
下級
乱入
低地
可変
商学
四川
声楽
変貌
実父
弾頭
思え
恒例
扮し
擁する
操業
月間
松村
洛陽
無駄
狙わ
画策
補完
視界
近海
長寿
頭取
##ニク
##ニクス
##ザース
##ビシオン
##まま
##ざい
ライス
##ico
ウィンドウ
エディション
スティーヴン
WAVE
日比谷
RK
いざ
うか
おば
しげ
ケルン
ソフィア
ダメ
ヒート
フック
フアン
ペナル
ホルン
マキシ
ユネスコ
リール
ルク
ロベルト
ワト
一味
全権
共存
分立
勝率
受注
国軍
常任
急増
掘削
日報
明瞭
東ドイツ
松永
消火
添え
焼い
琵琶
眠り
称賛
稼ぎ
織物
芥川
薬局
迫害
銃身
開山
黒髪
##セデス
##カワ
##ぱら
ファンド
生まれ変
##ONE
作り出し
カメラマン
なさい
過ぎる
あいだ
##フレーズ
たまに
##チョウ
プロトタイプ
イーグルス
阿弥陀
EAN
イニング
オリン
ダート
ルドルフ
中堅
体色
偽装
儀礼
全英
兵装
大平
安土
容赦
希少
徳間
恨み
慕っ
欠け
河北
番付
疎開
真剣
米沢
良かっ
転居
香取
駐留
##ball
##ye
##67
##ボス
##ビウス
##なじみ
##だん
##詰める
##高い
ディビジョン
##ola
バーデン
ウォル
立ち向
フライト
もらえ
キャッチフレーズ
おこなわ
ベーシスト
##マイカ
フィルハー
ジャンクション
Dream
Er
MX
うさ
えり
たば
もて
キノコ
シルク
ジーク
パニック
二宮
作物
侍従
係る
元和
原曲
大別
奉仕
女装
宮川
尽き
換算
撤廃
敬意
発進
聞かさ
車掌
返す
##シマ
キャロル
ファラ
ジャム
パーカー
##ンガル
マルク
まとめる
プライド
キン肉
引っ越し
ヨハネ
County
ケータイ
DT
GIR
まこと
われ
イヤ
エステ
エステル
キネマ
コマーシャル
ジーン
タキ
ド・
ハラ
久々
人名
反する
土井
宮中
恐慌
普遍
有明
望み
波長
無敵
痛め
空挺
筐体
終始
義理
羽根
臨海
##・ウ
##ij
##ベーション
##53
##lin
##乗り
コンゴ
ジャニーズ
##ors
ステッカー
もっぱら
##ISS
デイヴィッド
しゃべ
##ideo
Exp
スローガン
サラリーマン
エルサレム
EF
なれる
なろう
ふう
サリ
シラ
ヒン
マッハ
利便
動揺
吉村
同点
増発
大工
尻尾
岩田
水色
発令
直属
行け
迷惑
達人
##ノル
##くら
##ポル
##リップ
##レナ
##メール
##まわり
##止める
##amm
ユニーク
アレル
落ち着い
クリップ
##ebook
引き継ぐ
モノレール
メルセデス
苦しん
こだわり
Robert
レバノン
アテナイ
Nor
SV
jp
こころ
つと
アング
オールド
ガブリ
キリン
乱闘
伊那
体当たり
八尾
八百
冷凍
反抗
執事
売ら
実子
後続
接収
改める
敢行
末端
消耗
漁港
物事
知行
紅葉
視力
迂回
連ね
遊ぶ
集計
霊場
##クサ
##13
##がん
##振り
##ージン
ジャワ
取り巻
ジョナ
ローレンス
ファイヤー
1848
ましょう
##IME
##サイザー
不可欠
ミッドフィール
面白い
ヨハネス
フランチャイズ
ロータリー
ハリケーン
請け負
ミッドフィールダー
Fi
VR
よろ
イース
オリー
コナミ
テュー
ボイラー
ユン
リーズ
ルス
亀田
低温
六本木
処罰
半田
土浦
堤防
売春
多賀
大船
失格
奄美
学業
寸法
尾道
帰郷
平塚
提起
歩き
消す
独身
生母
白井
竜王
荘園
誓い
赤穂
高槻
麻酔
##エイ
##バチ
##降り
##ッショ
##プテ
##カム
##ミッド
##がけ
##ヘル
202
##ントス
##レーツ
ジャス
##ena
##ンクス
持ち込ん
##チャーズ
##ジーミル
バックアップ
ちなむ
Mark
ソーシャル
マクドナルド
GC
HS
Xbox
いら
つば
ほっ
マッカー
ルター
ヶ国
中略
入党
公団
共生
処方
出せ
出かけ
勝敗
届い
幕下
平定
延暦
強硬
新城
架かる
民家
気体
水晶
河南
法科
法制
演芸
演目
特務
獲物
短歌
碑文
育てる
膨張
自力
西岸
解読
踏ん
連発
遠ざ
鉄砲
隆盛
##グリ
##ヴル
##シリーズ
##プラー
##なぎ
##食い
ものまね
スタンプ
##フィス
ライブラリ
行き来
##メンテ
##ーニュ
メルボルン
スロバキア
セミナー
リバウンド
org
Associ
ピッツバーグ
ぬいぐるみ
Sing
てい
オア
カモ
ギー
トマト
ロッキ
中年
事象
分ける
医院
卸売
原点
城山
大寺
始祖
攻防
断面
生殖
発端
県都
訴える
貝塚
野戦
##コック
##ケス
##ex
##ジック
##ッティング
##port
##みつ
##ダラ
##あげ
##行き
##奈子
ジャマイカ
##ican
##ファイ
ハイム
##ATE
ヴェスト
ギャル
かたち
##ield
プエルト
シンセサイザー
650
FBI
Kn
VHS
Yah
じい
っ子
ひき
らく
アロー
ゴシック
タール
バッジ
バロック
ラビ
リエ
レット
ヴュル
一線
促す
信徒
放火
新星
有り
版画
目玉
石巻
祇園
紫色
絶大
藩領
説教
谷口
選帝
阿蘇
魔人
##ペスト
##ボウ
##ci
##モー
##ネード
##かえ
##持つ
203
##ンドロ
プロセッサ
##ステン
260
フェルト
ジェル
いくら
ローソン
クロード
ジョン・
##プトン
##イアント
まとも
キログラム
ルイジアナ
ヒューマン
シュタイン
モーツァルト
Cent
JO
KBS
Ma
おっ
くす
サバ
ペドロ
マッ
久美子
伴奏
側室
円筒
勧誘
受領
各局
噴射
回帰
困っ
多々
屋台
庄内
座っ
愛宕
手助け
担保
採集
提言
握り
旗揚げ
更生
洗濯
深川
目の
直列
砲身
破片
磐田
移送
終焉
終わら
至り
迫ら
遊ん
都督
野望
金利
風貌
##ギャ
##シズム
##TO
2021
アルティ
フィクション
##フェルト
クローズ
1830
Blue
メカニズム
近づい
tr
イナ
サントリー
ダラス
ヒンドゥ
例年
叢書
古巣
同郡
堀川
安心
察知
店頭
栄誉
構える
浅い
物件
疲労
石碑
英名
血縁
血統
観念
解か
赤松
近縁
退却
進ま
頼ん
頼っ
飛車
##ser
##ME
##98
##そり
##ターズ
アルビ
キャニオン
シャドウ
シュヴァ
アクセル
ハンブルク
1858
Suica
いまだ
譲り受け
バトラー
執り行
RECOR
Time
be
イワ
オウム
ダブリン
ロビー
上皇
下総
両端
公用
台本
増備
大木
帰宅
平坦
悪役
手足
投獄
改宗
敗者
新宮
望ましい
木津
本番
母校
熱海
片手
知多
絞り
総括
織り
見知
重用
##ンスト
##ior
##ボロ
##バンス
##ッショナル
##che
##ドア
##かう
##連れ
アルベルト
フィア
ヴァージョン
##ike
##ルタント
買い物
間違っ
ピラミッド
おはよう
EL
KC
LD
Mor
NBC
Port
SK
rpm
ざん
アリア
コールド
マリーン
モモ
並木
丹後
助成
北海
厚く
反逆
収監
口腔
同窓
吹田
呈し
図り
地表
天理
如く
子役
嵯峨
工法
折れ
教場
毒性
淀川
称え
美し
美味
藤岡
負債
鍛え
開会
関根
養女
##ンシー
##rit
##ドキ
##ホマ
##ダード
##々しい
##さり
ファント
クラリ
ジェノ
##ンプトン
付き合っ
コンピレーション
##ella
##ハーゲン
プロトコル
ブルックリン
アイオワ
かおり
アクト
キッチン
スレ
タウ
マッサ
ララ
ロブ
九十
乱れ
付着
健太
剣士
同県
喜ん
城内
売店
批准
格子
横田
水族
海中
特記
行こう
証人
讃岐
赤城
返上
過酷
雷撃
##オラ
##du
##フー
##ハマ
アルプス
##ret
##クスピア
フルーツ
Champ
##ocal
##ICE
コンサルタント
ヘルマン
##ルツェ
メモリー
テロリスト
移り住
盛り込ま
##クタール
聞こえ
見習い
GHQ
ライプツィヒ
加古川
Yahoo
LA
MY
OC
Po
ال
くみ
ぐる
づくり
もろ
オウ
ギブ
デニス
パク
ベラ
ホロ
ミミ
メーター
以北
全力
出兵
前衛
却下
反響
取れる
国宝
坂井
妥協
小数
山間
幼なじみ
打数
推力
教鞭
施策
明示
有権
江川
点検
照射
熱血
紡績
結社
自走
転倒
飛来
##タニア
##ベガス
##58
##ぶり
##ツキー
##カゲ
##が丘
##ージョ
アルテ
1300
持ち込ま
起こさ
シュル
007
作り出す
つくら
SPEC
支払わ
フリゲート
クリーブランド
BMW
WEB
細長い
ヴュルテンベルク
JIS
Pi
SQ
VF
きた
ニーズ
ブースター
マウ
レム
三遊
刈谷
別人
劣化
司る
増幅
大差
大抵
寺田
悩ん
拠れ
撃た
混雑
減らし
用地
積分
立派
紀州
組長
苗字
見込ま
見通し
豊岡
貞観
速力
進言
部署
願っ
##テット
##コト
##タリー
##uz
##サキ
##ッテン
##ろす
##どか
##留め
チャーチ
サンパ
##ety
カーネル
アドバイザー
呼び名
フラッグ
トリノ
キングス
ニコラス
##OLD
たまたま
チェコスロ
ジュース
ストローク
ナムコ
プロフェッショナル
GU
King
MAN
Pal
かま
エッグ
クジラ
ネス
マヤ
信玄
八郎
器用
国政
国造
大連
小浜
尾根
帝都
戴冠
接合
旧来
星座
格差
溶岩
発刊
聖地
自機
製菓
買わ
軟式
陽性
隠す
鳴門
##ソウ
##レクト
##ボーグ
##ワフ
##カレ
##直さ
コンペ
##シアム
サンクト
##ブルドン
チェリー
##rop
繰り出す
##ICK
ノーフォーク
キャンディ
##グラード
Serv
スプリント
WH
YO
そん
ばい
ギン
スン
チョン
ツィ
ヒドロ
ヘクタール
三国
世襲
両社
六角
出所
初音
同曲
向こう
堀江
弱体
後円
怖い
欠陥
決済
混在
産物
登頂
老舗
肥後
西条
辞書
里見
野々
門前
阿久
養殖
馬身
##マンド
##ちょう
##ペテルブルク
##バーズ
##利き
##よそ
10000
##ディウス
ディフェンス
##uss
ファイナ
ジャンヌ
スキン
エイリアン
デュオ
##OLL
USB
##URO
ウィンブルドン
手伝っ
リモコン
Tokyo
ポピュラー
ガブリエル
OK
せつ
なな
アエ
サックス
ハニー
ブックス
ブレス
ベートー
ミッキー
ル・マン
入所
兵役
出陣
割っ
吉原
同上
名作
夏目
大泉
岩倉
廉価
強姦
抹殺
校内
極限
激減
盗み
絡み
編み
翌週
自害
解像
語彙
都会
野心
鉄路
隔離
##ゴス
##・ガ
##タイトル
##be
##ki
##we
##プロス
##ワース
##ブリア
1100
##era
引き取ら
##ッツァ
##ッツォ
トラップ
レイアウト
##ARA
勝ち点
フラット
1857
巻き起こ
コンビニ
Rev
フライング
チューブ
ホルモン
ストライキ
ウラジーミル
クリストファー
シェイクスピア
アンソニー
カザフスタン
TW
Ze
iOS
アッシュ
ケロ
コイル
サリー
スパー
ドリル
ノウ
リンパ
レター
下っ
入浴
全編
公論
北魏
半球
台場
天守
宮田
家人
富岡
導き
揶揄
擁し
日韓
気絶
治水
深海
混成
田口
異端
眠っ
自伝
色素
葉山
銃器
騒音
##ノミ
##くる
##ペイ
##メス
##ww
##チー
124
ジャイアント
チャー
さんま
スクラ
##ショウ
1854
フットサル
##キャップ
スラヴ
トランスミッション
黄色い
ラスベガス
五十嵐
デラックス
従兄弟
アソシエ
Soci
TM
VI
as
du
un
らしき
アクター
コスタ
サボ
シマ
ノード
バーナ
ヒメ
ブール
マッカ
下水
争奪
以西
分身
前頭
南道
唐津
売っ
大小
大火
奔走
小西
愛さ
憲章
抜く
教義
断ら
村人
派出
浮き
社交
秋季
経理
結界
翻弄
艦上
若狭
触手
随時
飾ら
##ロア
##コミ
##コット
##パルト
##カップ
##ジェスト
シュトゥ
ローラー
パーキング
建て替え
##ファーソン
カスティー
CLUB
メリーランド
たばこ
BP
OEM
bl
おや
みき
アゼル
ケープ
ダニー
ナオ
ユタ
不審
中身
人型
代々木
促し
停泊
催さ
兼ねる
原動
器官
坂口
大竹
大映
嫡子
宝永
尾翼
怒ら
恋心
手間
撮り
日テレ
有害
松阪
浩二
淡水
照準
片山
秋元
粛清
納め
翌月
許容
貸切
速報
闘士
顕微
飛躍
飛ばし
##コウ
##タリア
##ギニア
##たる
##JI
##セックス
##多摩
##去ら
##its
アニマル
##ンタイン
ソフトボール
##OSS
サブタイトル
スリランカ
気づき
カジノ
##デレラ
Paul
CN
Cap
Euro
Jo
James
von
web
くち
しげる
すば
ねこ
エプ
オセ
オクラ
カト
カシ
カエル
カッター
キア
コソ
ゼン
テラス
バチ
バター
バファ
ボヘ
ボビー
メット
三沢
下着
京急
人造
代議
修学
兵衛
准将
大作
宇野
強かっ
後見
後押し
採ら
接着
教習
敦賀
新報
新庄
東端
根岸
清朝
溶け
瀕死
無形
登校
築造
草原
血圧
説い
載っ
部数
高倉
##・ホ
##uch
##96
##たら
##ta
##ズラ
##JP
##フレット
##かかる
2500
アルバニア
ストーム
310
##ets
ISS
コンサルティング
##ルツブルク
##ーグル
満たさ
エグゼ
シークレット
David
パンタグラフ
PAR
しず
そろ
ひまわり
イニ
カノン
クロン
ゲノム
スカー
スチュ
デビッド
ドリー
バズ
ブタ
リポート
レッズ
ロア
一転
保留
優子
党内
協調
叫び
合作
基底
売る
多項
大東
学派
対等
対比
岩国
常盤
府道
待た
戦記
捕鯨
新居
止まり
母子
気球
滑り
王政
瑞宝
神明
細かく
綴り
艦首
苫小
身代
辿り
都城
金持ち
青梅
青銅
高句
鳩山
##キラ
##ガード
##li
##ор
##ざき
##渡す
132
142
##atch
勝ち越し
フェルナンド
アルフレッド
Facebook
苫小牧
高句麗
CIA
Lib
PT
Sol
Tur
pr
www
アヤ
イソ
イントロ
カマ
カラス
ケベック
スルー
ピストン
ミキ
モラ
リヤ
ワース
丁寧
上洛
乗馬
伯父
公家
刑法
判別
妥当
官職
定か
客船
支障
改番
果物
染め
校地
棄却
歌曲
水害
涼子
直人
祝福
突進
終える
討論
誌上
諮問
赤道
追及
重く
重ねる
鍛冶
##ロワ
##レク
##ич
##55
##za
##まか
##返る
ジャスティ
乗り込ん
Int
##ript
1859
Ref
ドラムス
トレードマーク
Heart
ドキュメント
Award
BA
KB
Med
NR
Sil
がり
よみ
カンタ
クリーン
サミット
ビック
プチ
レプ
万葉
伝送
優し
北川
含有
問屋
四条
地雷
大黒
大成
嫌う
実権
小坂
当面
忍び
憑依
手数
挙兵
時事
栄光
無双
用水
着せ
艦橋
規範
解く
解禁
計量
請願
輝き
邦題
関税
##オーバー
##ちょ
##ッペン
##GS
##на
##ずり
##ずら
##歩い
##売り
インク
134
ストレ
レーニン
ジュン
トランペット
1853
アマゾン
Arch
おおよそ
ポートランド
オークランド
ボウリング
たった
マカオ
押さえ
ヒンドゥー
サンパウロ
850
Des
Fri
LAN
MAR
カリス
クィ
コイ
テュ
フッ
ムル
リブ
一躍
上る
倒壊
入線
分化
協賛
坊主
執っ
巡航
強要
律令
手帳
採っ
支那
曲名
水谷
河岸
泥棒
洗練
祭祀
複素
走者
須賀
##ゴラ
##my
##レーン
##IVE
##モト
##なべ
##ハル
##じま
##強い
##向け
##去る
##仮名
##ery
フランチェ
ストリーム
ウェン
ひとみ
##ストラクター
乗り越え
エルンスト
STAR
1840
USA
コスモ
働きかけ
Amaz
Sci
クランク
カレンダー
途絶え
ブエノス
サングラス
Association
サンクトペテルブルク
Act
JNN
mg
のん
クレー
コリ
コメンテ
スム
ドバイ
バックス
一派
下北
中井
互角
休館
体積
儲け
冗談
含み
和子
和彦
地層
城南
基板
天空
奇数
実録
寄港
憎悪
捕縛
操り
文脈
日吉
明智
狩野
相性
知性
算出
若年
裁定
見れ
遊戯
達也
遭難
銀色
長浜
長安
##グア
##ガルト
##ゴール
##ael
##aut
##OG
##ボリ
##カミ
##着き
果たせ
トラウマ
マルタ
プラチナ
Str
##IST
##ッキリ
コンビニエ
レコーダー
セレクト
インストゥル
Apple
ギャラクシー
ありがとう
コメンテーター
Cy
MAS
Park
Sun
der
おろ
イアン
ギミック
クエ
ゲオル
ノヴァ
バッド
パウロ
ホールド
リソ
レジャー
一大
主戦
京子
全勝
同種
回送
地価
埠頭
大物
太政
妨げ
居留
幕張
恐ろ
恵比
手動
挑発
最寄
森山
楽園
油圧
祝い
突出
縁起
義経
親しい
講堂
転々
錬金
開口
雲南
飲ま
##マール
##オロ
##ーア
##メア
##lt
##まじ
プロポ
144
211
オーブ
##シャワ
アンコール
サイボーグ
ダイジェスト
ティン
##ATA
ジャンボ
##ICA
トリガー
スパイク
クリントン
落とさ
よしもと
バンクーバー
セレクション
当ては
##ensis
すすめ
リットル
コンビニエンス
FINAL
JT
Ke
Lim
UR
WBO
my
つま
カバ
ズボン
チア
デリ
ドリンク
ピンチ
ブーツ
ミノ
モダン
上水
人道
今年
介石
仕掛ける
信越
円谷
古事
古今
坂上
夜中
奥田
学力
患っ
打診
政宗
昨年
暴れ
月光
炎症
王宮
益田
着目
神谷
童話
素人
自生
裏面
襲来
見積
託さ
軍曹
迷い
長田
阿南
音速
麻布
##MM
##たか
##PC
##ッホ
##パード
##どころ
##曽根
キャット
##ora
チャップ
フォレスト
ますます
富士通
##illa
##バイジャン
モーリス
コントラ
マクシ
##イオス
マスターズ
ジョーダン
イルカ
滅ぼし
宇和島
Champion
ベートーヴェン
アゼルバイジャン
オクラホマ
Cal
Roy
Sl
Type
あま
みの
カオス
マロ
ヨウ
ラド
ロート
不信
人柄
伝来
元号
光景
半期
叔母
右派
同区
唱える
団長
図柄
土日
完封
年俸
度重
強固
従え
従属
挟み
曹洞
有能
東名
武藤
法定
泣い
溶解
無断
焼け
特訓
猪木
猶予
素早く
絵師
腐敗
通す
部会
銘柄
霧島
驚異
##・ヴィ
##ゲス
##がた
##倒し
アンカー
ランカ
ベルン
ウォルト
カルシウム
思い出し
デュエット
ウルグアイ
##アイレス
ガイドライン
ワイヤー
可愛い
##ference
のぞみ
American
間に合わ
ジョナサン
カスティーリャ
BIG
HO
Hen
Mer
Rich
ほの
アガ
カレ
ジブ
ハプス
ブリス
ボディー
モンタ
ロドリ
充当
北山
吉井
和夫
大胆
完走
岡部
建武
彼方
新橋
旧道
殲滅
沢田
熱狂
特産
相場
立像
築く
訂正
銃弾
陣屋
飲酒
##・シュ
##ザル
##サール
##ер
##持っ
シャーマン
##ough
##ウェン
オリオン
パーフェクト
乗り物
ちゃんねる
##END
TOP
##rain
##クラテス
1849
##トゥス
テンション
##デスリーガ
##irect
おもちゃ
サスペ
all
かねて
クリエイター
乃木坂
Special
RECORDS
ファントム
クラリネット
ブエノスアイレス
Batt
CBS
DAY
DREAM
Mich
Sum
XX
ぎん
くさ
たかし
アッパー
エニックス
パッド
パトロ
フレー
ヘルス
ペレ
ホープ
モト
ラッキー
リッジ
レガ
万国
万博
京極
備中
口座
叶わ
同然
均衡
場外
女児
妻子
実物
将兵
幽閉
廃墟
本丸
松前
梗塞
樋口
歩み
渡航
漁師
爬虫
疲れ
発起
着色
着ぐるみ
策略
美しく
藤村
蛍光
議決
赤く
軽井
通販
##りん
##エール
##ペス
##97
##57
##サラ
##ッラー
##プタ
##カーズ
##かつ
##やさ
##FF
##ごろ
##言葉
受け止め
オーロ
ジェームス
シャワー
ヴィラ
少なから
いわく
カルチャー
カルタゴ
シンデレラ
ハンデ
##ファーレン
グリル
##ルンベルク
PSP
##OCA
クライマックス
スティーブン
ミリオン
コンタクト
軽井沢
Ap
Fe
JB
OG
Tri
さやか
ほし
らい
ガリア
スナイ
ラベル
ルース
ルーク
充て
入間
別途
刷新
在職
墳丘
島内
幕僚
平壌
後悔
抜群
棄権
櫻井
歌声
海面
源泉
準州
申告
畜産
短大
簡素
綬章
良き
藤子
裏側
貯水
賢者
重なっ
金星
闘い
防備
##キス
##・ジャ
##タリ
##イェ
##iro
##ペディア
##oon
##ぶん
##ビナ
##しめ
##カヤ
##あき
##伏せ
1700
コンプ
ジャガー
大きかっ
##レイク
サーチ
##フォルト
##フェリー
##ANG
##ショー
##ッカーズ
##iko
ブレーブス
Thom
キューブ
Good
##ウォー
リベラル
ペナルティ
オリーブ
チェコスロバキア
Li
PART
Rem
Sa
いさ
かわり
らし
ペトロ
不況
並列
乏しい
健全
前夜
効力
噴出
年限
庇護
月面
武帝
毛皮
江東
没年
滝川
留まる
目前
直し
筑摩
聴く
肝臓
蘇生
課長
諸語
警護
身近
農園
離反
##・ナ
##YP
##RO
##ネーター
##ムラー
##河内
##暮らし
##こく
ジャングル
フィッシャー
取り外
##ンバーグ
グルー
ウェイン
クロウ
001
アフター
フレッシュ
パイレーツ
アトリエ
##ーチャー
パスワード
##ELL
セイバー
引き起こさ
ジェイソン
ニュルンベルク
浮かぶ
エンジニアリング
パラメータ
マディソン
三遊亭
Bi
co
いとう
しみ
ウッ
カント
シオン
デパート
ベック
ワニ
一夫
下層
両立
乗船
内山
劇的
匿名
原告
召し
同書
在庫
外装
奥羽
安永
帰化
平衡
強行
授賞
新入
本宮
校章
正午
注入
清算
町民
糖尿
若しくは
訳語
誘惑
賀茂
転職
農協
鋼製
長井
閣議
##・テ
##スラー
##スキー
##mb
##ザック
##de
##ラウ
##んと
##しむ
##CA
##va
##ヘッド
##ユー
##おる
##飾り
##残し
##ンドー
ジャッキー
さらさ
##ーツク
##カルド
501
ヴァンパイア
スクロール
##unes
生き延び
カイロ
Grand
##uck
いただ
みずほ
イーグル
ふさわしい
ピックアップ
ゲオルク
Techn
インストゥルメンタル
Nav
WOW
con
nm
くう
けれ
なぎ
キース
コマン
ザイ
シング
シスター
ズーム
ペプ
メロン
リビア
レック
レンガ
不倫
了承
人力
他界
仙人
供与
催し
創価
北原
団結
寄せる
富豪
専業
島村
巻い
広め
式内
整っ
整形
文京
新線
榴弾
水着
没落
盗ん
監獄
眠る
船員
若葉
著しい
貧乏
造語
遠山
鉄鋼
魔族
##トス
##uel
##rich
##デール
##バダ
##ll
##モデル
##里子
##町村
##ルトゥ
ニューオー
ステート
フェデ
ジョーカー
##ANT
ボーカリスト
乗り場
クレオ
SPOR
##ITY
##very
苦しめ
スリップ
IBF
IDOL
及ぼし
インテリア
モナコ
ブンデスリーガ
アレルギー
度重なる
Del
GEN
KE
KDD
Sam
さだ
にゃ
オバマ
カーター
キミ
ケイン
コバ
サニー
サファ
チキン
ナンバ
パケット
ブダ
ヘヴィ
マヨ
ミクロ
ミラクル
リコ
ルシ
上段
仁川
共学
兵員
別当
厚木
同義
命じる
因む
国交
土産
均一
太い
手首
持参
撮っ
札所
極度
榎本
水車
球体
生田
相方
築地
練り
繋ぐ
臓器
覚える
谷村
賃貸
遊牧
隔週
電荷
風船
##・ビ
##バット
##チネ
##カロ
##ゼー
##離れ
##本松
受け取り
インフル
フィット
取り込ま
アイコン
持ち込み
##レンツェ
カーニバル
##リオット
ライブラリー
ティル
##ote
##erson
エアバス
ホイット
Group
シリアル
アサヒ
ボリビア
ロビンソン
バドミントン
バファローズ
ニューオーリンズ
OL
RX
Soft
ph
いや
しお
ちゅ
アッシ
エリス
コープ
ナナ
ハノー
パブリック
モンド
レナ
一層
下降
信条
内地
冊子
十郎
吉良
多種
大岡
天竜
尊氏
市町村
年鑑
店内
廃藩
弘文
慣例
抗体
捕ら
来場
林業
枠組み
生計
畠山
立山
紀行
細工
綾瀬
葛西
行先
裕子
郡上
重なり
長良
開場
音波
類型
鳴き
鶴田
##86
##そく
##vent
##牟田
キャバ
162
301
ディック
ジェファーソン
打ち出し
##ula
デイヴィス
いち早く
スマイル
##berg
##bert
Enter
ゲルマン
##iversary
カートリッジ
ワルシャワ
サトシ
返り討ち
ボヘミア
AW
Mat
NWA
mus
とし
へん
スワン
ゼウス
マダ
リル
リチウム
レンジャーズ
三味
下手
伊集
副官
叙任
叫ん
回廊
因縁
奥義
嫌わ
宝物
小国
帰属
建つ
懸命
成虫
文禄
新川
暗躍
望ま
江南
潜伏
濃く
目さ
素顔
給付
緩やか
苦悩
規約
請負
負わ
跨線
近似
酒場
重工
開ける
降っ
雑貨
驚き
黒幕
##テラ
##出る
##・ソ
##・ペ
##by
##ст
##fl
##パイ
##がす
##ヨシ
##ほう
プロパ
##ナーゼ
##ローラー
プレゼン
380
##ograp
##ウィック
1852
グリップ
クーパー
DeNA
アミューズ
ANN
##ittle
バッファロー
レジェンド
Charles
ハプスブルク
伊集院
EV
Miss
Oper
ft
やさ
エーカー
ケルト
トータル
ナツ
ハブ
ピュー
モテ
上総
個展
傷害
入札
単線
吉祥
同調
名字
喋る
執着
大英
奉公
客観
家業
小平
居る
工兵
左京
彦根
役立つ
戦勝
戦役
揃え
教材
明言
木更
本間
東横
桟橋
業態
楽しい
死傷
気流
河村
洋子
環礁
生還
略し
登用
石狩
礼儀
祈祷
簡略
納税
紫外
絵柄
緯度
耕作
補欠
西園
豪族
長島
陛下
黒崎
##ィー
##アメリカ
##ゲー
##ぶし
##gen
##cript
##モール
##ズス
##ワート
##やき
##てん
##掛かり
あっさり
スタイ
##itz
##フィクション
アンモ
##ータン
ウェイト
スーダン
##コンシン
##idae
##ival
ルーシ
プリメ
##クラブ
せんしゅ
##OWER
##ney
Class
##プラノ
Phil
##クセンブルク
マシーン
背負っ
##ublic
リヴァプール
Billboard
プエルトリコ
パトロール
木更津
Mart
PM
にい
はつ
ひな
ゴロ
タイル
タックル
チュニ
デ・
バートン
ペリ
マタ
メッツ
一夜
一因
上がら
交配
休み
勤労
原宿
周防
和也
図形
多田
夢中
川西
感想
或いは
抑圧
捕え
断り
本庄
殺到
沢村
注い
浦安
海南
点火
特捜
田川
田畑
石山
秒間
観覧
赤ちゃん
起業
遊歩
高尾
##ヴン
##ぶつ
##ILE
##EP
##げん
##ゼット
インダ
ディン
ディスコ
##ister
ウェスタン
クロック
##ルドバ
##ima
スケッチ
スキャン
##ブリュ
ペンギン
ディーラー
パーソナリティー
レオポ
コンポーネ
スキャンダル
ステアリング
RADIO
フィルハーモニー
コソボ
Af
Alex
Bel
Bur
Fre
Gal
JFL
Let
May
iT
かれ
れれ
アディ
イロ
ウリ
オロ
サザ
テント
デフォルト
パチス
ラント
リフ
不快
乗じ
元首
公判
別所
北道
卓越
名神
商社
字体
容認
居酒
延べ
弦楽
悟り
新車
景勝
栄町
武官
水銀
沈ん
沈め
満洲
溶液
石見
破れ
磁場
移築
空白
肥前
肥料
臨む
茨木
荒井
躍進
軍需
野中
長者
陶器
隔て
隠岐
顕彰
##キウス
##・ワ
##rol
##リブ
##メート
##いん
フランケン
##シュト
ジョブ
ジョゼフ
アーノ
マーベル
カルロ
スコープ
ギャップ
ナイジェリア
ツーリング
Edition
マシュー
ストックホルム
ファルコン
スナック
エナジー
ナビゲーター
Radio
ミハイル
サスペンス
パチスロ
居酒屋
FNN
]、
クン
ソリューション
ハント
バロン
メイト
ロド
休戦
余剰
先制
出願
到来
助演
原油
参列
合間
同化
囲む
壊し
外出
外壁
大町
小原
山野
応永
拳法
持て
日田
森本
検知
汚れ
混血
点灯
熱い
硬化
纏っ
美作
荷重
華族
解き
賭博
選曲
釜石
震度
高井
高まる
##オリ
##ゴメ
##・ヒ
##アーズ
##ko
##バナ
##セー
##去り
##ディック
##eng
##enter
##ナーレ
フィレンツェ
##ッチャ
サイレント
パンフレット
デュエル
デュアル
チョーク
キャンベル
伊勢崎
逃げ出し
シャーロット
##ILL
おもに
ニュートン
シグナル
ジョルジュ
ブリュッセル
ウィスコンシン
##rumental
SPECIAL
CAS
Es
Fire
Of
いじ
ふん
カフ
コモ
シネ
ダック
プス
マンス
リオン
ルン
ルクセンブルク
健在
健太郎
光子
内定
冷たい
分社
受講
呼応
坂田
変革
川田
布教
広げる
懇願
文理
未定
材質
東岸
格付け
機首
気質
津島
王冠
男児
病原
白く
祭壇
絶命
舞い
舞踏
見立て
謹慎
配し
鉱石
銅像
響き
##テック
##イロ
##17
##ボルト
##サック
##hone
##ん坊
##よい
##リータ
ファウ
コンソール
フランコ
取り出し
225
デザート
##ush
ジュラ
##osa
##irst
##ague
繰り返さ
クリミア
話し合い
組み合わせる
メモリアル
ペルシャ
とどめ
プラットホーム
オークション
スワローズ
オムニ
Mem
Sim
TP
])
man
あけ
ちん
なだ
はめ
ばあ
ふし
ぶら
オメガ
ケイト
ケニア
ベオ
万能
上川
中流
久喜
交替
侵食
全幅
単装
安城
憲兵
戦中
手持ち
文句
木戸
栗田
海防
滅び
物品
特製
理性
直下
眺め
着い
着物
社屋
私的
秘め
緒方
翌朝
肥満
脅し
臭い
荒れ
豊前
赤羽
転任
退去
進駐
関口
防具
降車
隙間
驚か
高見
高台
黎明
黒木
##ボク
##ham
##ダール
##の内
##調べ
取り上げる
##icial
フォア
知らせ
こうじ
ローテーション
##ANCE
##ural
##キュラ
カンヌ
##OME
スパーク
##エンザ
1856
スマッシュ
おこなう
メカニック
スタンフォード
取り扱っ
ダイナミック
##ツィオーネ
ウズベキスタン
http
9000
Ca
Ob
pres
ウイス
オデ
カ所
サメ
ネガ
ベニ
ホビー
リヨン
下げる
世俗
伐採
先立っ
勝目
収縮
咲く
回生
大家
大道
守山
彼氏
戦列
戸塚
拡充
推計
揚げ
星雲
映し
時速
検閲
様相
正気
決心
白馬
製鋼
辞し
逓信
部活
限っ
難い
面識
預言
風間
##マイト
##ring
##gy
##サム
##ヤーズ
##CL
##ネスト
##ブー
##嫌い
アルカリ
バスケ
235
ダイビング
##ンチャ
マルティン
ティラ
繰り上げ
振り回
アトラス
1847
いちろう
Sports
Office
コンポーネント
mod
かさ
こま
ばし
サタン
サバイバル
デコ
トレイ
ドジャース
ペダル
ホステル
上告
代償
俳人
借用
値段
内心
切ら
初年
去り
反復
収支
壁面
大倉
孵化
寺町
小石
幼年
投影
揚陸
握る
欠席
水沢
汽車
無力
犬山
産ん
用法
竹中
精製
蒲田
行え
貸出
足跡
適正
配当
##り物
##ゴット
##AV
##チカット
##はら
##でる
##の中
##分ける
206
##ラーレン
取り込ん
ジョシュ
マルティ
スクリ
乗り出し
シェフ
生き物
アドバンス
Child
##エンヌ
Alb
苦しむ
気づか
アキラ
気付か
ゴルゴ
##フォンソ
コネチカット
Company
コックピット
バレンシア
KDDI
Bir
Hol
Im
Pat
TN
がかっ
そら
ふそう
まえ
アブラ
ウシ
エト
エックス
キプロス
クリック
ナミ
パット
ポータル
下がる
仮設
優駿
元町
光年
前向き
割譲
包み
可視
右京
四球
国定
国教
土岐
多忙
委任
履歴
工具
平氏
幸子
恐らく
戦績
拝殿
数える
本性
欠い
氏名
流動
消極
消える
灌漑
甚大
甲賀
筑後
芦屋
花嫁
蔵人
藩政
覆面
貫く
赤ん坊
越中
車輛
透過
郷里
酒田
重巡
野沢
面接
##マルク
##コタ
##アリ
##ベリ
##83
##der
##ts
受け付け
256
##シャイン
ランニング
##フォーマー
##olution
##んどう
トラスト
##ティーノ
グラブ
スピリッツ
やっと
ガーディアン
スイート
##キンソン
申し立て
NEO
サムライ
ノンフィクション
##awa
フィリップス
カスタマ
ネクタイ
リサイクル
ETC
JF
Jun
NM
RNA
do
qu
いな
はっ
エント
カサ
ケビン
パンダ
ビースト
ペリー
ムン
ラプ
両面
京橋
光明
全仏
共感
劉備
匂い
半減
南町
右打
土方
夜明け
大麻
実効
少量
尼子
帯域
帰投
廃線
張本
掴ん
敷か
日時
日没
旧約
杉田
桑原
残骸
沈黙
注射
減速
漁船
狂気
現世
矯正
給水
若林
被爆
試練
関白
面々
##テロ
##出そう
##ny
##ジロ
##デシュ
##87
##Pa
##IK
##cin
##チレン
1820
##ンドルフ
ともさ
##ative
チャック
##ッチェ
##ッチメント
##ンチェ
ユーモア
480
フレッド
ガンマ
##uber
モノクロ
出入口
デーモン
ベンチャー
グアム
Party
カブト
ラファエル
キャスティング
イースタン
目の当たり
Amazon
Dis
Free
がる
てれ
アステ
イブン
エカ
コリン
シノ
ドロー
中南
享年
人衆
公子
公営
冷酷
台南
名跡
回顧
圧迫
大晦
太一
太宰
好奇
安保
恩恵
恵那
悪人
抜ける
指針
新春
日数
本島
村域
来訪
橋上
次ぎ
水没
沙織
溶媒
田島
経典
総武
線型
美智
習志
自発
自律
補う
見なし
誤認
超過
間際
隠蔽
鳥栖
##UP
##BR
##カライズ
##さく
##こし
##屋敷
##百合
##リアーズ
##ルドー
##サンブル
カリウム
##AMP
1845
置き換える
##URE
おおさか
チューナー
マグネ
NEXT
トランスフォーマー
エレクトロ
東大阪
スチール
カエサル
メドレー
プリメーラ
カスタマイズ
大晦日
習志野
DIS
Hell
Jose
Mel
Pan
Version
sy
きよ
すく
すき
アロン
ゴート
トミ
ヒスパ
ヘレン
ベータ
ボンド
マナー
モットー
上山
世の中
主君
低速
体勢
例え
傷つけ
劇作
千種
変速
実弟
実兄
射出
履行
山名
島民
川原
州間
強襲
従わ
怪談
慕わ
手榴
拡幅
救世
新装
枢密
死因
決算
法典
独断
神輿
窃盗
筒井
終止
華麗
許す
議院
贈っ
身延
軍令
速やか
高射
高騰
##ロニア
##スン
##ボラ
##バオ
##tain
##cal
##FT
##差し
ことば
キャッツ
キャッスル
##arm
##ense
チャット
ストリー
ウィンター
スターリング
##ume
##チェル
##リエット
追い詰める
ギャラ
##ーチン
亡くなり
##ipp
トロフィー
ウルトラマン
Your
##ーグナー
マグニ
PRO
ひろみ
マネージメント
ミステリ
チャイナ
カウンセ
だらけ
恵比寿
西園寺
iTunes
Av
Lu
Out
RD
Sky
Video
Wil
ab
アントン
アウェー
セス
セブ
ソマリア
ナガ
パプ
ビクトリア
ベス
ペロ
ポテン
メラ
モリス
モビル
ラ・
レシー
三宮
上尾
下山
下表
両用
以東
便所
信夫
全通
共作
冷蔵
出仕
叩く
吉備
囚われ
執拗
増す
官邸
小谷
急進
急逝
愛子
慈善
戦災
手下
握手
日出
気配
永正
治め
海浜
発効
登り
祭典
立教
童子
終末
耐震
能代
脆弱
自我
致死
萌え
藤枝
譲る
転覆
通達
配偶
長大
降る
音節
飯島
龍馬
##ニシ
##ニット
##ペー
##SU
##ole
##モフ
##もる
##投げ
154
ついで
インフォ
タイタン
取り付ける
ストリング
アンサンブル
##ional
ヴァレ
スクラン
##idge
フラツィオーネ
キロワット
##ude
##トラック
バレンタイン
カイザー
ベンツ
##アイランド
ALL
見送ら
Corpor
シンクロ
iPhone
Anniversary
アクセサリー
けれど
インフルエンザ
GOLD
HR
Home
Happ
Ju
KS
LM
Max
しな
イジ
カッコ
ラルフ
ラオス
レフェリー
仏像
企て
会戦
侮辱
備後
凄まじ
切符
南岸
叙せ
大柄
安達
安部
官吏
宣戦
宿舎
富裕
引か
快適
怪盗
感銘
政友
本艦
東邦
架線
正直
気仙
水槽
沿革
海抜
清原
滑らか
熱田
神事
税務
美和
聖子
航続
逆襲
配線
金賞
院内
須磨
頼む
養育
骨髄
黒澤
##マム
##ゥー
##どき
リーフ
##ated
チャリティー
取り締
取り囲
引き抜
ウィー
サイパン
持ち合わせ
打ち破
##ジャック
##キュラム
落ち込ん
披露目
振り返っ
つなぎ
アトレ
##グラフィー
送り出し
プライス
支払っ
とうきょう
##キャラ
##ブレッド
##ンジャミン
Team
Franc
イケメン
WOWOW
950
DOS
Ep
HM
Lou
Sant
Sound
Tre
UD
del
gr
あわ
ちび
つう
やん
わら
アゲ
イト
エアー
サキ
サターン
ザク
ダウ
チルド
テッド
バトン
マギ
ミッチ
レポーター
ローター
不意
化身
和音
坂東
変態
夕刊
夕張
大当たり
山王
岸和田
携行
故人
救難
服用
森下
残虐
減り
産む
田代
疫病
破裂
社民
競り
細部
老中
脊椎
臨済
蒲生
西野
部局
頭蓋
飛ばさ
##コフスキー
##of
##ッガー
##ツジ
##けい
##ったり
##込める
##ヨウ
##ストリー
##レーティング
サーベル
マインド
いわば
Stre
シェーン
ファイアー
切り札
フラグ
カリキュラム
1846
##トゥー
##ッシブ
テクニカル
ディスカ
ミラージュ
ポップス
##ather
アトランティック
API
尽くす
かぶっ
Instit
さかのぼ
ラトビア
PHP
サタデー
ラバウル
ギャンブル
ヴェストファーレン
FU
KN
Light
ps
ちば
とれ
ばね
めん
わん
エラ
オホ
クリン
ザール
シモン
タスク
トモ
ドス
パ・リーグ
ヒゲ
ベンガル
ベンジャミン
ミト
レズ
事柄
付か
側線
分担
劣勢
動植
勝山
即興
壁画
委ね
寄宿
巨乳
市外
広範
廊下
形質
念仏
念願
拒ん
挙句
日誌
柳生
正徳
武雄
残党
沙汰
災い
登る
祝う
秀樹
童謡
素早
統率
虚偽
街区
見出さ
試行
躊躇
造園
風力
##リニスト
##ga
##go
##IZ
##びれ
##ムント
##割り
##清水
アルス
##リスタ
フィオ
持ちかけ
##アーノ
ジュール
ビルド
シンシナ
アラバマ
ハンセン
1843
ヘルシン
##ヴォン
掛け声
見つから
コスモス
アブドゥ
White
MOV
おとな
メディカル
きちんと
Network
かえって
Championship
アッシリア
DI
NDL
SB
WC
he
こっ
さほど
ちか
ほく
カルト
ジグ
スレッド
ニャン
バディ
三和
争わ
停滞
初恋
判例
参与
各務
商科
啓蒙
園内
堂々
復員
快く
感度
手腕
振っ
掛川
揖斐
明王
柏原
柳田
柳川
治癒
洋楽
湖南
滅多
皆無
直行
祀っ
粉末
粘土
菊地
覆い
豆腐
貰っ
軌跡
軍政
近親
長所
雇い
風味
館山
高瀬
魅了
##ゴビナ
##・ゴ
##メディア
##バンド
##ビッチ
##ドックス
##き出し
##代子
##ぜん
##..
##張る
208
204
##ンジン
ランディ
システムズ
カーボン
##バルディア
打ち切ら
ルーカス
##AMA
##iew
インタフェース
オスカー
オペレーティング
パスポート
やり取り
殺し屋
##ストロング
しょく
WWF
##ポリタン
カリスマ
リソース
シンシナティ
DB
Gold
Hy
KAD
KING
LINE
MK
Sn
Tim
WIN
ぐら
さとう
そちら
つぐ
ひこ
もみ
ゆい
アリスト
エタ
コモン
ツバ
ドニ
バント
ヒカル
ホフマン
ボト
ボット
ポット
ミケ
ラピ
リナ
リニア
ワイヤ
一座
中道
伝播
伸ばす
停戦
催眠
別称
同線
国文
大樹
女房
安い
導か
山県
岩井
年月
強奪
怪力
数量
歯車
民進
泊地
浮気
煙草
熟練
熱中
球技
祭礼
稲垣
箕面
聴覚
脱線
膨ら
計上
調布
重心
銘打
長き
音頭
頭頂
頻発
##テュ
##ais
##ар
##バリ
##line
##ür
##ージャー
キャリー
ウィザード
##キーパー
##adem
ファイバー
ルーフ
##AME
##over
1844
1836
##ザンヌ
##ナンシャル
カタカナ
ドーピング
パルマ
##angu
いたる
ストライカー
エージェンシー
いとこ
College
カクテル
インデックス
オアシス
Michael
オーロラ
720
AE
Di
Hel
HMS
Little
Mot
MAG
ほり
みか
エレン
バング
パブリ
ムサ
リターン
亜鉛
佐々
全額
内面
加減
博文
古田
大雨
如何
子宮
存命
宇多
宗派
小路
平城
徳山
快挙
態勢
懐疑
成瀬
払う
投降
敵機
文教
早世
暖房
松崎
極秘
欠かせ
温厚
片道
狭山
王権
由美
百姓
監察
福建
筆記
縦断
誓っ
謙信
邪悪
飛翔
飽和
馬主
高円
##・ジュ
##タム
##ナカ
##メト
##PO
##そば
##ti
##ラール
##ウイ
##チカ
##置き
チャネル
221
##クトン
290
ジョイント
ダイレクト
フリーランス
エンブレム
365
340
##ORY
パラレル
書き込み
##ther
オルガ
教え子
メイキング
申し入れ
アタッチメント
##endo
LIFE
エレクトロニ
##ross
##OKAWA
りんご
DDT
ワークショップ
わざと
取り壊さ
キャピタル
RKB
Society
フランチェスコ
NDLJP
420
BN
Bre
Ev
WS
West
YU
あかり
さつ
ふと
まどか
むつ
よかっ
カズ
ギガ
コブ
サガ
サプライズ
シム
スレイ
セクター
タカラ
ナイツ
バシ
ビザン
ピート
ホーリー
マッキ
ミレ
ロリ
ロッカー
一向
下る
交友
保ち
元ネタ
列挙
即ち
原町
国名
堀内
大仏
客席
惨敗
扶桑
操車
朝刊
未亡
本科
杉本
氾濫
牛肉
生後
産み
画質
異議
相関
石造
網走
裏腹
言論
誠実
謀反
譲受
転出
長屋
間近
陸海
面影
風習
騎馬
鴨川
##・キ
##・フェ
##yr
##59
##ck
##ぬき
##育て
207
チャド
チャイルド
引き出し
シャム
アーバン
こうえん
シュトラ
##ッツィ
パーソン
ティーン
追い込ん
##ular
モーガン
サラブレッド
ハードル
突き刺
1815
##ンバラ
##mann
上り線
アレクサンドロス
スライダー
アームストロング
ひどく
コンスタンティノ
KADOKAWA
未亡人
Hist
IG
Na
POWER
いこう
こめ
ぞく
エイト
ケプラー
スバル
タイト
タモリ
テトラ
ヌード
ハープ
パティ
パッチ
ブス
両軍
中途
主軸
今村
俊介
偶数
傾倒
光源
刺客
占有
受諾
城郭
奪回
寄席
富ん
居候
川沿い
巻末
捉える
接種
日の
朝夕
村落
桃太郎
正人
残酷
決行
済ま
独り
真由
石室
表れ
誘っ
踏む
農産
近傍
送付
阿武
随一
青空
##・ジ
##ソーム
##ナリー
##モロコ
##わう
##ユーズ
##飛ばし
##ヶ岳
アンプ
サイコロ
シャフト
##ジェット
ハイデル
バラバラ
##APP
マクラーレン
アスリート
ムーブ
##UST
エクア
マグマ
##チュード
春日井
BLACK
カロリー
成り立つ
##・ヘルツェ
Girls
教職員
レプリカ
動植物
AX
Dig
Die
IF
TA
Tor
Vir
day
うみ
べし
イシ
イヴァン
エミー
ソプラノ
タフ
下がっ
伝授
優遇
光沢
入省
凶悪
前任
加害
反感
国歌
増資
宮島
心得
抜か
捧げる
掴み
提訴
施す
本営
架橋
桜花
機嫌
法師
湯沢
激闘
秀雄
空い
羽生
聴き
英米
蒸発
蒸留
螺旋
製法
費やし
遷移
醍醐
鋼鉄
長江
雅子
##ロップ
##・ユ
##・ヴァ
##36
##14
##ビック
##ол
##にち
##こみ
##恵子
##麻呂
##ットガルト
##ティマ
ライム
いっしょ
引き渡し
ジョヴァン
シュミット
トラベル
組み込ん
##une
切り裂
言い渡さ
パラリンピック
クリニック
結びつい
イエズス
バレル
エディンバラ
##ドンナ
おそれ
ヴェルディ
モニタ
オカルト
フェルディナント
ボスニア・ヘルツェ
Angel
マッサージ
恐ろしい
##モロコシ
ボスニア・ヘルツェゴビナ
Ben
Ear
FE
FX
TB
UTC
ひい
ひかる
みらい
イク
ウミ
タップ
チー
ラル
リンダ
リーマン
七尾
不祥
丹羽
久慈
信じる
元祖
出征
刻印
加担
参詣
君臨
品番
困窮
大喜
屋号
岩見
後醍
心筋
心身
恵子
慰霊
払っ
掃討
散布
文科
有楽
未熟
本庁
村井
林道
欲望
正則
江原
現す
略記
病床
皇女
着想
積雪
細く
絶縁
綺麗
総局
罷免
美里
苦痛
西北
見捨て
親密
試し
課せ
走ら
農耕
通例
野郎
##グレード
##オフ
##ーカ
##・ピ
##・ノ
##タケ
##トリス
##ケ谷
##アラ
##ペクト
##レフ
##ヤマ
##カール
##ев
##太后
##どる
##ティティ
##リアー
##バーツ
172
##ates
アイデン
アイディア
スペンサー
サイヤ
##oman
##ada
もとづ
##リエン
##ope
##ACT
いちご
##obile
##ITE
1837
クロスオーバー
じゃん
ブランデンブルク
ポルシェ
浴びる
ミルウォー
しゅん
グラスゴー
明日香
シュタット
##ガイモ
イブニング
聞こえる
class
エスカレーター
八千代
Corporation
ヘルシンキ
後醍醐
ミルウォーキー
Jack
SUN
Way
ad
per
あう
じろう
たなか
なめ
ねえ
まな
アユ
オク
クレーター
コブラ
セロ
亀井
全高
再起
合祀
同位
嗜好
大軍
布施
延岡
戦功
拾っ
探求
明朝
曽根
有線
根室
桃子
榊原
機甲
毎時
減る
滝沢
生死
発熱
盗ま
直訳
矢部
糾弾
給料
縦貫
羽目
芝生
花弁
苦情
西原
軍備
連帯
##・アン
##クティブ
##リナ
##94
##ボット
##チコ
##ゼーション
##った
##之島
##ひこ
##若松
##ティックス
ファンク
コンチネ
##ars
フィルター
取りや
ステファ
ブラス
ジョッキー
##omo
持ち上げ
ビルディング
付け加
##ures
グラハム
スピリット
トレーラー
下り線
いたずら
会津若松
トウモロコシ
マキノ
推し進
おろか
ウイスキー
ポテンシャル
コンチネンタル
Book
Dem
Trans
UK
res
ゆず
アヴェ
ガッツ
クウェ
サロ
シク
ジア
ソルト
ヘビ
ヘイズ
ポツ
ポーター
マーズ
ラーン
リップ
ルミ
ロワ
ロータス
三郷
三陸
中居
五島
仲裁
供述
公害
分隊
合致
名護
名高い
変光
失速
山林
平戸
年数
拘置
捕まっ
採り
支庁
旧名
曾孫
林家
柏木
止まる
正明
死な
沢東
疲弊
紅茶
著述
術師
補修
規律
誤差
諸葛
鍋島
難航
頓挫
高官
##ノ島
##ノイド
##ノラマ
##zy
##チモア
##DER
##わざ
##すら
##寄せる
209
引き連れ
##テルン
off
アクシ
モンテネ
シンフォ
トゥール
キングダム
当たら
巻き込ん
グリム
ブレーメン
見つかり
タンカー
737
##フスキ
##ミネーション
ホルダー
はじまり
気付き
セクシー
ウエスタン
フェンダー
フレンチ
シリコン
マッカーサー
SPORTS
Boy
End
Fight
MOR
Rail
te
おま
くわ
こな
ひばり
ウイン
コルト
シティー
トンプソン
ヨコ
レックス
ワラ
下す
下士
乱暴
令嬢
俗称
先立ち
入港
制動
即時
因果
地頭
天照
媒介
小豆
左目
我慢
戸惑
所定
打線
振舞
捕まえ
故意
文人
星団
書誌
杉浦
森川
植田
検挙
極楽
標榜
模擬
正宗
火口
町村
画素
皐月
県境
私有
精鋭
続投
脇役
葛藤
蕎麦
責め
辛い
辰巳
離島
顔立ち
魔道
鮮やか
黒沢
##マド
##アール
##52
##16
##12
##ぶさ
##la
コンコース
コースト
サンプリング
アニメーター
ジョアン
##ヴィッツ
持ち出し
##んどん
コミカル
ハイデ
パーカ
##ters
ハーバー
セルゲイ
##OWN
United
レオナルド
ボルチモア
あさひ
コウモリ
ハロルド
滅ぼさ
あおい
あかね
目論む
ドミニカ
ナッシュビル
のぼる
ノルマンディー
シュトゥットガルト
Camp
Direct
Land
NK
VOL
WRC
ed
かる
キツ
サヴォ
セビ
トカゲ
ナイル
ブイ
ペイント
与野
代金
公主
内訳
内紛
凶暴
分室
勧請
化成
北島
各部
向ける
困惑
地味
士気
多治
大隅
失望
子育て
安堵
実名
宮沢
家出
宿場
川辺
師管
床下
彩色
応える
愛想
挫折
振替
晋三
有る
本所
枢機
死別
湖沼
漬け
父母
省庁
秋月
線維
置県
美咲
育児
船首
街路
西国
角田
転戦
迷彩
違和
鋭く
須藤
頑丈
風刺
風速
飢饉
騙さ
##くじ
##・プ
##ning
##OO
##39
##ホル
##かも
##読み
またがる
フィーチャー
##ローナ
##olf
ダイエット
乗り入れる
ちゃんと
ユーリ
追いや
##シェン
シルエット
やりとり
チューニング
Leg
リバース
ギルバート
ダイナマイト
Island
問い合わせ
チェルシー
Engine
しゃべり
スチュワート
Richard
Battle
Thomas
Carl
Ger
Kh
RF
RAM
Vi
kHz
su
うめ
ぐち
ぶっ
イデ
オンタ
カカ
セ・リーグ
ゼー
トレン
ノール
ノズル
ハビ
ベジ
マドンナ
ミント
リハー
リビング
ロイス
ワーグナー
二男
付さ
修繕
倍率
児島
入閣
前世
取水
同心
同定
同族
呉服
啓発
大學
完備
島々
打球
斡旋
方位
旺盛
是非
未完
枚方
桜木
梶原
欠番
武芸
済む
生家
的確
瞑想
竜巻
結集
繊細
美穂
補習
贈呈
踊っ
身の
車軸
軍部
長髪
阿賀
電器
願う
食肉
鹿屋
黒部
##ちこ
##フライ
##セグ
##合わさ
##語り
できれ
##ージナル
クラッチ
取り込み
ステルス
ウェルズ
ヴァルト
ローリー
##リストル
一人娘
フリート
##irc
##agon
立ち上げる
スピーチ
トレイル
読み切り
グリッド
コンビネーション
1806
1832
Space
たまご
シューズ
抜け出し
兼ね備
取扱い
襲い掛
メソッド
ミカエル
オースティン
ヨルダン
オンタリオ
リハーサル
Ba
FEST
Game
Sk
TT
Top
ざい
のう
ひみつ
びょう
むす
アセン
イモ
エコー
ギニア
クルス
ゴリラ
シエラ
ゼミ
ソユーズ
ダイス
ドク
ドナウ
ピーチ
ムード
ヤス
ロバーツ
三上
亀裂
予科
倒れる
入城
入江
六十
受理
四肢
埴輪
塩素
大帝
嫌気
岸田
巡業
座敷
弾い
必然
愛車
手形
操ら
新進
松任
水原
水質
水軍
流体
浅川
甲州
目次
真一
矢作
神山
神名
神官
繁華
聖歌
脚部
若宮
見逃
視線
護国
賢治
身柄
軍医
軽便
迫撃
退院
遺し
関門
限度
##マネ
##・ブラ
##ji
##yle
##ナガ
##RNA
##ий
##モノ
##ムナ
##暮れ
##HER
##之江
##だち
##蹴り
##変わり
クライン
リーディング
チャーター
##ステークス
##itar
##lect
##elf
##モンテ
##ヴェー
オペレーション
##カンソー
エドゥ
ATS
##っとり
ビジター
GPS
ハリソン
999
キュア
ブックレット
メトロポリタン
SEED
スティール
UFJ
##ECTION
不二雄
コクピット
グレゴリオ
マヌエル
うさぎ
ベオグラード
エクアドル
モンテネグロ
)"
CAT
Luc
Si
VV
Wal
いで
かり
づらい
エフェクト
ギネス
ゴア
シオ
シクロ
ツル
パース
ピオ
ピョ
モレ
リリ
リラ
リフレ
リセット
下宿
下回る
元治
六甲
南洋
和睦
哲哉
喋り
執る
堀田
大祭
大牟田
学研
官庁
実数
密集
尋問
小名
居士
市政
従者
戦没
投合
掛かる
敗走
新製
新鮮
本流
欲し
歌集
江口
浄水
消去
濡れ
番長
異形
真ん
禁煙
稼い
稼ぐ
筑前
組曲
編著
羽毛
聖徳
腎臓
蜘蛛
誓う
谷山
軍務
返却
選任
震源
鹵獲
##ジスタ
##ベー
##ベツ
##レッタ
##ware
##ビオ
##ラシア
##ろさ
##届け
##帰り
クラウス
##シュート
フィッツ
ニューズ
サンシャイン
シュト
もとより
802
トゥル
つくっ
コントローラ
##OTO
1812
1814
まちづくり
アレクサンドリア
受け継ぐ
News
レディース
##other
サイクリング
あすか
##・フォン・
見知り
Royal
Summer
Big
EURO
GRE
PI
PE
pp
おし
はり
りく
コペン
ジングル
スギ
トゲ
ピレ
ペーター
ラバー
ラッピング
レパート
一命
三鷹
伏せ
但馬
供さ
倉吉
光る
加納
台中
団員
売場
大まか
宮原
宴会
家光
寒冷
対人
小杉
山上
平年
延宝
弘化
微笑
懲戒
手放
摘発
撃っ
放水
景色
果樹
案件
正史
民政
気力
流山
浩一
渡来
港町
溺愛
漂流
燃える
物価
異星
異教
症例
登っ
破滅
習い
肉食
脊髄
脱獄
茶道
表せる
要職
財宝
越し
鍵盤
開学
開墾
間柄
静脈
黒字
##PR
##サード
##ブリー
##せつ
##どっ
##ディスク
アルタ
ニューギニア
##isch
##ファル
##amil
チェンバ
オリバー
起こら
ジュピ
レコーズ
Studio
立ち寄っ
切り替
ガンバ
呼び出さ
##チュウ
エレキ
書き換え
投げつけ
##グラウンド
ATP
スイング
##ナンデス
バラエティー
ガルシア
ヴァイオリニスト
スルタン
##っぽん
返り咲
new
General
ウィキペディア
Europe
真ん中
コペンハーゲン
Cry
Cast
DL
LR
Lo
げき
っこ
ゲッ
コタ
コフ
ソクラテス
デモン
ペイン
マハー
ロザ
ロッキー
ワーズ
会堂
修得
加増
十和田
原住
同情
変電
大滝
履い
年号
幻覚
弁天
志す
怒る
思惑
振ら
掛ける
探る
文武
柏崎
正一
矢島
竹下
美樹
親しみ
談話
諫早
購買
足場
過度
遠野
適性
野手
鉄工
門人
限る
飛ばす
騙し
##ニヤ
##ゴーニュ
##・ラー
##ジュー
##hr
##ca
##しゅう
##ミオ
##ミンスター
##へい
##ターニュ
##ala
スタック
213
フォロー
引き受ける
ブルターニュ
チェスター
##ッグス
##ida
プラモデル
ヴェン
コロコロ
みなす
Real
バンパー
リアス
1838
エスペ
ベイカー
送り込ん
トロイ
さいとう
##プライン
かたわら
ニーダー
積み重
ウイグル
##IVAL
NCID
カウンティ
アジト
アンソロジー
##まつり
ロドリゲス
ブダペスト
ハノーファー
チュニジア
ハイデルベルク
"、
Bab
Da
FNS
GDP
Hz
Pri
RED
SI
Ult
Wr
und
wh
xx
きし
つぼ
ひる
びわ
まじ
もく
イスタン
エッ
オラ
カブス
コモンズ
サティ
ザ・
シンジ
ダコタ
ナゴ
ニッケル
ノーマン
ピストル
ブリストル
ラット
両替
丸い
亜紀
余地
保た
備考
備わっ
傲慢
右足
四谷
大理
女将
宗像
山門
岩槻
帝政
悪霊
智子
書状
東野
東国
欠如
正平
没する
法規
洋上
深谷
独奏
田町
発布
真弓
福原
稚内
腐食
自粛
荒野
褒章
講道
賜っ
返事
述懐
重度
長兄
雌雄
電脳
風邪
高津
麻呂
齋藤
##キスト
##ガキ
##ガング
##ベラ
##レアン
##65
##メロ
##ボリューション
##con
##cess
##75
##HA
##ón
##巻き
ライカ
サンゴ
ステイ
シャク
##oud
ウェポン
##ette
ごとく
ハンナ
グレッグ
トリニティ
##ISE
ゆうき
エドガー
FIA
オートマ
League
ソーラー
とどまり
Pres
振るわ
BLUE
Andre
Japanese
##・ディビシオン
Great
持ち帰っ
ノウハウ
レパートリー
KT
Master
Rac
mph
up
かご
がたい
ごみ
じけん
づき
なが
アスタ
ウーマン
エネ
シックス
セリ
トマ
ドーナ
ナックル
ニャ
ポロ
マトリ
ロレン
ロースター
下段
丸の内
入幕
公方
具現
兼用
列強
創世
助力
原典
同法
回す
坐像
壱岐
変種
大日
対艦
尾上
峡谷
嵐山
年内
広西
恒久
成形
採算
放題
日置
明星
本陣
東欧
機長
汚職
江蘇
海部
漱石
瀬川
煉瓦
着地
破ら
磁石
神仏
税金
穏健
節約
終身
総集
群島
肩書き
藤堂
超越
跳躍
退位
通年
遺骨
重症
金城
鋼板
防犯
雇っ
高裁
黒く
##出せ
##ノウ
##イチ
##eet
##ジスト
##gan
##フリー
##らわ
##ワル
##ミヤ
##すぐ
##ゆり
##伝え
##ストゥ
303
タイラー
ディヴィ
引き取っ
ウィルス
ブラザース
アーロン
アーカンソー
ジュエル
イベリア
##INK
カルボ
パイプライン
370
440
1851
1807
##iki
Show
##ドゥス
747
ビスマルク
目論ん
ひたすら
馴染み
セネガル
マリーンズ
Service
鳴き声
##ボクシング
MOVIE
クウェート
ポツダム
Bu
Dan
FK
JAS
MH
QB
Sur
Vis
VII
Year
いしゃ
うし
くっ
せっ
ひだ
ふつ
やつ
イデオ
ゲット
ゴリ
シアン
セーフ
デア
ピル
リンド
リーン
ワースト
一式
上智
中庭
中級
内政
刃物
商法
地底
失調
帝王
後編
応急
悪性
悲惨
憎しみ
懸賞
戦わ
手袋
拾わ
描画
擲弾
放課
敬愛
文春
新約
旅立っ
昇叙
春樹
植木
死闘
沈着
爆風
牽制
生む
産生
白紙
目安
相生
着る
硬い
移封
約数
美学
落城
製鐵
診察
詫び
課さ
豊中
那賀
重なる
随所
電極
電位
高杉
##テリア
##ピラ
##ガルド
##・トゥ
##スキ
##イッチ
##ゲルス
##YO
##gar
##ッサン
##CD
##ゾー
##xt
##ぷり
##ティコ
##レーナ
ジャガイモ
ライジング
クララ
##atic
フィルタ
チャール
212
231
シュガー
くるみ
##ira
##ジャーズ
##チュエ
##ander
リアリティ
##ヴォル
##obe
##・アンド
エスパー
1825
1789
comp
##azz
##チョフ
バリュ
##ガスカル
UNIX
リミテッド
ESP
弾き語り
中津川
フェリックス
すごい
ひどい
柔らかい
立ち向かう
Science
マダガスカル
Street
080
Gro
Hall
HOT
Jul
NNN
RB
XP
gl
hyd
ser
var
かげ
こぼ
エッチ
カド
カーズ
キレ
ジロ
トク
ドキ
ネバダ
バニ
プリー
メタン
ヤギ
ルック
レギ
三笠
予め
二階
井原
井伊
位階
内村
内臓
前座
勇敢
十勝
千島
南陽
南緯
名取
圧勝
埋める
大腸
対日
岩本
常用
御堂
感知
抱か
挙がっ
撃つ
日和
梁山
正門
民生
沢山
治虫
湯浅
篠山
粉砕
精算
続出
綾子
至近
規程
観賞
財源
鉛筆
長久
開基
青柳
面する
順子
頭骨
魔獣
黒海
##・シャ
##・フィ
##ナダ
##ッレ
##チックス
##EA
##盛り
##リスク
スタント
オーシャン
サンライズ
ブルゴーニュ
##リオス
##ニングラード
ロックン
切り替える
##チュラル
アラゴン
430
レスキュー
読み上げ
##レンジャー
1804
##iana
クーペ
プリンストン
Def
結びつき
パートナーシップ
クイック
浴びせ
ラウンジ
センサ
ドレスデン
ツイッター
Jean
セグメント
presents
チルドレン
ジョヴァンニ
おまけ
ジュピター
First
HY
IW
KA
Kiss
Mil
Oh
SKE
no
える
きく
しつ
すっかり
たき
つね
にっぽん
ひで
ゆか
よら
イット
エリカ
キヤ
ケーニ
セシル
ニセ
ハサ
パウル
パープル
ブラー
ヘレ
ヘラク
ペガ
リキ
リィ
リボ
レグ
ロム
上官
不定
両足
丸く
五男
付し
光文
八雲
公約
円錐
分譲
前漢
創出
厳重
名手
回航
園田
堪能
多量
子弟
宗谷
寛容
局面
山岡
廃し
従前
悪かっ
手当
旅立つ
旧領
明子
晶子
暗く
暮れ
本曲
東上
板垣
株価
水溶
浙江
渋川
温室
漁獲
由利
甲殻
画期
発火
目立ち
精通
素性
絡む
聴衆
腹心
花巻
花序
菅野
課金
追尾
連接
過失
配送
鉄人
陸戦
陽気
電線
鮮明
##ロギー
##タカ
##イー
##ied
##ャルト
##RA
##TP
##メンス
##パラ
##ен
##の間
##("
##ぞう
##大寺
キャメ
305
##leg
ランチ
サーブ
シャア
401
ローゼン
マルセイ
バーミ
##ady
スクリュー
ターナー
410
リスボン
##グラフィ
Arc
エスパ
チューン
突き止め
##aint
SUMM
ガイウス
ガリシア
しのぶ
FOX
執り行わ
##カロライナ
オホーツク
Brow
Gi
Gar
House
Ol
SAS
ござい
だれ
づける
どんどん
なじみ
めざ
ゆみ
エヌ
エイド
エメラ
サッ
サンスク
ドルフ
ニス
ボリス
ミラン
ミイラ
一心
一途
三輪
低床
偽名
写し
分署
参院
右肩
吹く
商務
嘆き
大金
太く
密輸
封建
山荘
平穏
悪事
推挙
暴風
本紀
機内
治める
浅田
海里
満期
溢れ
爆雷
用心
直系
真澄
矢田
空想
終日
繋い
衝動
裏切ら
負ける
貸与
転勤
連なる
遭う
野島
離着
頭痛
駐日
##ロク
##ポイント
##リックス
##UG
##32
##ка
##フリート
##ville
##ヒェン
##強く
##払っ
##広島
##リーノ
1810
インバータ
フィード
取り消し
311
ブライト
サイバ
ヴァイス
ISU
##アルプス
Station
ゴールキーパー
振り付け
デュラン
1842
ラグナ
ルイージ
コレクター
チューリッヒ
スプレー
ヒューズ
買い取り
セレモニー
スラッシュ
MSX
##ugh
エーテル
カプコン
##落とさ
Abema
インテリ
入れ替わる
Green
George
コンプリート
陸海軍
サンスクリット
離着陸
Cup
Fer
Pop
Rh
SOL
UM
ind
あめ
あべ
かめ
ぶつけ
エメ
カビ
カージナル
ゴット
ゾル
タミル
ダール
デリー
デマンド
ハプ
ブレン
ポイン
リグ
レベ
レヴィ
二子
亜目
伴わ
体裁
偽造
入館
全裸
千石
叩い
嗣子
国債
国税
多角
大々
大根
天龍
岩瀬
度合い
復古
接点
放電
放牧
文言
新館
服役
松坂
桜田
歌川
殺そう
添付
渡部
湯川
湿原
激励
無敗
生野
病弱
相良
知覚
神器
管領
細野
臆病
蓄え
被弾
製剤
遠方
長子
隣国
##・ギ
##ule
##ナリ
##ker
##バシー
##lo
##チク
##ばっ
##セイド
##EG
##のめ
##歩き
##高田
##iness
##シュヴァ
ニューイング
##ブルック
ジェニ
##ache
スーザン
##ANA
プラトン
アップグレード
##ショナ
立ち入り
フレア
イングリッシュ
クリム
かかわる
アスキー
1833
1835
1824
シャーシ
はじめる
ネイティブ
浮かび
##ゲームス
見舞い
BASIC
見抜い
うかが
オムニバス
気仙沼
エレクトロニクス
イデオロギー
ニューイングランド
"」
Che
Du
DP
Fin
Found
Hor
List
Mur
Nint
Ray
SIM
TIME
さる
のぶ
わく
サック
ザル
ソープ
ダーツ
ハク
ババ
バイン
ペンタ
マッケ
メテ
ユグ
ラザ
リーク
リンチ
ルフィ
レノン
一同
一杯
下落
中尾
乗艦
五所
今夜
伽藍
低かっ
佳作
克也
刺す
加治
同胞
同値
同好
呈する
味付け
国史
子分
安く
完売
専売
心霊
悪意
悪夢
慕う
手元
拓也
擬態
支柱
教訓
暗闇
末尾
橿原
欠く
氷川
洗い
海王
火葬
狭間
王太子
皇位
確執
組員
美紀
般若
良子
覇権
説く
譜例
##・サン
##ique
##och
##ин
##gin
##々しく
##QU
アイゼン
ウィッチ
ジェロ
レイズ
##ARS
思い込ん
##ste
701
##aker
##istr
1841
コントローラー
ケンカ
1790
##ニュメント
カタール
スカイライン
マルチメディア
コメディアン
サウスカロライナ
スーパーマン
Peter
Elect
取り巻く
マクシミ
アミューズメント
ふしぎ
振り回さ
二階堂
カージナルス
Bus
Center
Foot
Mal
PW
RP
Ta
mol
くぼ
キノ
キール
ザック
セナ
セバス
タツ
タオル
ネロ
バーンズ
ビオ
ビーズ
ヘキサ
一掃
人魚
仰角
住ま
何事
健二
内乱
列し
削り
千尋
同郷
吐く
呪術
和尚
因み
在り
均等
大洲
委嘱
孫娘
恩師
改易
新鋭
日替わり
旧式
明白
春風
服従
村民
構わ
模範
氷室
清和
熟成
片腕
独学
由良
県営
真人
競い
系外
義父
脚色
自白
衣料
西軍
計器
貫い
込み
速球
重慶
鉄製
開講
靖国
頭角
高城
高位
##マッハ
##ロース
##グモ
##シタン
##ois
##たて
##ラック
##はし
##77
##カード
##ミド
##之内
##開き
252
##クトップ
引き下げ
フェミニ
ランズ
##スタンス
##ヴァルト
ブルズ
ローラン
スクープ
グラミー
思い込み
ユーラシア
立ち並
##unt
##ORA
きっぷ
シンポ
トレント
##ACH
##iller
知り合う
##IDS
##ADE
1839
ブレイド
ミッドナイト
クローバー
##vex
ジェネラル
河原町
リハビリテーション
見守る
アインシュタイン
グライダー
Express
プロポーズ
アーノルド
多治見
ピョートル
イスタンブール
エメラルド
Nintendo
VO
おの
かおる
じま
なで
みかん
グッ
シボ
ドッキング
マム
ミヒ
ムック
モザ
モニュメント
ロキ
一関
三方
三千
下賜
下さい
了解
伊奈
休場
作れ
併記
保養
傀儡
優れる
全廃
創り
吉宗
向井
増援
士族
定格
宮津
審理
年々
幻影
張る
恭子
意地
房総
捏造
斬新
旅人
景品
書体
楽屋
武人
歪み
水木
水俣
沈み
沖合
混沌
清国
溜め
溝口
焼酎
生時
甲冑
的中
盟友
石鹸
税制
船内
薨去
衆院
褒め
見合い
説話
護送
送還
連作
酔っ
醸し
鉄拳
長政
防い
随筆
雄一
##ルーン
##bps
##day
##BE
##ばな
##ブラー
##二つ
##付く
2022
##リカン
##ange
テレサ
おいしい
ジャッジ
なおかつ
ディストリ
引き離
ステラ
ジェニー
ジェシー
ただちに
##omen
ブルボン
アクロ
##unic
中継ぎ
追い出さ
ルーシー
##ッフル
フォーカス
売り場
スイーツ
Prof
クライスラー
1793
1821
リュック
EXILE
デスクトップ
AND
ベネディ
オオカミ
Instrumental
ネーデル
すみれ
すずき
飼い主
やむなく
##コンドリア
つとめる
Joseph
ミトコンドリア
岩見沢
取りやめ
兼ね備え
880
BT
HC
IL
MIX
たに
つぎ
ひっ
エキシ
オチ
ケガ
サカ
サモア
トッド
トレス
ドウ
パター
ピリ
ブースト
ポテ
ヨット
リザー
ルリ
レッツ
丈夫
二条
人為
入道
全焼
出塁
切腹
前輪
動け
募金
北岸
受給
叙事
外す
外れる
大月
宮下
将官
就学
局員
山科
役柄
忠臣
承和
操っ
放り
放流
新見
早苗
本稿
枯れ
欠ける
次作
武漢
武庫
活字
病棟
白浜
白金
短波
石塚
石神
秘宝
税関
藤崎
被る
覆っ
見い
試料
警務
起草
銚子
除隊
##ゴリ
##システム
##ナモ
##RY
##TE
##サノ
##びり
##びん
##ウリ
##ネギ
##まとめ
##án
##飛ばす
##真面目
##孫子
##ティクス
302
##シアン
ストー
##ブルグ
##ions
##omb
Stand
Story
アフロ
##クロス
パラオ
ダイヤル
オスロ
##トゥール
オペレーター
振るう
コンパイル
Switch
キリシタン
クォーター
HTML
スネーク
PASMO
アスレチックス
われわれ
North
バーナード
吉祥寺
ストリーミング
520
Bay
Cre
CAP
Div
JBC
JUN
Mov
すえ
たこ
まわり
わし
アストラ
スチュア
テンプル
デスク
ネギ
ハルト
ハーツ
バール
ベント
リョウ
ルージュ
ロク
ワルツ
上っ
上面
中絶
佐原
元就
分水
包丁
包装
匈奴
千鳥
原文
号し
嘱託
埋蔵
境遇
増減
変則
奏法
孫権
専ら
市議
常備
平ら
庶子
弓道
心中
成城
戦況
採点
断崖
日下
東村
横手
水量
流路
深度
混入
焼く
白血
直子
種々
空爆
竹島
美貌
習っ
英字
茂木
蛋白
行幸
要衝
親指
読め
贈る
錯誤
隅田
雅之
館長
龍之介
##ster
##95
##ty
##71
##カデ
##込もう
##ヒド
##津子
##ユキ
##さえ
##ターンズ
##ティヴ
##ティーン
アルブレ
##ones
コンティ
222
##ison
ウェス
カーテン
##ンチョ
ジュリアン
インドシナ
プラネット
##クロウ
##ape
##aki
inc
ダンカン
##立てる
負け越し
##iano
##ラクティブ
Progr
タンゴ
トライア
気付く
ゲイリー
ヘリウム
##リューム
##earch
セクハラ
チンギス
カウントダウン
グラフィックス
リマスター
小金井
ワトソン
ギブソン
ヒドロキシ
スクリプト
てれび
美智子
有楽町
スチュアート
CI
Fed
Fest
Gard
Line
MEN
MIT
Nat
sub
いり
えび
きよし
どり
ねぇ
ぷよ
めちゃ
よん
わだ
アノ
オシ
グラー
テンプ
ナショナ
パロ
ヒース
ビザ
ビラ
ヘルム
ミール
ロペス
一変
不通
不老
両名
中里
亜美
件数
先手
先天
先鋒
光秀
再録
分光
副題
励まし
合図
同町
吾郎
哲郎
土着
地検
失明
家計
寺島
島嶼
崇敬
左足
幸運
彷彿
心情
慌て
戊辰
戦史
手話
挑み
新道
晒さ
東晋
林檎
水陸
注ぎ
浩司
渥美
演義
無口
焼却
生贄
砲架
福澤
笑わ
笠間
細分
絡ん
総社
縄張り
老婆
航法
花子
芸者
英訳
菊花
訃報
詠ん
誘発
講じ
賛否
配電
酸性
関脇
阻ま
降臨
隆起
飼料
首謀
麗子
麻里
##マニア
##ノサウルス
##ーダ
##・デル
##ケア
##ソリ
##81
##ネオ
##がね
##みらい
##ダック
##決め
##本町
##ぷよ
##ヶ島
ことごと
##ディッシュ
ゲームズ
取り消
##iter
アンゴラ
フェンス
スペル
404
ダイバー
あたかも
コミカライズ
ハイランド
インターフェ
Store
立ち会
付き合う
Inf
アンドロイド
わたなべ
##OMA
コミュニティー
STV
ダーウィン
突き出し
マリアナ
センチュ
スタンリー
Brit
気づく
メタリック
セーヌ
エミール
目覚める
ピクチャーズ
ジェフリー
入れ替わり
##otten
デューク
MiG
レジスタンス
マグニチュード
スクランブル
ふつう
ぷよぷよ
ことごとく
Hal
Ig
Mont
er
key
ああ
つばさ
ぱん
みす
やろう
ダース
ドジ
ネブ
ハト
ハレ
ヒカリ
フーズ
ブカ
マゼ
ミゲル
レフト
ロナルド
ロジャース
ワット
一蹴
不知
世子
丸亀
人的
伝わり
使役
傾い
優良
充填
公然
冥王
古参
合気
四股
城東
天界
宅配
対向
小諸
帝位
平民
座礁
当寺
憲政
戦乱
敏感
散乱
敵意
新疆
残念
沖田
沿道
清盛
潜り
烏丸
牡丹
特科
琴平
瓜二つ
生やし
目立た
直立
硝酸
結党
羽島
花崗
茅野
衣笠
裏切っ
越谷
返答
逸脱
遠江
部類
野上
防水
陰性
飯山
高低
##キリ
##グン
##ケラ
##リケ
##ッディーン
##cy
##らせ
##ゼロ
##かしい
##われる
##VF
##とも
##のこ
##戻さ
##ヶ浦
からくり
##ani
ファシズム
フィリーズ
ストーカー
引き渡さ
ジェレ
ブラスター
ローザ
クラスメート
##マーレ
言い伝え
グリコ
プライバシー
PRIDE
ヤンキー
フリッツ
NPC
チャレンジャー
ウェストミンスター
ジェネレーション
クルーザー
Airport
トロンボーン
サトウ
八重山
延びる
推し進め
モザイク
Cat
Games
HERO
KK
OUT
Post
WR
「-
おしゃ
ご飯
さかい
アングル
エリオット
オード
カッ
グン
コシ
サプリ
トリス
ドナ
ハピ
バラン
プッシュ
ヘンド
ヘアー
ボナ
ボールド
ミナ
ルキウス
下がり
不便
停電
儒学
全豪
兵隊
円滑
前原
叱責
吸気
告訴
和風
咲き
塩谷
大口
宮地
巨体
広まり
弾劾
搬入
改心
放た
木の
本隊
棋院
棋戦
構図
残せ
殴ら
殺戮
法名
減便
湖北
父方
現生
生える
砂川
移入
空洞
紳助
網羅
綴っ
臨界
自決
良質
蔵王
証書
誘う
賞品
足ら
軍管
退避
遷都
防府
陪審
電通
静香
頒布
館林
##オリンピック
##・ドゥ
##ケープ
##br
##SE
##Script
##バニア
##バスティ
##ヤシ
##ドス
##ネク
##カナル
##河原
##白河
##構え
##erry
キャロ
ジャージ
##カーナ
およぶ
取り入れる
##シアード
アイド
引き金
スペシャ
ウェザー
##ility
シュテ
打ち明け
ハーブ
なかむら
トランジスタ
510
##シェヴィ
プリズム
##iff
##ボーイ
##AYA
スライム
HDD
Frank
リッチモンド
アバター
Sweet
ミーティング
ふたたび
ねじ込み
リヒャルト
##ッショナー
フィアット
ジブラル
ペプチド
Children
シュトラウス
パーカッション
シンポジウム
Band
How
LV
Mir
Rain
SING
cap
かも
せり
とらえ
やなぎ
アワ
カイト
ガダル
クッキー
グリン
デール
ドーン
ヘス
モータ
リガ
一節
三谷
三村
上村
下面
下方
不時
与謝
久美
伝染
俊彦
修験
入出
八坂
刀身
利害
南山
反共
口蓋
可児
命題
國學
垂れ
大宰
安房
官人
宝島
実母
小栗
岩村
巨額
帝京
常駐
年中
弘仁
弾く
後頭
微小
徳永
慶尚
成都
挙動
授かっ
敢えて
敬語
敷き
斑紋
材木
東証
東都
柳沢
構文
深める
無実
燃やし
球状
生け
畿内
発声
相鉄
瞬時
砂浜
笑福
答弁
籠城
耐える
能楽
脂質
花月
葛城
行ける
視認
豪快
送迎
酷評
閉じる
集成
順天
鳳凰
##ちん
##ゴロド
##・ウィ
##ヴリ
##ザイ
##ポス
##SC
##メー
##ボエ
##da
##BL
##ウオ
##ра
##ZA
##ヒム
##ぐら
##ざん
##ストレーション
##ティカ
##ティーナ
アルフォンソ
ライツ
##enz
フィナンシャル
取り仕
##フィル
ジョーク
シャドー
##ヴィング
406
ハーレム
##uth
コースター
バラク
パラシュート
##OSHI
やまだ
飛び降り
いちばん
1803
1831
ベイビー
大和田
1792
1822
##AKA
アムトラック
とどまる
小野田
きれい
スズメ
アダムズ
滅ぼす
っぽく
入れ替わっ
わがまま
タブレット
ナンバリング
マルセイユ
セバスチャン
ガダルカナル
笑福亭
Dou
GG
Jac
Lv
col
go
ox
いづ
つり
ぶち
まみ
みょう
めざま
やき
アニー
カリー
カイル
カステ
カヌー
キティ
ゲラ
ザム
シリウス
トラム
ポス
ヤコブ
ラッパー
リカルド
七十
三越
下町
下村
久世
仙石
佐川
併結
偽り
即死
台所
国司
土星
埋立
塩田
変奏
外傷
大沼
大隈
天安
奉天
姉弟
娘婿
宮前
居合わせ
属州
岡野
平岡
待避
戻ら
手作り
撤収
改元
旅順
映っ
曲げ
曲がっ
本誌
本位
湧水
爆薬
片桐
獣医
田野
皇太后
盗難
県外
祝祭
租税
空知
紙面
自重
自軍
艤装
落札
衰弱
補足
西線
要約
見当
解い
軽快
連星
遠州
遺品
酢酸
野鳥
降着
随行
頑固
頭上
##マツ
##マイオス
##ンゲン
##・ヤ
##ih
##ポタ
##メラン
##gg
##BF
##ワナ
##ネート
##ハメ
##飼い
プロット
217
##シャス
##スタル
シャロン
コミッショナー
一人暮らし
ユニバース
使い分け
迎え撃
ワンセグ
##キュリー
int
##ople
##ova
アトム
##ッコロ
ラテンアメリカ
Unic
1828
1763
ボンネット
##EEP
払い下げ
サントス
フェリペ
Road
オリエンタル
あふれる
ロッキード
チャーチル
Limited
JFN
ネーデルラント
アルブレヒト
Bal
Bell
EG
Ha
Jour
Just
Mix
MOD
Ry
Ros
VT
avex
hp
pH
あこ
かぐ
つめ
とに
みそ
みれ
わき
アホ
カヤ
ケニー
コサック
ダライ
テッサ
ニクソン
バウンド
パーマ
ボギー
マハ
マルス
ミスト
メサ
ラズ
ラーマ
ルソン
上回り
九郎
井口
企む
伸縮
初旬
別居
包ん
千住
半蔵
台枠
右目
名曲
否決
呆れ
喜久
夕食
大空
失策
嫁い
守谷
安楽
定額
客演
小岩
干し
微細
敵視
普請
東宮
満月
漢方
無機
特派
独創
異変
祝賀
神職
秀忠
空調
米英
細か
苦しい
蔓延
装っ
西城
西成
見破
賄賂
連日
進捗
遂げる
邪神
酷い
長嶋
阪和
降雨
陶芸
隣人
音質
預かり
##テア
##テレス
##キナ
##ニェ
##エロ
##ベア
##レッシブ
##UYA
##85
##んぼ
##はだ
##ネア
##かみ
##まず
##あわせ
##川原
##隠し
##我部
##━━
ステー
ステファン
275
ベルナール
##ンプシャー
##urus
アップロード
485
##ジャレ
フロート
向かわ
なかよし
カメルーン
まとまっ
クリケット
##OST
STER
##ally
デイヴ
サラダ
Arm
申し込み
1794
1823
ACT
1818
マジカル
##azine
##ization
待ち伏せ
ユニバーシアード
リベンジ
ワーキング
ソルジャー
ストロング
フュージョン
ネーミング
ツイート
ヴィンセント
かすみ
あずさ
UHF
Osaka
移り住ん
ケロロ
オセアニア
プロパガンダ
エタノール
ナゴヤ
ドーナツ
ベネディクト
とにかく
Ak
Bon
Est
Fly
Long
NIGHT
Run
TK
mix
こば
つかさ
ウガンダ
ケネス
シダ
ソナー
ダビ
テイルズ
ナチュラル
ハッシュ
バケ
プファ
ボロー
モク
ルーン
万里
上人
両肩
中和
中嶋
中書
中腹
乏しく
乗換
井川
京セラ
会期
作ろう
侍女
信奉
光緒
入籍
写っ
冬期
加勢
勘定
取組
叫ぶ
同党
名阪
図面
図案
国技
夭折
学説
安中
安曇
官制
就き
局長
山西
山寺
山車
弁論
後身
後輪
御影
患い
憤慨
拿捕
揃い
撮る
支隊
散見
敬遠
整合
曲折
更迭
来店
板倉
栗山
格下げ
植村
楽しく
正治
武闘
求婚
潜航
生身
疑う
発せ
目当て
競泳
米原
胎児
臣下
芳賀
草案
衣類
被疑
要人
解け
貴子
貼ら
農薬
通ら
那智
部材
鉄骨
開削
館内
馬術
駅員
駅長
##マニ
##マーン
##くう
##コラ
##for
##ダンス
##ла
##こま
##こもり
##漬け
##息子
ライヒ
##ori
クラスター
251
スタミナ
214
2100
ディナー
##ニアム
オーボエ
引きずり
ウィズ
フェスタ
アーネスト
##レンツ
ローゼ
レーガン
プレッシャー
カルデラ
##ARE
モンロー
ICOCA
すぐさま
建てる
##ウィウス
けんじ
##ista
インタラクティブ
1809
1829
シューマッハ
ジャイロ
##intosh
OFF
切っ掛け
無理やり
エミリー
フォルクス
デラウェア
金田一
Soul
スムーズ
チャップリン
スナイパー
music
##tainment
付け加え
キヤノン
SUMMER
リザーブ
710
CX
Cas
FD
Fil
Fut
Hum
NY
PF
QU
SY
Ur
Work
おかし
くさい
ねずみ
ひょ
イム
エデン
サハラ
ザウ
ザルツブルク
タタール
ダンプ
ニトロ
バネ
バスト
ヒマラ
ブナ
ホプ
ユーク
レトロ
ロンド
一端
一様
上巻
下顎
不変
両津
中町
企図
体温
佳祐
倉田
個室
儒教
出せる
刀剣
制止
刺青
前川
動的
吹っ
園長
大中
定例
宮司
家紋
小出
小夜
届出
幸い
強風
応じる
怪奇
慣性
我孫子
戦犯
手札
扱える
掛かっ
擬似
新種
新旧
有理
朱印
柳家
格上げ
案じ
極力
欲求
武徳
河出
流布
漏洩
版権
献金
