{
  "</s>": 0,
  "<unk>": 1,
  "\u2581": 2,
  "\u3001": 3,
  ".": 4,
  ",": 5,
  "\u3002": 6,
  "s": 7,
  "\u306e": 8,
  "\u2581the": 9,
  "\u306f": 10,
  "\u3092": 11,
  "\u304c": 12,
  "\u2581of": 13,
  "-": 14,
  "\u2581a": 15,
  "\u2581and": 16,
  "\u306b": 17,
  "\u2581to": 18,
  ")": 19,
  "and": 20,
  "\u3068": 21,
  "(": 22,
  "'": 23,
  "\u2581in": 24,
  "\u3067": 25,
  "the": 26,
  "in": 27,
  "a": 28,
  "of": 29,
  "\u2581is": 30,
  "\u30fb": 31,
  "\u2581The": 32,
  "to": 33,
  "t": 34,
  "?": 35,
  "ing": 36,
  ":": 37,
  "8": 38,
  "1": 39,
  "d": 40,
  "\u2581for": 41,
  "e": 42,
  "\u3084": 43,
  "ed": 44,
  "\u2019": 45,
  "\u2581that": 46,
  "\u3059\u308b": 47,
  "is": 48,
  "\u304b\u3089": 49,
  "\u2581on": 50,
  "\u2581with": 51,
  "\u3057\u305f": 52,
  "\u300d": 53,
  "\u3057": 54,
  "n": 55,
  "2": 56,
  "for": 57,
  "\u3082": 58,
  "y": 59,
  "\u2581you": 60,
  "on": 61,
  "0": 62,
  "\u2581it": 63,
  "\"": 64,
  "or": 65,
  "\u2581(": 66,
  "\u2581A": 67,
  "\u3067\u3059": 68,
  "\u2581be": 69,
  "\u2581as": 70,
  "\u5e74": 71,
  "i": 72,
  "3": 73,
  "that": 74,
  "\u300c": 75,
  "\u2581are": 76,
  "er": 77,
  "\u306a": 78,
  "9": 79,
  "!": 80,
  "it": 81,
  "o": 82,
  "S": 83,
  "ly": 84,
  "\u2581I": 85,
  "m": 86,
  "\u2581by": 87,
  "re": 88,
  "4": 89,
  "\u2581was": 90,
  "an": 91,
  "r": 92,
  "with": 93,
  "\u2581from": 94,
  "ofthe": 95,
  "\u3067\u3042\u308b": 96,
  "\u2581an": 97,
  "D": 98,
  "/": 99,
  "\u305f": 100,
  "\u2581In": 101,
  "\u308b": 102,
  "A": 103,
  "\u2581at": 104,
  "\u3067\u306f": 105,
  "I": 106,
  "\u306b\u306f": 107,
  "\u2581can": 108,
  "5": 109,
  "\u304b": 110,
  "6": 111,
  "al": 112,
  "C": 113,
  "at": 114,
  "by": 115,
  "\u3068\u3057\u3066": 116,
  "\u2581this": 117,
  "f": 118,
  "\u3057\u3066": 119,
  "\u2581or": 120,
  "as": 121,
  "\u3055\u308c\u305f": 122,
  "inthe": 123,
  "\u2581have": 124,
  "\u2581we": 125,
  "\u3060": 126,
  "k": 127,
  "\u307e\u3059": 128,
  "B": 129,
  "\u2581\u3053\u306e": 130,
  "\u305d\u306e": 131,
  "c": 132,
  "F": 133,
  "G": 134,
  "\u3053\u306e": 135,
  "\u6708": 136,
  "\u2581\"": 137,
  "\u2581not": 138,
  "\u3068\u3044\u3046": 139,
  "\u65e5": 140,
  "\u3057\u307e\u3059": 141,
  "p": 142,
  "from": 143,
  "th": 144,
  "\u3057\u3066\u3044\u308b": 145,
  "\u2581i": 146,
  "K": 147,
  "T": 148,
  "R": 149,
  "are": 150,
  "\u201d": 151,
  "\u2581will": 152,
  "\u304a\u3088\u3073": 153,
  "was": 154,
  "\u2581has": 155,
  "\u30b9": 156,
  "g": 157,
  "\u2581-": 158,
  "es": 159,
  "\u2581It": 160,
  "H": 161,
  "l": 162,
  "b": 163,
  "you": 164,
  "\u2581We": 165,
  "E": 166,
  "h": 167,
  "W": 168,
  "\u2581S": 169,
  "O": 170,
  "\u3066": 171,
  "7": 172,
  "\u306a\u3069": 173,
  "\u2581which": 174,
  "...": 175,
  "x": 176,
  "X": 177,
  "w": 178,
  "\u2581your": 179,
  "\u3044": 180,
  "\u4eba": 181,
  "we": 182,
  "\u2581This": 183,
  "$": 184,
  "\u3055\u308c\u308b": 185,
  "one": 186,
  "L": 187,
  "\u306b\u3088\u308b": 188,
  "P": 189,
  ";": 190,
  "\u2581but": 191,
  "\u6027": 192,
  "u": 193,
  "\u3066\u3044\u308b": 194,
  "J": 195,
  "M": 196,
  "\u308a": 197,
  "\u306b\u3088\u3063\u3066": 198,
  "be": 199,
  "\u2581one": 200,
  "10": 201,
  "\u2581he": 202,
  "N": 203,
  "ve": 204,
  "\u306b\u304a\u3051\u308b": 205,
  "this": 206,
  "he": 207,
  "\u2581all": 208,
  "up": 209,
  "\u7684\u306a": 210,
  "sand": 211,
  "\u2581He": 212,
  "\u30c8": 213,
  "us": 214,
  "\u2581so": 215,
  "\u3057\u3066\u3044\u307e\u3059": 216,
  "which": 217,
  "\u307e\u305f\u306f": 218,
  "me": 219,
  "no": 220,
  "]": 221,
  "&": 222,
  "ll": 223,
  "V": 224,
  "\u2581their": 225,
  "\u2581also": 226,
  "has": 227,
  "\u2581they": 228,
  "\u3078\u306e": 229,
  "U": 230,
  "out": 231,
  "de": 232,
  "tothe": 233,
  "\u306b\u3064\u3044\u3066": 234,
  "\u2581more": 235,
  "\u7684": 236,
  "\u30ea": 237,
  "your": 238,
  "en": 239,
  "\u201c": 240,
  "\u3063\u3066": 241,
  "\u30a2": 242,
  "\u3088\u308a": 243,
  "\u2581new": 244,
  "onthe": 245,
  "\u2581re": 246,
  "time": 247,
  "\u2581our": 248,
  "\u5927": 249,
  "\u30af": 250,
  "\u2581its": 251,
  "\u3067\u304d\u308b": 252,
  "\u2581time": 253,
  "\u2581his": 254,
  "all": 255,
  "\u3053\u3068": 256,
  "z": 257,
  "\u5316": 258,
  "\u3066\u3044\u307e\u3059": 259,
  "\u30b5\u30fc\u30d3\u30b9": 260,
  "\u304f": 261,
  "but": 262,
  "\u2581up": 263,
  "),": 264,
  "#": 265,
  "Z": 266,
  "\u2581about": 267,
  ").": 268,
  "so": 269,
  "\u30c9": 270,
  "our": 271,
  "le": 272,
  "un": 273,
  "able": 274,
  "ic": 275,
  "\u307e\u3057\u305f": 276,
  "\u2581\u300c": 277,
  "ation": 278,
  "\u307e\u3067": 279,
  "\u2581out": 280,
  "do": 281,
  "ina": 282,
  "The": 283,
  "\u2581\u307e\u305f": 284,
  "\u2581do": 285,
  "v": 286,
  "11": 287,
  "\u4e2d": 288,
  "\u2581other": 289,
  "Y": 290,
  "can": 291,
  "\u3055\u308c": 292,
  "\u2581what": 293,
  "\u306b\u3088\u308a": 294,
  "\u30c7\u30fc\u30bf": 295,
  "\u3055\u308c\u3066\u3044\u308b": 296,
  "\u3063\u305f": 297,
  "\u2581C": 298,
  "ion": 299,
  "\u3059": 300,
  "\u306a\u3044": 301,
  "\u30e9": 302,
  "\u65b0\u3057\u3044": 303,
  "\u2581no": 304,
  "*": 305,
  "\u304c\u3042\u308b": 306,
  "\u30b7\u30b9\u30c6\u30e0": 307,
  "\u30ab": 308,
  "Q": 309,
  "\u2581use": 310,
  "\u3089": 311,
  ">": 312,
  "will": 313,
  "\u2581were": 314,
  "\u2581like": 315,
  "\u25811": 316,
  "go": 317,
  "\u2581there": 318,
  "\u2581\u201c": 319,
  "\u6a5f\u80fd": 320,
  "\u2581To": 321,
  "\u3067\u3082": 322,
  "\u2581when": 323,
  "\u2581who": 324,
  "andthe": 325,
  "\u2581been": 326,
  "man": 327,
  "ers": 328,
  "\u5e74\u306b": 329,
  "Google": 330,
  "\u672c": 331,
  "\u304a": 332,
  "\u305f\u3081": 333,
  "\u6cd5": 334,
  "\u25812": 335,
  "\u6c34": 336,
  "%": 337,
  "\u2581E": 338,
  "sof": 339,
  "\u305f\u3081\u306b": 340,
  "ne": 341,
  "\u2581into": 342,
  "more": 343,
  "\u30de": 344,
  "\u7528": 345,
  "\u3067\u3042\u308a": 346,
  "\u2581people": 347,
  "\u3088": 348,
  "\u2581\u305d\u306e": 349,
  "20": 350,
  "\u3064\u306e": 351,
  "\u2581\u3057\u304b\u3057": 352,
  "\u3078": 353,
  "\u3055": 354,
  "\u30bf": 355,
  "st": 356,
  "her": 357,
  "their": 358,
  "\u304d": 359,
  "new": 360,
  "\u56fd": 361,
  "\u2581if": 362,
  "\u60c5\u5831": 363,
  "my": 364,
  "\u2581B": 365,
  "\u8005": 366,
  "\u30fc": 367,
  "over": 368,
  "ity": 369,
  "\u306b\u3082": 370,
  "\u306b\u95a2\u3059\u308b": 371,
  "\u3060\u3063\u305f": 372,
  "son": 373,
  "\u30b3": 374,
  "18": 375,
  "\u2581T": 376,
  "j": 377,
  "\u2581Japanese": 378,
  "\u3064": 379,
  "like": 380,
  "\u6642\u9593": 381,
  "\u2581de": 382,
  "\u3057\u307e\u3057\u305f": 383,
  "about": 384,
  "\u2581P": 385,
  "\u4e00": 386,
  "information": 387,
  "\u4e0a": 388,
  "\u30ca": 389,
  "his": 390,
  "have": 391,
  "te": 392,
  "\u306a\u3069\u306e": 393,
  "its": 394,
  "\u2581such": 395,
  "use": 396,
  "\u2581my": 397,
  "\u2581first": 398,
  "co": 399,
  "\u25813": 400,
  "\u578b": 401,
  "people": 402,
  "\u2581And": 403,
  "\u3046": 404,
  "\u306b\u5bfe\u3059\u308b": 405,
  "\u2581For": 406,
  "ment": 407,
  "\u2581than": 408,
  "\u65e5\u672c": 409,
  "\u74b0\u5883": 410,
  "ive": 411,
  "ke": 412,
  "q": 413,
  "\u2581over": 414,
  "forthe": 415,
  "\u2581make": 416,
  "\u958b\u767a": 417,
  "\u306e\u305f\u3081\u306e": 418,
  "\u2581had": 419,
  "sare": 420,
  "\u306b\u304a\u3044\u3066": 421,
  "\u30ba": 422,
  "\u88fd\u54c1": 423,
  "\u3082\u306e": 424,
  "ro": 425,
  "data": 426,
  "12": 427,
  "isa": 428,
  "\u2581information": 429,
  "\u30eb": 430,
  "\u4eba\u306e": 431,
  "work": 432,
  "\u30ed": 433,
  "\u2581You": 434,
  "not": 435,
  "\u30a4": 436,
  "\u2581data": 437,
  "\u5f8c": 438,
  "\u624b": 439,
  "\u2581[": 440,
  "\u306b\u3042\u308b": 441,
  "\u307f": 442,
  "\u591a\u304f\u306e": 443,
  "\u3001\u300c": 444,
  "\u6280\u8853": 445,
  "\u25818": 446,
  "@": 447,
  "\u30ea\u30fc": 448,
  "\u2581used": 449,
  "\u7ba1\u7406": 450,
  "\u305d\u3057\u3066": 451,
  "\u2581only": 452,
  "\u308f": 453,
  "\u30b7": 454,
  "\u9ad8": 455,
  "\u2581F": 456,
  "\u30e0": 457,
  "\u2581me": 458,
  "\u2581well": 459,
  "\u2014": 460,
  "\u5185": 461,
  "\u30ec": 462,
  "some": 463,
  "\u2581get": 464,
  "\u6570": 465,
  "ar": 466,
  "\u2581any": 467,
  "\u3053\u3068\u3092": 468,
  "\u7269": 469,
  "\u3044\u307e\u3059": 470,
  "two": 471,
  "\u2581If": 472,
  "\u2581work": 473,
  "\u3093\u3060": 474,
  "\u529b": 475,
  "\u7814\u7a76": 476,
  "\u3088\u3046\u306b": 477,
  "\u2581two": 478,
  "just": 479,
  "system": 480,
  "\u306d": 481,
  "also": 482,
  "\u30e2\u30c7\u30eb": 483,
  "\u2581Re": 484,
  "\u30d5": 485,
  "\u4f53": 486,
  "se": 487,
  "\u2581some": 488,
  "\u304c\u3042\u308a\u307e\u3059": 489,
  "\u2581As": 490,
  "\u300f": 491,
  "asa": 492,
  "fromthe": 493,
  "withthe": 494,
  "ta": 495,
  "\u30d0": 496,
  "\u2581just": 497,
  "\u5bb6": 498,
  "\u540d": 499,
  "sa": 500,
  "\u2581how": 501,
  "\u65b9\u6cd5": 502,
  "\u306b\u5bfe\u3057\u3066": 503,
  "what": 504,
  "\u3042\u308b": 505,
  "<": 506,
  "30": 507,
  "\u5730": 508,
  "\u4ed6\u306e": 509,
  "el": 510,
  "\u25816": 511,
  "ch": 512,
  "\u3044\u305f": 513,
  "na": 514,
  "ce": 515,
  "\u306e\u3067": 516,
  "\u2581\u3053\u308c\u306f": 517,
  "\u4f01\u696d": 518,
  "\u2581system": 519,
  "15": 520,
  "any": 521,
  "\u2581Google": 522,
  "\u2581G": 523,
  "age": 524,
  "\u2581\u79c1\u306f": 525,
  "if": 526,
  "\u306e\u305f\u3081\u306b": 527,
  "\u2581company": 528,
  "\u5c71": 529,
  "In": 530,
  "\u306b\u306a\u308b": 531,
  "\u2581would": 532,
  "\u51e6\u7406": 533,
  "et": 534,
  "\u2581O": 535,
  "\u6642": 536,
  "only": 537,
  "\u53ca\u3073": 538,
  "\u2581where": 539,
  "\u2581them": 540,
  "\u30c0": 541,
  "\u2581D": 542,
  "\u90e8": 543,
  "who": 544,
  "ko": 545,
  "ty": 546,
  "\u2581Japan": 547,
  "sin": 548,
  "\u2581man": 549,
  "\u30ad": 550,
  "\u2581un": 551,
  "\u2581But": 552,
  "\u30cb": 553,
  "\u7b49": 554,
  "\u2581now": 555,
  "\u30a8": 556,
  "ness": 557,
  "\u2581t": 558,
  "atthe": 559,
  "\u2581So": 560,
  "per": 561,
  "\u56de": 562,
  "Re": 563,
  "\u2581c": 564,
  "\u2581\u5f7c\u306f": 565,
  "\u3059\u3079\u3066\u306e": 566,
  "\u306e\u3067\u3059": 567,
  "\u9577": 568,
  "ad": 569,
  "way": 570,
  "^": 571,
  "\u7684\u306b": 572,
  "\u3068\u306a\u308b": 573,
  "ir": 574,
  "\u2581using": 575,
  "ate": 576,
  "\u30a4\u30f3": 577,
  "\u5206": 578,
  "\u554f\u984c": 579,
  "were": 580,
  "ter": 581,
  "\u6c0f\u306f": 582,
  "\u2581There": 583,
  "\u2581after": 584,
  "\u2581high": 585,
  "\u3093": 586,
  "tobe": 587,
  "into": 588,
  "day": 589,
  "\u2581through": 590,
  "\u898b": 591,
  "\u2581M": 592,
  "\u30c6\u30b9\u30c8": 593,
  "\u30a2\u30d7\u30ea\u30b1\u30fc\u30b7\u30e7\u30f3": 594,
  "\u30a6": 595,
  "end": 596,
  "when": 597,
  "after": 598,
  "il": 599,
  "\u2581many": 600,
  "\u30b5": 601,
  "service": 602,
  "\u30aa": 603,
  "ma": 604,
  "\u2581most": 605,
  "they": 606,
  "\u524d": 607,
  "\u5b50": 608,
  "\u307e\u305f": 609,
  "\u4f8b": 610,
  "\u51fa": 611,
  "ra": 612,
  "\u30d0\u30fc": 613,
  "\u2581p": 614,
  "\u300e": 615,
  "witha": 616,
  "\u30b8": 617,
  "line": 618,
  "\u7dda": 619,
  "\u2581these": 620,
  "\u2581R": 621,
  "them": 622,
  "\u2581When": 623,
  "lo": 624,
  "\u2581world": 625,
  "\u30d6": 626,
  "\u5ea6": 627,
  "Apple": 628,
  "\u2581f": 629,
  "\u7b2c": 630,
  "\u30c4\u30fc\u30eb": 631,
  "\u306e\u306f": 632,
  "\u3054": 633,
  "there": 634,
  "\u65b0": 635,
  "ary": 636,
  "\u304b\u3089\u306e": 637,
  "\u2581\u305d\u3057\u3066": 638,
  "\u5149": 639,
  "side": 640,
  "\u70b9": 641,
  "ine": 642,
  "\u9762": 643,
  "ant": 644,
  "\u3067\u304d\u307e\u3059": 645,
  "\u6a5f": 646,
  "\u6c17": 647,
  "\u30f3": 648,
  "\u30ce": 649,
  "ofa": 650,
  "\u306a\u3089": 651,
  "\u3067\u306e": 652,
  "\u884c": 653,
  "\u6240": 654,
  "\u30df": 655,
  "business": 656,
  "\u2581On": 657,
  "\u2581her": 658,
  "\u5927\u304d\u306a": 659,
  "\u4e0b": 660,
  "other": 661,
  "\u2581years": 662,
  "\u4f1a\u793e": 663,
  "\u2581way": 664,
  "sto": 665,
  "less": 666,
  "\u4e0d": 667,
  "\u3055\u305b\u308b": 668,
  "\u2581take": 669,
  "ge": 670,
  "\u2581An": 671,
  "\u751f": 672,
  "get": 673,
  "using": 674,
  "\u2581between": 675,
  "\u3068\u306e": 676,
  "\u3081": 677,
  "\u30d3\u30b8\u30cd\u30b9": 678,
  "ka": 679,
  "est": 680,
  "now": 681,
  "\u3057\u3066\u3044\u305f": 682,
  "\u30c3": 683,
  "\u2581may": 684,
  "these": 685,
  "ng": 686,
  "\u6d3b\u52d5": 687,
  "\u3063\u3066\u3044\u308b": 688,
  "ek": 689,
  "\u5916": 690,
  "off": 691,
  "\u3060\u308d\u3046": 692,
  "based": 693,
  "\u30d1": 694,
  "had": 695,
  "\u4e8b": 696,
  "\u306e\u3088\u3046\u306a": 697,
  "\u3055\u308c\u307e\u3059": 698,
  "Web": 699,
  "\u2581go": 700,
  "\u8a08\u753b": 701,
  "back": 702,
  "\u2581see": 703,
  "ti": 704,
  "\u5dde": 705,
  "\u3092\u6301\u3064": 706,
  "\u306e\u304b": 707,
  "_": 708,
  "\u2581H": 709,
  "where": 710,
  "\u9053": 711,
  "\u2581very": 712,
  "tu": 713,
  "\u3042\u306a\u305f\u306e": 714,
  "\u5fc3": 715,
  "\u30cd\u30c3\u30c8\u30ef\u30fc\u30af": 716,
  "\u95a2\u4fc2": 717,
  "ist": 718,
  "\u9593": 719,
  "\u2581L": 720,
  "\u2581They": 721,
  "\u305d\u308c": 722,
  "technology": 723,
  "da": 724,
  "\u3066\u3044\u305f": 725,
  "\u4e0a\u306e": 726,
  "\u2581then": 727,
  "ki": 728,
  "Java": 729,
  "ent": 730,
  "\u3068\u306f": 731,
  "\u7d04": 732,
  "\u30c7": 733,
  "ry": 734,
  "\u305f\u3081\u306e": 735,
  "\u2581U": 736,
  "ri": 737,
  "\u4f7f\u7528": 738,
  "\u7d44\u7e54": 739,
  "\u2581What": 740,
  "anda": 741,
  "\u2581At": 742,
  "\u30b5\u30a4\u30c8": 743,
  "16": 744,
  "\u753b\u50cf": 745,
  "\u30e1": 746,
  "\u3053": 747,
  "\u2581year": 748,
  "\u30c1": 749,
  "\u2581need": 750,
  "while": 751,
  "water": 752,
  "\u30b2\u30fc\u30e0": 753,
  "ona": 754,
  "high": 755,
  "\u5229\u7528": 756,
  "\u5b66": 757,
  "\u2581N": 758,
  "\u2581number": 759,
  "\u8a2d\u8a08": 760,
  "ia": 761,
  "\u2581because": 762,
  "\u4f1a": 763,
  "\u2013": 764,
  "\u5834\u5408": 765,
  "\u2581business": 766,
  "\u2581under": 767,
  "here": 768,
  "pe": 769,
  "\u2581made": 770,
  "\u30d3": 771,
  "50": 772,
  "\u3044\u308b": 773,
  "\u30d7\u30ed\u30b8\u30a7\u30af\u30c8": 774,
  "ha": 775,
  "\u30d7": 776,
  "\u2581W": 777,
  "ol": 778,
  "\u88c5\u7f6e": 779,
  "\u3053\u3068\u304c": 780,
  "\u2581even": 781,
  "Facebook": 782,
  "\u2581said": 783,
  "ul": 784,
  "\u30a2\u30d7\u30ea": 785,
  "\u2581same": 786,
  "than": 787,
  "\u540c": 788,
  "100": 789,
  "\u2581she": 790,
  "\u307e": 791,
  "\u2581know": 792,
  "\u69cb\u9020": 793,
  "\u2581However": 794,
  "\u3053\u3068\u304c\u3067\u304d\u307e\u3059": 795,
  "app": 796,
  "\u5e74\u306e": 797,
  "down": 798,
  "ex": 799,
  "\u4eba\u304c": 800,
  "men": 801,
  "\u3088\u308a\u3082": 802,
  "\u76ee": 803,
  "\u2581each": 804,
  "\u3092\u884c\u3046": 805,
  "di": 806,
  "\u25815": 807,
  "\u30bd\u30d5\u30c8\u30a6\u30a7\u30a2": 808,
  "code": 809,
  "\u3053\u3068\u306f": 810,
  "\u91d1": 811,
  "right": 812,
  "\u65e5\u306b": 813,
  "\u2581could": 814,
  "\u2581With": 815,
  "\u2581don": 816,
  "\u30b3\u30fc\u30c9": 817,
  "\u30c1\u30fc\u30e0": 818,
  "\u3067\u3057\u3087\u3046": 819,
  "rs": 820,
  "con": 821,
  "\u30c7\u30a3": 822,
  "\u8a55\u4fa1": 823,
  "through": 824,
  "\u2581want": 825,
  "made": 826,
  "\u4f5c\u696d": 827,
  "\u2581part": 828,
  "\u3053\u3068\u304c\u3067\u304d\u308b": 829,
  "\u97f3": 830,
  "\u306a\u304b\u3063\u305f": 831,
  "\u71b1": 832,
  "\u91cf": 833,
  "\u2581K": 834,
  "\u30de\u30f3": 835,
  "Co": 836,
  "mo": 837,
  "\u258110": 838,
  "bythe": 839,
  "between": 840,
  "itis": 841,
  "\u306e\u3042\u308b": 842,
  "ac": 843,
  "team": 844,
  "\u2581service": 845,
  "iPhone": 846,
  "ur": 847,
  "\u8a9e": 848,
  "ous": 849,
  "\u30c4": 850,
  "long": 851,
  "id": 852,
  "\u2581Co": 853,
  "year": 854,
  "car": 855,
  "\u2581while": 856,
  "ian": 857,
  "\u4e8b\u696d": 858,
  "under": 859,
  "\u2581back": 860,
  "\u2581good": 861,
  "ton": 862,
  "\u5404": 863,
  "\u2581InfoQ": 864,
  "many": 865,
  "im": 866,
  "\u8a00\u8a9e": 867,
  "\u25814": 868,
  "\u3042": 869,
  "\u30cd": 870,
  "\u2581\u2013": 871,
  "bo": 872,
  "\u5834\u6240": 873,
  "including": 874,
  "ba": 875,
  "\u304f\u3060\u3055\u3044": 876,
  "\u2581She": 877,
  "\u3060\u3051": 878,
  "ling": 879,
  "\u3088\u3046": 880,
  "\u975e\u5e38\u306b": 881,
  "name": 882,
  "\u3059\u308b\u3053\u3068": 883,
  "14": 884,
  "um": 885,
  "how": 886,
  "com": 887,
  "life": 888,
  "\u3067\u3042\u3063\u305f": 889,
  "him": 890,
  "willbe": 891,
  "\u69d8\u3005\u306a": 892,
  "well": 893,
  "API": 894,
  "\u30c7\u30b6\u30a4\u30f3": 895,
  "\u4e0a\u3067": 896,
  "li": 897,
  "\u611f": 898,
  "\u30e6\u30fc\u30b6\u30fc": 899,
  "model": 900,
  "ni": 901,
  "os": 902,
  "old": 903,
  "\u4e16\u754c": 904,
  "first": 905,
  "\u3042\u308b\u3044\u306f": 906,
  "don": 907,
  "\u66f8": 908,
  "\u3059\u308b\u3068": 909,
  "\u5b66\u7fd2": 910,
  "\u30d5\u30a1\u30a4\u30eb": 911,
  "la": 912,
  "\u2581should": 913,
  "\u30b0": 914,
  "\u8eca": 915,
  "\u30d3\u30c7\u30aa": 916,
  "\u5ddd": 917,
  "\u5e02": 918,
  "\u3092\u542b\u3080": 919,
  "\u2581right": 920,
  "\u2581set": 921,
  "red": 922,
  "am": 923,
  "\u3053\u3068\u3067": 924,
  "\u2581That": 925,
  "\u6700\u3082": 926,
  "\u2581being": 927,
  "\u2581support": 928,
  "\u72b6\u614b": 929,
  "\u2581technology": 930,
  "\u30b0\u30eb\u30fc\u30d7": 931,
  "different": 932,
  "\u5c0f": 933,
  "\u3089\u308c\u305f": 934,
  "\u8272": 935,
  "\u30b9\u30c8": 936,
  "\u2581different": 937,
  "\u5148": 938,
  "ji": 939,
  "\u3092\u63d0\u4f9b\u3059\u308b": 940,
  "\u8a2d\u5b9a": 941,
  "\u793e\u4f1a": 942,
  "\u65b9": 943,
  "\u53e3": 944,
  "\u30b5\u30dd\u30fc\u30c8": 945,
  "ot": 946,
  "\u4f55": 947,
  "\u2581us": 948,
  "\u79c1\u306f": 949,
  "then": 950,
  "\u30bb": 951,
  "\u30d7\u30ed\u30bb\u30b9": 952,
  "design": 953,
  "ization": 954,
  "\u6226": 955,
  "ca": 956,
  "\u30c6": 957,
  "\u2581After": 958,
  "\u2581New": 959,
  "\u2581De": 960,
  "\u30dc": 961,
  "suchas": 962,
  "\u3055\u308c\u3066\u3044\u307e\u3059": 963,
  "set": 964,
  "ance": 965,
  "\u4f4d": 966,
  "\u2581around": 967,
  "being": 968,
  "\u25810": 969,
  "\u30a4\u30d9\u30f3\u30c8": 970,
  "[": 971,
  "\u30c6\u30a3": 972,
  "\u7530": 973,
  "\u5927\u5b66": 974,
  "light": 975,
  "\u3092\u4f7f\u3063\u3066": 976,
  "\u3067\u306f\u306a\u3044": 977,
  "\u3068\u306a\u3063\u305f": 978,
  "most": 979,
  "ho": 980,
  "\u2581Our": 981,
  "\u3048": 982,
  "+": 983,
  "\u7cfb": 984,
  "\u30a2\u30f3": 985,
  "\u2581day": 986,
  "even": 987,
  "\u3089\u308c\u308b": 988,
  "\u54c1": 989,
  "\u5143": 990,
  "\u6d77": 991,
  "13": 992,
  "\u2581w": 993,
  "\u2581Apple": 994,
  "ck": 995,
  "\u2581\u305d\u308c\u306f": 996,
  "she": 997,
  "ku": 998,
  "\u8ca9\u58f2": 999,
  "\u3055\u307e\u3056\u307e\u306a": 1000,
  "\u306e\u307f": 1001,
  "\u305d\u308c\u306f": 1002,
  "very": 1003,
  "op": 1004,
  "\u2581\u3055\u3089\u306b": 1005,
  "\u30d7\u30e9\u30c3\u30c8\u30d5\u30a9\u30fc\u30e0": 1006,
  "\u6c0f": 1007,
  "ie": 1008,
  "\u3088\u3046\u306a": 1009,
  "\u308c": 1010,
  "\u97f3\u697d": 1011,
  "25": 1012,
  "Japan": 1013,
  "Japanese": 1014,
  "room": 1015,
  "\u795e": 1016,
  "\u3059\u308b\u305f\u3081\u306b": 1017,
  "land": 1018,
  "ies": 1019,
  "\u5236\u5fa1": 1020,
  "said": 1021,
  "\u2581provide": 1022,
  "\u2581X": 1023,
  ".\"": 1024,
  "\u3061": 1025,
  "Fi": 1026,
  "\u30ab\u30fc": 1027,
  "\u2581down": 1028,
  "\u751f\u7523": 1029,
  "\u2581development": 1030,
  ",\u201d": 1031,
  "nt": 1032,
  "\u56fd\u969b": 1033,
  "ating": 1034,
  "\u4e3b": 1035,
  "\u3053\u308c\u306f": 1036,
  "\u2581co": 1037,
  "take": 1038,
  "mi": 1039,
  "\u4eba\u306f": 1040,
  "\u5024": 1041,
  "OS": 1042,
  "\u982d": 1043,
  "\u5199\u771f": 1044,
  "\u306b\u3068\u3063\u3066": 1045,
  "\u2581design": 1046,
  "hi": 1047,
  "both": 1048,
  "\u793e": 1049,
  "three": 1050,
  "\u2581much": 1051,
  "\u6d41": 1052,
  "ated": 1053,
  "Android": 1054,
  "low": 1055,
  "}": 1056,
  "\u30b3\u30f3": 1057,
  "let": 1058,
  "jo": 1059,
  "\u3067\u3057\u305f": 1060,
  "em": 1061,
  "\u72b6\u6cc1": 1062,
  "good": 1063,
  "\u5909\u66f4": 1064,
  "\u306e\u4e2d\u3067": 1065,
  "\u6559\u80b2": 1066,
  "\u4e09": 1067,
  "\u6587\u5316": 1068,
  "ted": 1069,
  "Microsoft": 1070,
  "\u3063": 1071,
  "\u524d\u306b": 1072,
  "ten": 1073,
  "thatthe": 1074,
  "\u81ea\u5206\u306e": 1075,
  "\u30ea\u30f3": 1076,
  "\u2581own": 1077,
  "\u2581long": 1078,
  "17": 1079,
  "\u2581J": 1080,
  "=": 1081,
  "power": 1082,
  "place": 1083,
  "\u305f\u3044": 1084,
  "\u2581V": 1085,
  "\u30ac": 1086,
  "\u30e2": 1087,
  "free": 1088,
  "Windows": 1089,
  "point": 1090,
  "\u2581both": 1091,
  "24": 1092,
  "ci": 1093,
  "\u5e02\u5834": 1094,
  "control": 1095,
  "\u8a71": 1096,
  "\u30d7\u30ed\u30b0\u30e9\u30e0": 1097,
  "\u5f0f": 1098,
  "\u2581including": 1099,
  "ga": 1100,
  "\u3044\u3044": 1101,
  "\u2581those": 1102,
  "\u65b0\u305f\u306a": 1103,
  "\u8cea": 1104,
  "\u258118": 1105,
  "canbe": 1106,
  "\u2581m": 1107,
  "\u5668": 1108,
  "\u30bf\u30fc": 1109,
  "\u5c0f\u3055\u306a": 1110,
  "called": 1111,
  "\u306a\u304f": 1112,
  "\u7387": 1113,
  "\u7121": 1114,
  "\u30cf": 1115,
  "company": 1116,
  "\u2581products": 1117,
  "\u91cd\u8981\u306a": 1118,
  "\u5165": 1119,
  "\u7279\u306b": 1120,
  "gi": 1121,
  "\u591a": 1122,
  "\u307b\u3069": 1123,
  "process": 1124,
  "wa": 1125,
  "tic": 1126,
  "\u5f62": 1127,
  "\u77f3": 1128,
  "\u3068\u3044\u3063\u305f": 1129,
  "\u8abf\u67fb": 1130,
  "\u3080": 1131,
  "\u901a": 1132,
  "\u4e07": 1133,
  "\u30c7\u30d0\u30a4\u30b9": 1134,
  "\u2581before": 1135,
  "pa": 1136,
  "sthe": 1137,
  "\u6b63": 1138,
  "someone": 1139,
  "\u8239": 1140,
  "ak": 1141,
  "\u2581All": 1142,
  "\u2581order": 1143,
  "\u975e": 1144,
  "\u305d\u3046": 1145,
  "40": 1146,
  "\u306b\u306a\u3063\u305f": 1147,
  "\u2581Hotel": 1148,
  "without": 1149,
  "air": 1150,
  "\u30ea\u30f3\u30b0": 1151,
  "\u2581without": 1152,
  "\u30d9": 1153,
  "mm": 1154,
  "\u5cf6": 1155,
  "\u9ad8\u3044": 1156,
  "would": 1157,
  "area": 1158,
  "\u2581team": 1159,
  "\u5730\u57df": 1160,
  "\u5f8c\u306b": 1161,
  "\u2581water": 1162,
  "\u30ed\u30fc": 1163,
  "\u5168": 1164,
  "\u5f7c\u306e": 1165,
  "\u2581three": 1166,
  "\u3057\u306a\u3044": 1167,
  "\u88fd\u9020": 1168,
  "De": 1169,
  "\u2581Two": 1170,
  "sfor": 1171,
  "\u7d30\u80de": 1172,
  "\u540c\u3058": 1173,
  "dis": 1174,
  "\u2581here": 1175,
  "hasbeen": 1176,
  "\u2581based": 1177,
  "\u539f": 1178,
  "isthe": 1179,
  "\u2581b": 1180,
  "\u30ab\u30e1\u30e9": 1181,
  "\u5206\u6790": 1182,
  "space": 1183,
  "product": 1184,
  "\u6728": 1185,
  "\u3068\u3053\u308d": 1186,
  "\u2581think": 1187,
  ",\"": 1188,
  "\u2581end": 1189,
  "\u3055\u3089\u306b": 1190,
  "\u30a8\u30cd\u30eb\u30ae\u30fc": 1191,
  "\u6642\u306b": 1192,
  "part": 1193,
  "\u52b9\u679c": 1194,
  "\u30e9\u30fc": 1195,
  "see": 1196,
  "chi": 1197,
  "\u3070": 1198,
  "\u2581help": 1199,
  "\u3088\u304f": 1200,
  "\u2581con": 1201,
  "around": 1202,
  "each": 1203,
  "\u7570\u306a\u308b": 1204,
  "\u98df": 1205,
  "ting": 1206,
  "\u3068\u304d": 1207,
  "\u306b\u3088\u308b\u3068": 1208,
  "\u5834": 1209,
  "\u7a7a": 1210,
  "\u7d50\u679c": 1211,
  "\u3053\u308c\u3089\u306e": 1212,
  "years": 1213,
  "\u5973\u6027": 1214,
  "non": 1215,
  "\u305d\u308c\u3092": 1216,
  "products": 1217,
  "ou": 1218,
  "services": 1219,
  "\u7a7a\u9593": 1220,
  "gu": 1221,
  "\u307e\u305b\u3093": 1222,
  "\u304c\u3042\u308a": 1223,
  "We": 1224,
  "\u2581One": 1225,
  "\u2581during": 1226,
  "\u2581process": 1227,
  "field": 1228,
  "\u7740": 1229,
  "\u30c3\u30af": 1230,
  "ally": 1231,
  "support": 1232,
  "ata": 1233,
  "before": 1234,
  "\u2581model": 1235,
  "used": 1236,
  "\u53f0": 1237,
  "ized": 1238,
  "ok": 1239,
  "IT": 1240,
  "\u3092\u7528\u3044\u305f": 1241,
  "\u90fd\u5e02": 1242,
  "\u65bd\u8a2d": 1243,
  "\u2581called": 1244,
  "nd": 1245,
  "\u5b9a": 1246,
  "bar": 1247,
  "\u2581look": 1248,
  "\u826f\u3044": 1249,
  "\u7537": 1250,
  "\u306a\u304c\u3089": 1251,
  "\u2581him": 1252,
  "\u2581control": 1253,
  "\u2581available": 1254,
  "\u2581off": 1255,
  "\u5909\u5316": 1256,
  "AI": 1257,
  "\u98a8": 1258,
  "\u2581Do": 1259,
  "bi": 1260,
  "pre": 1261,
  "\u63d0\u4f9b": 1262,
  "state": 1263,
  "house": 1264,
  "\u2581someone": 1265,
  "\u30d7\u30ed": 1266,
  "\u90e8\u5206": 1267,
  "\u8868\u793a": 1268,
  "\u30c9\u30eb": 1269,
  "\u2581&": 1270,
  "\u901a\u308a": 1271,
  "\u2581life": 1272,
  "\u2581name": 1273,
  "\u2581Please": 1274,
  "\u8907\u6570\u306e": 1275,
  "ism": 1276,
  "\u6761\u4ef6": 1277,
  "ap": 1278,
  "va": 1279,
  "\u2581dis": 1280,
  "\u8868\u73fe": 1281,
  "\u6587": 1282,
  "\u6771": 1283,
  "art": 1284,
  "\u7406\u89e3": 1285,
  "ice": 1286,
  "\u2581By": 1287,
  "public": 1288,
  "test": 1289,
  "\u2581product": 1290,
  "ability": 1291,
  "\u2581No": 1292,
  "\u5f53": 1293,
  "\u3044\u3066": 1294,
  "\u30b4": 1295,
  "\u6708\u306b": 1296,
  "\u6620\u753b": 1297,
  "\u767a": 1298,
  "fora": 1299,
  "\u2581person": 1300,
  "\u4e2d\u56fd": 1301,
  "\u2581come": 1302,
  "quality": 1303,
  "\u7d4c\u9a13": 1304,
  "ence": 1305,
  "performance": 1306,
  "top": 1307,
  "ee": 1308,
  "\u2581app": 1309,
  "\u30da\u30fc\u30b8": 1310,
  "om": 1311,
  "youcan": 1312,
  "\u30de\u30fc": 1313,
  "\u3055\u305b": 1314,
  "\u5e97": 1315,
  "\u5e73": 1316,
  "\u4f5c": 1317,
  "ever": 1318,
  "\u3044\u304f\u3064\u304b\u306e": 1319,
  "\u85ac": 1320,
  "may": 1321,
  "development": 1322,
  "\u53ef\u80fd\u306a": 1323,
  "\u4e2d\u306b": 1324,
  "uk": 1325,
  "ize": 1326,
  "\u2581These": 1327,
  "ab": 1328,
  "\u30e4": 1329,
  "pro": 1330,
  "\u2581large": 1331,
  "those": 1332,
  "\u8ecd": 1333,
  "po": 1334,
  "\u5b9f": 1335,
  "\u2581open": 1336,
  "ator": 1337,
  "\u76f4": 1338,
  "\u30bd": 1339,
  "\u3059\u308b\u3053\u3068\u304c\u3067\u304d\u307e\u3059": 1340,
  "software": 1341,
  "home": 1342,
  "\u30bd\u30ea\u30e5\u30fc\u30b7\u30e7\u30f3": 1343,
  "world": 1344,
  "\u2581last": 1345,
  "\u2581car": 1346,
  "\u3051": 1347,
  "\u2581still": 1348,
  "\u305d": 1349,
  "\u4eca": 1350,
  "\u2581\u2014": 1351,
  "sh": 1352,
  "\u7d4c\u6e08": 1353,
  "change": 1354,
  "\u2581change": 1355,
  "\u2581Microsoft": 1356,
  "anew": 1357,
  "\u3066\u304a\u308a": 1358,
  "\u2581g": 1359,
  "\u30b6": 1360,
  "\u5c64": 1361,
  "\u3068\u3082": 1362,
  "\u9078\u629e": 1363,
  "\u3067\u304d\u306a\u3044": 1364,
  "\u2581power": 1365,
  "\u95a2\u9023": 1366,
  "ship": 1367,
  "\u2581did": 1368,
  "\u91ce": 1369,
  "\u2581place": 1370,
  "\u2581group": 1371,
  "\u516c": 1372,
  "\u8eab": 1373,
  "\u5bfe": 1374,
  "\u80fd\u529b": 1375,
  "tion": 1376,
  "It": 1377,
  "form": 1378,
  "\u5225\u306e": 1379,
  "\u3063\u3066\u3044\u307e\u3059": 1380,
  "\u884c\u52d5": 1381,
  "\u91cd": 1382,
  "\u30a2\u30e1\u30ea\u30ab": 1383,
  "\u305a": 1384,
  "Amazon": 1385,
  "\u3067\u306f\u306a\u304f": 1386,
  "\u60aa": 1387,
  "\".": 1388,
  "\u30c3\u30c8": 1389,
  "\u82b1": 1390,
  "\u2581going": 1391,
  "\u3060\u3051\u3067\u306a\u304f": 1392,
  "\u30d4": 1393,
  "\u5e83\u544a": 1394,
  "\u30af\u30e9\u30b9": 1395,
  "\u5185\u306e": 1396,
  "thesame": 1397,
  "put": 1398,
  "\u5ba4": 1399,
  "\u5b9f\u9a13": 1400,
  "\u901a\u4fe1": 1401,
  "users": 1402,
  "\u6539\u5584": 1403,
  "production": 1404,
  "ful": 1405,
  "type": 1406,
  "80": 1407,
  "\u9818\u57df": 1408,
  "sthat": 1409,
  "\u3005": 1410,
  "\u753a": 1411,
  "ite": 1412,
  "\u6a5f\u68b0": 1413,
  "\u30da": 1414,
  "\u30ea\u30f3\u30af": 1415,
  "\u2581find": 1416,
  "60": 1417,
  "\u30c8\u30f3": 1418,
  "\u30b7\u30fc": 1419,
  "\u4e2d\u306e": 1420,
  "\u25817": 1421,
  "market": 1422,
  "tra": 1423,
  "still": 1424,
  "\u2581home": 1425,
  "\u5408": 1426,
  "ig": 1427,
  "head": 1428,
  "\u3068\u3068\u3082\u306b": 1429,
  "\u56f3": 1430,
  "\u30bb\u30f3\u30bf\u30fc": 1431,
  "\u30ea\u30ea\u30fc\u30b9": 1432,
  "\u2581small": 1433,
  "\u2581best": 1434,
  "\u7248": 1435,
  "ru": 1436,
  "\u3057\u305f\u3044": 1437,
  "site": 1438,
  "To": 1439,
  "level": 1440,
  "PC": 1441,
  "ang": 1442,
  "\u3059\u308b\u305f\u3081\u306e": 1443,
  "\u2581within": 1444,
  "today": 1445,
  "den": 1446,
  "\u767b\u9332": 1447,
  "real": 1448,
  "key": 1449,
  "He": 1450,
  "\u2581services": 1451,
  "\u5fc5\u8981": 1452,
  "\u2581Facebook": 1453,
  "\u2581code": 1454,
  "\u3057\u3066\u304f\u3060\u3055\u3044": 1455,
  "\u7a2e": 1456,
  "\u6210\u9577": 1457,
  "\u5b9f\u884c": 1458,
  "project": 1459,
  "\u2581next": 1460,
  "\u4ed5\u4e8b": 1461,
  "\u8003\u3048": 1462,
  "ut": 1463,
  "fer": 1464,
  "\u52d5": 1465,
  "\u4f4e": 1466,
  "\u652f\u63f4": 1467,
  "thing": 1468,
  "\u306e\u3088\u3046\u306b": 1469,
  "body": 1470,
  "\u5f79": 1471,
  "\u2581How": 1472,
  "\u89aa": 1473,
  "\u308c\u3070": 1474,
  "\u2581Pro": 1475,
  "\u79c1\u306e": 1476,
  "\u691c\u7d22": 1477,
  "\u3057\u305f\u308a": 1478,
  "\u2581every": 1479,
  "km": 1480,
  "act": 1481,
  "\u7279\u5fb4": 1482,
  "19": 1483,
  "\u30a2\u30af\u30bb\u30b9": 1484,
  "\u2581important": 1485,
  "\u2581users": 1486,
  "\u53cd\u5fdc": 1487,
  "\u2581pro": 1488,
  "\u9867\u5ba2": 1489,
  "\u2581area": 1490,
  "\u3055\u3093": 1491,
  "\u30ea\u30b9\u30c8": 1492,
  "TV": 1493,
  "hand": 1494,
  "toa": 1495,
  "\u7523\u696d": 1496,
  "ea": 1497,
  "\u89e3\u6790": 1498,
  "\u30b1": 1499,
  "\u308b\u3053\u3068": 1500,
  "io": 1501,
  "\u6765": 1502,
  "\u306e\u958b\u767a": 1503,
  "21": 1504,
  "\u6b21": 1505,
  "\u30ca\u30fc": 1506,
  "\u2581project": 1507,
  "\u3059\u308b\u3053\u3068\u3067": 1508,
  "\u30db\u30c6\u30eb": 1509,
  "family": 1510,
  "\u99c5": 1511,
  "Al": 1512,
  "\u5bfe\u5fdc": 1513,
  "Go": 1514,
  "\u624b\u6cd5": 1515,
  "\u5357": 1516,
  "\u611b": 1517,
  "\u767d": 1518,
  "\u5929": 1519,
  "\u4ed8\u3051": 1520,
  "\u308d": 1521,
  "ring": 1522,
  "companies": 1523,
  "ID": 1524,
  "\u63a5\u7d9a": 1525,
  "\u5f7c\u306f": 1526,
  "\u6700\u521d\u306e": 1527,
  "si": 1528,
  "building": 1529,
  "make": 1530,
  "\u4eba\u9593": 1531,
  "\u305b": 1532,
  "\u7406\u7531": 1533,
  "\u5317": 1534,
  "\u3058": 1535,
  "\u30b5\u30fc": 1536,
  "\u2581application": 1537,
  "\u7528\u306e": 1538,
  "\u2581since": 1539,
  "\u4fdd\u8b77": 1540,
  "\u5065\u5eb7": 1541,
  "\u81ea": 1542,
  "\u4e8c": 1543,
  "\u82f1\u8a9e": 1544,
  "\u8981\u6c42": 1545,
  "\u4e88\u6e2c": 1546,
  "open": 1547,
  "experience": 1548,
  "\u6295\u8cc7": 1549,
  "\u6b7b": 1550,
  "really": 1551,
  "\u5de5\u5834": 1552,
  "\u64cd\u4f5c": 1553,
  "\u8ab2\u984c": 1554,
  "\u653b\u6483": 1555,
  "making": 1556,
  "\u2581method": 1557,
  "\u8fd1": 1558,
  "\u78ba\u8a8d": 1559,
  "\u4ee5\u4e0a\u306e": 1560,
  "\u76f8": 1561,
  "ana": 1562,
  "ingthe": 1563,
  "\u2581woman": 1564,
  "\u30ad\u30fc": 1565,
  "\u2581quality": 1566,
  "yo": 1567,
  "\u2581state": 1568,
  "\u6ce2": 1569,
  "\u2581give": 1570,
  "\u8a66\u9a13": 1571,
  "too": 1572,
  "\u2581Q": 1573,
  "\u2581\u3053\u308c\u3089\u306e": 1574,
  "\u3067\u3059\u304b": 1575,
  "\u2581point": 1576,
  "\u2581does": 1577,
  "\u6c7a\u5b9a": 1578,
  "\u2581free": 1579,
  "\u76ee\u7684": 1580,
  "\u7279\u5b9a\u306e": 1581,
  "ah": 1582,
  "\u2581create": 1583,
  "\u73fe\u5728": 1584,
  "\u82f1\u8a9e\u7248": 1585,
  "\u306b\u3064\u3044\u3066\u306f": 1586,
  "ow": 1587,
  "could": 1588,
  "\u30d2": 1589,
  "\u30e6\u30fc\u30b6": 1590,
  "\u30ab\u30fc\u30c9": 1591,
  "\u81ea\u52d5": 1592,
  "vi": 1593,
  "\u2581real": 1594,
  "\u5264": 1595,
  "book": 1596,
  "large": 1597,
  "\u306b\u306a\u308a\u307e\u3059": 1598,
  "such": 1599,
  "\u3092\u898b": 1600,
  "\u2581performance": 1601,
  "local": 1602,
  "board": 1603,
  "\u2581software": 1604,
  "\u2581\u5f7c\u5973\u306f": 1605,
  "\u5165\u529b": 1606,
  "\u6cbb\u7642": 1607,
  "\u738b": 1608,
  "od": 1609,
  "\u8868": 1610,
  "\u3092\u901a\u3058\u3066": 1611,
  "\u897f": 1612,
  "\u4ee3": 1613,
  "\u6700\u5927": 1614,
  "\u30aa\u30f3\u30e9\u30a4\u30f3": 1615,
  "group": 1616,
  "\u8aac\u660e": 1617,
  "\u96fb\u5b50": 1618,
  "\u3042\u3089\u3086\u308b": 1619,
  "something": 1620,
  "\u30bb\u30c3\u30c8": 1621,
  "asthe": 1622,
  "\u304b\u3064": 1623,
  "value": 1624,
  "Twitter": 1625,
  "\u7acb": 1626,
  "\u66f2": 1627,
  "mon": 1628,
  "method": 1629,
  "\u2581why": 1630,
  "22": 1631,
  "every": 1632,
  "\u2581Z": 1633,
  "human": 1634,
  "\u30bb\u30ad\u30e5\u30ea\u30c6\u30a3": 1635,
  "\u306b\u3066": 1636,
  "\u2581While": 1637,
  "\u2581case": 1638,
  "\u2581\u79c1\u305f\u3061\u306f": 1639,
  "ner": 1640,
  "ati": 1641,
  "\u30c0\u30fc": 1642,
  "\u2581put": 1643,
  "\u2581example": 1644,
  "person": 1645,
  "\u30e1\u30fc\u30ab\u30fc": 1646,
  "run": 1647,
  "\u5bb6\u65cf": 1648,
  "\u518d": 1649,
  "\u30af\u30e9\u30a6\u30c9": 1650,
  "ial": 1651,
  "king": 1652,
  "\u5546\u54c1": 1653,
  "\u8a18\u9332": 1654,
  "fe": 1655,
  "\u30d0\u30b9": 1656,
  "\u2581show": 1657,
  "\u5951\u7d04": 1658,
  "\u96fb": 1659,
  "\u2581His": 1660,
  "\u3068\u3059\u308b": 1661,
  "ard": 1662,
  "\u54c1\u8cea": 1663,
  "language": 1664,
  "min": 1665,
  "Mo": 1666,
  "\u2581something": 1667,
  "\u2581per": 1668,
  "\u8db3": 1669,
  "\u79fb\u52d5": 1670,
  "various": 1671,
  "face": 1672,
  "\u751f\u6d3b": 1673,
  "\u52a0\u5de5": 1674,
  "\u30c6\u30ec\u30d3": 1675,
  "\u2581today": 1676,
  "\u2581pre": 1677,
  "\u2581Java": 1678,
  "\u8d85": 1679,
  "\u2581Al": 1680,
  "\u751f\u6210": 1681,
  "\u7d20\u6674\u3089\u3057\u3044": 1682,
  "\u2581Web": 1683,
  "\u7c73\u56fd": 1684,
  "\u3053\u3068\u306b": 1685,
  "der": 1686,
  "shi": 1687,
  "live": 1688,
  "should": 1689,
  "\u2581too": 1690,
  "\u30e9\u30f3": 1691,
  "US": 1692,
  "\u3060\u304c": 1693,
  "\u30bf\u30b9\u30af": 1694,
  "\u3067\u3059\u304c": 1695,
  "\u5074": 1696,
  "\u3057\u3066\u304a\u308a": 1697,
  "device": 1698,
  "\u3059\u308b\u3053\u3068\u304c\u3067\u304d\u308b": 1699,
  "\u7d19": 1700,
  "\u6a19\u6e96": 1701,
  "havebeen": 1702,
  "\u2581working": 1703,
  "Wi": 1704,
  "\u4ee5\u4e0a": 1705,
  "position": 1706,
  "ide": 1707,
  "\u30ec\u30d9\u30eb": 1708,
  "\u2581few": 1709,
  "rate": 1710,
  "\u5171\u6709": 1711,
  "88": 1712,
  "view": 1713,
  "\u7279\u6027": 1714,
  "thefirst": 1715,
  "\u4fa1\u683c": 1716,
  "\u30a4\u30f3\u30bf\u30fc\u30cd\u30c3\u30c8": 1717,
  "\u3060\u3068": 1718,
  "\u691c\u67fb": 1719,
  "\u307e\u3060": 1720,
  "management": 1721,
  "\u65e5\u672c\u306e": 1722,
  "small": 1723,
  "application": 1724,
  "\u516c\u958b": 1725,
  "\u3082\u3063\u3068": 1726,
  "\u2581non": 1727,
  "\u2581user": 1728,
  "\u81ea\u7136": 1729,
  "\u6a5f\u95a2": 1730,
  "\u30d0\u30fc\u30b8\u30e7\u30f3": 1731,
  "\u53d6\u308a": 1732,
  "ver": 1733,
  "AR": 1734,
  "\u2581possible": 1735,
  "\u2581$": 1736,
  "\u7ba1": 1737,
  "\u5b66\u6821": 1738,
  "\u6a29": 1739,
  "video": 1740,
  "\u5834\u5408\u306f": 1741,
  "\u30d5\u30ec\u30fc\u30e0\u30ef\u30fc\u30af": 1742,
  "\u2581/": 1743,
  "\u904b\u52d5": 1744,
  "\u30c7\u30b8\u30bf\u30eb": 1745,
  "\u30b5\u30f3": 1746,
  "\u2581various": 1747,
  "led": 1748,
  "food": 1749,
  "\u2581\u7537\u306f": 1750,
  "\u30a2\u30eb": 1751,
  "dy": 1752,
  "oc": 1753,
  "\u3092\u4f7f\u7528\u3057\u3066": 1754,
  "\u96fb\u8a71": 1755,
  "\u53d6\u5f15": 1756,
  "whichis": 1757,
  "\u2581\u3067\u3082": 1758,
  "ya": 1759,
  "\u2581become": 1760,
  "\u5e74\u9593": 1761,
  "cho": 1762,
  "\u30ef": 1763,
  "\u30dd": 1764,
  "tro": 1765,
  "term": 1766,
  "\u2581public": 1767,
  "\u2581Some": 1768,
  "vo": 1769,
  "\u2581lot": 1770,
  "CEO": 1771,
  "\u3082\u306e\u3067\u3059": 1772,
  "\u770c": 1773,
  "\u3092\u3059\u308b": 1774,
  "\u2581Le": 1775,
  "\u7523": 1776,
  "image": 1777,
  "\u5b98": 1778,
  "ec": 1779,
  "another": 1780,
  "\u30d5\u30a3": 1781,
  "\u2581experience": 1782,
  "iOS": 1783,
  "\u30c7\u30fc\u30bf\u30d9\u30fc\u30b9": 1784,
  "\u2581La": 1785,
  "because": 1786,
  "\u258120": 1787,
  "\u5831\u544a": 1788,
  "\u2581really": 1789,
  "fi": 1790,
  "\u5c40": 1791,
  "\u2581Go": 1792,
  "500": 1793,
  "ts": 1794,
  "\u2581Con": 1795,
  "war": 1796,
  "\u5b89\u5168": 1797,
  "\u2581features": 1798,
  "\u3076": 1799,
  "\u30d1\u30fc": 1800,
  "\u571f": 1801,
  "intothe": 1802,
  "\u2581say": 1803,
  "\u2581type": 1804,
  "features": 1805,
  "\u54e1": 1806,
  "ct": 1807,
  "\u2581hand": 1808,
  "\u533b\u7642": 1809,
  "\u6e2c\u5b9a": 1810,
  "\u6b8b": 1811,
  "\u767a\u8868": 1812,
  "\u6709": 1813,
  "\u8005\u306e": 1814,
  "\u60c5\u5831\u3092": 1815,
  "\u2581market": 1816,
  "\u2581great": 1817,
  "\u30db": 1818,
  "\u30d5\u30a1": 1819,
  "\u512a\u308c\u305f": 1820,
  "find": 1821,
  "\u7fa4": 1822,
  "\u8a00\u3046": 1823,
  "\u2581space": 1824,
  "\u3053\u3068\u3067\u3059": 1825,
  "\u30ae": 1826,
  "away": 1827,
  "\u4e16": 1828,
  "\u2581di": 1829,
  "port": 1830,
  "\u2581family": 1831,
  "\u30b7\u30ea\u30fc\u30ba": 1832,
  "\u89e3": 1833,
  "\u2581little": 1834,
  "swith": 1835,
  "\u8a18\u4e8b": 1836,
  "EC": 1837,
  "late": 1838,
  "cu": 1839,
  "\u7c21\u5358\u306b": 1840,
  "\u30d5\u30a7": 1841,
  "\u62e1\u5f35": 1842,
  "play": 1843,
  "children": 1844,
  "\u2581network": 1845,
  "san": 1846,
  "\u5168\u3066\u306e": 1847,
  "platform": 1848,
  "softhe": 1849,
  "\u2581Itis": 1850,
  "\u2581light": 1851,
  "\u6b21\u306e": 1852,
  "\u691c\u51fa": 1853,
  "su": 1854,
  "\u4f5c\u54c1": 1855,
  "\u5909": 1856,
  "les": 1857,
  "network": 1858,
  "\u25819": 1859,
  "\u30e1\u30c3\u30bb\u30fc\u30b8": 1860,
  "\u548c": 1861,
  "\u75c5": 1862,
  "\u2581My": 1863,
  "\u2581companies": 1864,
  "\u30b3\u30df\u30e5\u30cb\u30c6\u30a3": 1865,
  "\u2581better": 1866,
  "\u3059\u3079\u3066": 1867,
  "class": 1868,
  "\u2581management": 1869,
  "\u30b3\u30b9\u30c8": 1870,
  "au": 1871,
  "\u3057\u304b": 1872,
  "\u30ec\u30f3": 1873,
  "content": 1874,
  "\u72ac": 1875,
  "\u2581access": 1876,
  "\u30c6\u30af\u30ce\u30ed\u30b8\u30fc": 1877,
  "\u2581another": 1878,
  "\u753b\u9762": 1879,
  "box": 1880,
  "wi": 1881,
  "\u4fa1\u5024": 1882,
  "\u2581top": 1883,
  "ran": 1884,
  "\u88fd": 1885,
  "\u30ed\u30dc\u30c3\u30c8": 1886,
  "\u2581customers": 1887,
  "\u2581found": 1888,
  "\u9ed2": 1889,
  "rd": 1890,
  "\u2581Mo": 1891,
  "\u304c\u3042\u3063\u305f": 1892,
  "\u8a08\u7b97": 1893,
  "Fe": 1894,
  "\u9593\u306e": 1895,
  "ob": 1896,
  "look": 1897,
  "\u77e5\u8b58": 1898,
  "\u2581personal": 1899,
  "\u6599\u7406": 1900,
  "store": 1901,
  "\u8981\u7d20": 1902,
  "ster": 1903,
  "\u30e1\u30fc\u30eb": 1904,
  "\u69cb\u6210": 1905,
  "net": 1906,
  "\u30e2\u30d0\u30a4\u30eb": 1907,
  "\u3092\u7528\u3044\u3066": 1908,
  "\u30b9\u30bf\u30fc": 1909,
  "\u30bd\u30f3": 1910,
  "\u30ac\u30b9": 1911,
  "\u2581things": 1912,
  "\u6750\u6599": 1913,
  "\u2581period": 1914,
  "\u30b3\u30f3\u30c6\u30f3\u30c4": 1915,
  "\u76ee\u6a19": 1916,
  "\u30c8\u30ec\u30fc\u30cb\u30f3\u30b0": 1917,
  "fu": 1918,
  "\u8a8d\u8b58": 1919,
  "ium": 1920,
  "much": 1921,
  "\u2581Ma": 1922,
  "\u95a2\u6570": 1923,
  "\u6226\u7565": 1924,
  "source": 1925,
  "\u90e1": 1926,
  "\u30a2\u30d7\u30ed\u30fc\u30c1": 1927,
  "\u5b66\u751f": 1928,
  "IC": 1929,
  "ht": 1930,
  "IP": 1931,
  "\u91d1\u5c5e": 1932,
  "\u30b3\u30f3\u30d4\u30e5\u30fc\u30bf": 1933,
  "tsu": 1934,
  "\u2581\u672c": 1935,
  "\u3069\u3046": 1936,
  "\u3059\u308c\u3070": 1937,
  "sub": 1938,
  "\u30b7\u30e5": 1939,
  "\u30aa\u30d7\u30b7\u30e7\u30f3": 1940,
  "ph": 1941,
  "got": 1942,
  "lu": 1943,
  "\u2581h": 1944,
  "Me": 1945,
  "23": 1946,
  "ger": 1947,
  "CO": 1948,
  "\u2581API": 1949,
  "\u6bcd": 1950,
  "Con": 1951,
  "ag": 1952,
  "\u9aa8": 1953,
  "\u30a2\u30fc": 1954,
  "\u90e8\u5c4b": 1955,
  "phone": 1956,
  "\u30dd\u30a4\u30f3\u30c8": 1957,
  "mp": 1958,
  "isnot": 1959,
  "sho": 1960,
  "\\": 1961,
  "order": 1962,
  "oo": 1963,
  "\u696d\u52d9": 1964,
  "\u2581city": 1965,
  "user": 1966,
  "\u30a2\u30ab\u30a6\u30f3\u30c8": 1967,
  "\u706b": 1968,
  "call": 1969,
  "\u2581production": 1970,
  "\u3053\u308c": 1971,
  "\u2581value": 1972,
  "\u2581line": 1973,
  "Le": 1974,
  "left": 1975,
  "\u3088\u3044": 1976,
  "style": 1977,
  "\u30aa\u30f3": 1978,
  "lic": 1979,
  "\u2581human": 1980,
  "og": 1981,
  "200": 1982,
  "\u2581following": 1983,
  "case": 1984,
  "\u610f\u5473": 1985,
  "\u4f55\u304b": 1986,
  "ative": 1987,
  "bu": 1988,
  "four": 1989,
  "\u2581\u4f55": 1990,
  "\u2581future": 1991,
  "\u30a2\u30eb\u30b4\u30ea\u30ba\u30e0": 1992,
  "ud": 1993,
  "\u5bfa": 1994,
  "\u2581local": 1995,
  "\u2581making": 1996,
  "since": 1997,
  "\u2581\u304a": 1998,
  "\u3068\u547c\u3070\u308c\u308b": 1999,
  "du": 2000,
  "\u534a": 2001,
  "kin": 2002,
  "\u306e\u3060": 2003,
  "\u5973": 2004,
  "\u3075": 2005,
  "\u2581From": 2006,
  "New": 2007,
  "\u99ac": 2008,
  "\u3055\u308c\u307e\u3057\u305f": 2009,
  "\u7c73": 2010,
  "always": 2011,
  "\u8cfc\u5165": 2012,
  "early": 2013,
  "uf": 2014,
  "\u306b\u57fa\u3065\u304f": 2015,
  "function": 2016,
  "come": 2017,
  "itwas": 2018,
  "\u2581room": 2019,
  "\u304b\u3082\u3057\u308c\u306a\u3044": 2020,
  "applications": 2021,
  "environment": 2022,
  "\u305d\u308c\u304c": 2023,
  "\u6210\u529f": 2024,
  "\u2581\u3042\u306a\u305f\u306f": 2025,
  "\u53f7": 2026,
  "\u30a2\u30fc\u30ad\u30c6\u30af\u30c1\u30e3": 2027,
  "\u30c0\u30a6\u30f3\u30ed\u30fc\u30c9": 2028,
  "\u2581\u5f7c\u3089\u306f": 2029,
  "\u2581run": 2030,
  "\u5354\u529b": 2031,
  "ler": 2032,
  "\u2581side": 2033,
  "\u30e9\u30a4\u30f3": 2034,
  "know": 2035,
  "feature": 2036,
  "\u77e5": 2037,
  "\u2581Amazon": 2038,
  "\u671f\u9593": 2039,
  "\u30d1\u30d5\u30a9\u30fc\u30de\u30f3\u30b9": 2040,
  "\u5f37\u3044": 2041,
  "Pro": 2042,
  "mer": 2043,
  "pr": 2044,
  "edby": 2045,
  "later": 2046,
  "\u969c\u5bb3": 2047,
  "ase": 2048,
  "\u96fb\u6c17": 2049,
  "\u2581second": 2050,
  "swere": 2051,
  "\u3068\u305d\u306e": 2052,
  "\u30fc\u30eb": 2053,
  "personal": 2054,
  "Be": 2055,
  "screen": 2056,
  "\u73fe\u5728\u306e": 2057,
  "\u2581video": 2058,
  "MA": 2059,
  "\u671f\u5f85": 2060,
  "\u2581full": 2061,
  "\u30af\u30e9\u30a4\u30a2\u30f3\u30c8": 2062,
  "\u57ce": 2063,
  "\u306e\u4e00\u90e8": 2064,
  "\u958b\u59cb": 2065,
  "ane": 2066,
  "\u2581test": 2067,
  "\u3068\u3066\u3082": 2068,
  "\u30ab\u30eb": 2069,
  "morethan": 2070,
  "scale": 2071,
  "\u2581China": 2072,
  "web": 2073,
  "\u2581Be": 2074,
  "\u304e": 2075,
  "during": 2076,
  "\u2581\u4f8b\u3048\u3070": 2077,
  "\u3053\u3046": 2078,
  "present": 2079,
  "systems": 2080,
  "aswellas": 2081,
  "\u591c": 2082,
  "program": 2083,
  "file": 2084,
  "ik": 2085,
  "\u2581\u79c1\u306e": 2086,
  "\u2581machine": 2087,
  "together": 2088,
  "\u79c1\u305f\u3061\u306e": 2089,
  "\u3073": 2090,
  "\u2581form": 2091,
  "\u79d1\u5b66": 2092,
  "\u3059\u3050\u306b": 2093,
  "\u2581Now": 2094,
  "school": 2095,
  "\u30cf\u30a4": 2096,
  "\u3072": 2097,
  "\u2581addition": 2098,
  "\u30ea\u30b9\u30af": 2099,
  "\u7b49\u306e": 2100,
  "fo": 2101,
  "\u6027\u80fd": 2102,
  "No": 2103,
  "\u7570": 2104,
  "\u4f1a\u8b70": 2105,
  "\u69d8": 2106,
  "\u5236\u9650": 2107,
  "\u2581problem": 2108,
  "paper": 2109,
  "etc": 2110,
  "thecompany": 2111,
  "\u2581keep": 2112,
  "\u52d5\u4f5c": 2113,
  "\u682a\u5f0f\u4f1a\u793e": 2114,
  "\u8def": 2115,
  "\u9854": 2116,
  "\u6771\u4eac": 2117,
  "\u2581let": 2118,
  "\u258115": 2119,
  "available": 2120,
  "\u2581learning": 2121,
  "\u2581must": 2122,
  "ish": 2123,
  "\u3078\u3068": 2124,
  "\u30aa\u30d6\u30b8\u30a7\u30af\u30c8": 2125,
  "\u79c1\u305f\u3061\u306f": 2126,
  "26": 2127,
  "\u72b6": 2128,
  "\u904b\u7528": 2129,
  "better": 2130,
  "\u30a8\u30f3\u30b8\u30f3": 2131,
  "built": 2132,
  "things": 2133,
  "ities": 2134,
  "\u3068\u306a\u308a": 2135,
  "\u2581site": 2136,
  "security": 2137,
  "sen": 2138,
  "several": 2139,
  "\u30a2\u30c3\u30d7": 2140,
  "\u5206\u985e": 2141,
  "\u901f\u5ea6": 2142,
  "start": 2143,
  "\u3067\u304d": 2144,
  "\u30a4\u30f3\u30c9": 2145,
  "text": 2146,
  "\u6210": 2147,
  "\u305f\u3061": 2148,
  "\u5186": 2149,
  "\u2581away": 2150,
  "\u30c7\u30fc\u30bf\u3092": 2151,
  "\u5c11\u3057": 2152,
  "film": 2153,
  "working": 2154,
  "\u2581build": 2155,
  "\u2581Ba": 2156,
  "why": 2157,
  "important": 2158,
  "customers": 2159,
  "\u2581Ha": 2160,
  "machine": 2161,
  "\u9662": 2162,
  "\u30bf\u30a4\u30d7": 2163,
  "provide": 2164,
  "game": 2165,
  "\u2581Windows": 2166,
  "ft": 2167,
  "\u5473": 2168,
  "af": 2169,
  "\u4e88\u5b9a": 2170,
  "\u00e9": 2171,
  "St": 2172,
  "\u6975": 2173,
  "Mac": 2174,
  "\u2581\u3053\u308c": 2175,
  "cost": 2176,
  "\u2581start": 2177,
  "\u30b0\u30e9\u30d5": 2178,
  "int": 2179,
  "\u2581low": 2180,
  "\u2581single": 2181,
  "\u30d3\u30fc": 2182,
  "\u2581building": 2183,
  "\u3042\u306a\u305f\u304c": 2184,
  "ef": 2185,
  "isan": 2186,
  "Do": 2187,
  "\u2581level": 2188,
  "\u2581research": 2189,
  "\u6ce8\u610f": 2190,
  "\u521d": 2191,
  "\u8089": 2192,
  "post": 2193,
  "via": 2194,
  "show": 2195,
  "\u304c\u306a\u3044": 2196,
  "\u79c1": 2197,
  "An": 2198,
  "\u89d2": 2199,
  "\u30d9\u30fc\u30b9\u306e": 2200,
  "days": 2201,
  "\u8857": 2202,
  "\u2581device": 2203,
  "\u5b87\u5b99": 2204,
  "\u30bc": 2205,
  "\u30e2\u30b8\u30e5\u30fc\u30eb": 2206,
  "\u2581able": 2207,
  "read": 2208,
  "\u5e38\u306b": 2209,
  "\u90e8\u54c1": 2210,
  "love": 2211,
  "\u5411\u3051": 2212,
  "\u2581applications": 2213,
  "\u547d": 2214,
  "version": 2215,
  "\u5411\u4e0a": 2216,
  "\u2581got": 2217,
  "edto": 2218,
  "\u2581together": 2219,
  "\u653f\u5e9c": 2220,
  "\u6751": 2221,
  "\u9001": 2222,
  "MS": 2223,
  "ology": 2224,
  "\u2581food": 2225,
  "\u5c4b": 2226,
  "\u7dcf": 2227,
  "white": 2228,
  "\u5c02\u9580": 2229,
  "million": 2230,
  "\u30bf\u30a4": 2231,
  "\u30d6\u30e9\u30f3\u30c9": 2232,
  "SE": 2233,
  "\u4ed8\u304d": 2234,
  "\u8a18": 2235,
  "event": 2236,
  "\u7d4c": 2237,
  "27": 2238,
  "\u2581tu": 2239,
  "\u8a2d\u5099": 2240,
  "\u3093\u3067\u3059": 2241,
  "government": 2242,
  "\u5c55\u958b": 2243,
  "\u30a2\u30b8\u30e3\u30a4\u30eb": 2244,
  "\u2581App": 2245,
  "date": 2246,
  "\u30c6\u30ad\u30b9\u30c8": 2247,
  "\u00ae": 2248,
  "\u2581web": 2249,
  "ical": 2250,
  "sion": 2251,
  "\u2581language": 2252,
  "\u3092\u793a\u3059": 2253,
  "\u2581against": 2254,
  "\u81ea\u52d5\u8eca": 2255,
  "speed": 2256,
  "been": 2257,
  "\u307b\u3068\u3093\u3069": 2258,
  "\u30d1\u30bf\u30fc\u30f3": 2259,
  "\u6838": 2260,
  "\u2581school": 2261,
  "say": 2262,
  "\u30d5\u30e9\u30f3\u30b9": 2263,
  "\u304b\u3069\u3046\u304b": 2264,
  "ay": 2265,
  "\u305d\u308c\u305e\u308c": 2266,
  "izing": 2267,
  "research": 2268,
  "\u6587\u5b57": 2269,
  "\u7121\u6599": 2270,
  "\u7d71\u5408": 2271,
  "ju": 2272,
  "\u2581body": 2273,
  "hard": 2274,
  "\u672a": 2275,
  "base": 2276,
  "\u58f0": 2277,
  "\u671d": 2278,
  "\u66f4\u65b0": 2279,
  "MP": 2280,
  "\u3050": 2281,
  "\u3055\u308c\u3066": 2282,
  "\u5b9f\u88c5": 2283,
  "\u660e": 2284,
  "\u500b\u4eba": 2285,
  "La": 2286,
  "che": 2287,
  "\u3048\u308b": 2288,
  "\u3042\u308a\u307e\u3059": 2289,
  "\u2581government": 2290,
  "\u5bfe\u8c61": 2291,
  "ue": 2292,
  "\u958b": 2293,
  "90": 2294,
  "\u2581Since": 2295,
  "\u2581en": 2296,
  "\u2581children": 2297,
  "\u8cac\u4efb": 2298,
  "App": 2299,
  "\u6750": 2300,
  "\u4ee5\u4e0b\u306e": 2301,
  "\u4ee5\u4e0b": 2302,
  "\u2581Ka": 2303,
  "\u2581\u3082\u3057": 2304,
  "\u2581game": 2305,
  "\u2581St": 2306,
  "\u671f": 2307,
  "computer": 2308,
  "tal": 2309,
  "\u2581\u305d\u308c": 2310,
  "\u3082\u306e\u3060": 2311,
  "\u2581version": 2312,
  "ifyou": 2313,
  "\u306e\u305f\u3081": 2314,
  "\u6a4b": 2315,
  "sinthe": 2316,
  "\u2581head": 2317,
  "industry": 2318,
  "\u2581men": 2319,
  "\u2581image": 2320,
  "\u59d4\u54e1\u4f1a": 2321,
  "\u30b9\u30dd\u30fc\u30c4": 2322,
  "\u2581live": 2323,
  "\u884c\u70ba": 2324,
  "\u2581known": 2325,
  "\u6b4c": 2326,
  "\u2581having": 2327,
  "\u2581big": 2328,
  "\u30b9\u30da\u30fc\u30b9": 2329,
  "works": 2330,
  "PS": 2331,
  "\u5b89": 2332,
  "\u53ef\u80fd": 2333,
  "\u60a3\u8005": 2334,
  "\u2581means": 2335,
  "\u8005\u306f": 2336,
  "\u2581Me": 2337,
  "\u9069\u5207\u306a": 2338,
  "\u8cde": 2339,
  "AL": 2340,
  "\u3044\u305f\u3057\u307e\u3059": 2341,
  "\u5236": 2342,
  "plan": 2343,
  "\u53ef\u80fd\u6027": 2344,
  "tin": 2345,
  "log": 2346,
  "han": 2347,
  "night": 2348,
  "35": 2349,
  "\u53f3": 2350,
  "\u306a\u308b": 2351,
  "\u5b50\u4f9b": 2352,
  "28": 2353,
  "\u2581systems": 2354,
  "law": 2355,
  "\u6d77\u5916": 2356,
  "AT": 2357,
  "\u30c9\u30a4\u30c4": 2358,
  "Hotel": 2359,
  "Ko": 2360,
  "\u6226\u4e89": 2361,
  "maybe": 2362,
  "zo": 2363,
  "ble": 2364,
  "\u2581million": 2365,
  "\u2581air": 2366,
  "try": 2367,
  "\u30a6\u30a7\u30d6\u30b5\u30a4\u30c8": 2368,
  "\u5185\u3067": 2369,
  "\u2581main": 2370,
  "learning": 2371,
  "\u984d": 2372,
  "already": 2373,
  "\u30b7\u30f3": 2374,
  "started": 2375,
  "\u3092\u4f5c\u308b": 2376,
  "ping": 2377,
  "\u4eba\u306b": 2378,
  "\u9178": 2379,
  "\u30d3\u30eb": 2380,
  "So": 2381,
  "\u2581please": 2382,
  "\u30cb\u30e5\u30fc\u30b9": 2383,
  "\u306b\u57fa\u3065\u3044\u3066": 2384,
  "\u305d\u306e\u4ed6\u306e": 2385,
  "\u8077": 2386,
  "\u30ec\u30b9": 2387,
  "\u2581course": 2388,
  "\u30d7\u30ed\u30c0\u30af\u30c8": 2389,
  "\u52d5\u753b": 2390,
  "\u5fc5\u8981\u306a": 2391,
  "\u6a5f\u4f1a": 2392,
  "\u65e2\u5b58\u306e": 2393,
  "include": 2394,
  "av": 2395,
  "\u7236": 2396,
  "\u985e": 2397,
  "\u9577\u3044": 2398,
  "\u696d\u754c": 2399,
  "\u2581old": 2400,
  "town": 2401,
  "\u5b9f\u65bd": 2402,
  "own": 2403,
  "\u5ea7": 2404,
  "table": 2405,
  "\u2581Group": 2406,
  "\u30cb\u30fc": 2407,
  "\u5225": 2408,
  "RE": 2409,
  "32": 2410,
  "\u3089\u308c": 2411,
  "SA": 2412,
  "\u64ae\u5f71": 2413,
  "share": 2414,
  "often": 2415,
  "AS": 2416,
  "--": 2417,
  "structure": 2418,
  "\u51fa\u529b": 2419,
  "\u306a\u308a": 2420,
  "\u30c9\u30e1\u30a4\u30f3": 2421,
  "\u5b58\u5728": 2422,
  "IN": 2423,
  "\u9280\u884c": 2424,
  "American": 2425,
  "\uff5e": 2426,
  "\u7834": 2427,
  "period": 2428,
  "\u2581due": 2429,
  "\u306b\u306a\u308a": 2430,
  "\u30b5\u30fc\u30d0": 2431,
  "\u7fa9": 2432,
  "sp": 2433,
  "\u677f": 2434,
  "\u6e29\u5ea6": 2435,
  "\u795e\u7d4c": 2436,
  "material": 2437,
  "Ma": 2438,
  "\u3044\u306a\u3044": 2439,
  "size": 2440,
  "\u72ec\u81ea\u306e": 2441,
  "\u30c6\u30fc\u30d6\u30eb": 2442,
  "\u5185\u5bb9": 2443,
  "\u2581Inthe": 2444,
  "\u5e74\u306b\u306f": 2445,
  "\u4ed8": 2446,
  "RA": 2447,
  "\u9ad8\u901f": 2448,
  "\u6e90": 2449,
  "\u305f\u308a": 2450,
  "\u4f9b\u7d66": 2451,
  "ise": 2452,
  "\u2581key": 2453,
  "300": 2454,
  "\u5408\u6210": 2455,
  "\u52a0": 2456,
  "\u2581always": 2457,
  "\u8d64": 2458,
  "\u2581play": 2459,
  "\u767a\u898b": 2460,
  "\u2581content": 2461,
  "\u63d0\u6848": 2462,
  "\u8ad6": 2463,
  "\u306b\u306a\u3063\u3066": 2464,
  "stage": 2465,
  "last": 2466,
  "\u30ea\u30a2": 2467,
  "training": 2468,
  "\u3082\u3046": 2469,
  "\u958b\u767a\u8005": 2470,
  "AC": 2471,
  "\u5229\u76ca": 2472,
  "\u3068\u5171\u306b": 2473,
  "music": 2474,
  "wn": 2475,
  "aki": 2476,
  "\u6b73": 2477,
  "\u30b8\u30a7": 2478,
  "\u30b5\u30a4\u30ba": 2479,
  "\u5728": 2480,
  "\u7537\u6027": 2481,
  "\u30ad\u30e3": 2482,
  "\u30d8": 2483,
  "\u2581Bo": 2484,
  "\u30e1\u30c7\u30a3\u30a2": 2485,
  "cal": 2486,
  "{": 2487,
  "basedon": 2488,
  "\u5f53\u793e": 2489,
  "\u2581result": 2490,
  "ME": 2491,
  "city": 2492,
  "results": 2493,
  "\u57fa\u6e96": 2494,
  "\u30d1\u30fc\u30c8\u30ca\u30fc": 2495,
  "add": 2496,
  "\u4fe1\u53f7": 2497,
  "din": 2498,
  "\u30eb\u30fc\u30e0": 2499,
  "did": 2500,
  "\u2581already": 2501,
  "bed": 2502,
  "\u7aef": 2503,
  "\u6700\u9ad8": 2504,
  "ber": 2505,
  "best": 2506,
  "word": 2507,
  "\u53c2\u52a0": 2508,
  "outside": 2509,
  "release": 2510,
  "\u76f4\u63a5": 2511,
  "need": 2512,
  "\u3092\u53d7\u3051": 2513,
  "par": 2514,
  "\u2581post": 2515,
  "\u2581am": 2516,
  "\u3059\u3067\u306b": 2517,
  "great": 2518,
  "\u53cd": 2519,
  "\u2581paper": 2520,
  "ure": 2521,
  "ious": 2522,
  "\u2581Ko": 2523,
  "kan": 2524,
  "\u2581four": 2525,
  "tool": 2526,
  "\u3093\u3067": 2527,
  "\u306f\u3053\u306e": 2528,
  "ny": 2529,
  "gen": 2530,
  "\u6b6f": 2531,
  "found": 2532,
  "\u30ec\u30fc": 2533,
  "\u3067\u306f\u3042\u308a\u307e\u305b\u3093": 2534,
  "\u30e9\u30a4": 2535,
  "\u2581early": 2536,
  "ill": 2537,
  "\u65c5\u884c": 2538,
  "\u2581feel": 2539,
  "star": 2540,
  "\u2581Ro": 2541,
  "\u5bae": 2542,
  "\u6025": 2543,
  "\u2581iPhone": 2544,
  "sfrom": 2545,
  "ball": 2546,
  "\u96c6": 2547,
  "\u2581became": 2548,
  "\u52d5\u7269": 2549,
  "yu": 2550,
  "\u2581environment": 2551,
  "je": 2552,
  "price": 2553,
  "cr": 2554,
  "bit": 2555,
  "\u4f4d\u7f6e": 2556,
  "\u696d": 2557,
  "\u30ed\u30c3\u30af": 2558,
  "solution": 2559,
  "feel": 2560,
  "\u4e21": 2561,
  "\u3068\u304d\u306b": 2562,
  "\u30a8\u30f3": 2563,
  "\u904e": 2564,
  "\u3042\u308a": 2565,
  "rr": 2566,
  "\u672c\u5f53\u306b": 2567,
  "thatis": 2568,
  "\u51fa\u3059": 2569,
  "\u2581feature": 2570,
  "\u30c8\u30ea": 2571,
  "flow": 2572,
  "ple": 2573,
  "\u2581cost": 2574,
  "study": 2575,
  "ib": 2576,
  "iPad": 2577,
  "\u6a5f\u5668": 2578,
  "\u30ed\u30f3": 2579,
  "ley": 2580,
  "\u3051\u3069": 2581,
  "\u2581\u305d\u306e\u5f8c": 2582,
  "\u533a": 2583,
  "\u2581study": 2584,
  "\u30e9\u30a4\u30c8": 2585,
  "\u819c": 2586,
  "\u58c1": 2587,
  "developers": 2588,
  "\u2581several": 2589,
  "coming": 2590,
  "care": 2591,
  "\u968a": 2592,
  "\u258112": 2593,
  "help": 2594,
  "\u904b\u8ee2": 2595,
  "\u30a4\u30e1\u30fc\u30b8": 2596,
  "31": 2597,
  "\u2581\u4eca": 2598,
  "surface": 2599,
  "\u2581until": 2600,
  "\u2581hard": 2601,
  "\u2581program": 2602,
  "\u6761": 2603,
  "ward": 2604,
  "ham": 2605,
  "\u2581th": 2606,
  "\u2581\u305d\u3046": 2607,
  "\u3082\u3042\u308b": 2608,
  "\u6642\u4ee3": 2609,
  "\u300d\u300c": 2610,
  "color": 2611,
  "cell": 2612,
  "70": 2613,
  "\u306e\u306a\u3044": 2614,
  "\u6301\u3061": 2615,
  "\u62e1\u5927": 2616,
  "\u2581Ta": 2617,
  "ja": 2618,
  "\u4eba\u6c17": 2619,
  "\u30a2\u30b8\u30a2": 2620,
  "\u7269\u8cea": 2621,
  "oil": 2622,
  "\u3066\u3044\u306a\u3044": 2623,
  "\u50cf": 2624,
  "\u2581City": 2625,
  "\u5206\u91ce": 2626,
  "\u2581social": 2627,
  "\u89b3": 2628,
  "\u2581might": 2629,
  "\u305d\u306e\u5f8c": 2630,
  "ible": 2631,
  "\u8a00\u8449": 2632,
  "money": 2633,
  "\u2581TV": 2634,
  "\u3057\u3066\u3044\u306a\u3044": 2635,
  "\u2581face": 2636,
  "\u8cc7\u91d1": 2637,
  "\u30dc\u30bf\u30f3": 2638,
  "\u30c8\u30e9": 2639,
  "women": 2640,
  "havea": 2641,
  "\u8133": 2642,
  "\u2581country": 2643,
  "standard": 2644,
  "\u8b70\u8ad6": 2645,
  "cloud": 2646,
  "29": 2647,
  "leg": 2648,
  "\u30b7\u30b9\u30c6\u30e0\u306e": 2649,
  "\u2581across": 2650,
  "\u5b9f\u969b\u306b": 2651,
  "possible": 2652,
  "\u5de6": 2653,
  "\u89e3\u6c7a": 2654,
  "times": 2655,
  "allthe": 2656,
  "black": 2657,
  "\u306b\u95a2\u3057\u3066": 2658,
  "\u3066\u304d\u305f": 2659,
  "On": 2660,
  "tech": 2661,
  "\u6839": 2662,
  "und": 2663,
  "\u30b8\u30e7\u30f3": 2664,
  "ns": 2665,
  "pi": 2666,
  "\u53e4": 2667,
  "\u305e": 2668,
  "\u3068\u540c\u3058": 2669,
  "\u30c7\u30fc\u30bf\u30bb\u30c3\u30c8": 2670,
  "page": 2671,
  "\u2581platform": 2672,
  "\u6700": 2673,
  "\u30e9\u30a4\u30d6\u30e9\u30ea": 2674,
  "fa": 2675,
  "ze": 2676,
  "\u2581source": 2677,
  "\u3069\u306e": 2678,
  "number": 2679,
  "\u3060\u3051\u3067": 2680,
  "\u7d20": 2681,
  "\u30d5\u30eb": 2682,
  "\u2581Can": 2683,
  "\u9001\u4fe1": 2684,
  "rk": 2685,
  "build": 2686,
  "\u2581special": 2687,
  "\u6700\u9ad8\u306e": 2688,
  "\u5185\u90e8": 2689,
  "\u7d4c\u55b6": 2690,
  "\u75c7": 2691,
  "\u2581International": 2692,
  "\u2581event": 2693,
  "\u7f8e\u3057\u3044": 2694,
  "\u79d1": 2695,
  "\u771f": 2696,
  "\u691c\u8a0e": 2697,
  "again": 2698,
  "\u5370\u5237": 2699,
  "turn": 2700,
  "\u2581call": 2701,
  "\u9244": 2702,
  "\u3058\u3083\u306a\u3044": 2703,
  "AP": 2704,
  "sor": 2705,
  "\u2581release": 2706,
  "\u5fa1": 2707,
  "\u2581days": 2708,
  "ake": 2709,
  "\u5dee": 2710,
  "\u2581results": 2711,
  "\u2581add": 2712,
  "\u5730\u7403": 2713,
  "\u7701": 2714,
  "\u8449": 2715,
  "\u2581young": 2716,
  "multi": 2717,
  "\u30d5\u30a1\u30f3": 2718,
  "\u591a\u304f": 2719,
  "\u5f37": 2720,
  "ding": 2721,
  "announced": 2722,
  "\u2581often": 2723,
  "\u2581left": 2724,
  "Group": 2725,
  "\u5727": 2726,
  "\u661f": 2727,
  "\u30ec\u30a4": 2728,
  "\u5316\u5b66": 2729,
  "\u6700\u9069\u5316": 2730,
  "\u6c0f\u304c": 2731,
  "\u30c8\u30c3\u30d7": 2732,
  "\u2581offer": 2733,
  "\u30b3\u30f3\u30dd\u30fc\u30cd\u30f3\u30c8": 2734,
  "against": 2735,
  "~": 2736,
  "\u5927\u304d\u304f": 2737,
  "\u30aa\u30fc\u30d7\u30f3": 2738,
  "\u3069\u3093\u306a": 2739,
  "inter": 2740,
  "\u2581view": 2741,
  "\u7d50\u5408": 2742,
  "45": 2743,
  "ov": 2744,
  "\u65b9\u5411": 2745,
  "\u7403": 2746,
  "energy": 2747,
  "gar": 2748,
  "99": 2749,
  "doing": 2750,
  "Cloud": 2751,
  "\u4e00\u756a": 2752,
  "\u4ea4\u63db": 2753,
  "\u5f8c\u306e": 2754,
  "\u30d5\u30a3\u30fc\u30eb\u30c9": 2755,
  "\u2581range": 2756,
  "\u30ac\u30fc": 2757,
  "\u2581\u65e5\u672c": 2758,
  "minutes": 2759,
  "generation": 2760,
  "\u81ea\u5df1": 2761,
  "rt": 2762,
  "\u98df\u54c1": 2763,
  "cut": 2764,
  "\u30eb\u30fc": 2765,
  "yama": 2766,
  "\u306b\u3042\u308a\u307e\u3059": 2767,
  "please": 2768,
  "And": 2769,
  "\u5b9a\u7fa9": 2770,
  "\u8cea\u554f": 2771,
  "\u8840": 2772,
  "\u30b1\u30fc\u30b9": 2773,
  "given": 2774,
  "\u6c11": 2775,
  "\u2581built": 2776,
  "\u5ca9": 2777,
  "\u500d": 2778,
  "\u306b\u5bfe\u3057": 2779,
  "once": 2780,
  "specific": 2781,
  "\u30a4\u30ae\u30ea\u30b9": 2782,
  "\u5efa\u8a2d": 2783,
  "\u2581Na": 2784,
  "\u2581Ho": 2785,
  "\u2581easy": 2786,
  "\u3092\u53d6\u308a": 2787,
  "SP": 2788,
  "having": 2789,
  "eat": 2790,
  "\u2581website": 2791,
  "common": 2792,
  "CD": 2793,
  "ors": 2794,
  "\u2581later": 2795,
  "\u6587\u66f8": 2796,
  "check": 2797,
  "problem": 2798,
  "\u30b5\u30fc\u30d0\u30fc": 2799,
  "general": 2800,
  "big": 2801,
  "\u2581kind": 2802,
  "\u304a\u5ba2\u69d8\u306e": 2803,
  "\u2581field": 2804,
  "\u8fbc\u3080": 2805,
  "\u2581United": 2806,
  "que": 2807,
  "\u90e8\u9580": 2808,
  "\u3068\u3057\u3066\u306e": 2809,
  "\u4fdd\u5b58": 2810,
  "search": 2811,
  "inJapan": 2812,
  "\u2581short": 2813,
  "\u2581fact": 2814,
  "until": 2815,
  "TO": 2816,
  "actually": 2817,
  "\u2581Android": 2818,
  "\u4e0a\u306b": 2819,
  "\u5f71\u97ff": 2820,
  "\u8349": 2821,
  "\u610f": 2822,
  "\u6027\u306e": 2823,
  "think": 2824,
  "\u30d1\u30f3": 2825,
  "\u30ac\u30f3": 2826,
  "\u2581looking": 2827,
  "tr": 2828,
  "\u521d\u3081\u3066": 2829,
  "office": 2830,
  "\u6bb5\u968e": 2831,
  "\u2581Ra": 2832,
  "\u5909\u63db": 2833,
  "\u653f": 2834,
  "-1": 2835,
  "ven": 2836,
  "list": 2837,
  "press": 2838,
  "\u2581present": 2839,
  "\u6559": 2840,
  "child": 2841,
  "\u30b3\u30df\u30e5\u30cb\u30b1\u30fc\u30b7\u30e7\u30f3": 2842,
  "\u2581Sa": 2843,
  "ai": 2844,
  "mat": 2845,
  "shu": 2846,
  "\u2581American": 2847,
  "\u5f93": 2848,
  "\u2581industry": 2849,
  "\u9580": 2850,
  "\u3092\u884c\u3063\u305f": 2851,
  "\u907a\u4f1d\u5b50": 2852,
  "ong": 2853,
  "For": 2854,
  "sis": 2855,
  "\u3092\u63d0\u6848\u3059\u308b": 2856,
  "\u4fe1": 2857,
  "\u2581l": 2858,
  "\u2581function": 2859,
  "never": 2860,
  "\u2581minutes": 2861,
  "\u306e\u5f71\u97ff": 2862,
  "\u308c\u308b": 2863,
  "kn": 2864,
  "\u6cb9": 2865,
  "\u2018": 2866,
  "held": 2867,
  "ect": 2868,
  "fine": 2869,
  "\u9244\u9053": 2870,
  "\u30b3\u30f3\u30c8\u30ed\u30fc\u30eb": 2871,
  "\u3042\u306a\u305f\u306f": 2872,
  "\u958b\u50ac": 2873,
  "ora": 2874,
  "\u30de\u30b7\u30f3": 2875,
  "\u30c3\u30af\u30b9": 2876,
  "\u30d6\u30e9\u30a6\u30b6": 2877,
  "\u258116": 2878,
  "\u306e\u4f7f\u7528": 2879,
  "\u4f53\u9a13": 2880,
  "running": 2881,
  "\u2581child": 2882,
  "tri": 2883,
  "far": 2884,
  "\u4eca\u65e5": 2885,
  "give": 2886,
  "\u69cb\u7bc9": 2887,
  "\u53cb\u4eba": 2888,
  "\u8a8d\u8a3c": 2889,
  "\u30bf\u30f3": 2890,
  "account": 2891,
  "lin": 2892,
  "\u30b3\u30fc\u30b9": 2893,
  "\u2581white": 2894,
  "\u2581Cloud": 2895,
  "operation": 2896,
  "\u6e1b": 2897,
  "\u4eca\u5f8c": 2898,
  "\u3068\u601d\u3044\u307e\u3059": 2899,
  "\u30c1\u30e3": 2900,
  "\u2581center": 2901,
  "\u5fc5\u8981\u304c\u3042\u308a\u307e\u3059": 2902,
  "\u2581security": 2903,
  "sure": 2904,
  "special": 2905,
  "oneofthe": 2906,
  "\u690d\u7269": 2907,
  "\u2581size": 2908,
  "\u2581major": 2909,
  "\",": 2910,
  "\u3092\u4f7f\u3046": 2911,
  "\u7f8e": 2912,
  "\u6b21\u5143": 2913,
  "2017": 2914,
  "py": 2915,
  "\u80fd": 2916,
  "\u30b9\u30de\u30fc\u30c8\u30d5\u30a9\u30f3": 2917,
  "\u30d6\u30ed\u30c3\u30af": 2918,
  "online": 2919,
  "\u2581World": 2920,
  "\u6b74\u53f2": 2921,
  "\u30b8\u30e3": 2922,
  "\u9b5a": 2923,
  "ES": 2924,
  "\u8a08": 2925,
  "\u30a4\u30f3\u30b9\u30c8\u30fc\u30eb": 2926,
  "Ba": 2927,
  "\u3053\u3068\u3060": 2928,
  "\u6700\u5927\u306e": 2929,
  "\u2581Although": 2930,
  "ip": 2931,
  "\u2581etc": 2932,
  "\u258117": 2933,
  "current": 2934,
  "\u2581\u3042\u306a\u305f\u306e": 2935,
  "\u30de\u30eb\u30c1": 2936,
  "ier": 2937,
  "400": 2938,
  "\u30b9\u30bf": 2939,
  "\u2581front": 2940,
  "\u8fbc\u307f": 2941,
  "\u767a\u5c55": 2942,
  "display": 2943,
  "\u611f\u3058": 2944,
  "\u6d3b\u7528": 2945,
  "ev": 2946,
  "\u2581file": 2947,
  "\u2581Y": 2948,
  "\u2581San": 2949,
  "\u2581v": 2950,
  "mobile": 2951,
  "\u30e8\u30fc\u30ed\u30c3\u30d1": 2952,
  "natural": 2953,
  "self": 2954,
  "ica": 2955,
  "\u7d39\u4ecb": 2956,
  "\u30a2\u30a4": 2957,
  "\u2581Ca": 2958,
  "MO": 2959,
  "\u2581include": 2960,
  "spect": 2961,
  "\u4f5c\u6210": 2962,
  "born": 2963,
  "\u307b\u307c": 2964,
  "\u2581\u79c1": 2965,
  "related": 2966,
  "\u30cf\u30f3": 2967,
  "\u7ffb\u8a33": 2968,
  "fr": 2969,
  "\u96fb\u529b": 2970,
  "\u8a00": 2971,
  "\u4e16\u754c\u306e": 2972,
  "\u5f93\u696d\u54e1": 2973,
  "\u30a6\u30a7\u30d6": 2974,
  "\u56fd\u306e": 2975,
  "\u3055\u305b\u305f": 2976,
  "\u57fa": 2977,
  "\u65e5\u306e": 2978,
  "website": 2979,
  "\u7a0e": 2980,
  "NET": 2981,
  "done": 2982,
  "tools": 2983,
  "\u2581Also": 2984,
  "\u8abf\u6574": 2985,
  "\u76e3\u8996": 2986,
  "\u2581thing": 2987,
  "\u88fd\u54c1\u306e": 2988,
  "\u3081\u308b": 2989,
  "\u2581started": 2990,
  "English": 2991,
  "\u7d50\u5a5a": 2992,
  "\u4f8b\u3048\u3070": 2993,
  "\u8abf": 2994,
  "\u30ea\u30bd\u30fc\u30b9": 2995,
  "\u3063\u3066\u3044\u305f": 2996,
  "nce": 2997,
  "\u306f\u306a\u3044": 2998,
  "\u307e\u3057\u3087\u3046": 2999,
  "fire": 3000,
  "\u8005\u304c": 3001,
  "\u306f\u305d\u306e": 3002,
  "\u3069": 3003,
  "ING": 3004,
  "\u30e1\u30fc\u30c8\u30eb": 3005,
  "\u610f\u898b": 3006,
  "\u30d1\u30c3\u30b1\u30fc\u30b8": 3007,
  "\u9032": 3008,
  "Ha": 3009,
  "\u5c45": 3010,
  "effect": 3011,
  "ions": 3012,
  "\u30a8\u30eb": 3013,
  "\u2581current": 3014,
  "\u4fe1\u983c": 3015,
  "\u7de8\u96c6": 3016,
  "era": 3017,
  "media": 3018,
  "\u8ffd\u52a0": 3019,
  "\u307e\u305a": 3020,
  "stop": 3021,
  "pl": 3022,
  "\u5206\u6563": 3023,
  "\u2581music": 3024,
  "\u540c\u793e\u306e": 3025,
  "\u30b9\u30bf\u30fc\u30c8\u30a2\u30c3\u30d7": 3026,
  "\u8131": 3027,
  "\u306b\u3088\u308c\u3070": 3028,
  "taking": 3029,
  "\u5e74\u304b\u3089": 3030,
  "offer": 3031,
  "\u3092\u6301\u3063\u3066": 3032,
  "\u5168\u3066": 3033,
  "\u5185\u306b": 3034,
  "\u73fe": 3035,
  "hu": 3036,
  "ren": 3037,
  "\u30e1\u30bd\u30c3\u30c9": 3038,
  "\u308b\u3068": 3039,
  "thereare": 3040,
  "\u4e88\u7d04": 3041,
  "\u2581approach": 3042,
  "61": 3043,
  "\u2581multi": 3044,
  "\u2581along": 3045,
  "\u3092\u6301\u3061": 3046,
  "\u8868\u9762": 3047,
  "\u793a": 3048,
  "ER": 3049,
  "AWS": 3050,
  "\u2581improve": 3051,
  "\u2015": 3052,
  "\u30f4\u30a3": 3053,
  "says": 3054,
  "\u8aac": 3055,
  "eg": 3056,
  "2015": 3057,
  "Net": 3058,
  "Ge": 3059,
  "community": 3060,
  "seen": 3061,
  "dog": 3062,
  "\u2581far": 3063,
  "\u305f\u3061\u306f": 3064,
  "\u30ec\u30b9\u30c8\u30e9\u30f3": 3065,
  "RO": 3066,
  "\u6642\u306e": 3067,
  "TM": 3068,
  "\u3092\u884c\u3044": 3069,
  "iv": 3070,
  "\u30b5\u30f3\u30d7\u30eb": 3071,
  "China": 3072,
  "front": 3073,
  "\u81ea\u8eab\u306e": 3074,
  "mu": 3075,
  "\u2581position": 3076,
  "\u5efa\u7269": 3077,
  "\u5404\u7a2e": 3078,
  "action": 3079,
  "\u65ad": 3080,
  "changes": 3081,
  "\u518d\u751f": 3082,
  "\u2581University": 3083,
  "\u30d9\u30fc\u30b9": 3084,
  "devices": 3085,
  "\u5922": 3086,
  "\u63a1\u7528": 3087,
  "\u30e9\u30f3\u30c9": 3088,
  "\u4ed5\u69d8": 3089,
  "\u2581Di": 3090,
  "lay": 3091,
  "\u3052": 3092,
  "\u3055\u308c\u3066\u3044\u305f": 3093,
  "\u56e3": 3094,
  "\u30aa\u30fc": 3095,
  "\u306b\u3064\u3044\u3066\u306e": 3096,
  "\u2581outside": 3097,
  "\u6db2": 3098,
  "\u5236\u4f5c": 3099,
  "\u4e57": 3100,
  "ach": 3101,
  "access": 3102,
  "\u2581share": 3103,
  "\u2581provides": 3104,
  "\u2581mobile": 3105,
  "\u9054": 3106,
  "\u30ac\u30e9\u30b9": 3107,
  "wasa": 3108,
  "\u2581Tokyo": 3109,
  "\u2581\u6211\u3005\u306f": 3110,
  "\u4e00\u822c": 3111,
  "2016": 3112,
  "\u4e00\u7dd2\u306b": 3113,
  "move": 3114,
  "\u5217": 3115,
  "materials": 3116,
  "\u30d6\u30eb": 3117,
  "ld": 3118,
  "\u3092\u901a\u3057\u3066": 3119,
  "ofthis": 3120,
  "\u30d1\u30e9\u30e1\u30fc\u30bf": 3121,
  "\u2581phone": 3122,
  "ino": 3123,
  "\u3068\u304b": 3124,
  "DA": 3125,
  "mail": 3126,
  "\u82f1": 3127,
  "\u30b2": 3128,
  "camera": 3129,
  "\u3089\u306a\u3044": 3130,
  "\u3092\u6301\u3063\u3066\u3044\u308b": 3131,
  "ning": 3132,
  "\u30c1\u30fc\u30e0\u306f": 3133,
  "\u6bdb": 3134,
  "\u8a3a\u65ad": 3135,
  "\u2581computer": 3136,
  "\u56db": 3137,
  "station": 3138,
  "Na": 3139,
  "\u2581never": 3140,
  "\u5f93\u6765\u306e": 3141,
  "activities": 3142,
  "\u6a2a": 3143,
  "\u2581\u672c\u7a3f\u3067\u306f": 3144,
  "\u2581women": 3145,
  "short": 3146,
  "Open": 3147,
  "\u2581amount": 3148,
  "\u2581check": 3149,
  "core": 3150,
  "ara": 3151,
  "\u81ea\u7531": 3152,
  "culture": 3153,
  "\u2581says": 3154,
  "andother": 3155,
  "\u2581ad": 3156,
  "\u5224\u65ad": 3157,
  "\u30a8\u30ea\u30a2": 3158,
  "City": 3159,
  "further": 3160,
  "\u9ce5": 3161,
  "\u53ce\u96c6": 3162,
  "\u3068\u306a\u308a\u307e\u3059": 3163,
  "means": 3164,
  "\u3092\u4f7f\u7528\u3059\u308b": 3165,
  "Bo": 3166,
  "upto": 3167,
  "\u9023\u7d9a": 3168,
  "rat": 3169,
  "\u2581ex": 3170,
  "\u2581makes": 3171,
  "\u58f2": 3172,
  "\u305f\u3089": 3173,
  "\u2581talk": 3174,
  "\u767a\u751f": 3175,
  "\u8a13\u7df4": 3176,
  "\u601d\u3044": 3177,
  "\u6c0f\u306e": 3178,
  "\u30b0\u30ed\u30fc\u30d0\u30eb": 3179,
  "\u8a18\u8ff0": 3180,
  "cap": 3181,
  "\u4f01\u696d\u306e": 3182,
  "\u8f38\u9001": 3183,
  "PA": 3184,
  "global": 3185,
  "ep": 3186,
  "\u4e2d\u592e": 3187,
  "\u9928": 3188,
  "\u3069\u306e\u3088\u3046\u306b": 3189,
  "brand": 3190,
  "\u2581needs": 3191,
  "\u53d6\u5f97": 3192,
  "\u30d5\u30ea\u30fc": 3193,
  "\u2581energy": 3194,
  "known": 3195,
  "\u9006": 3196,
  "\u30dc\u30c3\u30af\u30b9": 3197,
  "One": 3198,
  "\u88cf": 3199,
  "\u7b54\u3048": 3200,
  "\u30ab\u30f3": 3201,
  "\u4e73": 3202,
  "card": 3203,
  "aboutthe": 3204,
  "oh": 3205,
  "\u6700\u65b0\u306e": 3206,
  "rn": 3207,
  "social": 3208,
  "\u3068\u3057\u305f": 3209,
  "\u3057\u3066\u304a\u308a\u307e\u3059": 3210,
  "\u6a5f\u69cb": 3211,
  "Ka": 3212,
  "\u697d": 3213,
  "\u3044\u307e\u3057\u305f": 3214,
  "froma": 3215,
  "inthis": 3216,
  "\u51fa\u3057": 3217,
  "MI": 3218,
  "\u5b8c\u5168\u306b": 3219,
  "\u2581move": 3220,
  "\u6700\u521d\u306b": 3221,
  "oe": 3222,
  "Ca": 3223,
  "\u4fdd\u8a3c": 3224,
  "throughthe": 3225,
  "\u53c8\u306f": 3226,
  "\u4e8b\u4ef6": 3227,
  "\u2581developers": 3228,
  "processing": 3229,
  "LED": 3230,
  "\u2581sub": 3231,
  "\u52b9\u7387": 3232,
  "\u30d9\u30c3\u30c9": 3233,
  "\u2581black": 3234,
  "equipment": 3235,
  "\u3092\u5f97\u308b": 3236,
  "Th": 3237,
  "\u53d6": 3238,
  "\u624b\u6bb5": 3239,
  "party": 3240,
  "\u2581develop": 3241,
  "\u751f\u307e\u308c": 3242,
  "\u2581came": 3243,
  "customer": 3244,
  "lan": 3245,
  "drive": 3246,
  "\u30b7\u30e3": 3247,
  "step": 3248,
  "\u97f3\u58f0": 3249,
  "\u30dc\u30fc\u30eb": 3250,
  "themost": 3251,
  "ification": 3252,
  "above": 3253,
  "\u5f3e": 3254,
  "\u306b\u95a2\u3059\u308b\u7814\u7a76": 3255,
  "\u5229": 3256,
  "\u2581class": 3257,
  "center": 3258,
  "country": 3259,
  "\u4e0a\u3052": 3260,
  "\u2581third": 3261,
  "\u5e83": 3262,
  "\u98df\u4e8b": 3263,
  "\u2581contact": 3264,
  "\u5897": 3265,
  "\u2581=": 3266,
  "\u81ea\u5206": 3267,
  "\u2581according": 3268,
  "won": 3269,
  ")\u300d": 3270,
  "\u2581book": 3271,
  "Ne": 3272,
  "\u5f7c\u3089\u306e": 3273,
  "yl": 3274,
  "\u2581material": 3275,
  "fully": 3276,
  "sat": 3277,
  "developed": 3278,
  "location": 3279,
  "TA": 3280,
  "ground": 3281,
  "\u2581customer": 3282,
  "inJapanese": 3283,
  "didn": 3284,
  "za": 3285,
  "World": 3286,
  "\u304b\u3063\u305f": 3287,
  "\u3057\u304b\u3057": 3288,
  "stone": 3289,
  "\u30d1\u30b9": 3290,
  "\u5e83\u304f": 3291,
  "\u4ed6": 3292,
  "\u5fc5\u8981\u304c\u3042\u308b": 3293,
  "\u7d20\u6750": 3294,
  "mar": 3295,
  "\u79c1\u304c": 3296,
  "\u2581general": 3297,
  "\u2581surface": 3298,
  "gas": 3299,
  "going": 3300,
  "tomake": 3301,
  "\u6599\u91d1": 3302,
  "\u258130": 3303,
  "half": 3304,
  "\u2581actually": 3305,
  "sound": 3306,
  "\u2581money": 3307,
  "\u6e29": 3308,
  "pp": 3309,
  "\u30d0\u30f3": 3310,
  "approach": 3311,
  "\u9069\u7528": 3312,
  "\u30b5\u30fc\u30d3\u30b9\u306e": 3313,
  "\u4ef6": 3314,
  "\u306e\u7814\u7a76": 3315,
  "\u7406\u8ad6": 3316,
  "\u30cd\u30c3\u30c8": 3317,
  "\u30e2\u30fc\u30c9": 3318,
  "rin": 3319,
  "\u306e\u4e00\u3064": 3320,
  "\u2581War": 3321,
  "\u2581search": 3322,
  "\u63a8\u5b9a": 3323,
  "\u7a2e\u985e\u306e": 3324,
  "full": 3325,
  "\u8cbb": 3326,
  "within": 3327,
  "\u306e\u4e2d\u306b": 3328,
  "\u901f": 3329,
  "\u7acb\u3061": 3330,
  "growth": 3331,
  "\u843d": 3332,
  "\u2581\u5f7c\u306e": 3333,
  "\u2581Data": 3334,
  "ei": 3335,
  "\u3068\u306a\u3063\u3066\u3044\u308b": 3336,
  "month": 3337,
  "\u2581again": 3338,
  "\u7d30": 3339,
  "ile": 3340,
  "\u30d9\u30eb": 3341,
  "script": 3342,
  "\u8907\u96d1\u306a": 3343,
  "\u904b\u55b6": 3344,
  "\u2581--": 3345,
  "sign": 3346,
  "\u5e2b": 3347,
  "lar": 3348,
  "\u6d3e": 3349,
  "\u5916\u90e8": 3350,
  "\u610f\u8b58": 3351,
  "track": 3352,
  "\u30de\u30eb": 3353,
  "main": 3354,
  "\u5f62\u6210": 3355,
  "\u7406": 3356,
  "\u2581love": 3357,
  "\u9053\u8def": 3358,
  "\u96ea": 3359,
  "\u305d\u308c\u305e\u308c\u306e": 3360,
  "\u2581via": 3361,
  "May": 3362,
  "\u2581Wi": 3363,
  "\u3068\u3057\u3066\u3082": 3364,
  "ST": 3365,
  "\u30c6\u30f3": 3366,
  "\u308a\u307e\u3059": 3367,
  "\u2581simple": 3368,
  "\u306e\u4e21\u65b9": 3369,
  "path": 3370,
  "\u2581plan": 3371,
  "\u30d0\u30a4": 3372,
  "Ta": 3373,
  "\u30d3\u30e5\u30fc": 3374,
  "\u5171\u540c": 3375,
  "JavaScript": 3376,
  "\u2581x": 3377,
  "\u8a31\u53ef": 3378,
  "unit": 3379,
  "induced": 3380,
  "\u2581Po": 3381,
  "pu": 3382,
  "five": 3383,
  "\u7a7a\u6c17": 3384,
  "\u5f53\u793e\u306e": 3385,
  "\u5206\u96e2": 3386,
  "\u305a\u3063\u3068": 3387,
  "Ro": 3388,
  "\u30cf\u30fc": 3389,
  "\u3053\u308c\u307e\u3067": 3390,
  "afew": 3391,
  "international": 3392,
  "woman": 3393,
  "\u30c8\u30e9\u30c3\u30af": 3394,
  "\u540d\u524d": 3395,
  "\u756a": 3396,
  "\u8996": 3397,
  "\u5175": 3398,
  "\u2581\u5f53\u793e\u306f": 3399,
  "ago": 3400,
  "Data": 3401,
  "\u2581Then": 3402,
  "EN": 3403,
  "models": 3404,
  "\u516c\u5f0f": 3405,
  "active": 3406,
  "\u2581uf": 3407,
  "\u6700\u8fd1": 3408,
  "individual": 3409,
  "\u5f15\u304d": 3410,
  "\u53e4\u3044": 3411,
  "gg": 3412,
  "mean": 3413,
  "\u30012": 3414,
  "want": 3415,
  "ace": 3416,
  "\u5c11\u306a\u304f\u3068\u3082": 3417,
  "\u52d5\u304d": 3418,
  "\u2581display": 3419,
  "anti": 3420,
  "\u2581\u79c1\u304c": 3421,
  "\u671b": 3422,
  "\u3089\u308c\u3066\u3044\u308b": 3423,
  "\u30f3\u30b0": 3424,
  "\u306e\u5834\u5408": 3425,
  "object": 3426,
  "\u2581given": 3427,
  "duringthe": 3428,
  "International": 3429,
  "\u2581changes": 3430,
  "multiple": 3431,
  "\u305d\u3046\u3067\u3059": 3432,
  "ray": 3433,
  "\u7b4b": 3434,
  "\u30e1\u30e2\u30ea": 3435,
  "\u9032\u5316": 3436,
  "</": 3437,
  "\u6cd5\u5f8b": 3438,
  "\u76f8\u624b": 3439,
  "\u30c7\u30fc\u30bf\u306e": 3440,
  "\u2581Mar": 3441,
  "\u3088\u3046\u306b\u306a\u3063\u305f": 3442,
  "\u5104\u30c9\u30eb": 3443,
  "future": 3444,
  "\u30c1\u30a7\u30c3\u30af": 3445,
  "\u2581learn": 3446,
  "\u4ee5\u964d": 3447,
  "\u2581doing": 3448,
  "\u2581High": 3449,
  "treatment": 3450,
  "inan": 3451,
  "\u4e16\u7d00": 3452,
  "lip": 3453,
  "\u3068\u3057\u3066\u306f": 3454,
  "\u258111": 3455,
  "\u2581increase": 3456,
  "hewas": 3457,
  "\u597d": 3458,
  "\u6575": 3459,
  "\u8a66": 3460,
  "\u2581Youcan": 3461,
  "\u2581announced": 3462,
  "\u2581less": 3463,
  "\u901a\u77e5": 3464,
  "\u6bce\u65e5": 3465,
  "\u2581Pa": 3466,
  "ky": 3467,
  "\u7247": 3468,
  "tek": 3469,
  "\u30b9\u30c6\u30c3\u30d7": 3470,
  "came": 3471,
  "\u6d88\u8cbb\u8005": 3472,
  "ron": 3473,
  "organization": 3474,
  "countries": 3475,
  "res": 3476,
  "DE": 3477,
  "\u3055\u308c\u3066\u3044\u306a\u3044": 3478,
  "report": 3479,
  "ear": 3480,
  "\u3066\u304f\u3060\u3055\u3044": 3481,
  "effective": 3482,
  "boy": 3483,
  "\u2581Here": 3484,
  "cy": 3485,
  "across": 3486,
  "cl": 3487,
  "job": 3488,
  "\u30eb\u30fc\u30eb": 3489,
  "\u30b3\u30f3\u30d4\u30e5\u30fc\u30bf\u30fc": 3490,
  "provides": 3491,
  "\u3082\u306e\u3067\u3042\u308b": 3492,
  "\u2581Many": 3493,
  "\u30bf\u30a4\u30e0": 3494,
  "tor": 3495,
  "amp": 3496,
  "\u7d75": 3497,
  "\u2581Su": 3498,
  "Si": 3499,
  "At": 3500,
  "property": 3501,
  "street": 3502,
  "\u4efb": 3503,
  "\u2581devices": 3504,
  "hasa": 3505,
  "\u4fdd": 3506,
  "\u754c": 3507,
  "\u5f7c\u3089\u306f": 3508,
  "\u8ef8": 3509,
  "ways": 3510,
  "\u682a": 3511,
  "displaystyle": 3512,
  "getting": 3513,
  "wehave": 3514,
  "VR": 3515,
  "\u65e5\u672c\u8a9e": 3516,
  "\u306b\u3059\u308b": 3517,
  "\u30cb\u30e5\u30fc": 3518,
  "\u51b7": 3519,
  "second": 3520,
  "\u4e8b\u6545": 3521,
  "\u306b\u306a\u3063\u3066\u3044\u308b": 3522,
  "\u65b9\u6cd5\u3067": 3523,
  "\u2581list": 3524,
  "young": 3525,
  "\u30cb\u30a2": 3526,
  "asan": 3527,
  "\u2581times": 3528,
  "scan": 3529,
  "ON": 3530,
  "history": 3531,
  "\u2581\u3042\u306a\u305f\u304c": 3532,
  "LE": 3533,
  "\u2581price": 3534,
  "\u91cd\u8981": 3535,
  "\u4fee\u6b63": 3536,
  "\u9996": 3537,
  "\u3056": 3538,
  "\u5973\u306e\u5b50": 3539,
  "\u306e\u9593\u306b": 3540,
  "thought": 3541,
  "\u9031\u9593": 3542,
  "Se": 3543,
  "row": 3544,
  "\u2581En": 3545,
  "\u5bc6": 3546,
  "En": 3547,
  "DC": 3548,
  "\u2581account": 3549,
  "\u3057\u3066\u304d\u305f": 3550,
  "heart": 3551,
  "took": 3552,
  "\u30e2\u30f3": 3553,
  "Service": 3554,
  "\u5730\u65b9": 3555,
  "hours": 3556,
  "\u6559\u4f1a": 3557,
  "\u4ea4\u901a": 3558,
  "\u2581models": 3559,
  "wood": 3560,
  "\u3092\u63d0\u4f9b\u3057\u307e\u3059": 3561,
  "temperature": 3562,
  "server": 3563,
  "CA": 3564,
  "\u2581\u73fe\u5728": 3565,
  "\u2581English": 3566,
  "popular": 3567,
  "hotel": 3568,
  "\u541b": 3569,
  "\u2581Mi": 3570,
  "As": 3571,
  "\u2581training": 3572,
  "\u4eac\u90fd": 3573,
  "\u5bfe\u7b56": 3574,
  "\u2581standard": 3575,
  "pur": 3576,
  "\u2581wi": 3577,
  "\u884c\u304d": 3578,
  "ama": 3579,
  "toget": 3580,
  "2000": 3581,
  "\u2581May": 3582,
  "\u756a\u53f7": 3583,
  "\u30b9\u30bf\u30a4\u30eb": 3584,
  "alotof": 3585,
  "\u3092\u6709\u3059\u308b": 3586,
  "Di": 3587,
  "\u9803": 3588,
  "ew": 3589,
  "\u5206\u5e03": 3590,
  "demand": 3591,
  "\u30db\u30fc\u30e0": 3592,
  "\u306a\u3051\u308c\u3070\u306a\u3089\u306a\u3044": 3593,
  "Ga": 3594,
  "\u30e6\u30fc\u30b6\u30fc\u304c": 3595,
  "result": 3596,
  "\u2581tell": 3597,
  "\u9752": 3598,
  "\u5b9f\u73fe": 3599,
  "\u2581five": 3600,
  "\u5104": 3601,
  "\u66f8\u304d": 3602,
  "\u72ec\u7acb": 3603,
  "professional": 3604,
  "II": 3605,
  "\u2581developed": 3606,
  "ix": 3607,
  "east": 3608,
  "\u2581held": 3609,
  "bya": 3610,
  "\u7cbe": 3611,
  "\u2581works": 3612,
  "\u2581among": 3613,
  "\u2581past": 3614,
  "uses": 3615,
  "cha": 3616,
  "\u30ed\u30b7\u30a2": 3617,
  "\u2581Li": 3618,
  "Ruby": 3619,
  "\u2581similar": 3620,
  "\u2581global": 3621,
  "\u2581boy": 3622,
  "AN": 3623,
  "\u8ee2": 3624,
  "\u898f\u5236": 3625,
  "\u3059\u3079\u304d": 3626,
  "\u2581tools": 3627,
  "\u5973\u6027\u304c": 3628,
  "ast": 3629,
  "makes": 3630,
  "\u9818": 3631,
  "\u2581Hi": 3632,
  "...\u3002": 3633,
  "\u30cf\u30fc\u30c9\u30a6\u30a7\u30a2": 3634,
  "\u79d2": 3635,
  "Ho": 3636,
  "\u6e56": 3637,
  "\u3042\u306a\u305f": 3638,
  "ade": 3639,
  "\u9020": 3640,
  "iz": 3641,
  "must": 3642,
  "\u515a": 3643,
  "safe": 3644,
  "lower": 3645,
  "\u2581health": 3646,
  "\u82b8\u8853": 3647,
  "\u2581drive": 3648,
  "\u9023": 3649,
  "\u5927\u7d71\u9818": 3650,
  "Tokyo": 3651,
  "\u5897\u52a0": 3652,
  "idea": 3653,
  "\u2581girl": 3654,
  "\u2581Ifyou": 3655,
  "major": 3656,
  "\u904e\u53bb": 3657,
  "\u4e3b\u7fa9": 3658,
  "\u2581\u305d\u3053\u3067": 3659,
  "\u5e74\u4ee3": 3660,
  "\u2581online": 3661,
  "\u56de\u8ee2": 3662,
  "standing": 3663,
  "\u2581created": 3664,
  "\u30c1\u30f3": 3665,
  "\u2581Service": 3666,
  "does": 3667,
  "\u306a\u3093\u3066": 3668,
  "\u7d42\u4e86": 3669,
  "\u2581office": 3670,
  "\u30e9\u30a4\u30bb\u30f3\u30b9": 3671,
  "\u5e73\u5747": 3672,
  "\u2581house": 3673,
  "\u2581thought": 3674,
  "park": 3675,
  "link": 3676,
  "walk": 3677,
  "\u2581further": 3678,
  "ug": 3679,
  "\u9069": 3680,
  "Hi": 3681,
  "\u7c73\u56fd\u6642\u9593": 3682,
  "mal": 3683,
  "\u30a2\u30fc\u30c8": 3684,
  "\u96e3\u3057\u3044": 3685,
  "\u5236\u5ea6": 3686,
  "Ltd": 3687,
  "little": 3688,
  "\u2581popular": 3689,
  "\u2581Man": 3690,
  "\u2581\u7b2c": 3691,
  "section": 3692,
  "\u306e\u4e2d": 3693,
  "xi": 3694,
  "aid": 3695,
  "sales": 3696,
  "\u4e00\u822c\u7684\u306a": 3697,
  "domain": 3698,
  "\u2581offers": 3699,
  "\u2581countries": 3700,
  "tan": 3701,
  "\u653f\u7b56": 3702,
  "\u2581Twitter": 3703,
  "\u2581common": 3704,
  "\u2581running": 3705,
  "NO": 3706,
  "needs": 3707,
  "plant": 3708,
  "hair": 3709,
  "\u304a\u5ba2\u69d8": 3710,
  "GA": 3711,
  "van": 3712,
  "HA": 3713,
  "\u2581Is": 3714,
  "\u643a\u5e2f\u96fb\u8a71": 3715,
  "nu": 3716,
  "\u2581playing": 3717,
  "created": 3718,
  "\u2581provided": 3719,
  "\u6620\u50cf": 3720,
  "\u2581People": 3721,
  "zu": 3722,
  "ery": 3723,
  "\u4eba\u9593\u306e": 3724,
  "\u2581took": 3725,
  "\u306e\u9593": 3726,
  "\u4eba\u3005": 3727,
  "\u2581Because": 3728,
  "\u2581structure": 3729,
  "\u2581doesn": 3730,
  "fast": 3731,
  "testing": 3732,
  "\u3068\u601d\u3046": 3733,
  "complete": 3734,
  "\u2581Open": 3735,
  "\u30b6\u30fc": 3736,
  "\u2581red": 3737,
  "\u30b8\u30e5": 3738,
  "ban": 3739,
  "\u3053\u3068\u3082": 3740,
  "\u2581allows": 3741,
  "\u2581art": 3742,
  "keep": 3743,
  "\u2581cloud": 3744,
  "\u2581bar": 3745,
  "hold": 3746,
  "\u3057\u306a\u304c\u3089": 3747,
  "des": 3748,
  "\u65cf": 3749,
  "\u2581States": 3750,
  "\u2581materials": 3751,
  "2018": 3752,
  "\u4ee5\u6765": 3753,
  "\u2581film": 3754,
  "enjoy": 3755,
  "\u30a2\u30c3\u30d7\u30c7\u30fc\u30c8": 3756,
  "doesn": 3757,
  "\u5354\u4f1a": 3758,
  "\u7279\u5225\u306a": 3759,
  "\u58eb": 3760,
  "\u670d": 3761,
  "\u2581page": 3762,
  "\u300d(": 3763,
  "\u2581role": 3764,
  "\u3060\u304b\u3089": 3765,
  "\u2581\u3042\u306e": 3766,
  "clear": 3767,
  "\u2581close": 3768,
  "\u5f62\u72b6": 3769,
  "64": 3770,
  "\u2581night": 3771,
  "You": 3772,
  "Spring": 3773,
  "\u5c0e\u5165": 3774,
  "\u2581understand": 3775,
  "existing": 3776,
  "\u611f\u67d3": 3777,
  "\u30af\u30e9\u30d6": 3778,
  "health": 3779,
  "\u2581hotel": 3780,
  "todo": 3781,
  "\u8eca\u4e21": 3782,
  "\u767a\u58f2": 3783,
  "\u2581\u305f\u3060\u3057": 3784,
  "\u8853": 3785,
  "\u6e96\u5099": 3786,
  "dic": 3787,
  "thenew": 3788,
  "CI": 3789,
  "\u2581care": 3790,
  "\u3046\u307e\u304f": 3791,
  "\u7559": 3792,
  "\u2581natural": 3793,
  "course": 3794,
  "\u2581turn": 3795,
  "\u30dd\u30ea": 3796,
  "\u7cbe\u795e": 3797,
  "\u30dd\u30fc\u30c8": 3798,
  "andthen": 3799,
  "\u30b3\u30fc\u30d2\u30fc": 3800,
  "wide": 3801,
  "ita": 3802,
  "ask": 3803,
  "\u30bd\u30fc\u30b9": 3804,
  "ey": 3805,
  "\u4f55\u3082": 3806,
  "\u306e\u4e0a": 3807,
  "\u6d88": 3808,
  "\u5206\u5b50": 3809,
  "tle": 3810,
  "\u30e1\u30cb\u30e5\u30fc": 3811,
  "\u2581community": 3812,
  "\u305b\u308b": 3813,
  "\u30b9\u30bf\u30c3\u30d5": 3814,
  "\u3068\u3044\u3046\u3053\u3068": 3815,
  "\u2581wa": 3816,
  "\u6e80\u8db3": 3817,
  "bus": 3818,
  "\u2581York": 3819,
  "\u2581Studio": 3820,
  "tain": 3821,
  "fall": 3822,
  "\u2581near": 3823,
  "\u3058\u3083": 3824,
  "\u7a7a\u6e2f": 3825,
  "\u304b\u306a\u308a": 3826,
  "directly": 3827,
  "\u7b2c\u4e00": 3828,
  "\u4e00\u4eba": 3829,
  "Ar": 3830,
  "\u30aa\u30d5\u30a3\u30b9": 3831,
  "\u6b66": 3832,
  "thebest": 3833,
  "01": 3834,
  "\u764c": 3835,
  "\u30b3\u30fc": 3836,
  "pay": 3837,
  "2012": 3838,
  "\u2581didn": 3839,
  "hy": 3840,
  "\u2581Thereare": 3841,
  "\u6bba": 3842,
  "\u2581international": 3843,
  "\u2581screen": 3844,
  "\u2581once": 3845,
  "\u3092\u53d7\u3051\u305f": 3846,
  "\u3088\u3046\u3060": 3847,
  "\u2581Air": 3848,
  "force": 3849,
  "\u5bb6\u306e": 3850,
  "ML": 3851,
  "\u3092\u4e0e\u3048\u308b": 3852,
  "\u9632": 3853,
  "uc": 3854,
  "\u3059\u308b\u3053\u3068\u306f": 3855,
  "\u307e\u3067\u306e": 3856,
  "\u65c5": 3857,
  "next": 3858,
  "\u25812017": 3859,
  "\u305d\u306e\u4ed6": 3860,
  "\u524d\u306e": 3861,
  "\u6700\u5f8c\u306e": 3862,
  "War": 3863,
  "\u53cb\u9054": 3864,
  "2014": 3865,
  "\u2581designed": 3866,
  "\u2581Information": 3867,
  "region": 3868,
  "\u2581com": 3869,
  "\u2581pay": 3870,
  "\u524a\u9664": 3871,
  "\u30b0\u30eb": 3872,
  "story": 3873,
  "\u30b8\u30f3": 3874,
  "\u2581bring": 3875,
  "graph": 3876,
  "\u2581bit": 3877,
  "\u30c6\u30fc\u30de": 3878,
  "\u7d50": 3879,
  "airport": 3880,
  "sight": 3881,
  "uff": 3882,
  "\u2581Car": 3883,
  "\u2581base": 3884,
  "taken": 3885,
  "\u914d": 3886,
  "cur": 3887,
  "\u3042\u307e\u308a": 3888,
  "\u6307": 3889,
  "\u2581located": 3890,
  "\u2581won": 3891,
  "\u5f7c\u5973\u306e": 3892,
  "\u4ea4": 3893,
  "\u2581required": 3894,
  "\u2581wide": 3895,
  "ung": 3896,
  "sha": 3897,
  "\u30b3\u30e1\u30f3\u30c8": 3898,
  "\u4eba\u53e3": 3899,
  "\u30d0\u30f3\u30c9": 3900,
  "\u2581Un": 3901,
  "\u306a\u306e\u3067": 3902,
  "\u56fa\u5b9a": 3903,
  "easy": 3904,
  "fish": 3905,
  "ken": 3906,
  "\u53d7": 3907,
  "\u4e2d\u56fd\u306e": 3908,
  "\u2581equipment": 3909,
  "transfer": 3910,
  "\u2581\u3064\u307e\u308a": 3911,
  "\u4f55\u3092": 3912,
  "ther": 3913,
  "Time": 3914,
  "Dr": 3915,
  "\u3067\u3057\u3087\u3046\u304b": 3916,
  "\u30d1\u30cd\u30eb": 3917,
  "\u30d7\u30ec\u30a4": 3918,
  "outof": 3919,
  "ned": 3920,
  "simple": 3921,
  "\u4e3b\u306b": 3922,
  "AM": 3923,
  "\u3092\u3057\u3066\u3044\u308b": 3924,
  "\u2581series": 3925,
  "doesnot": 3926,
  "1000": 3927,
  "\u4e94": 3928,
  "train": 3929,
  "\u3092\u5099\u3048\u305f": 3930,
  "\u6625": 3931,
  "\u2581yet": 3932,
  "\u2581specific": 3933,
  "\u2581100": 3934,
  "though": 3935,
  "\u53ef\u80fd\u6027\u304c\u3042\u308b": 3936,
  "risk": 3937,
  "lt": 3938,
  "\u5730\u533a": 3939,
  "AD": 3940,
  "ified": 3941,
  "problems": 3942,
  "150": 3943,
  "\u3092\u6301\u3063\u3066\u3044\u307e\u3059": 3944,
  "sy": 3945,
  "\u826f": 3946,
  "\u2581effect": 3947,
  "\u652f\u914d": 3948,
  "\u2581Vi": 3949,
  "added": 3950,
  "lf": 3951,
  "\u30cb\u30e5\u30fc\u30e8\u30fc\u30af": 3952,
  "Ra": 3953,
  "\u2581least": 3954,
  "Su": 3955,
  "\u2581private": 3956,
  "ens": 3957,
  "\u2581done": 3958,
  "\u2581color": 3959,
  "\u2581read": 3960,
  "\u2581\u5973\u6027\u306f": 3961,
  "\u2581activities": 3962,
  "\u5efa\u7bc9": 3963,
  "\u65e9\u304f": 3964,
  "necessary": 3965,
  "\u2581camera": 3966,
  "\u73fe\u5b9f": 3967,
  "\u56fd\u5bb6": 3968,
  "\u5de5": 3969,
  "\u2581tool": 3970,
  "Te": 3971,
  "\u793e\u54e1": 3972,
  "\u4e0a\u6607": 3973,
  "isalso": 3974,
  "\u2581report": 3975,
  "\u9078": 3976,
  "direct": 3977,
  "\u8ddd\u96e2": 3978,
  "\u4e38": 3979,
  "\u2581Th": 3980,
  "qu": 3981,
  "\u2581necessary": 3982,
  "especially": 3983,
  "\u201d.": 3984,
  "\u6210\u5206": 3985,
  "\u2581mo": 3986,
  "might": 3987,
  "\u2581Or": 3988,
  "\u3059\u308b\u3053\u3068\u3092": 3989,
  "\u8056": 3990,
  "\u30b3\u30f3\u30c6\u30ca": 3991,
  "\u2581address": 3992,
  "win": 3993,
  "methods": 3994,
  "\u3082\u3057\u304f\u306f": 3995,
  "\u30d7\u30fc\u30eb": 3996,
  "2013": 3997,
  "\u75c5\u9662": 3998,
  "\u8cb7\u53ce": 3999,
  "\u52dd": 4000,
  "Po": 4001,
  "\u5e2f": 4002,
  "\u3068\u4e00\u7dd2\u306b": 4003,
  "istic": 4004,
  "wo": 4005,
  "\u2581analysis": 4006,
  "\u30b3\u30a2": 4007,
  "\u2581speed": 4008,
  "\u76ae": 4009,
  "ient": 4010,
  "sta": 4011,
  "rain": 4012,
  "\u2581First": 4013,
  "hot": 4014,
  "\u2581Company": 4015,
  "Lo": 4016,
  "\u2581week": 4017,
  "EU": 4018,
  "\u2581enjoy": 4019,
  "official": 4020,
  "\u3092\u304a": 4021,
  "oma": 4022,
  "\u2581multiple": 4023,
  "\u4ed5": 4024,
  "\u8cc7\u6e90": 4025,
  "\u5931": 4026,
  "yet": 4027,
  "\u30af\u30b9": 4028,
  "2010": 4029,
  "\u7834\u58ca": 4030,
  "\u2581original": 4031,
  "rm": 4032,
  "blue": 4033,
  "YouTube": 4034,
  "\u3092\u53d7\u3051\u308b": 4035,
  "\u5de5\u696d": 4036,
  "\u2581Ex": 4037,
  "\u5c06\u6765": 4038,
  "\u4e88\u60f3": 4039,
  "\u5207\u308a": 4040,
  "\u30e1\u30f3\u30d0\u30fc": 4041,
  "uck": 4042,
  "\u3064\u304f": 4043,
  "students": 4044,
  "address": 4045,
  "eo": 4046,
  "\u2581above": 4047,
  "\u7d44": 4048,
  "\u30ea\u30fc\u30c0\u30fc": 4049,
  "\u30e1\u30f3": 4050,
  "\u304c\u5fc5\u8981\u3067\u3059": 4051,
  "\u304b\u3089\u3067\u3059": 4052,
  "\u5207": 4053,
  "DB": 4054,
  "\u8aad": 4055,
  "green": 4056,
  "\u9152": 4057,
  "traditional": 4058,
  "\u5e8a": 4059,
  "intoa": 4060,
  "bl": 4061,
  "\u30b7\u30e7\u30fc": 4062,
  "\u2581Let": 4063,
  "\u3042\u308a\u307e\u305b\u3093": 4064,
  "theworld": 4065,
  "cm": 4066,
  "went": 4067,
  "\u81ea\u8ee2\u8eca": 4068,
  "\u6211\u3005\u306f": 4069,
  "Un": 4070,
  "\u2581taking": 4071,
  "\u30b5\u30d6": 4072,
  "ofour": 4073,
  "\u2581whole": 4074,
  "\u6307\u5b9a": 4075,
  "\u2581Even": 4076,
  "\u304b\u3082\u3057\u308c\u307e\u305b\u3093": 4077,
  "dr": 4078,
  "\u307e\u308a": 4079,
  "\u6bd4": 4080,
  "\u2581Using": 4081,
  "modern": 4082,
  "\u2581ca": 4083,
  "\u2581meet": 4084,
  "\u6709\u52b9": 4085,
  "\u5f01": 4086,
  "\u5e45": 4087,
  "ped": 4088,
  "DI": 4089,
  "\u2581war": 4090,
  "sit": 4091,
  "load": 4092,
  "rich": 4093,
  "\u2581sure": 4094,
  "\u30a6\u30a4\u30eb\u30b9": 4095,
  "\u4ee3\u8868": 4096,
  "itself": 4097,
  "\u30ed\u30fc\u30c9": 4098,
  "contact": 4099,
  "\u2581System": 4100,
  "\u539f\u56e0": 4101,
  "\u30c9\u30a2": 4102,
  "ory": 4103,
  "close": 4104,
  "\u9000": 4105,
  "\u4eba\u7269": 4106,
  "\u3092\u5229\u7528\u3059\u308b": 4107,
  "issue": 4108,
  "\u30d6\u30e9": 4109,
  "\u76e3\u7763": 4110,
  "\u2581believe": 4111,
  "\u7537\u304c": 4112,
  "\u6b63\u3057\u3044": 4113,
  "leading": 4114,
  "\u306e\u3046\u3061": 4115,
  "aim": 4116,
  "\u5f15": 4117,
  "thisis": 4118,
  "role": 4119,
  "2008": 4120,
  "\u8a73\u7d30": 4121,
  "reason": 4122,
  "\u96e3": 4123,
  "ii": 4124,
  "\u7bc4\u56f2": 4125,
  "\u304b\u306a": 4126,
  "along": 4127,
  "\u5e2d": 4128,
  "inorderto": 4129,
  "\u3044\u3064": 4130,
  "75": 4131,
  "includes": 4132,
  "\u30cc": 4133,
  "\u3053\u308c\u3092": 4134,
  "\u627f\u8a8d": 4135,
  "\u2581ha": 4136,
  "provided": 4137,
  "\u4ed5\u4e8b\u3092": 4138,
  "allow": 4139,
  "\u3067\u304d\u305f": 4140,
  "\u96e8": 4141,
  "click": 4142,
  "\u2581Ga": 4143,
  "\u5f53\u6642": 4144,
  "either": 4145,
  "\u2581walk": 4146,
  "heat": 4147,
  "required": 4148,
  "\u6483": 4149,
  "\u30b7\u30fc\u30c8": 4150,
  "bound": 4151,
  "\u5c55\u793a": 4152,
  "micro": 4153,
  "follow": 4154,
  "angle": 4155,
  "\u306a\u306e\u3067\u3059": 4156,
  "tea": 4157,
  "donot": 4158,
  "\u56fd\u5185": 4159,
  "\u5206\u3067\u3059": 4160,
  "\u3055\u308c\u3066\u304a\u308a": 4161,
  "\u884c\u304f": 4162,
  "\u2581comes": 4163,
  "\u2581enough": 4164,
  "\u258113": 4165,
  "\u3092\u898b\u3066": 4166,
  "\u8a00\u3063\u305f": 4167,
  "600": 4168,
  "\u306b\u5bfe\u5fdc": 4169,
  "\u6d88\u8cbb": 4170,
  "\u65e7": 4171,
  "question": 4172,
  "\u3059\u308b\u5fc5\u8981\u304c\u3042\u308a\u307e\u3059": 4173,
  "\u53ef": 4174,
  "\u5206\u89e3": 4175,
  "\u95a2\u5fc3": 4176,
  "\u2581solution": 4177,
  "\u5b89\u5b9a": 4178,
  "\u4f5c\u7528": 4179,
  "onic": 4180,
  "\u2581stop": 4181,
  "\u5341": 4182,
  "\u2581Aman": 4183,
  "\u9632\u6b62": 4184,
  "easily": 4185,
  "below": 4186,
  "48": 4187,
  "bad": 4188,
  "ks": 4189,
  "released": 4190,
  "national": 4191,
  "tho": 4192,
  "\u7279\u5225": 4193,
  "lies": 4194,
  "\u2581individual": 4195,
  "\u2581related": 4196,
  "\u59bb": 4197,
  "\u3092\u5b9f\u73fe": 4198,
  "\u2581others": 4199,
  "\u914d\u7f6e": 4200,
  "\u2581dog": 4201,
  "ein": 4202,
  "\u6599": 4203,
  "\u2581\u3082\u3046": 4204,
  "\u30d3\u30fc\u30c1": 4205,
  "\u65b9\u5f0f": 4206,
  "\u30d7\u30e9\u30f3": 4207,
  "areas": 4208,
  "ame": 4209,
  "\u89b3\u6e2c": 4210,
  "VM": 4211,
  "\u305d\u3046\u3060": 4212,
  "\u3067\u3059\u306d": 4213,
  "\u3092\u898b\u308b": 4214,
  "\u2581stage": 4215,
  "\u98db\u884c": 4216,
  "\u306f\u975e\u5e38\u306b": 4217,
  "\u2581Ad": 4218,
  "\u751f\u304d": 4219,
  "pressure": 4220,
  "\u8336": 4221,
  "mis": 4222,
  "\u2581{\\": 4223,
  "Car": 4224,
  "\u5168\u4f53": 4225,
  "\u2581parts": 4226,
  "\u2581US": 4227,
  "\u306a\u3069\u3092": 4228,
  "\u9069\u5fdc": 4229,
  "\u30ec\u30dd\u30fc\u30c8": 4230,
  "ski": 4231,
  "\u2581property": 4232,
  "\u308c\u305f": 4233,
  "\u9178\u5316": 4234,
  "cover": 4235,
  "\u2581strong": 4236,
  "ries": 4237,
  "NA": 4238,
  "del": 4239,
  "Sa": 4240,
  "\u3092\u767a\u8868\u3057\u305f": 4241,
  "\u677e": 4242,
  "\u8a2d\u7acb": 4243,
  "\u2581sense": 4244,
  "\u4eba\u3068": 4245,
  "\u56e3\u4f53": 4246,
  "\u2581deal": 4247,
  "\u3092\u63d0\u4f9b\u3057": 4248,
  "\u8cbb\u7528": 4249,
  "\u9577\u671f": 4250,
  "thefollowing": 4251,
  "\u9078\u624b": 4252,
  "\u2581mean": 4253,
  "\u30bb\u30eb": 4254,
  "\u2581history": 4255,
  "\u2581inside": 4256,
  "\u2581seen": 4257,
  "\u3057\u3066\u3082": 4258,
  "\u306b\u3044\u308b": 4259,
  "\u307c": 4260,
  "needto": 4261,
  "wall": 4262,
  "\u2581station": 4263,
  "\u2581allow": 4264,
  "\u6295\u7a3f": 4265,
  "\u306f\u307e\u3060": 4266,
  "\u9055\u3046": 4267,
  "\u5fdc\u7528": 4268,
  "\u30ef\u30a4\u30f3": 4269,
  "\u653f\u6cbb": 4270,
  "\u7269\u8a9e": 4271,
  "\u2581stay": 4272,
  "\u30d5\u30a9\u30fc\u30e0": 4273,
  "IS": 4274,
  "\u2581sp": 4275,
  "pen": 4276,
  "kindof": 4277,
  "west": 4278,
  "construction": 4279,
  "val": 4280,
  "gy": 4281,
  "\u6e21": 4282,
  "mine": 4283,
  "\u3066\u308b": 4284,
  "communication": 4285,
  "knowledge": 4286,
  "\u30ec\u30d9\u30eb\u306e": 4287,
  "DS": 4288,
  "\u6a5f\u80fd\u3092": 4289,
  "\u5869": 4290,
  "\u30d0\u30c3\u30af": 4291,
  "\u75be\u60a3": 4292,
  "\u306e\u30b5\u30dd\u30fc\u30c8": 4293,
  "\u4eba\u305f\u3061": 4294,
  "single": 4295,
  "\u30de\u30fc\u30b1\u30c6\u30a3\u30f3\u30b0": 4296,
  "\u826f\u304f": 4297,
  "\u25812016": 4298,
  "however": 4299,
  "usedto": 4300,
  "\u2581Cr": 4301,
  "\u5831": 4302,
  "series": 4303,
  "\u30a2\u30a6\u30c8": 4304,
  "ker": 4305,
  "cer": 4306,
  "offers": 4307,
  "shouldbe": 4308,
  "National": 4309,
  "\u30ec\u30fc\u30b9": 4310,
  "ging": 4311,
  "ify": 4312,
  "\u30b3\u30d4\u30fc": 4313,
  "\u9805\u76ee": 4314,
  "\u8ab0": 4315,
  "\u2581problems": 4316,
  "sea": 4317,
  "CT": 4318,
  "\u9055\u3044": 4319,
  "\u3057\u3044": 4320,
  "\u306e\u554f\u984c": 4321,
  "\u2581try": 4322,
  "\u5411\u3051\u306e": 4323,
  "\u91d1\u878d": 4324,
  "\u2581Ne": 4325,
  "\u82e5\u3044": 4326,
  "analysis": 4327,
  "\u30b9\u30de\u30fc\u30c8": 4328,
  "\u2581Bar": 4329,
  "\u30da\u30f3": 4330,
  "\u30a2\u30d7\u30ea\u30b1\u30fc\u30b7\u30e7\u30f3\u306e": 4331,
  "Pa": 4332,
  "\u2581idea": 4333,
  "\u2581self": 4334,
  "\u75c5\u6c17": 4335,
  "ological": 4336,
  "\u30c1\u30fc\u30e0\u304c": 4337,
  "\u2581methods": 4338,
  "cases": 4339,
  "ez": 4340,
  "\u884c\u3046": 4341,
  "\u30c1\u30fc\u30e0\u306e": 4342,
  "\u5275": 4343,
  "\u2581Thisis": 4344,
  "bra": 4345,
  "oy": 4346,
  "\u7279\u8a31": 4347,
  "\u30e6\u30fc\u30b6\u30fc\u306e": 4348,
  "sk": 4349,
  "\u30af\u30e9": 4350,
  "stand": 4351,
  "\u516c\u5712": 4352,
  "\u822a\u7a7a": 4353,
  "\u306f\u3042\u308a\u307e\u305b\u3093": 4354,
  "\u30a2\u30c3\u30d7\u30eb": 4355,
  "\u2581released": 4356,
  "Ni": 4357,
  "System": 4358,
  "\u2581Not": 4359,
  "\u2581relationship": 4360,
  "ware": 4361,
  "race": 4362,
  "\u30b5\u30a4": 4363,
  "pt": 4364,
  "\u4f7f\u3048\u308b": 4365,
  "BA": 4366,
  "\u5bdd": 4367,
  "six": 4368,
  "\u4e0b\u3055\u3044": 4369,
  "response": 4370,
  "private": 4371,
  "cast": 4372,
  "ement": 4373,
  "\u304a\u305d\u3089\u304f": 4374,
  "\u4e2d\u5fc3": 4375,
  "\u6642\u9593\u3092": 4376,
  "\u2581growth": 4377,
  "founder": 4378,
  "\u2581Most": 4379,
  "GB": 4380,
  "\u30a8\u30f3\u30b8\u30cb\u30a2": 4381,
  "became": 4382,
  "\u7dad\u6301": 4383,
  "\u500b": 4384,
  "\u79c1\u306b": 4385,
  "\u25812015": 4386,
  "\u305d\u308c\u3089": 4387,
  "\u2581fo": 4388,
  "\u25811.": 4389,
  "\u6301": 4390,
  "mb": 4391,
  "\u2581sound": 4392,
  "EL": 4393,
  "sur": 4394,
  "\u2581inter": 4395,
  "\u2581culture": 4396,
  "wantto": 4397,
  "fun": 4398,
  "\u4f1a\u793e\u306e": 4399,
  "\u2581oh": 4400,
  "electric": 4401,
  "met": 4402,
  "\u2581Ar": 4403,
  "\u9078\u6319": 4404,
  "\u2581continue": 4405,
  "layer": 4406,
  "\u97d3\u56fd": 4407,
  "kai": 4408,
  "\u898f\u5247": 4409,
  "\u258114": 4410,
  "\u968e": 4411,
  "\u4fdd\u967a": 4412,
  "vote": 4413,
  "watch": 4414,
  "\u30e9\u30d9\u30eb": 4415,
  "\u8cc7\u7523": 4416,
  "fl": 4417,
  "\u2581im": 4418,
  "\u3059\u308b\u304b": 4419,
  "\u597d\u304d": 4420,
  "eye": 4421,
  "\u2581law": 4422,
  "charge": 4423,
  "\u8d77": 4424,
  "round": 4425,
  "\u2581object": 4426,
  "\u5e45\u5e83\u3044": 4427,
  "\u5b9f\u969b\u306e": 4428,
  "\u2581professional": 4429,
  "architecture": 4430,
  "\u3059\u308b\u305f\u3081": 4431,
  "\u2581Ri": 4432,
  "\u306f\u4f55": 4433,
  "\u3082\u3042\u308a\u307e\u3059": 4434,
  "\u5b8c\u5168": 4435,
  "por": 4436,
  "San": 4437,
  "\u2581ke": 4438,
  "ET": 4439,
  "\u8fd1\u304f": 4440,
  "\u30c3\u30c9": 4441,
  "ition": 4442,
  "\u3053\u308c\u3089": 4443,
  "\u30e6\u30cb\u30c3\u30c8": 4444,
  "\u5171": 4445,
  "\u2581Thanks": 4446,
  "\u50b7": 4447,
  "ps": 4448,
  "deal": 4449,
  "SO": 4450,
  "digital": 4451,
  "\u2581\u5927": 4452,
  "rice": 4453,
  "\u30a8\u30e9\u30fc": 4454,
  "\u5e03": 4455,
  "\u969b": 4456,
  "tur": 4457,
  "\u4e3b\u5f35": 4458,
  "understand": 4459,
  "js": 4460,
  "vis": 4461,
  "\u3044\u304f": 4462,
  "\u2581street": 4463,
  "\u9283": 4464,
  "\u5b97": 4465,
  "\u30c6\u30a3\u30fc": 4466,
  "\u6e05": 4467,
  "lying": 4468,
  "\u4e16\u754c\u4e2d\u306e": 4469,
  "\u500b\u4eba\u60c5\u5831": 4470,
  "\u56de\u5fa9": 4471,
  "target": 4472,
  "\u8981": 4473,
  "\u4e2d\u3067": 4474,
  "meeting": 4475,
  "\u2581went": 4476,
  "activity": 4477,
  "\u30af\u30ed": 4478,
  "among": 4479,
  "\u8a00\u3044": 4480,
  "\u65b0\u898f": 4481,
  "wecan": 4482,
  "2011": 4483,
  "suit": 4484,
  "\u3084\u3059\u3044": 4485,
  "weight": 4486,
  "isn": 4487,
  "\u5358": 4488,
  "\u2581treatment": 4489,
  "\u30dc\u30fc\u30c9": 4490,
  "\u304a\u308a": 4491,
  "\u2581text": 4492,
  "\u2581\u307e\u305a": 4493,
  "\u7bb1": 4494,
  "\u592a": 4495,
  "\u2581\u4eba\u3005\u306f": 4496,
  "\u4eba\u751f": 4497,
  "\u3082\u306e\u306e": 4498,
  "edin": 4499,
  "\u2581date": 4500,
  "Cr": 4501,
  "bank": 4502,
  "\u55b6\u696d": 4503,
  "situation": 4504,
  "eb": 4505,
  "ari": 4506,
  "lab": 4507,
  "task": 4508,
  "\u306e\u4e00": 4509,
  "\u305d\u3046\u306a": 4510,
  "Bar": 4511,
  "\u708e": 4512,
  "\u306e\u9ad8\u3044": 4513,
  "AND": 4514,
  "\u6295\u8cc7\u5bb6": 4515,
  "\u2581During": 4516,
  "\u5f37\u529b\u306a": 4517,
  "\u8b70\u4f1a": 4518,
  "\u592b": 4519,
  "\u751f\u7269": 4520,
  "loss": 4521,
  "Vi": 4522,
  "\u2581though": 4523,
  "00": 4524,
  "snot": 4525,
  "lit": 4526,
  "road": 4527,
  "\u552f\u4e00\u306e": 4528,
  "\u3067\u3042\u308b\u3053\u3068": 4529,
  "whether": 4530,
  "\u30b9\u30c6": 4531,
  "edge": 4532,
  "near": 4533,
  "CC": 4534,
  "error": 4535,
  "\u2581operation": 4536,
  "\u30c7\u30f3": 4537,
  "\u306b\u5fdc\u3058\u3066": 4538,
  "lines": 4539,
  "\u535a\u7269\u9928": 4540,
  "oke": 4541,
  "\u2581clear": 4542,
  "\u306e\u3072\u3068\u3064": 4543,
  "\u6df1\u3044": 4544,
  "\u3055\u3093\u306f": 4545,
  "mid": 4546,
  "\u4e8b\u5b9f": 4547,
  "\u2581hours": 4548,
  "gr": 4549,
  "complex": 4550,
  "\u30e2\u30c7\u30eb\u306e": 4551,
  "36": 4552,
  "What": 4553,
  "Chinese": 4554,
  "Art": 4555,
  "\u3079\u304d": 4556,
  "\u2581processing": 4557,
  "\u3092\u8ffd\u52a0": 4558,
  "gate": 4559,
  "\u7cbe\u5ea6": 4560,
  "\u4e07\u30c9\u30eb": 4561,
  "\u653e": 4562,
  "cat": 4563,
  "rest": 4564,
  "images": 4565,
  "\u5206\u306e": 4566,
  "SI": 4567,
  "medical": 4568,
  "\u6b27\u5dde": 4569,
  "\u2581National": 4570,
  "aw": 4571,
  "UI": 4572,
  "\u99c6\u52d5": 4573,
  "\u30bd\u30fc": 4574,
  "policy": 4575,
  "\u30a2\u30d5\u30ea\u30ab": 4576,
  "framework": 4577,
  "\u2581ever": 4578,
  "\u5f62\u5f0f": 4579,
  "Man": 4580,
  "strong": 4581,
  "\u6821": 4582,
  "\u30ec\u30fc\u30b6\u30fc": 4583,
  "\u3067\u304d\u308b\u3088\u3046\u306b": 4584,
  "\u2581variety": 4585,
  "\u3092\u3057\u3066\u3044\u307e\u3059": 4586,
  "whenthe": 4587,
  "pass": 4588,
  "eak": 4589,
  "\u2212": 4590,
  "\u3051\u308b": 4591,
  "\u4ee5\u5916\u306e": 4592,
  "tar": 4593,
  "tter": 4594,
  "\u2581Art": 4595,
  "\u5371\u967a": 4596,
  "\u30b9\u30ad\u30fc": 4597,
  "\u2581Mac": 4598,
  "\u7af6\u4e89": 4599,
  "\u5165\u308c": 4600,
  "{\\": 4601,
  "shave": 4602,
  "\u62e0\u70b9": 4603,
  "\u2581Center": 4604,
  "\u2581return": 4605,
  "\u2581Park": 4606,
  "\u30d7\u30e9": 4607,
  "vision": 4608,
  "\u2581lead": 4609,
  "shirt": 4610,
  "\u30b8\u30fc": 4611,
  "\u51fa\u3057\u305f": 4612,
  "pot": 4613,
  "shin": 4614,
  "\u88fd\u4f5c": 4615,
  "\u2581\u30a2": 4616,
  "\u2581\u3053\u306e\u3088\u3046\u306a": 4617,
  "\u640d\u5931": 4618,
  "My": 4619,
  "\u2581cause": 4620,
  "overthe": 4621,
  "\u2581apps": 4622,
  "mother": 4623,
  "talk": 4624,
  "afterthe": 4625,
  "\u8ca0": 4626,
  "\u5165\u308a": 4627,
  "\u2581wearing": 4628,
  "\u30b5\u30fc\u30d3\u30b9\u3092": 4629,
  "\u30bb\u30f3\u30b5\u30fc": 4630,
  "\u30ef\u30f3": 4631,
  "\u6210\u679c": 4632,
  "March": 4633,
  "inc": 4634,
  "\u3053\u306e\u3088\u3046\u306a": 4635,
  "create": 4636,
  "issues": 4637,
  "\u2581months": 4638,
  "\u305d\u308c\u3089\u306e": 4639,
  "This": 4640,
  "PR": 4641,
  "\u691c\u8a3c": 4642,
  "SC": 4643,
  "\u2581\u4eca\u65e5": 4644,
  "theyare": 4645,
  "\u3053\u3068\u306b\u306a\u308b": 4646,
  "sky": 4647,
  "\u306e\u4e0a\u306b": 4648,
  "request": 4649,
  "\u591a\u6570\u306e": 4650,
  "photo": 4651,
  "az": 4652,
  "2019": 4653,
  "\u53cd\u5bfe": 4654,
  "\u2581store": 4655,
  "\u30d1\u30ea": 4656,
  "\u571f\u5730": 4657,
  "\u2581iOS": 4658,
  "underthe": 4659,
  "dai": 4660,
  "\u30de\u30a4\u30af\u30ed": 4661,
  "almost": 4662,
  "\u2581North": 4663,
  "\u2581established": 4664,
  "rank": 4665,
  "\u904e\u7a0b": 4666,
  "\u2581job": 4667,
  "ash": 4668,
  "\u306e\u6570": 4669,
  "host": 4670,
  "\u4e00\u5ea6": 4671,
  "Ad": 4672,
  "\u4f53\u5236": 4673,
  "\u6700\u7d42": 4674,
  "safety": 4675,
  "\u7981\u6b62": 4676,
  "takes": 4677,
  "\u3082\u306e\u3092": 4678,
  "become": 4679,
  "Kyoto": 4680,
  "\u8a18\u61b6": 4681,
  "\u7aef\u672b": 4682,
  "\u578b\u306e": 4683,
  "\u59cb\u307e\u308a": 4684,
  "\u5c0f\u578b": 4685,
  "\u2581Three": 4686,
  "wave": 4687,
  "\u2581brand": 4688,
  "iti": 4689,
  "\u306b\u5fc5\u8981\u306a": 4690,
  "\u5f37\u5316": 4691,
  "ani": 4692,
  "\u6709\u540d\u306a": 4693,
  "\u304c\u5fc5\u8981": 4694,
  "\u2581areas": 4695,
  "ashi": 4696,
  "living": 4697,
  "\u2581Lo": 4698,
  "\u2581recent": 4699,
  "nic": 4700,
  "\u3092\u3082\u305f\u3089\u3059": 4701,
  "\u4eba\u3005\u304c": 4702,
  "\u5c11\u5e74": 4703,
  "\u30d7\u30e9\u30a4\u30d9\u30fc\u30c8": 4704,
  "apps": 4705,
  "\u2581getting": 4706,
  "HTML": 4707,
  "\u30ed\u30f3\u30c9\u30f3": 4708,
  "voice": 4709,
  "cause": 4710,
  "qui": 4711,
  "\u30c3\u30b7\u30e5": 4712,
  "\u7802": 4713,
  "database": 4714,
  "\u52aa\u529b": 4715,
  "\u8010": 4716,
  "\u7a93": 4717,
  "\u3059\u3050": 4718,
  "Li": 4719,
  "\u2581whether": 4720,
  "\u30b9\u30da\u30a4\u30f3": 4721,
  "\u9593\u306b": 4722,
  "LA": 4723,
  "\u5546": 4724,
  "edthe": 4725,
  "\u2581party": 4726,
  "\u2581risk": 4727,
  "\u6297": 4728,
  "\u796d": 4729,
  "\u5931\u6557": 4730,
  "tem": 4731,
  "connection": 4732,
  "\u3054\u3068\u306b": 4733,
  "\u30d5\u30ec\u30fc\u30e0": 4734,
  "\u6cbb": 4735,
  "\u2581effective": 4736,
  "\u5b9f\u8df5": 4737,
  "\u30ec\u30d3\u30e5\u30fc": 4738,
  "\u505c\u6b62": 4739,
  "former": 4740,
  "\u5e38": 4741,
  "\u2581members": 4742,
  "\u6ce8\u6587": 4743,
  "\u7570\u5e38": 4744,
  "blood": 4745,
  "\u2581\u7279\u306b": 4746,
  "true": 4747,
  "score": 4748,
  "visit": 4749,
  "LO": 4750,
  "pan": 4751,
  "\u2581cut": 4752,
  "\u4eba\u3092": 4753,
  "\u2581media": 4754,
  "\u2581\u305d\u306e\u305f\u3081": 4755,
  "\u30d6\u30ed\u30b0": 4756,
  "Azure": 4757,
  "sum": 4758,
  "\u2581deep": 4759,
  "ano": 4760,
  "ink": 4761,
  "ral": 4762,
  "\u2581Fe": 4763,
  "Ti": 4764,
  "\u2581ba": 4765,
  "\u2581Design": 4766,
  "\u2581Br": 4767,
  "\u2581receive": 4768,
  "\u3011": 4769,
  "\u2581airport": 4770,
  "\u30d7\u30e9\u30b9\u30c1\u30c3\u30af": 4771,
  "ual": 4772,
  "\u30b9\u30ad\u30eb": 4773,
  "nin": 4774,
  "\u4e00\u65b9\u3067": 4775,
  "ichi": 4776,
  "\u2581style": 4777,
  "\u5ba2": 4778,
  "igh": 4779,
  "\u8d70": 4780,
  "technologies": 4781,
  "\u65e9": 4782,
  "\u592a\u967d": 4783,
  "\u5229\u7528\u3067\u304d\u308b": 4784,
  "\u2581bo": 4785,
  "\u2581El": 4786,
  "\u753b": 4787,
  "\u518d\u3073": 4788,
  "\u79c1\u305f\u3061": 4789,
  "\u30de\u30fc\u30af": 4790,
  "\u30c9\u30ad\u30e5\u30e1\u30f3\u30c8": 4791,
  "\u53c2\u7167": 4792,
  "\u2581\u3053\u308c\u304c": 4793,
  "\u5168\u4f53\u306e": 4794,
  "\u30d5\u30ed\u30fc": 4795,
  "\u624b\u8853": 4796,
  "\u2581\u3060\u304b\u3089": 4797,
  "\u3092\u4f7f\u3063\u305f": 4798,
  "\u306a\u3051\u308c\u3070": 4799,
  "\u3092\u4f5c\u308a": 4800,
  "\u2581fire": 4801,
  "\u30a2\u30e1\u30ea\u30ab\u306e": 4802,
  "nation": 4803,
  "\u2581region": 4804,
  "33": 4805,
  "\u2581Store": 4806,
  "\u3055\u305b\u3066": 4807,
  "ended": 4808,
  "\u4f7f\u3046": 4809,
  "stream": 4810,
  "\u611f\u60c5": 4811,
  "format": 4812,
  "technical": 4813,
  "\u2581sea": 4814,
  "\u6e1b\u5c11": 4815,
  "\u2581sales": 4816,
  "\u5927\u898f\u6a21\u306a": 4817,
  "hit": 4818,
  "\u2581organization": 4819,
  "\u2581Dis": 4820,
  "pin": 4821,
  "hope": 4822,
  "tt": 4823,
  "\u30d5\u30a9": 4824,
  "Gi": 4825,
  "\u2581anti": 4826,
  "\u56de\u8def": 4827,
  "signed": 4828,
  "\u2581Kyoto": 4829,
  "\u5727\u529b": 4830,
  "oi": 4831,
  "\u30c3\u30d7": 4832,
  "exist": 4833,
  "\u2581location": 4834,
  "aku": 4835,
  "\u4f1a\u8a71": 4836,
  "wr": 4837,
  "\u5802": 4838,
  "\u5b50\u3069\u3082": 4839,
  "\u30de\u30c3\u30d7": 4840,
  "Air": 4841,
  "\u71c3\u6599": 4842,
  "providing": 4843,
  "\u306b\u3057\u3066": 4844,
  "\u2581half": 4845,
  "\u2581testing": 4846,
  "br": 4847,
  "PO": 4848,
  "button": 4849,
  "dueto": 4850,
  "\u5343": 4851,
  "hole": 4852,
  "\u63a5": 4853,
  "\u652f\u6255\u3044": 4854,
  "\u2581se": 4855,
  "\u2581Today": 4856,
  "\u7f6e": 4857,
  "CPU": 4858,
  "\u540c\u793e\u306f": 4859,
  "\u5b8c\u5168\u306a": 4860,
  "lie": 4861,
  "\u2581\u65b0\u3057\u3044": 4862,
  "\u2581reduce": 4863,
  "mor": 4864,
  "stay": 4865,
  "\u2581types": 4866,
  "\u898b\u308b": 4867,
  "\u2581temperature": 4868,
  "\u7a4d": 4869,
  "\u30b1\u30fc\u30d6\u30eb": 4870,
  "\u8ffd\u8de1": 4871,
  "\u2581students": 4872,
  "\u306e\u5f8c": 4873,
  "\u5fc3\u914d": 4874,
  "55": 4875,
  "anything": 4876,
  "\u2581Development": 4877,
  "\u5834\u5408\u306b\u306f": 4878,
  "\u30c7\u30a3\u30fc": 4879,
  "\u2581<": 4880,
  "\u301c": 4881,
  "\u2581pa": 4882,
  "ofan": 4883,
  "\u6628\u5e74": 4884,
  "band": 4885,
  "\u4fbf": 4886,
  "\u7c21\u5358\u306a": 4887,
  "\u5168\u304f": 4888,
  "friends": 4889,
  "member": 4890,
  "\u57fa\u76e4": 4891,
  "\u2581Her": 4892,
  "gh": 4893,
  "\u6559\u6388": 4894,
  "send": 4895,
  "str": 4896,
  "\u2581Ki": 4897,
  "\u7d42": 4898,
  "\u7a74": 4899,
  "\u2581existing": 4900,
  "\u8ca2\u732e": 4901,
  "ography": 4902,
  "2009": 4903,
  "metal": 4904,
  "\u30b9\u30af\u30ea\u30fc\u30f3": 4905,
  "\u307e\u3067\u306b": 4906,
  "recently": 4907,
  "\u2581+": 4908,
  "weare": 4909,
  "2007": 4910,
  "cre": 4911,
  "\u2581Your": 4912,
  "\u306e\u5909\u5316": 4913,
  "betweenthe": 4914,
  "direction": 4915,
  "\u2581directly": 4916,
  "beautiful": 4917,
  "\u8aad\u307f": 4918,
  "\")": 4919,
  "\u25812018": 4920,
  "bot": 4921,
  "\u3057\u3066\u308b": 4922,
  "\u30e6\u30fc\u30b6\u30fc\u306f": 4923,
  "\u307e\u308b": 4924,
  "\u5b57": 4925,
  "\u2581unique": 4926,
  "Jo": 4927,
  "rent": 4928,
  "\u2581hold": 4929,
  "wouldbe": 4930,
  "\u25812010": 4931,
  "\u53d7\u4fe1": 4932,
  "\u2581six": 4933,
  "\u8d8a": 4934,
  "\u2581{": 4935,
  "\u2581Internet": 4936,
  "grade": 4937,
  "isthat": 4938,
  "\u2581however": 4939,
  "State": 4940,
  "\u2581produce": 4941,
  "\u30c7\u30a3\u30b9\u30d7\u30ec\u30a4": 4942,
  "\u30b8\u30e7": 4943,
  "\u62b5\u6297": 4944,
  "\u3069\u306e\u3088\u3046\u306a": 4945,
  "\u5929\u7687": 4946,
  "\u2581buy": 4947,
  "\u30c0\u30a4": 4948,
  "\u2581month": 4949,
  "\u2581\u306a\u305c": 4950,
  "\u79c1\u9054\u306e": 4951,
  "\u5e02\u6c11": 4952,
  "chemical": 4953,
  "\u25812008": 4954,
  "\u683c": 4955,
  "\u3048\u3066": 4956,
  "TS": 4957,
  "\u306a\u3089\u3070": 4958,
  "\u30cb\u30fc\u30ba": 4959,
  "\u2581isn": 4960,
  "\u30d1\u30b9\u30ef\u30fc\u30c9": 4961,
  "\u306e\u9593\u306e": 4962,
  "\u2581track": 4963,
  "meter": 4964,
  "\u2581terms": 4965,
  "established": 4966,
  "engine": 4967,
  "\u2581itself": 4968,
  "\u984c": 4969,
  "write": 4970,
  "pek": 4971,
  "received": 4972,
  "\u3082\u306e\u3067": 4973,
  "Linux": 4974,
  "\u2581easily": 4975,
  "\u2581behind": 4976,
  "ssuchas": 4977,
  "2020": 4978,
  "everything": 4979,
  "BO": 4980,
  "\u597d\u304d\u306a": 4981,
  "\u65e5\u672c\u4eba": 4982,
  "\u306a\u305c": 4983,
  "\u25812012": 4984,
  "\u306e\u7d50\u679c": 4985,
  "\u2581Ni": 4986,
  "\u30c0\u30a6\u30f3": 4987,
  "fit": 4988,
  "\u30aa\u30fc\u30d7\u30f3\u30bd\u30fc\u30b9": 4989,
  "shot": 4990,
  "stock": 4991,
  "\u30ef\u30fc\u30af": 4992,
  "\u9752\u3044": 4993,
  "\u2581\u3082\u3061\u308d\u3093": 4994,
  "\u30a4\u30bf\u30ea\u30a2": 4995,
  "skin": 4996,
  "higher": 4997,
  "\u2581\u305f\u3068\u3048\u3070": 4998,
  "\u2581\u7537\u304c": 4999,
  "\u2581Pre": 5000,
  "\u3088\u3046\u306b\u306a\u308b": 5001,
  "\u4f7f\u3044": 5002,
  "\u52d9": 5003,
  "\u00b7": 5004,
  "\u3059\u308b\u3053\u3068\u304c": 5005,
  "potential": 5006,
  "playing": 5007,
  "lock": 5008,
  "\u8a71\u3059": 5009,
  "\u30df\u30f3": 5010,
  "sal": 5011,
  "die": 5012,
  "numberof": 5013,
  "range": 5014,
  "changed": 5015,
  "\u2581focus": 5016,
  "OK": 5017,
  "\u793e\u306e": 5018,
  "\u56fd\u6c11": 5019,
  "distribution": 5020,
  "behavior": 5021,
  "\u9280": 5022,
  "\u2581age": 5023,
  "\u2581send": 5024,
  "\u83cc": 5025,
  "\u2581transfer": 5026,
  "\u5b88": 5027,
  "\u2581ensure": 5028,
  "\u5f7c\u5973\u306f": 5029,
  "ura": 5030,
  "\u5927\u4f1a": 5031,
  "hat": 5032,
  "\u2581told": 5033,
  "\u30ce\u30fc\u30c9": 5034,
  "une": 5035,
  "\u2581question": 5036,
  "Fa": 5037,
  "\u3044\u307e\u305b\u3093": 5038,
  "800": 5039,
  "\u2581Sho": 5040,
  "\u30c4\u30a2\u30fc": 5041,
  "lig": 5042,
  "\u30ad\u30f3": 5043,
  "\u56fa": 5044,
  "DNA": 5045,
  "specification": 5046,
  "\u2581includes": 5047,
  "hal": 5048,
  "\u30ad\u30f3\u30b0": 5049,
  "\u306b\u5411\u3051\u3066": 5050,
  "projects": 5051,
  "CE": 5052,
  "\u30013": 5053,
  "\u9aea": 5054,
  "\u2581ago": 5055,
  "\u7279": 5056,
  "words": 5057,
  "\u30b9\u30bf\u30f3": 5058,
  "EM": 5059,
  "\u590f": 5060,
  "\u306e\u5229\u7528": 5061,
  "\u2581framework": 5062,
  "ret": 5063,
  "ofyour": 5064,
  "\u8eab\u4f53": 5065,
  "\u3059\u308b\u306e\u306f": 5066,
  "\u3057\u305f\u3089": 5067,
  "\u2581Tom": 5068,
  "\u2581ground": 5069,
  "\u6e80": 5070,
  "\u30b5\u30c3\u30ab\u30fc": 5071,
  "\u7537\u6027\u304c": 5072,
  "\u6708\u306e": 5073,
  "\u306b\u52a0\u3048\u3066": 5074,
  "\u9ed2\u3044": 5075,
  "death": 5076,
  "\u8535": 5077,
  "\u2581Se": 5078,
  "\u30e9\u30a4\u30d6": 5079,
  "\u2581father": 5080,
  "looking": 5081,
  "ofits": 5082,
  "lly": 5083,
  "\u30ed\u30fc\u30eb": 5084,
  "thin": 5085,
  "super": 5086,
  "\u305f\u3060": 5087,
  "player": 5088,
  "tohave": 5089,
  "\u8033": 5090,
  "society": 5091,
  "\u3057\u3070\u3057\u3070": 5092,
  "\u3082\u3057": 5093,
  "leave": 5094,
  "\u7d04\u675f": 5095,
  "34": 5096,
  "\u5712": 5097,
  "\u2581unit": 5098,
  "\u2581reason": 5099,
  "\u8cc7\u6599": 5100,
  "\u2581train": 5101,
  "\u4f5c\u308a": 5102,
  "\u2581engine": 5103,
  "\u7d99\u7d9a": 5104,
  "mode": 5105,
  "\u305f\u3061\u304c": 5106,
  "\u52b4\u50cd": 5107,
  "\u30e1\u30a4\u30f3": 5108,
  "science": 5109,
  "\u2581percent": 5110,
  "print": 5111,
  "University": 5112,
  "\u30fc\u30f3": 5113,
  "chan": 5114,
  "\u8981\u4ef6": 5115,
  "\u3053\u3068\u304c\u3067\u304d": 5116,
  "\u50be\u5411": 5117,
  "\u30a2\u30c9\u30ec\u30b9": 5118,
  "members": 5119,
  "TE": 5120,
  "OR": 5121,
  "\u2581Of": 5122,
  "\u4f1a\u54e1": 5123,
  "\u6765\u305f": 5124,
  "\u2581death": 5125,
  "\u6700\u8fd1\u306e": 5126,
  "\u2581Research": 5127,
  "touch": 5128,
  "\u672b": 5129,
  "picture": 5130,
  "\u2581Sp": 5131,
  "\u2581fast": 5132,
  "\u8a08\u6e2c": 5133,
  "\u672a\u6765": 5134,
  "\u6a5f\u68b0\u5b66\u7fd2": 5135,
  "\u2581below": 5136,
  "\u2581Jo": 5137,
  "\u3092\u884c\u3044\u307e\u3059": 5138,
  "\u3053\u3068\u306b\u3088\u308a": 5139,
  "interest": 5140,
  "\u7c92\u5b50": 5141,
  "\u30bf\u30b0": 5142,
  "\u77ed": 5143,
  "Ri": 5144,
  "thatit": 5145,
  "\u30b9\u30c8\u30ec\u30fc\u30b8": 5146,
  "\u305d\u3053": 5147,
  "\u3092\u4e0e\u3048": 5148,
  "tell": 5149,
  "\u5168\u56fd": 5150,
  "\u2581Dr": 5151,
  "mit": 5152,
  "\u8d77\u3053": 5153,
  "\u2581traditional": 5154,
  "\u4f4f": 5155,
  "\u306b\u884c\u304f": 5156,
  "\u4f1d": 5157,
  "bone": 5158,
  "\u6982\u5ff5": 5159,
  "sun": 5160,
  "\u2581charge": 5161,
  "\u653e\u9001": 5162,
  "\u898b\u3066": 5163,
  "\u30a2\u30a4\u30c7\u30a2": 5164,
  "arch": 5165,
  "\u2581step": 5166,
  "\u7e4a\u7dad": 5167,
  "ire": 5168,
  "\u2581total": 5169,
  "craft": 5170,
  "custom": 5171,
  "\u62c5\u5f53": 5172,
  "\u5f37\u304f": 5173,
  "butit": 5174,
  "\u30db\u30fc\u30eb": 5175,
  "\u6ce8": 5176,
  "\u2581km": 5177,
  "\u5275\u9020": 5178,
  "quite": 5179,
  "\u4f4e\u3044": 5180,
  "Fr": 5181,
  "\u2581meeting": 5182,
  "\u2581began": 5183,
  "\u2581cell": 5184,
  "\u75db": 5185,
  "\u3059\u306a\u308f\u3061": 5186,
  "\u2581blue": 5187,
  "formation": 5188,
  "\u2581modern": 5189,
  "\u8981\u56e0": 5190,
  "\u2581operating": 5191,
  "Sh": 5192,
  "thenext": 5193,
  "\u2581taken": 5194,
  "\u2581official": 5195,
  "\u30d7\u30ed\u30b8\u30a7\u30af\u30c8\u306e": 5196,
  "\u306e\u4e2d\u5fc3": 5197,
  "graphic": 5198,
  "wear": 5199,
  "\u4e00\u3064": 5200,
  "\u773c": 5201,
  "\u30b9\u30bf\u30fc\u30c8": 5202,
  "\u8272\u306e": 5203,
  "EX": 5204,
  "\u2581Don": 5205,
  "\u2581micro": 5206,
  "\u76e4": 5207,
  "\u2581soon": 5208,
  "\u3092\u7740\u305f": 5209,
  "\u2581rate": 5210,
  "\u30bd\u30d5\u30c8": 5211,
  "sl": 5212,
  "\u7814\u7a76\u6240": 5213,
  "Center": 5214,
  "\u2581digital": 5215,
  "\u3092\u5229\u7528\u3057\u3066": 5216,
  "deep": 5217,
  "\u2581Wa": 5218,
  "total": 5219,
  "learn": 5220,
  "\u7d66": 5221,
  "\u2581domain": 5222,
  "ox": 5223,
  "\u899a": 5224,
  "\u3057\u304f": 5225,
  "PDF": 5226,
  "HD": 5227,
  "\u6bb5": 5228,
  "als": 5229,
  "\u3068\u3044\u3046\u3053\u3068\u3067\u3059": 5230,
  "\u4f01\u696d\u304c": 5231,
  "InfoQ": 5232,
  "lot": 5233,
  "\u2581Other": 5234,
  "thi": 5235,
  "quickly": 5236,
  "\u25812013": 5237,
  "\u2581heart": 5238,
  "Cu": 5239,
  "pose": 5240,
  "\u65b0\u305f\u306b": 5241,
  "\u5c11\u306a\u3044": 5242,
  "\u30a2\u30fc\u30c6\u30a3\u30b9\u30c8": 5243,
  "\u2581complete": 5244,
  "teams": 5245,
  "\u30ac\u30a4\u30c9": 5246,
  "\u5411": 5247,
  "08": 5248,
  "\u30d0\u30eb": 5249,
  "\u2581leave": 5250,
  "\u2581Fa": 5251,
  "CR": 5252,
  "dam": 5253,
  "break": 5254,
  "cent": 5255,
  "named": 5256,
  "\u2581teams": 5257,
  "April": 5258,
  "similar": 5259,
  "Kn": 5260,
  "variable": 5261,
  "cept": 5262,
  "\u5c0f\u3055\u3044": 5263,
  "\u7528\u9014": 5264,
  "June": 5265,
  "\u30ab\u30e9\u30fc": 5266,
  "\u2581prevent": 5267,
  "tree": 5268,
  "\u30de\u30a4": 5269,
  "gan": 5270,
  "tip": 5271,
  "enough": 5272,
  "\u30ea\u30b9": 5273,
  "\u2581images": 5274,
  "ign": 5275,
  "\u2581safe": 5276,
  "\u2581Mr": 5277,
  "CH": 5278,
  "tosee": 5279,
  "\u4e95": 5280,
  "details": 5281,
  "\u2581demand": 5282,
  "Office": 5283,
  "\u52a9\u3051": 5284,
  "\u3061\u3087\u3046\u3069": 5285,
  "imp": 5286,
  "\u6a29\u5229": 5287,
  "\u3082\u306a\u3044": 5288,
  "believe": 5289,
  "\u7d1a": 5290,
  "\u2581\u304a\u524d": 5291,
  "\u2581server": 5292,
  "\u2581achieve": 5293,
  "court": 5294,
  "events": 5295,
  "\u542b\u307e\u308c": 5296,
  "\u304c\u53ef\u80fd": 5297,
  "tail": 5298,
  "\u3092\u63d0\u4f9b\u3057\u3066\u3044\u307e\u3059": 5299,
  "trade": 5300,
  "\u885b\u661f": 5301,
  "\u30c1\u30e3\u30fc": 5302,
  "\u2581knowledge": 5303,
  "lead": 5304,
  "\u2581mind": 5305,
  "\u81ea\u8eab": 5306,
  "friendly": 5307,
  "ult": 5308,
  "browser": 5309,
  "writing": 5310,
  "\u3042\u3068": 5311,
  "\u65b9\u6cd5\u306f": 5312,
  "\u3053\u3053": 5313,
  "\u30d7\u30ed\u30b0\u30e9\u30df\u30f3\u30b0": 5314,
  "\u53d7\u3051": 5315,
  "\u30b9\u30d4\u30fc\u30c9": 5316,
  "storage": 5317,
  "\u2581Server": 5318,
  "\u540c\u6642\u306b": 5319,
  "\u2581March": 5320,
  "\u3092\u898b\u3064\u3051\u308b": 5321,
  "\u305d\u3053\u306b": 5322,
  "vel": 5323,
  "\u25812014": 5324,
  "\u2581action": 5325,
  "\u30d1\u30ef\u30fc": 5326,
  "37": 5327,
  "SD": 5328,
  "\u2581hot": 5329,
  "\u767b\u5834": 5330,
  "\u306b\u5f93\u3063\u3066": 5331,
  "cup": 5332,
  "\u2581communication": 5333,
  "unique": 5334,
  "rooms": 5335,
  "\u30ce\u30fc": 5336,
  "\u2581\u2018": 5337,
  "partofthe": 5338,
  "\u2581cases": 5339,
  "\u2581shall": 5340,
  "recent": 5341,
  "\u81ea\u52d5\u7684\u306b": 5342,
  "employees": 5343,
  "\u30b7\u30df\u30e5\u30ec\u30fc\u30b7\u30e7\u30f3": 5344,
  "\u2581added": 5345,
  "wind": 5346,
  "ED": 5347,
  "\u4e3b\u8981\u306a": 5348,
  "ofthese": 5349,
  "\u6d41\u308c": 5350,
  "\u2581Each": 5351,
  "\u2581du": 5352,
  "atleast": 5353,
  "UN": 5354,
  "\u5730\u57df\u306e": 5355,
  "\u2581target": 5356,
  "bio": 5357,
  "\u8a98\u5c0e": 5358,
  "\u5f7c\u3089\u304c": 5359,
  "\u2581response": 5360,
  "\u6848": 5361,
  "\u52b4\u50cd\u8005": 5362,
  "Mar": 5363,
  "Tr": 5364,
  "\u30bf\u30a4\u30d7\u306e": 5365,
  "\u30c0\u30f3": 5366,
  "partof": 5367,
  "ell": 5368,
  "\u2581complex": 5369,
  "father": 5370,
  "CS": 5371,
  "\u81ea\u4f53": 5372,
  "\u73fe\u4ee3": 5373,
  "included": 5374,
  "\u2581Per": 5375,
  "months": 5376,
  "\u2581interest": 5377,
  "record": 5378,
  "edit": 5379,
  "\u898f\u5b9a": 5380,
  "\u2581ability": 5381,
  "65": 5382,
  "map": 5383,
  "\u914d\u4fe1": 5384,
  "\u2581card": 5385,
  "download": 5386,
  "cycle": 5387,
  "\u5b8c\u6210": 5388,
  "floor": 5389,
  "memory": 5390,
  "points": 5391,
  "gain": 5392,
  "\u2581matter": 5393,
  "\u30b3\u30fc\u30eb": 5394,
  "usually": 5395,
  "\u2581\u305d\u3093\u306a": 5396,
  "\u7b11": 5397,
  "\u25812.": 5398,
  "FA": 5399,
  "\u4fe1\u3058": 5400,
  "allows": 5401,
  "\u5c02\u7528": 5402,
  "\u7d42\u308f\u308a": 5403,
  "\u306a\u3069\u304c": 5404,
  "trained": 5405,
  "\u3067\u3042\u308b\u3068": 5406,
  "condition": 5407,
  "Emperor": 5408,
  "\u3053\u3053\u3067": 5409,
  "\u65b9\u91dd": 5410,
  "\u2581situation": 5411,
  "\u8b1b\u6f14": 5412,
  "\u2581blood": 5413,
  "mind": 5414,
  "\u2581architecture": 5415,
  "\u7f6a": 5416,
  "ene": 5417,
  "\u30ec\u30f3\u30ba": 5418,
  "manufacturing": 5419,
  "\u2581Cu": 5420,
  "\u3057\u3066\u3044\u304f": 5421,
  "purpose": 5422,
  "\u5927\u304d\u3044": 5423,
  "\u4f7f": 5424,
  "(1)": 5425,
  "\u5341\u5206": 5426,
  "saw": 5427,
  "\u306e\u3053\u3068": 5428,
  "2006": 5429,
  "\u306e\u4e16\u754c": 5430,
  "\u30a2\u30e1\u30ea\u30ab\u5408\u8846\u56fd": 5431,
  "\u30b9\u30fc\u30d1\u30fc": 5432,
  "\u8a3c\u62e0": 5433,
  "\u8179": 5434,
  "\u3092\u30b5\u30dd\u30fc\u30c8\u3059\u308b": 5435,
  "\u2581generation": 5436,
  "\u53ce": 5437,
  "\u8efd": 5438,
  "\u30a2\u30af\u30b7\u30e7\u30f3": 5439,
  "\u3088\u3046\u3067\u3059": 5440,
  "\u5148\u751f": 5441,
  "\u2581\u30db\u30c6\u30eb": 5442,
  "atiun": 5443,
  "\u2581Over": 5444,
  "operator": 5445,
  "\u2581sign": 5446,
  "\u2581Chinese": 5447,
  "\u65e2\u306b": 5448,
  "-2": 5449,
  "\u30c7\u30a3\u30f3\u30b0": 5450,
  "\u2581Why": 5451,
  "\u767d\u3044": 5452,
  "\u898b\u3089\u308c\u308b": 5453,
  "\u4f4f\u5b85": 5454,
  "\u7279\u5b9a": 5455,
  "ics": 5456,
  "TechCrunch": 5457,
  "delivery": 5458,
  "review": 5459,
  "RT": 5460,
  "\u2581\u79c1\u305f\u3061\u306e": 5461,
  "\u30d2\u30c8": 5462,
  "\u8a33": 5463,
  "\u30cb\u30f3\u30b0": 5464,
  "\u2581voice": 5465,
  "\u2581ma": 5466,
  "\u8a66\u307f": 5467,
  "\u2581impact": 5468,
  "\u5b50\u4f9b\u305f\u3061": 5469,
  "\u632f": 5470,
  "SM": 5471,
  "arenot": 5472,
  "\u6539\u826f": 5473,
  "CM": 5474,
  "\u2581\u305d\u308c\u304c": 5475,
  "\u30b7\u30b9\u30c6\u30e0\u306f": 5476,
  "trust": 5477,
  "\u6bce\u5e74": 5478,
  "return": 5479,
  "\u30bf\u30fc\u30b2\u30c3\u30c8": 5480,
  "Iwas": 5481,
  "\u2581story": 5482,
  "ties": 5483,
  "\u2581table": 5484,
  "simply": 5485,
  "\u51fa\u7248": 5486,
  "vert": 5487,
  "\u8907\u6570": 5488,
  "economic": 5489,
  "PE": 5490,
  "\u79cb": 5491,
  "\u5c3e": 5492,
  "\u60aa\u3044": 5493,
  "\u3070\u304b\u308a": 5494,
  "\u7bc0": 5495,
  "\u5c02\u9580\u5bb6": 5496,
  "resources": 5497,
  "\u6570\u306f": 5498,
  "\u56f0\u96e3": 5499,
  "\u4efb\u610f\u306e": 5500,
  "\u5375": 5501,
  "\u3057\u307e\u305b\u3093": 5502,
  "\u2581According": 5503,
  "July": 5504,
  "dia": 5505,
  "\u304d\u305f": 5506,
  "\u2581cannot": 5507,
  "\u8074": 5508,
  "command": 5509,
  "ub": 5510,
  "DO": 5511,
  "ao": 5512,
  "\u2581ask": 5513,
  "ff": 5514,
  "\u8fba": 5515,
  "\u80cc\u666f": 5516,
  "\u901a\u5e38": 5517,
  "\u2581policy": 5518,
  "\u9650\u308a": 5519,
  "\u5dfb": 5520,
  "\u2581act": 5521,
  "cross": 5522,
  "\u30d9\u30f3": 5523,
  "hr": 5524,
  "\u2581difficult": 5525,
  "\u30df\u30fc": 5526,
  "\u30b3\u30ec\u30af\u30b7\u30e7\u30f3": 5527,
  "\u88fd\u54c1\u3092": 5528,
  "\u5206\u5272": 5529,
  "clean": 5530,
  "ms": 5531,
  "supply": 5532,
  "howto": 5533,
  "pal": 5534,
  "\u2581Hu": 5535,
  "\u3066\u3044\u304f": 5536,
  "andit": 5537,
  "\u7167\u660e": 5538,
  "\u5fdc\u7b54": 5539,
  "travel": 5540,
  "42": 5541,
  "\u5f31": 5542,
  "French": 5543,
  "\u30be": 5544,
  "minute": 5545,
  "\u523a\u6fc0": 5546,
  "fin": 5547,
  "5%": 5548,
  "\u526f": 5549,
  "\u2581bad": 5550,
  "usingthe": 5551,
  "inside": 5552,
  "\u5f0a\u793e": 5553,
  "lk": 5554,
  "\u305d\u306e\u3088\u3046\u306a": 5555,
  "edwith": 5556,
  "\u30d6\u30eb\u30fc": 5557,
  "matter": 5558,
  "Chrome": 5559,
  "\u2581Once": 5560,
  "\u8155": 5561,
  "\u5927\u578b": 5562,
  "window": 5563,
  "\u3060\u3088": 5564,
  "client": 5565,
  "Bi": 5566,
  "isto": 5567,
  "published": 5568,
  "\u8208\u5473": 5569,
  "kit": 5570,
  "\u2581\\": 5571,
  "\u3059\u308b\u306b\u306f": 5572,
  "\u2581either": 5573,
  "sent": 5574,
  "\u306e\u3067\u3059\u304c": 5575,
  "EA": 5576,
  "\u2581Inc": 5577,
  "All": 5578,
  "\u2581safety": 5579,
  "\u540d\u306e": 5580,
  "\u5f7c\u3089": 5581,
  "\u2581everything": 5582,
  "third": 5583,
  "\u4ed8\u3051\u308b": 5584,
  "\u8266": 5585,
  "ui": 5586,
  "\u3042\u3063\u305f": 5587,
  "\u30d3\u30c3\u30c8": 5588,
  "ture": 5589,
  "\u529b\u3092": 5590,
  "kt": 5591,
  "icon": 5592,
  "email": 5593,
  "\u3053\u3068\u304b\u3089": 5594,
  "setup": 5595,
  "conditions": 5596,
  "\u2581la": 5597,
  "\u30cf\u30a6\u30b9": 5598,
  "700": 5599,
  "accordingto": 5600,
  "\u2581More": 5601,
  "\u696d\u8005": 5602,
  "\u2581entire": 5603,
  "nut": 5604,
  "\u9759": 5605,
  "\u52d5\u7684": 5606,
  "\u76ee\u306b": 5607,
  "\u2581Du": 5608,
  "\u8ad6\u6587": 5609,
  "zone": 5610,
  "\"(": 5611,
  "\u2581lower": 5612,
  "\u2581issues": 5613,
  "\u2581Itwas": 5614,
  "September": 5615,
  "\u5c5e": 5616,
  "\u5b9d": 5617,
  "Park": 5618,
  "\u2581projects": 5619,
  "\u2581ho": 5620,
  "\u9060": 5621,
  "\u2581Team": 5622,
  "\u30b3\u30de\u30f3\u30c9": 5623,
  "\u2581fi": 5624,
  "\u76ae\u819a": 5625,
  "\u964d": 5626,
  "\u8b58\u5225": 5627,
  "gun": 5628,
  "cle": 5629,
  "\u30c1\u30c3\u30d7": 5630,
  "\u524a\u6e1b": 5631,
  "nal": 5632,
  "\u30a2\u30eb\u30d0\u30e0": 5633,
  "\u2581almost": 5634,
  "\u2581town": 5635,
  "ending": 5636,
  "\u2581member": 5637,
  "\u73fe\u8c61": 5638,
  "\u2581gas": 5639,
  "\u2581Pi": 5640,
  "\u8a00\u3063\u3066": 5641,
  "\u2581Use": 5642,
  "claim": 5643,
  "agood": 5644,
  "\u304b\u3064\u3066": 5645,
  "|": 5646,
  "\u2581wo": 5647,
  "John": 5648,
  "\u62bd\u51fa": 5649,
  "files": 5650,
  "\u2581instead": 5651,
  "\u5358\u306b": 5652,
  "\u30ed\u30fc\u30de": 5653,
  "\u2581South": 5654,
  "\u3057\u305f\u3053\u3068": 5655,
  "expression": 5656,
  "original": 5657,
  "\u3064\u304d": 5658,
  "\u6b73\u306e": 5659,
  "\u2581certain": 5660,
  "\u3068\u8a00\u3046": 5661,
  "relationship": 5662,
  "\u767a\u884c": 5663,
  "\u2581potential": 5664,
  "choose": 5665,
  "fact": 5666,
  "\u2581follow": 5667,
  "\u53ce\u76ca": 5668,
  "\u6765\u308b": 5669,
  "exchange": 5670,
  "\u305f\u304f\u3055\u3093\u306e": 5671,
  "\u2581st": 5672,
  "\u6f14\u594f": 5673,
  "\u30d5\u30a1\u30a4\u30eb\u3092": 5674,
  "\u306e\u3067\u3057\u3087\u3046\u304b": 5675,
  "\u306e\u5411\u4e0a": 5676,
  "Or": 5677,
  "girl": 5678,
  "HO": 5679,
  "\u4eca\u56de\u306e": 5680,
  "\u5229\u7528\u8005": 5681,
  "ably": 5682,
  "\u2581late": 5683,
  "\u308f\u305a\u304b": 5684,
  "youhave": 5685,
  "financial": 5686,
  "notonly": 5687,
  "Per": 5688,
  "roll": 5689,
  "\u306e\u6b74\u53f2": 5690,
  "\u9375": 5691,
  "wl": 5692,
  "\u2581pressure": 5693,
  "driven": 5694,
  "\u2581flow": 5695,
  "\u30e2\u30fc": 5696,
  "yn": 5697,
  "\u2581Spring": 5698,
  "qua": 5699,
  "attack": 5700,
  "\u2581Gu": 5701,
  "inwhich": 5702,
  "soon": 5703,
  "message": 5704,
  "\u30df\u30cb": 5705,
  "mini": 5706,
  "\u30ec\u30fc\u30c8": 5707,
  "\u2581Bi": 5708,
  "\u304c\u591a\u3044": 5709,
  "aka": 5710,
  "\u2581House": 5711,
  "\u2581perform": 5712,
  "\u3053\u308c\u304c": 5713,
  "theright": 5714,
  "capital": 5715,
  "El": 5716,
  "\u8cbf\u6613": 5717,
  "\u30e9\u30a6\u30f3\u30c9": 5718,
  "\u3086": 5719,
  "ond": 5720,
  "\u2581\u5973\u6027\u304c": 5721,
  "\u2581mother": 5722,
  "bal": 5723,
  "\u2581email": 5724,
  "ste": 5725,
  "\u2581anything": 5726,
  "\u2581heat": 5727,
  "\u2581maintain": 5728,
  "[[": 5729,
  "\u76f8\u4e92": 5730,
  "\u306a\u306e\u304b": 5731,
  "\u30d4\u30fc": 5732,
  "\u81ea\u52d5\u5316": 5733,
  "\u2581especially": 5734,
  "\u2581hope": 5735,
  "mark": 5736,
  "\u2581database": 5737,
  "\u5f62\u614b": 5738,
  "\u2581oil": 5739,
  "2)": 5740,
  "\u5fd8\u308c": 5741,
  "cor": 5742,
  "\u3092\u4f5c\u6210\u3059\u308b": 5743,
  "\u30b7\u30fc\u30f3": 5744,
  "Sho": 5745,
  "ave": 5746,
  "\u2581latest": 5747,
  "\u4e00\u90e8": 5748,
  "\u8f38\u51fa": 5749,
  "practice": 5750,
  "\u2581super": 5751,
  "contract": 5752,
  "\u306e\u304a": 5753,
  "\u306a\u3093\u3060": 5754,
  "\u4f53\u306e": 5755,
  "\u8fd4": 5756,
  "Wr": 5757,
  "\u2581rather": 5758,
  "\u4e07\u4eba": 5759,
  "ami": 5760,
  "\u92fc": 5761,
  "produce": 5762,
  "choice": 5763,
  "\u2581uses": 5764,
  "\u5ea6\u306e": 5765,
  "\u2581technologies": 5766,
  "\u6ede\u5728": 5767,
  "block": 5768,
  "rea": 5769,
  "\u30aa\u30fc\u30b9\u30c8\u30e9\u30ea\u30a2": 5770,
  "\u30de\u30cd\u30b8\u30e1\u30f3\u30c8": 5771,
  "\u2581\u305f\u3060": 5772,
  "\u2581green": 5773,
  "payment": 5774,
  "January": 5775,
  "\u2581written": 5776,
  "\u958b\u793a": 5777,
  "\u258150": 5778,
  "\u9054\u6210": 5779,
  "ath": 5780,
  "\u30ab\u30ca\u30c0": 5781,
  "\u25812011": 5782,
  "\u9858": 5783,
  "\u2581particular": 5784,
  "\u30a6\u30a3": 5785,
  "\u4e0d\u8db3": 5786,
  "\u2581events": 5787,
  "additional": 5788,
  "\u660e\u6cbb": 5789,
  "\u6c7a": 5790,
  "\u2581issue": 5791,
  "\u3057\u307e\u3057\u3087\u3046": 5792,
  "gram": 5793,
  "\u8a3c": 5794,
  "\u2581recently": 5795,
  "\u2581national": 5796,
  "everyone": 5797,
  "Mi": 5798,
  "eight": 5799,
  "\u6253": 5800,
  "\u9802": 5801,
  "ose": 5802,
  "\u2581visit": 5803,
  "Agile": 5804,
  "Ve": 5805,
  "pic": 5806,
  "URL": 5807,
  "\u96c6\u56e3": 5808,
  "\u30d7\u30ec\u30a4\u30e4\u30fc": 5809,
  "\u2581beautiful": 5810,
  "\u30d5\u30a3\u30fc\u30c9\u30d0\u30c3\u30af": 5811,
  "\u6e2f": 5812,
  "\u65e5\u9593": 5813,
  "\u82e6": 5814,
  "basic": 5815,
  "\u30a4\u30f3\u30b9\u30bf\u30f3\u30b9": 5816,
  "\u30ea\u30af\u30a8\u30b9\u30c8": 5817,
  "\u8b66\u5bdf": 5818,
  "\u5358\u4f4d": 5819,
  "\u63a8\u9032": 5820,
  "\u4eba\u3005\u306e": 5821,
  "\u2581request": 5822,
  "\u713c": 5823,
  "\u82f1\u56fd": 5824,
  "\u62bc\u3057": 5825,
  "ack": 5826,
  "\u30d5\u30a1\u30fc": 5827,
  "\u5b97\u6559": 5828,
  "shall": 5829,
  "\u6027\u8cea": 5830,
  "\u307b\u3068\u3093\u3069\u306e": 5831,
  "few": 5832,
  "\u306e\u65b0\u3057\u3044": 5833,
  "\u2581Just": 5834,
  "vin": 5835,
  "\u5927\u624b": 5836,
  "\u90e8\u968a": 5837,
  "touse": 5838,
  "\u4f11": 5839,
  "logic": 5840,
  "\u8fb2\u696d": 5841,
  "\u2581trying": 5842,
  "\u5f7c\u304c": 5843,
  "\u4e00\u822c\u7684\u306b": 5844,
  "\u521d\u306e": 5845,
  "\u6bd4\u8f03": 5846,
  "\u65b0\u805e": 5847,
  "Ki": 5848,
  "\u3084\u3063\u3066": 5849,
  "\u2581friends": 5850,
  "\u258124": 5851,
  "\u2581construction": 5852,
  "\u5e0c\u671b": 5853,
  "\u2581section": 5854,
  "Gu": 5855,
  "title": 5856,
  "tens": 5857,
  "pped": 5858,
  "atory": 5859,
  "solutions": 5860,
  "\u4fee": 5861,
  "\u5438\u53ce": 5862,
  "LI": 5863,
  "ked": 5864,
  "\u30d0\u30a4\u30aa": 5865,
  "\u65b9\u304c": 5866,
  "\u30e6": 5867,
  "tag": 5868,
  "\u3082\u306e\u306f": 5869,
  "\u3057\u305f\u5f8c": 5870,
  "TI": 5871,
  "proposed": 5872,
  "\u30ef\u30fc": 5873,
  "struct": 5874,
  "\u521d\u671f": 5875,
  "\u6642\u671f": 5876,
  "\u6295\u7968": 5877,
  "Ce": 5878,
  "nn": 5879,
  "\u30c8\u30ed": 5880,
  "enterprise": 5881,
  "\u2581launch": 5882,
  "\u2581\u5404": 5883,
  "\u3059\u308b\u65b9\u6cd5": 5884,
  "launch": 5885,
  "operations": 5886,
  "\u30b8\u30e3\u30fc": 5887,
  "Yahoo": 5888,
  "ick": 5889,
  "parts": 5890,
  "\u2581medical": 5891,
  "\u793e\u4f1a\u7684": 5892,
  "\u5e30": 5893,
  "\u606f\u5b50": 5894,
  "\u4eba\u5de5": 5895,
  "sup": 5896,
  "example": 5897,
  "\u5727\u7e2e": 5898,
  "\u2581photo": 5899,
  "designed": 5900,
  "\u30f6\u6708": 5901,
  "\u308b\u306e": 5902,
  "upon": 5903,
  "\u535a\u58eb": 5904,
  "August": 5905,
  "driving": 5906,
  "\u5408\u3046": 5907,
  "\u3079": 5908,
  "\u5883\u754c": 5909,
  "\u304a\u91d1": 5910,
  "\u5fdc": 5911,
  "GO": 5912,
  "\u9650\u5b9a": 5913,
  "\u30d3\u30eb\u30c9": 5914,
  "\u725b": 5915,
  "\u2581Ltd": 5916,
  "virus": 5917,
  "\u2581plant": 5918,
  "\u2581John": 5919,
  "\u53ef\u80fd\u3067\u3059": 5920,
  "note": 5921,
  "\u3057\u3088\u3046": 5922,
  "\u89b3\u5bdf": 5923,
  "mic": 5924,
  "asingle": 5925,
  "wayto": 5926,
  "\u5546\u696d": 5927,
  "TC": 5928,
  "scope": 5929,
  "\u307e\u3063\u305f\u304f": 5930,
  "\u7a2e\u985e": 5931,
  "Sc": 5932,
  "\u5341\u5206\u306a": 5933,
  "IM": 5934,
  "investment": 5935,
  "\u2581conditions": 5936,
  "cells": 5937,
  "\u2581\u4ed6\u306e": 5938,
  "\u59cb\u3081": 5939,
  "\u8a8d\u5b9a": 5940,
  "DM": 5941,
  "tie": 5942,
  "\u7832": 5943,
  "\u2581currently": 5944,
  "\u8af8": 5945,
  "\u3064\u307e\u308a": 5946,
  "andits": 5947,
  "Cl": 5948,
  "Qu": 5949,
  "\u6559\u5e2b": 5950,
  "SS": 5951,
  "wait": 5952,
  "\u5408\u610f": 5953,
  "components": 5954,
  "\u2581Free": 5955,
  "commercial": 5956,
  "\u6b69\u3044\u3066": 5957,
  "ram": 5958,
  "\u2581rooms": 5959,
  "sheet": 5960,
  "\u751f\u307e\u308c\u305f": 5961,
  "soft": 5962,
  "\u30f4\u30a1": 5963,
  "\u2581living": 5964,
  "\u2581\u4e00\u65b9": 5965,
  "\u2581Advertisement": 5966,
  "connected": 5967,
  "certain": 5968,
  "\u30ed\u30fc\u30ab\u30eb": 5969,
  "asked": 5970,
  "\u4e71": 5971,
  "\u30d8\u30c3\u30c9": 5972,
  "\u3067\u304d\u307e\u305b\u3093": 5973,
  "\u570f": 5974,
  "shows": 5975,
  "withan": 5976,
  "\u2581\u3042\u308b": 5977,
  "\u306b\u5411\u304b\u3063\u3066": 5978,
  "\u2581providing": 5979,
  "\u50cd\u304d": 5980,
  "\u5468\u8fba": 5981,
  "\u2581wh": 5982,
  "\u6b63\u78ba\u306a": 5983,
  "\u2581metal": 5984,
  "Prefecture": 5985,
  "\u652f\u6301": 5986,
  "\u9045\u308c": 5987,
  "WS": 5988,
  "develop": 5989,
  "died": 5990,
  "\u2581higher": 5991,
  "\u5a18": 5992,
  "\u30af\u30bf\u30fc": 5993,
  "\u30a6\u30a7\u30a4": 5994,
  "\u5074\u9762": 5995,
  "\u6bcd\u89aa": 5996,
  "\u2581button": 5997,
  "\u632f\u52d5": 5998,
  "\u25812019": 5999,
  "\u30da\u30c3\u30c8": 6000,
  "\u96fb\u6e90": 6001,
  "\u2581sitting": 6002,
  "\u30d0\u30c3\u30c6\u30ea\u30fc": 6003,
  "\u30e2\u30ce": 6004,
  "\u25812007": 6005,
  "\u2581land": 6006,
  "\u30d1\u30e9": 6007,
  "\u2581\u306a\u304a": 6008,
  "master": 6009,
  "\u306b\u3044\u307e\u3059": 6010,
  "nature": 6011,
  "construct": 6012,
  "\u2581\u3042\u306a\u305f": 6013,
  "season": 6014,
  "sitting": 6015,
  "\u30b9\u306e": 6016,
  "\u547d\u4ee4": 6017,
  "\u4fe1\u983c\u6027": 6018,
  "\u3092\u4f7f\u3044": 6019,
  "\u517c": 6020,
  "sc": 6021,
  "ae": 6022,
  "mass": 6023,
  "\u9023\u90a6": 6024,
  "\u3057\u305f\u304c": 6025,
  "wel": 6026,
  "?\"": 6027,
  "\u6642\u306b\u306f": 6028,
  "\u307e\u308c": 6029,
  "\u8a71\u3092": 6030,
  "\u901a\u5e38\u306e": 6031,
  "staff": 6032,
  "TH": 6033,
  "\u30a2\u30f3\u30c9": 6034,
  "dge": 6035,
  "\u30ed\u30b0": 6036,
  "\u6c37": 6037,
  "option": 6038,
  "input": 6039,
  "butthe": 6040,
  "\u5c0e": 6041,
  "whenyou": 6042,
  "\u52a9": 6043,
  "\u732b": 6044,
  "walking": 6045,
  "\u30cb\u30e5\u30fc\u30e9\u30eb\u30cd\u30c3\u30c8\u30ef\u30fc\u30af": 6046,
  "\u4f55\u304c": 6047,
  "\u30bf\u30f3\u30d1\u30af\u8cea": 6048,
  "\u6570\u5024": 6049,
  "\u30c3\u30c1": 6050,
  "\u2581received": 6051,
  "\u8f2a": 6052,
  "\u305d\u308c\u306b": 6053,
  "\u3044\u3066\u3044\u308b": 6054,
  "\u30a4\u30aa\u30f3": 6055,
  "\u60f3": 6056,
  "operating": 6057,
  "\u2581behavior": 6058,
  "\u305a\u306b": 6059,
  "\u2581leading": 6060,
  "\u5ba3\u8a00": 6061,
  "\u5de5\u5b66": 6062,
  "wu": 6063,
  "\u2581word": 6064,
  "\u682a\u5f0f": 6065,
  "probably": 6066,
  "sense": 6067,
  "\u3089\u305a": 6068,
  "\u5916\u56fd\u4eba": 6069,
  "\u6ec5": 6070,
  "\u5408\u3044": 6071,
  "\u4e7e\u71e5": 6072,
  "impact": 6073,
  "rail": 6074,
  "\u306b\u5ea7\u3063\u3066\u3044\u307e\u3059": 6075,
  "\u201d,": 6076,
  "tax": 6077,
  "med": 6078,
  "\u5927\u5b66\u306e": 6079,
  "\u2581purpose": 6080,
  "\u751f\u5f92": 6081,
  "\u9ad8\u5ea6\u306a": 6082,
  "\u4e0b\u306e": 6083,
  "\u30eb\u30fc\u30c8": 6084,
  "\u306a\u3057": 6085,
  "\u5177": 6086,
  "rise": 6087,
  "\u2581details": 6088,
  "\u5f7c": 6089,
  "currently": 6090,
  "\u3089\u3057\u3044": 6091,
  "\u306b\u304a\u3044\u3066\u306f": 6092,
  "\u30b0\u30ea": 6093,
  "pel": 6094,
  "IR": 6095,
  "\u884c\u3063\u305f": 6096,
  "located": 6097,
  "\u30ab\u30b9\u30bf\u30e0": 6098,
  "Sp": 6099,
  "\u30b7\u30e3\u30fc": 6100,
  "fore": 6101,
  "44": 6102,
  "\u2581Therefore": 6103,
  "har": 6104,
  "factory": 6105,
  "kind": 6106,
  "\u2581April": 6107,
  "\u7de8": 6108,
  "\u6279\u5224": 6109,
  "\u2581watch": 6110,
  "\u3060\u3063\u3066": 6111,
  "\u5e74\u9f62": 6112,
  "\u7fbd": 6113,
  "\u2581click": 6114,
  "IL": 6115,
  "kyo": 6116,
  "ore": 6117,
  "\u6642\u8a08": 6118,
  "mate": 6119,
  "movement": 6120,
  "\u306e\u5927": 6121,
  "\u8ee2\u9001": 6122,
  "aswell": 6123,
  "\u539f\u5247": 6124,
  "\u25812009": 6125,
  "\u2581technical": 6126,
  "billion": 6127,
  "setting": 6128,
  "\u9806": 6129,
  "\u80f8": 6130,
  "offering": 6131,
  "shop": 6132,
  "\u3082\u3063\u3068\u3082": 6133,
  "brain": 6134,
  "\u5de5\u7a0b": 6135,
  "\u30b7\u30c6\u30a3": 6136,
  "\u2581Qu": 6137,
  "\u6fc3\u5ea6": 6138,
  "\u5b66\u8005": 6139,
  "\u2581hair": 6140,
  "\u5b66\u7684": 6141,
  "ISO": 6142,
  "ingto": 6143,
  "):": 6144,
  "protocol": 6145,
  "developing": 6146,
  "\u606f": 6147,
  "\u30bb\u30f3": 6148,
  "\u5bb3": 6149,
  "highly": 6150,
  "39": 6151,
  "\u3057\u305f\u5834\u5408": 6152,
  "wh": 6153,
  "DVD": 6154,
  "October": 6155,
  "accessto": 6156,
  "\u2581direction": 6157,
  "ency": 6158,
  "enter": 6159,
  "\u2581society": 6160,
  "86": 6161,
  "WA": 6162,
  "\u57fa\u672c": 6163,
  "\u7d9a\u304f": 6164,
  "\u2581Ju": 6165,
  "\u3055\u3048": 6166,
  "manage": 6167,
  "\u2581Application": 6168,
  "\u516b": 6169,
  "\u30b3\u30f3\u30bb\u30d7\u30c8": 6170,
  "\u3054\u5229\u7528": 6171,
  "\u30a4\u30f3\u30bf\u30fc\u30d5\u30a7\u30fc\u30b9": 6172,
  "\u3059\u308b\u5fc5\u8981\u304c\u3042\u308b": 6173,
  "foreign": 6174,
  "\u4eca\u5e74": 6175,
  "\u2581yeah": 6176,
  "\u898f\u6a21": 6177,
  "\u79d8\u5bc6": 6178,
  "\u63a8\u5968": 6179,
  "\u4e00\u65b9": 6180,
  "inner": 6181,
  "\u5ead": 6182,
  "\u30d7\u30ec": 6183,
  "\u2581interface": 6184,
  "\u53c2": 6185,
  "\u3057\u305f\u3082\u306e": 6186,
  "\u2581scale": 6187,
  "military": 6188,
  "\u816b": 6189,
  "\u57fa\u672c\u7684\u306a": 6190,
  "\u8a18\u5ff5": 6191,
  "environmental": 6192,
  "\u6570\u5b57": 6193,
  "\u5909\u6570": 6194,
  "venue": 6195,
  "SHI": 6196,
  "\u65e5\u672c\u3067": 6197,
  "\u5145\u96fb": 6198,
  "EE": 6199,
  "ada": 6200,
  "\u30b9\u30c8\u30a2": 6201,
  "\u3092\u3088\u308a": 6202,
  "\u3066\u3044\u307e\u3057\u305f": 6203,
  "\u5efa": 6204,
  "\u6d25": 6205,
  "100%": 6206,
  "\u30b9\u30b1\u30fc\u30eb": 6207,
  "\u8a31": 6208,
  "dd": 6209,
  "\u2581Services": 6210,
  "\u304c\u3067\u304d\u308b": 6211,
  "week": 6212,
  "Pre": 6213,
  "\u2581June": 6214,
  "phy": 6215,
  "\u30b7\u30fc\u30ba\u30f3": 6216,
  "\u2581OS": 6217,
  "mountain": 6218,
  "fly": 6219,
  "\u866b": 6220,
  "count": 6221,
  "\u30af\u30ea\u30c3\u30af": 6222,
  "\u4e3b\u306a": 6223,
  "\u8ab0\u304b": 6224,
  "success": 6225,
  "\u00b0": 6226,
  "hour": 6227,
  "\u30de\u30a4\u30eb": 6228,
  "\u306b\u5165\u308b": 6229,
  "\u660e\u3089\u304b\u306b": 6230,
  "tel": 6231,
  "factor": 6232,
  "drop": 6233,
  "\u307e\u307e": 6234,
  "\u8001": 6235,
  "\u80b2": 6236,
  "ume": 6237,
  "\u6ce8\u76ee": 6238,
  "\u2581employees": 6239,
  "\u53c2\u52a0\u8005": 6240,
  "\u6d3b\u6027": 6241,
  "rid": 6242,
  "interface": 6243,
  "nit": 6244,
  "\u30b7\u30e7\u30f3": 6245,
  "\u55b6": 6246,
  "\u56de\u7b54": 6247,
  "lost": 6248,
  "IE": 6249,
  "\u2581Europe": 6250,
  "\u88c1\u5224\u6240": 6251,
  "\u2581seems": 6252,
  "\u30b5\u30a4\u30c9": 6253,
  "\u808c": 6254,
  "perfect": 6255,
  "\u6df1\u304f": 6256,
  "wing": 6257,
  "\u30d7\u30e9\u30b0\u30a4\u30f3": 6258,
  "\u2581quickly": 6259,
  "\u89b3\u5149": 6260,
  "\u983c": 6261,
  "\u306b\u306a\u308a\u307e\u3057\u305f": 6262,
  "\u5c11": 6263,
  "\u2581General": 6264,
  "\u75c7\u72b6": 6265,
  "\u2581\u3044\u3044": 6266,
  "\u65b9\u6cd5\u3092": 6267,
  "\u2581touch": 6268,
  "\u96c6\u5408": 6269,
  "\u30f4": 6270,
  "Kubernetes": 6271,
  "\u8ca0\u8377": 6272,
  "\u30de\u30a6\u30b9": 6273,
  "\u3055\u307e": 6274,
  "\u2581wait": 6275,
  "\u2581ball": 6276,
  "\u3055\u308c\u306a\u3044": 6277,
  "eating": 6278,
  "\u80ba": 6279,
  "\u30bb\u30c3\u30b7\u30e7\u30f3": 6280,
  "\u6709\u6a5f": 6281,
  "mission": 6282,
  "++": 6283,
  "\u306e\u8a2d\u8a08": 6284,
  "distance": 6285,
  "\u2581hit": 6286,
  "38": 6287,
  "glass": 6288,
  "\u30d7\u30e9\u30a4\u30d0\u30b7\u30fc": 6289,
  "\u2581Inaddition": 6290,
  "nes": 6291,
  "CP": 6292,
  "\u2581fine": 6293,
  "youare": 6294,
  "\u2581quite": 6295,
  "\u30d5\u30a3\u30eb\u30e0": 6296,
  "\u2581attack": 6297,
  "forward": 6298,
  "package": 6299,
  "\u514d\u75ab": 6300,
  "IoT": 6301,
  "update": 6302,
  "Ex": 6303,
  "OF": 6304,
  "\u2581[[": 6305,
  "\u8a2d\u7f6e": 6306,
  "\u2581download": 6307,
  "EP": 6308,
  "CL": 6309,
  "shape": 6310,
  "\u304c\u9ad8\u3044": 6311,
  "\u624b\u3092": 6312,
  "\u2581Office": 6313,
  "\u2581review": 6314,
  "\u2581board": 6315,
  "\u304f\u306a\u308b": 6316,
  "\u2581Ru": 6317,
  "\u2581travel": 6318,
  "ofhis": 6319,
  "output": 6320,
  "\u7814\u7a76\u8005": 6321,
  "hack": 6322,
  "\u3059\u308b\u3088\u3046\u306b": 6323,
  "\u2581simply": 6324,
  "\u6307\u5c0e": 6325,
  "damage": 6326,
  "ros": 6327,
  "limit": 6328,
  "\u2581Azure": 6329,
  "\u6c34\u7d20": 6330,
  "MC": 6331,
  "seven": 6332,
  "\u30b9\u30af": 6333,
  "\u2581century": 6334,
  "conference": 6335,
  "SQL": 6336,
  "normal": 6337,
  "\u2581everyone": 6338,
  "column": 6339,
  "\u2581led": 6340,
  "Fo": 6341,
  "\u8b70": 6342,
  "Kit": 6343,
  "\u5e97\u8217": 6344,
  "TER": 6345,
  "tio": 6346,
  "\u2581America": 6347,
  "saving": 6348,
  "\u7167": 6349,
  "written": 6350,
  "Je": 6351,
  "news": 6352,
  "\u58f2\u308a": 6353,
  "\u30c7\u30b9\u30af\u30c8\u30c3\u30d7": 6354,
  "RS": 6355,
  "\u6cb3": 6356,
  "\u2581storage": 6357,
  "appropriate": 6358,
  "\u2581Furthermore": 6359,
  "\u2581connection": 6360,
  "000": 6361,
  "\u83ef": 6362,
  "\u2581true": 6363,
  "disease": 6364,
  "\u6642\u9593\u306e": 6365,
  "\u306e\u30c7\u30fc\u30bf": 6366,
  "\u96e2": 6367,
  "\u2581coming": 6368,
  "\u2581subject": 6369,
  "FC": 6370,
  "formed": 6371,
  "\u2581takes": 6372,
  "\u307f\u3093\u306a": 6373,
  "behind": 6374,
  "\u5ef6": 6375,
  "\u307b": 6376,
  "\u3092\u4e2d\u5fc3\u306b": 6377,
  "\u30b7\u30a7\u30a2": 6378,
  "eh": 6379,
  "\u2581final": 6380,
  "couldbe": 6381,
  "ease": 6382,
  "\u3055\u308c\u308b\u3053\u3068": 6383,
  "\u3001\u300e": 6384,
  "\u2581needed": 6385,
  "\u6539": 6386,
  "ration": 6387,
  "\u5c04": 6388,
  "physical": 6389,
  "\u30ad\u30ed": 6390,
  "\u9078\u629e\u80a2": 6391,
  "\u2581files": 6392,
  "\u6797": 6393,
  "\u5bfe\u8a71": 6394,
  "\u6eb6": 6395,
  "\u3089\u308c\u306a\u3044": 6396,
  "\u3042\u308c": 6397,
  "\u306c": 6398,
  "\u3044\u3064\u3082": 6399,
  "och": 6400,
  "85": 6401,
  "\u2581Model": 6402,
  "dby": 6403,
  "\u5927\u962a": 6404,
  "percent": 6405,
  "\u2581Any": 6406,
  "rock": 6407,
  "\u6c38": 6408,
  "\u5de8\u5927\u306a": 6409,
  "\u2581Ku": 6410,
  "\u5f62\u3067": 6411,
  "\u5c4b\u5916": 6412,
  "actor": 6413,
  "250": 6414,
  "decision": 6415,
  "\u30af\u30ea": 6416,
  "\u30b7\u30f3\u30b0\u30eb": 6417,
  "\u3092\u5b9f\u73fe\u3059\u308b": 6418,
  "\u30ab\u30b9\u30bf\u30de\u30a4\u30ba": 6419,
  "\u2581rest": 6420,
  "\u2581acid": 6421,
  "\u540c\u671f": 6422,
  "ved": 6423,
  "kg": 6424,
  "\u3092\u3057\u305f": 6425,
  "bel": 6426,
  "\u516d": 6427,
  "cus": 6428,
  "\u7686": 6429,
  "vers": 6430,
  "\u2581fun": 6431,
  "\u2581road": 6432,
  "\u2581School": 6433,
  "gene": 6434,
  "avi": 6435,
  "\u3053\u3068\u306b\u3088\u3063\u3066": 6436,
  "meet": 6437,
  "\u57df": 6438,
  "\u5168\u90e8": 6439,
  "select": 6440,
  "\u6700\u9069": 6441,
  "static": 6442,
  "Model": 6443,
  "\u306b\u53c2\u52a0": 6444,
  "\u2581Shi": 6445,
  "\u2581pr": 6446,
  "\u68ee": 6447,
  "\u2581pe": 6448,
  "Python": 6449,
  "\u2581trade": 6450,
  "\u5e73\u548c": 6451,
  "KA": 6452,
  "\u258119": 6453,
  "\u8208\u5473\u6df1\u3044": 6454,
  "GE": 6455,
  "\u306f\u3069\u3046": 6456,
  "\u2581economic": 6457,
  "\u306e\u6539\u5584": 6458,
  "\u5316\u3059\u308b": 6459,
  "\u611f\u899a": 6460,
  "\u30aa\u30d5": 6461,
  "\u691c": 6462,
  "organ": 6463,
  "\u308b\u3053\u3068\u304c\u3067\u304d\u308b": 6464,
  "\u5370": 6465,
  "\u533b\u5b66": 6466,
  "inyour": 6467,
  "\u4ea4\u6e09": 6468,
  "\u533b\u5e2b": 6469,
  "\u4e00\u90e8\u306e": 6470,
  "col": 6471,
  "\u30d7\u30ed\u30c8\u30b3\u30eb": 6472,
  "\u30d9\u30fc": 6473,
  "\u6211\u3005": 6474,
  "uri": 6475,
  "cher": 6476,
  "meal": 6477,
  "\u5c11\u5973": 6478,
  "Station": 6479,
  "\u5171\u901a": 6480,
  "expect": 6481,
  "\u2581activity": 6482,
  "\u2581forward": 6483,
  "\u2581record": 6484,
  "\u5909\u52d5": 6485,
  "\u3059\u308b\u3068\u3044\u3046": 6486,
  "\u30b0\u30e9": 6487,
  "\u306b\u8ca2\u732e": 6488,
  "\u2581choose": 6489,
  "eachother": 6490,
  "Ku": 6491,
  "\u2581included": 6492,
  "\u3066\u3057\u307e\u3046": 6493,
  "\u3066\u304d\u307e\u3057\u305f": 6494,
  "\u4ea4\u6d41": 6495,
  "\u2581exist": 6496,
  "inga": 6497,
  "\u306b\u51fa": 6498,
  "\u3082\u306e\u306b": 6499,
  "ction": 6500,
  "\u304b\u304b\u308b": 6501,
  "\u30dd\u30fc": 6502,
  "\u30d4\u30f3": 6503,
  "Company": 6504,
  "\u2581basic": 6505,
  "\u30bf\u30d6\u30ec\u30c3\u30c8": 6506,
  "rough": 6507,
  "\u2581former": 6508,
  "\u3053\u3053\u306b": 6509,
  "\u7121\u7dda": 6510,
  "\u6307\u793a": 6511,
  "\u4e57\u308a": 6512,
  "FI": 6513,
  "\u2581Pr": 6514,
  "perform": 6515,
  "yard": 6516,
  "\u7d71\u8a08": 6517,
  "\u7db2": 6518,
  "\u5973\u6027\u306e": 6519,
  "\u53f2": 6520,
  "\u2581break": 6521,
  "180": 6522,
  "\u786c": 6523,
  "gin": 6524,
  "connect": 6525,
  "chu": 6526,
  "European": 6527,
  "influence": 6528,
  "\u306a\u3055\u3044": 6529,
  "\u30a8\u30a2": 6530,
  "cancer": 6531,
  "\u5bb6\u5ead": 6532,
  "\u3092\u9ad8\u3081\u308b": 6533,
  "\u30e2\u30c7\u30eb\u306f": 6534,
  "\u2581manufacturing": 6535,
  "central": 6536,
  "\u306e\u6a5f\u80fd": 6537,
  "killed": 6538,
  "\u2581distribution": 6539,
  "JVM": 6540,
  "\u3092\u6c42\u3081\u308b": 6541,
  "\u2581clean": 6542,
  "\u5fc5\u305a": 6543,
  "minister": 6544,
  "reference": 6545,
  "\u96c7\u7528": 6546,
  "ode": 6547,
  "\u6b62\u3081": 6548,
  "\u3044\u305f\u3060\u304f": 6549,
  "\u7ae0": 6550,
  "snow": 6551,
  "bor": 6552,
  "\u6709\u540d": 6553,
  "\u2581fr": 6554,
  "len": 6555,
  "\u798f": 6556,
  "advanced": 6557,
  "\u306e\u691c\u8a0e": 6558,
  "\u30d9\u30b9\u30c8": 6559,
  "\u3084\u308b": 6560,
  "\u30e1\u30ea\u30c3\u30c8": 6561,
  "\u70ba": 6562,
  "\u76db": 6563,
  "\u3088\u308a\u591a\u304f\u306e": 6564,
  "\u30a2\u30d7\u30ea\u306e": 6565,
  "\u5e95": 6566,
  "\u7dd1": 6567,
  "thatwe": 6568,
  "cc": 6569,
  "\u3061\u3087\u3063\u3068": 6570,
  "\u6642\u70b9\u3067": 6571,
  "\u2581financial": 6572,
  "\u2581supply": 6573,
  "butalso": 6574,
  "\u2581news": 6575,
  "\u96a0": 6576,
  "\u8a3c\u660e": 6577,
  "IBM": 6578,
  "\u2581July": 6579,
  "internal": 6580,
  "\u2581delivery": 6581,
  "\u5409": 6582,
  "\u4e00\u9023\u306e": 6583,
  "teen": 6584,
  "\u554f\u984c\u306f": 6585,
  "\u73fe\u5730": 6586,
  "chart": 6587,
  "toyour": 6588,
  "ists": 6589,
  "functions": 6590,
  "OP": 6591,
  "\u30c8\u30e9\u30f3\u30b9": 6592,
  "2005": 6593,
  "\u89e3\u91c8": 6594,
  "\u5f53\u521d": 6595,
  "\u6b32\u3057\u3044": 6596,
  "\u304f\u3089\u3044": 6597,
  "\u2581largest": 6598,
  "\u81ea\u5206\u304c": 6599,
  "\u4f9d\u5b58": 6600,
  "Docker": 6601,
  "\u2581AWS": 6602,
  "\u30b3\u30fc\u30c9\u3092": 6603,
  "initiative": 6604,
  "\u63d0\u51fa": 6605,
  "cul": 6606,
  "\u2581thi": 6607,
  "FS": 6608,
  "lake": 6609,
  "began": 6610,
  "\u6642\u4ee3\u306e": 6611,
  "\u639b\u3051": 6612,
  "\u2581skin": 6613,
  "\u8d64\u3044": 6614,
  "receive": 6615,
  "\u9577\u5e74": 6616,
  "tryingto": 6617,
  "\u6bd4\u8f03\u7684": 6618,
  "gl": 6619,
  "\u8003\u3048\u65b9": 6620,
  "RC": 6621,
  "\u6238": 6622,
  "designer": 6623,
  "Change": 6624,
  "protection": 6625,
  "developer": 6626,
  "\u2581disease": 6627,
  "\u7a0b\u5ea6": 6628,
  "\u306e\u4e0b\u3067": 6629,
  "\u79c1\u305f\u3061\u304c": 6630,
  "\u6280\u8853\u306e": 6631,
  "\u8ab0\u3082": 6632,
  "\u2581Emperor": 6633,
  "\u8eca\u306e": 6634,
  "fee": 6635,
  "\u5730\u9707": 6636,
  "USB": 6637,
  "PM": 6638,
  "\u2581September": 6639,
  "\u2581term": 6640,
  "\u2581words": 6641,
  "High": 6642,
  "\u516c\u5171": 6643,
  "correct": 6644,
  "JS": 6645,
  "figure": 6646,
  "MB": 6647,
  "vehicle": 6648,
  ");": 6649,
  "PT": 6650,
  "useful": 6651,
  "\u2581write": 6652,
  "\u2581box": 6653,
  "\u2581solutions": 6654,
  "spot": 6655,
  "proof": 6656,
  "\u30db\u30b9\u30c8": 6657,
  "\u2581French": 6658,
  "\u2581browser": 6659,
  "\u2581j": 6660,
  "Sun": 6661,
  "\u5e74\u4ee5\u4e0a": 6662,
  "\u30d3\u30b8\u30e7\u30f3": 6663,
  "native": 6664,
  "\u2581Business": 6665,
  "\u751f\u547d": 6666,
  "\u30ab\u30d0\u30fc": 6667,
  "\u8840\u7ba1": 6668,
  "manager": 6669,
  "(2)": 6670,
  "\u679a": 6671,
  "\u2581looks": 6672,
  "\u5f79\u5272": 6673,
  "\u306a\u304f\u3066\u3082": 6674,
  "\u5acc": 6675,
  "items": 6676,
  "\u5f97": 6677,
  "\u306b\u52a0\u3048": 6678,
  "\u9867\u5ba2\u306e": 6679,
  "GC": 6680,
  "\u5272": 6681,
  "\u306b\u63a5\u7d9a": 6682,
  "\u3066\u3082": 6683,
  "\u6d77\u8ecd": 6684,
  "xt": 6685,
  "\u5927\u81e3": 6686,
  "therapy": 6687,
  "\u2581\u4ffa": 6688,
  "\u3092\u958b\u59cb": 6689,
  "ric": 6690,
  "told": 6691,
  "\u6c17\u6301\u3061": 6692,
  "\u2581\u3053\u308c\u306b\u3088\u308a": 6693,
  "\u2581tea": 6694,
  "zi": 6695,
  "\u30d7\u30eb": 6696,
  "tube": 6697,
  "\u306f\u3059\u3079\u3066": 6698,
  "plate": 6699,
  "volume": 6700,
  "\u5730\u56f3": 6701,
  "reach": 6702,
  "53": 6703,
  "\u3067\u3082\u3042\u308b": 6704,
  "\u5927\u4eba": 6705,
  "een": 6706,
  "\u2581cover": 6707,
  "\u2581direct": 6708,
  "\u2581picture": 6709,
  "\u2581Agile": 6710,
  "\u898b\u305f": 6711,
  "\u2581decision": 6712,
  "\u6280\u8853\u3092": 6713,
  "\u30c7\u30e2": 6714,
  "\u2581resources": 6715,
  "church": 6716,
  "\u4f1d\u7d71\u7684\u306a": 6717,
  "\u4ecf": 6718,
  "\u554f": 6719,
  "\u6e7e": 6720,
  "acy": 6721,
  "signal": 6722,
  "editor": 6723,
  "Master": 6724,
  "starting": 6725,
  "efficient": 6726,
  "\u2581deliver": 6727,
  "else": 6728,
  "\u6c5a\u67d3": 6729,
  "famous": 6730,
  "\u99d0\u8eca\u5834": 6731,
  "\u30c1\u30a7": 6732,
  "Lu": 6733,
  "\u643a\u5e2f": 6734,
  "apply": 6735,
  "\u2581CEO": 6736,
  "\u2581Mu": 6737,
  "\u5f53\u8a72": 6738,
  "flat": 6739,
  "Red": 6740,
  "weak": 6741,
  "\u30d6\u30e9\u30c3\u30af": 6742,
  "answer": 6743,
  "ces": 6744,
  "ride": 6745,
  "\u2581memory": 6746,
  "following": 6747,
  "\u30b7\u30a2": 6748,
  "\u2581additional": 6749,
  "agile": 6750,
  "\u2581wall": 6751,
  "\u2581attention": 6752,
  "\u9670": 6753,
  "oneof": 6754,
  "\u2581Si": 6755,
  "\u2581AI": 6756,
  "49": 6757,
  "\u969b\u306b": 6758,
  "firm": 6759,
  "\u2581contract": 6760,
  "ls": 6761,
  "\u3042\u305f\u308a": 6762,
  "rules": 6763,
  "hear": 6764,
  "\u2581cross": 6765,
  "\u2581mode": 6766,
  "\u30df\u30c3\u30b7\u30e7\u30f3": 6767,
  "\u6df1": 6768,
  "\u8d64\u3061\u3083\u3093": 6769,
  "regard": 6770,
  "\u8c4a": 6771,
  "\u30a4\u30eb": 6772,
  "\u3068\u8ff0\u3079\u305f": 6773,
  "political": 6774,
  "tk": 6775,
  "determined": 6776,
  "\u2581cells": 6777,
  "\u2581shows": 6778,
  "\u2581IT": 6779,
  "\u2581\u305d\u308c\u3067": 6780,
  "BI": 6781,
  "\u2581highly": 6782,
  "\u306e\u540d\u524d": 6783,
  "trick": 6784,
  "\u2581command": 6785,
  "\u30dd\u30ea\u30b7\u30fc": 6786,
  "stack": 6787,
  "clock": 6788,
  "\u30b9\u30c6\u30fc\u30b8": 6789,
  "\u63a5\u89e6": 6790,
  "\u2581operations": 6791,
  "lation": 6792,
  "Is": 6793,
  "pk": 6794,
  "decade": 6795,
  "\u53d6\u308a\u7d44\u307f": 6796,
  "\u5019\u88dc": 6797,
  "\u2581\u3053\u3053\u3067": 6798,
  "unt": 6799,
  "\u610f\u56f3": 6800,
  "\u512a": 6801,
  "\u30b9\u30c8\u30ea\u30fc\u30df\u30f3\u30b0": 6802,
  "\u2581collection": 6803,
  "dimensional": 6804,
  "\u2581London": 6805,
  "\u554f\u984c\u3092": 6806,
  "goal": 6807,
  "\u30d0\u30b0": 6808,
  "\u2581goal": 6809,
  "\u2581protect": 6810,
  "\u2581propose": 6811,
  "education": 6812,
  "interesting": 6813,
  "alarge": 6814,
  "\u2581Bu": 6815,
  "\u8fbc\u3093\u3067": 6816,
  "others": 6817,
  "\u8ecc\u9053": 6818,
  "\u2581\u4e00": 6819,
  "\u3068\u3044\u3046\u306e\u306f": 6820,
  "\u2581yes": 6821,
  "\u2581round": 6822,
  "Dis": 6823,
  "\u3044\u304f\u3064\u304b": 6824,
  "\u3093\u3067\u3044\u308b": 6825,
  "HTTP": 6826,
  "OL": 6827,
  "\u2581Ch": 6828,
  "\u2581January": 6829,
  "ional": 6830,
  "nothing": 6831,
  "comes": 6832,
  "\u30c7\u30a3\u30b9\u30af": 6833,
  "ations": 6834,
  "\u4e8b\u9805": 6835,
  "ette": 6836,
  "\u30c9\u30e9\u30a4\u30d6": 6837,
  "\u2581force": 6838,
  "Design": 6839,
  "\u30d3\u30f3": 6840,
  "47": 6841,
  "Shi": 6842,
  "thr": 6843,
  "\u2581longer": 6844,
  "\u60c5\u5831\u306e": 6845,
  "\u5f35": 6846,
  "introduced": 6847,
  "\u2581Te": 6848,
  "launched": 6849,
  "\u4eba\u985e": 6850,
  "\u3066\u304a\u308a\u307e\u3059": 6851,
  "\u809d": 6852,
  "andis": 6853,
  "\u96c6\u4e2d": 6854,
  "\u79fb\u884c": 6855,
  "worth": 6856,
  "Da": 6857,
  "\u2581reach": 6858,
  "\u30d6\u30ea": 6859,
  "ye": 6860,
  "\u30d7\u30ea": 6861,
  "\u2581Technology": 6862,
  "\u30e9\u30e0": 6863,
  "ux": 6864,
  "\u3057\u306a\u304b\u3063\u305f": 6865,
  "\u2581core": 6866,
  "aging": 6867,
  "\u5927\u898f\u6a21": 6868,
  "\u2581Gr": 6869,
  "\u2581mis": 6870,
  "gue": 6871,
  "wherethe": 6872,
  "\u30de\u30fc\u30b1\u30c3\u30c8": 6873,
  "\u2581loss": 6874,
  "SOA": 6875,
  "ingand": 6876,
  "ius": 6877,
  "\u30d5\u30a9\u30fc\u30de\u30c3\u30c8": 6878,
  "\u30d1\u30fc\u30af": 6879,
  "\u623f": 6880,
  "\u30ad\u30e3\u30ea\u30a2": 6881,
  "plastic": 6882,
  "\u30a4\u30f3\u30bf\u30d3\u30e5\u30fc": 6883,
  "tent": 6884,
  "\u2581Lu": 6885,
  "ney": 6886,
  "\u30a2\u30a4\u30c6\u30e0": 6887,
  "\u4e16\u754c\u3067": 6888,
  "\u2581window": 6889,
  "\u2581instance": 6890,
  "Ju": 6891,
  "\u7642\u6cd5": 6892,
  "GitHub": 6893,
  "thermal": 6894,
  "\u2581components": 6895,
  "seem": 6896,
  "\u3053\u3046\u3057\u305f": 6897,
  "\u3067\u3042\u308c\u3070": 6898,
  "\u3068\u540c\u6642\u306b": 6899,
  "Internet": 6900,
  "\u30d5\u30a1\u30a4": 6901,
  "\u2581\u3059\u3079\u3066\u306e": 6902,
  "\u539a": 6903,
  "III": 6904,
  "\u5230\u7740": 6905,
  "\u6563": 6906,
  "sby": 6907,
  "\u7533\u8acb": 6908,
  "competitive": 6909,
  "\u5e74\u307e\u3067": 6910,
  "\u990a": 6911,
  "\u3053\u3068\u304c\u3042\u308b": 6912,
  "moment": 6913,
  "\u2581creating": 6914,
  "\u306e\u3082\u3068": 6915,
  "writer": 6916,
  "\u7720": 6917,
  "growing": 6918,
  "\u306a\u304f\u306a\u308b": 6919,
  "\u2581Another": 6920,
  "moto": 6921,
  "upgrade": 6922,
  "\u6050\u308c": 6923,
  "older": 6924,
  "burn": 6925,
  "Ye": 6926,
  "habit": 6927,
  "\u2581Ti": 6928,
  "\u3067\u306a\u3044": 6929,
  "IDE": 6930,
  "ators": 6931,
  "\u2581capital": 6932,
  "\u2581State": 6933,
  "\u2581\u591a\u304f\u306e": 6934,
  "protein": 6935,
  "\u5f53\u5c40": 6936,
  "\u3082\u306e\u3068": 6937,
  "completely": 6938,
  "\u3044\u305f\u3060\u3051\u307e\u3059": 6939,
  "\u306b\u30a2\u30af\u30bb\u30b9": 6940,
  "\u7d50\u6676": 6941,
  "sthatare": 6942,
  "limited": 6943,
  "\u4ee3\u308f\u308a\u306b": 6944,
  "\u6700\u9069\u306a": 6945,
  "ris": 6946,
  "oftheir": 6947,
  "eyes": 6948,
  "\u2581exchange": 6949,
  "\u7f8e\u8853\u9928": 6950,
  "ij": 6951,
  "\u2581August": 6952,
  "\u3067\u304d\u308b\u3053\u3068": 6953,
  "node": 6954,
  "bring": 6955,
  "\u3088\u306d": 6956,
  "rh": 6957,
  "\u2581II": 6958,
  "\u52dd\u5229": 6959,
  "ants": 6960,
  "\u7d9a\u3051\u308b": 6961,
  "lets": 6962,
  "German": 6963,
  "\u2581considered": 6964,
  "\u30b9\u30c8\u30ea\u30fc\u30e0": 6965,
  "improve": 6966,
  "serv": 6967,
  "December": 6968,
  "\u3064\u304b": 6969,
  "consider": 6970,
  "document": 6971,
  "\u88fd\u306e": 6972,
  "\u30b0\u30ea\u30fc\u30f3": 6973,
  "\u3059\u308b\u3053\u3068\u306b\u3088\u308a": 6974,
  "February": 6975,
  "\u3092\u5f15\u304d": 6976,
  "\u6df7": 6977,
  "\u30c1\u30e3\u30c3\u30c8": 6978,
  "\u5f37\u5ea6": 6979,
  "\u3067\u6700\u3082": 6980,
  "Eclipse": 6981,
  "clan": 6982,
  "producing": 6983,
  "ike": 6984,
  "\u2581answer": 6985,
  "360": 6986,
  "NY": 6987,
  "\u2581proposed": 6988,
  "\u306e\u8a73\u7d30": 6989,
  "\u5468": 6990,
  "\u2581Foundation": 6991,
  "\u2581hi": 6992,
  "worked": 6993,
  "lam": 6994,
  "\u2581Act": 6995,
  "\u304c\u3093": 6996,
  "VI": 6997,
  "controlled": 6998,
  "\u9285": 6999,
  "\u30c7\u30b6\u30a4\u30ca\u30fc": 7000,
  "raw": 7001,
  "\u305d\u3053\u3067": 7002,
  "\u5dde\u306e": 7003,
  "\u2581client": 7004,
  "\u4eba\u3005\u306f": 7005,
  "\u7269\u306e": 7006,
  "\u2581PC": 7007,
  "SU": 7008,
  "pretty": 7009,
  "\u2581fall": 7010,
  "oxide": 7011,
  "Test": 7012,
  "AG": 7013,
  "\u6a39\u8102": 7014,
  "tohelp": 7015,
  "\u2581\u4eba\u306e": 7016,
  "\u30a8\u30fc\u30b8\u30a7\u30f3\u30c8": 7017,
  "depth": 7018,
  "jin": 7019,
  "Code": 7020,
  "\u7c89": 7021,
  "\u4fa1": 7022,
  "\u2581European": 7023,
  "\u805e\u304d": 7024,
  "\u2581published": 7025,
  "\u30bb\u30f3\u30c8": 7026,
  "\u7c21\u5358": 7027,
  "\u306f\u73fe\u5728": 7028,
  "\u9577\u304f": 7029,
  "rl": 7030,
  "automatically": 7031,
  "\u6574\u5099": 7032,
  "dto": 7033,
  "Apache": 7034,
  "friend": 7035,
  "\u2581Asia": 7036,
  "\u2581investment": 7037,
  "\u2581floor": 7038,
  "\u30c8\u30eb": 7039,
  "\u30e9\u30eb": 7040,
  "\u7d76": 7041,
  "\u5f97\u308b": 7042,
  "\u2581article": 7043,
  "\u76ee\u306e": 7044,
  "\u77ed\u3044": 7045,
  "keeping": 7046,
  "\u2581task": 7047,
  "tz": 7048,
  "hadbeen": 7049,
  "\u2581nothing": 7050,
  "\u2581eye": 7051,
  "SF": 7052,
  "bond": 7053,
  "ofall": 7054,
  "\u304c\u53ef\u80fd\u3067\u3059": 7055,
  "semi": 7056,
  "\u2581enterprise": 7057,
  "House": 7058,
  "handle": 7059,
  "\u5168\u54e1": 7060,
  "\u2581expression": 7061,
  "\u7cfb\u306e": 7062,
  "rating": 7063,
  "\u6c17\u306b": 7064,
  "\u751f\u3058\u308b": 7065,
  "\u7fa9\u52d9": 7066,
  "Box": 7067,
  "integration": 7068,
  "bb": 7069,
  "MT": 7070,
  "\u90ce": 7071,
  "\u2581Play": 7072,
  "\u3066\u304f\u308c\u308b": 7073,
  "\u59ff": 7074,
  "\u816b\u760d": 7075,
  "\u30c8\u30fc": 7076,
  "\u305f\u3081\u306b\u306f": 7077,
  "\u2581Prefecture": 7078,
  "withinthe": 7079,
  "zy": 7080,
  "\u4fdd\u6301": 7081,
  "\u2581Temple": 7082,
  "\u2581figure": 7083,
  "edbythe": 7084,
  "prison": 7085,
  "grow": 7086,
  "\u7acb\u3066": 7087,
  "\u540c\u793e": 7088,
  "\u5305": 7089,
  "\u2581sent": 7090,
  "hardware": 7091,
  "pack": 7092,
  "\u2581choice": 7093,
  "\u2581October": 7094,
  "\u30b1\u30fc": 7095,
  "ws": 7096,
  "\u6975\u3081\u3066": 7097,
  "XML": 7098,
  "dan": 7099,
  "parent": 7100,
  "gle": 7101,
  "\u2581Well": 7102,
  "\u3092\u751f\u6210\u3059\u308b": 7103,
  "\u30fb\u30fb\u30fb": 7104,
  "\u2581\u306f\u3044": 7105,
  "ves": 7106,
  "\u4f01\u753b": 7107,
  "\u3057\u306a\u3051\u308c\u3070\u306a\u3089\u306a\u3044": 7108,
  "\u2581Cor": 7109,
  "\u2581Study": 7110,
  "requirements": 7111,
  "ih": 7112,
  "Yama": 7113,
  "\u4f7f\u7528\u3059\u308b": 7114,
  "\u624b\u9806": 7115,
  "\u30ea\u30a2\u30eb\u30bf\u30a4\u30e0": 7116,
  "\u5546\u6a19": 7117,
  "\u2581environmental": 7118,
  "\u629c": 7119,
  "November": 7120,
  "\u507d": 7121,
  "\u5411\u3051\u306b": 7122,
  "uo": 7123,
  "FT": 7124,
  "measures": 7125,
  "past": 7126,
  "\u25812006": 7127,
  "\u306b\u3064\u3044\u3066\u3082": 7128,
  "changing": 7129,
  "para": 7130,
  "\u57fa\u790e": 7131,
  "\u2581internal": 7132,
  "\u3089\u308c\u307e\u3059": 7133,
  "Oracle": 7134,
  "\u2581wanted": 7135,
  "\u2581points": 7136,
  "\u697d\u3057\u3044": 7137,
  "needed": 7138,
  "\u306f\u3068\u3066\u3082": 7139,
  "arm": 7140,
  "\u5916\u56fd": 7141,
  "\u8b66\u544a": 7142,
  "Project": 7143,
  "\u2581Under": 7144,
  "theirown": 7145,
  "guarantee": 7146,
  "\u30c8\u30e0": 7147,
  "adjust": 7148,
  "\u3082\u306e\u304c": 7149,
  "\u7684\u3067": 7150,
  "\u2581foreign": 7151,
  "\u2581President": 7152,
  "processes": 7153,
  "Power": 7154,
  "\u73fe\u5834": 7155,
  "\u3092\u53d6\u308b": 7156,
  "\u2581Its": 7157,
  "director": 7158,
  "ationof": 7159,
  "sect": 7160,
  "\u2581significant": 7161,
  "\u304b\u3089\u306f": 7162,
  "General": 7163,
  "\u5206\u3051": 7164,
  "\u5927\u5909": 7165,
  "\u591a\u69d8\u306a": 7166,
  "\u30b9\u30d1\u30a4": 7167,
  "Chi": 7168,
  "\u8c37": 7169,
  "\u5236\u7d04": 7170,
  "gone": 7171,
  "\u9664\u53bb": 7172,
  "How": 7173,
  "Pe": 7174,
  "\u3055\u306a\u3044": 7175,
  "random": 7176,
  "\u3092\u8d85\u3048\u308b": 7177,
  "author": 7178,
  "\u30d0\u30e9": 7179,
  "120": 7180,
  "wonder": 7181,
  "\u6301\u7d9a": 7182,
  "precision": 7183,
  "\u5f85\u3063\u3066": 7184,
  "\u2581pick": 7185,
  "produced": 7186,
  "NewYork": 7187,
  "\u591a\u6570": 7188,
  "\u82e5": 7189,
  "\u30c6\u30eb": 7190,
  "\u2581Station": 7191,
  "\u2581star": 7192,
  "gave": 7193,
  "\u805e\u3044\u305f": 7194,
  "Ru": 7195,
  "Inc": 7196,
  "\u30a8\u30a2\u30b3\u30f3": 7197,
  "\u5ec3": 7198,
  "moving": 7199,
  "\u2581signal": 7200,
  "\u306e\u5909\u66f4": 7201,
  "\u9031": 7202,
  "\u2581damage": 7203,
  "\u7389": 7204,
  "mental": 7205,
  "\u9ad8\u5ea6": 7206,
  "Ke": 7207,
  "\u81ea\u5206\u3067": 7208,
  "\u3092\u53d6\u5f97": 7209,
  "\u2581changed": 7210,
  "\u5408\u91d1": 7211,
  "\u2581commercial": 7212,
  "\u2581OF": 7213,
  "ments": 7214,
  "\u4e88\u9632": 7215,
  "Uber": 7216,
  "continue": 7217,
  "\u2581court": 7218,
  "\u2581walking": 7219,
  "\u304b\u308c": 7220,
  "\u306e\u3088": 7221,
  "\u6614": 7222,
  "\u2581layer": 7223,
  "bin": 7224,
  "ole": 7225,
  "alittle": 7226,
  "\u2581success": 7227,
  "\u7e01": 7228,
  "Act": 7229,
  "tha": 7230,
  "\u6368\u3066": 7231,
  "\u8003\u3048\u308b": 7232,
  "sector": 7233,
  "\u30b9\u30a4\u30c3\u30c1": 7234,
  "\u306b\u79fb": 7235,
  "\u2581fa": 7236,
  "\u2581practice": 7237,
  "sell": 7238,
  "hang": 7239,
  "purchase": 7240,
  "Material": 7241,
  "avery": 7242,
  "didnot": 7243,
  "\u77e5\u3089\u306a\u3044": 7244,
  "\u6307\u6a19": 7245,
  "facilities": 7246,
  "flight": 7247,
  "\u30a8\u30f3\u30b8\u30cb\u30a2\u30ea\u30f3\u30b0": 7248,
  "sonthe": 7249,
  "thatyou": 7250,
  "\u3068\u8003\u3048": 7251,
  "\u2581functions": 7252,
  "\u5358\u8a9e": 7253,
  "\u2581saw": 7254,
  "\u2581error": 7255,
  "\u30c7\u30d7\u30ed\u30a4": 7256,
  "frame": 7257,
  "\u3042\u306a\u305f\u306b": 7258,
  "kr": 7259,
  "giving": 7260,
  "\u4f1d\u3048": 7261,
  "\u2581Street": 7262,
  "OSGi": 7263,
  "\u898b\u3048\u308b": 7264,
  "brother": 7265,
  "\u2581nature": 7266,
  "\u7b97": 7267,
  "\u2581Tra": 7268,
  "\u306f\u4f55\u3067\u3059\u304b": 7269,
  "Instagram": 7270,
  "\u3053\u308c\u304b\u3089": 7271,
  "ticket": 7272,
  "\u2581concept": 7273,
  "\u767e": 7274,
  "\u3092\u6301\u3063\u305f": 7275,
  "\u2581Ver": 7276,
  "\u304b\u3051": 7277,
  "\u61f8\u5ff5": 7278,
  "gon": 7279,
  "\u3063\u3068": 7280,
  "dent": 7281,
  "43": 7282,
  "\u2581avoid": 7283,
  "Base": 7284,
  "\u756a\u7d44": 7285,
  "mill": 7286,
  "\u4eee\u60f3": 7287,
  "\u6bbf": 7288,
  "\u2581fl": 7289,
  "\u6db2\u4f53": 7290,
  "\u9664": 7291,
  "\u640d\u50b7": 7292,
  "\u53b3\u3057\u3044": 7293,
  "\u2581couple": 7294,
  "lum": 7295,
  "kawa": 7296,
  "\u2581bed": 7297,
  "blow": 7298,
  "goingto": 7299,
  "themselves": 7300,
  "\u2581\u81ea\u5206\u306e": 7301,
  "Mr": 7302,
  "peopleare": 7303,
  "PI": 7304,
  "require": 7305,
  "South": 7306,
  "\u2581limited": 7307,
  "\u2581Sha": 7308,
  "\u30d1\u30fc\u30c6\u30a3\u30fc": 7309,
  "\u98db\u884c\u6a5f": 7310,
  "\u2581attempt": 7311,
  "\u81f4": 7312,
  "\u52b9": 7313,
  "urban": 7314,
  "inhis": 7315,
  "\u90e8\u306e": 7316,
  "IA": 7317,
  "\u30fc\u30b7\u30e7\u30f3": 7318,
  "\u6cd5\u4ee4": 7319,
  "\u30c1\u30e3\u30f3\u30cd\u30eb": 7320,
  "defined": 7321,
  "\u306b\u308f\u305f\u3063\u3066": 7322,
  "zen": 7323,
  "\u30ec\u30fc\u30b7\u30e7\u30f3": 7324,
  "dataset": 7325,
  "\u5341\u5206\u306b": 7326,
  "\u9774": 7327,
  "\u544a": 7328,
  "\u2581tech": 7329,
  "\u2581active": 7330,
  "\u85e4": 7331,
  "character": 7332,
  "exp": 7333,
  "\u6253\u3061": 7334,
  "\u3092\u7372\u5f97": 7335,
  "burg": 7336,
  "\u2581custom": 7337,
  "Kr": 7338,
  "\u30af\u30ed\u30b9": 7339,
  "ison": 7340,
  "oid": 7341,
  "wasthe": 7342,
  "\u306b\u5408\u308f\u305b\u3066": 7343,
  "\u30c9\u30e9\u30a4\u30d0\u30fc": 7344,
  "\u305d\u3093\u306a": 7345,
  "\u30cb\u30f3": 7346,
  "cannot": 7347,
  "\u6574": 7348,
  "\u2581contribute": 7349,
  "1,000": 7350,
  "\u306e\u8a2d\u5b9a": 7351,
  "\u306b\u3082\u304b\u304b\u308f\u3089\u305a": 7352,
  "foot": 7353,
  "98": 7354,
  "\u30e1\u30ad\u30b7\u30b3": 7355,
  "\u30b2\u30b9\u30c8": 7356,
  "session": 7357,
  "\u2581probably": 7358,
  "\u2581Management": 7359,
  "everyday": 7360,
  "\u4eca\u56de": 7361,
  "\u0430": 7362,
  "sothat": 7363,
  "grass": 7364,
  "photograph": 7365,
  "\u4f4f\u6c11": 7366,
  "\u30b0\u30eb\u30fc\u30d7\u306e": 7367,
  "agent": 7368,
  "\u2581message": 7369,
  "lon": 7370,
  "startup": 7371,
  "Map": 7372,
  "\u7121\u6599\u3067": 7373,
  "\u7c73\u56fd\u306e": 7374,
  "\u306f\u307e\u305f": 7375,
  "London": 7376,
  "strength": 7377,
  "\u65e5\u304b\u3089": 7378,
  "\u4e00\u81f4": 7379,
  "ving": 7380,
  "\u2581manage": 7381,
  "Pi": 7382,
  "\u3092\u69cb\u7bc9\u3059\u308b": 7383,
  "\u2581bus": 7384,
  "\u30aa\u30e9\u30f3\u30c0": 7385,
  "\u2581likely": 7386,
  "\u2581speak": 7387,
  "\u8cb7": 7388,
  "\u2581shape": 7389,
  "ua": 7390,
  "\u5217\u8eca": 7391,
  "tab": 7392,
  "\u30ca\u30f3": 7393,
  "\u30dc\u30fc\u30c8": 7394,
  "\u2581feeling": 7395,
  "\u30d9\u30a4": 7396,
  "\u5411\u304d": 7397,
  "\u90fd": 7398,
  "tru": 7399,
  "\u4eac": 7400,
  "match": 7401,
  "\u25811)": 7402,
  "\u6ca1": 7403,
  "tance": 7404,
  "\u30c0\u30f3\u30b9": 7405,
  "gn": 7406,
  "\u6b69": 7407,
  "\u30bf\u30eb": 7408,
  "wewill": 7409,
  "bug": 7410,
  "\u307b\u304b": 7411,
  "\u258125": 7412,
  "miles": 7413,
  "sufficient": 7414,
  "stated": 7415,
  "\u2581Test": 7416,
  "\u300f(": 7417,
  "\u2581novel": 7418,
  "\u7c92": 7419,
  "\u878d\u5408": 7420,
  "\u2581apply": 7421,
  "rie": 7422,
  "\u7fd2": 7423,
  "OC": 7424,
  "\u306e\u591a\u304f\u306f": 7425,
  "tw": 7426,
  "\u306b\u3042\u3063\u305f": 7427,
  "\u4e45": 7428,
  "\u2581involved": 7429,
  "vil": 7430,
  "\u30c9\u30ec\u30b9": 7431,
  "\u2581po": 7432,
  "basis": 7433,
  "slike": 7434,
  "\u30e1\u30f3\u30c8": 7435,
  "corporate": 7436,
  "assist": 7437,
  "games": 7438,
  "chain": 7439,
  "trip": 7440,
  "\u98df\u3079\u7269": 7441,
  "\u2581require": 7442,
  "\u3057\u3066\u304f\u308c\u308b": 7443,
  "pool": 7444,
  "\u98df\u3079": 7445,
  "\u30c1\u30e5": 7446,
  "Gen": 7447,
  "\u2581Ja": 7448,
  "\u305d\u306e\u307e\u307e": 7449,
  "\u30b9\u306f": 7450,
  "\u2581stand": 7451,
  "\u3068\u304d\u306f": 7452,
  "\u25813.": 7453,
  "\u2581Hewas": 7454,
  "legal": 7455,
  "\u2581Gra": 7456,
  "pla": 7457,
  "\u6539\u9769": 7458,
  "\u306e\u5f79\u5272": 7459,
  "\u30e2\u30fc\u30bf\u30fc": 7460,
  "pm": 7461,
  "\u3072\u3068\u3064": 7462,
  "formal": 7463,
  "\u2581Red": 7464,
  "letter": 7465,
  "ome": 7466,
  "Sr": 7467,
  "berg": 7468,
  "theory": 7469,
  "seat": 7470,
  "\u96f2": 7471,
  "\u2581Har": 7472,
  "\u2581offering": 7473,
  "\u2581movement": 7474,
  "\u304f\u308b": 7475,
  "books": 7476,
  "stick": 7477,
  "forexample": 7478,
  "\u66f4\u306b": 7479,
  "\u2581Get": 7480,
  "bro": 7481,
  "intheir": 7482,
  "\u03b1": 7483,
  "\u5ba2\u5ba4": 7484,
  "\u2581Da": 7485,
  "\u30bf\u30a4\u30c8\u30eb": 7486,
  "\u2581implementation": 7487,
  "\u4eca\u307e\u3067": 7488,
  "goes": 7489,
  "Business": 7490,
  "\u7cf8": 7491,
  "\u2581developing": 7492,
  "1995": 7493,
  "usedfor": 7494,
  "\u88ab": 7495,
  "\u5831\u9053": 7496,
  "Point": 7497,
  "\u2581mi": 7498,
  "summer": 7499,
  "\u2581expect": 7500,
  "\u30a6\u30a7": 7501,
  "pet": 7502,
  "\u2581Nu": 7503,
  "\u793e\u5185": 7504,
  "\u3053\u3068\u3067\u3042\u308b": 7505,
  "\u30d3\u30fc\u30eb": 7506,
  "component": 7507,
  "\u63a2\u7d22": 7508,
  "happy": 7509,
  "\u2581eat": 7510,
  "\u5408\u308f\u305b": 7511,
  "\u2581Project": 7512,
  "ser": 7513,
  "fuel": 7514,
  "\u2581Forexample": 7515,
  "\u6d77\u5cb8": 7516,
  "listed": 7517,
  "\u304b\u3089\u3060": 7518,
  "\u4ee5\u5185": 7519,
  "\u30b3\u30fc\u30c8": 7520,
  "population": 7521,
  "thave": 7522,
  "plus": 7523,
  "uh": 7524,
  "\u2581decided": 7525,
  "attention": 7526,
  "MD": 7527,
  "Day": 7528,
  "\u7b56": 7529,
  "View": 7530,
  "\u9023\u643a": 7531,
  "sia": 7532,
  "\u2581link": 7533,
  "UK": 7534,
  "\u2581hey": 7535,
  "asmall": 7536,
  "\u306e\u7d4c\u9a13": 7537,
  "\u2581park": 7538,
  "\u307f\u305f\u3044": 7539,
  "cord": 7540,
  "sake": 7541,
  "\u9700\u8981": 7542,
  "tone": 7543,
  "\u5f7c\u306b": 7544,
  "\u30b9\u30c8\u30fc\u30ea\u30fc": 7545,
  "gre": 7546,
  "\u306e\u6700\u521d\u306e": 7547,
  "\u7236\u89aa": 7548,
  "\u51fa\u767a": 7549,
  "\u4fc3\u9032": 7550,
  "\u2581grow": 7551,
  "bri": 7552,
  "\u6240\u6709": 7553,
  "dynamic": 7554,
  "warm": 7555,
  "extra": 7556,
  "\u7df4\u7fd2": 7557,
  "youknow": 7558,
  "\u7b2c\u4e8c": 7559,
  "\u6291\u5236": 7560,
  "tric": 7561,
  "\u4e00\u4f53": 7562,
  "\u306e\u60c5\u5831": 7563,
  "\u5e74\u5ea6": 7564,
  "ded": 7565,
  "orthe": 7566,
  "NI": 7567,
  "\u60f3\u50cf": 7568,
  "\u2581plans": 7569,
  "matic": 7570,
  "\u81e8\u5e8a": 7571,
  "\u5b8c\u4e86": 7572,
  "\u306b\u306a\u308b\u3068": 7573,
  "\u3092\u5b9f\u884c": 7574,
  "\u53e4\u4ee3": 7575,
  "Link": 7576,
  "cool": 7577,
  "stothe": 7578,
  "\u9003\u3052": 7579,
  "West": 7580,
  "\u76ee\u3092": 7581,
  "\u8584": 7582,
  "\u888b": 7583,
  "Asia": 7584,
  "shift": 7585,
  "\u4e0d\u6b63": 7586,
  "\u8cb8": 7587,
  "pattern": 7588,
  "\u308b\u305f\u3081\u306b": 7589,
  "\u8a66\u5408": 7590,
  "\u306a\u3069\u3067": 7591,
  "\u2581Inter": 7592,
  "With": 7593,
  "\u5370\u8c61": 7594,
  "DP": 7595,
  "\u8005\u306b": 7596,
  "Im": 7597,
  "\u30b5\u30fc\u30d3\u30b9\u306f": 7598,
  "\u2192": 7599,
  "\u2581Code": 7600,
  "theway": 7601,
  "\u5371\u6a5f": 7602,
  "\u95a2": 7603,
  "\u4f4e\u4e0b": 7604,
  "\u4ef2\u9593": 7605,
  "\u4f59": 7606,
  "ATION": 7607,
  "supportfor": 7608,
  "visible": 7609,
  "alone": 7610,
  "\u3092\u898b\u3064\u3051": 7611,
  "begin": 7612,
  "\u4eba\u6750": 7613,
  "\u6761\u7d04": 7614,
  "traffic": 7615,
  "VPN": 7616,
  "\u2581listen": 7617,
  "toprovide": 7618,
  "finger": 7619,
  "\u2581Sun": 7620,
  "\u304c\u3044\u308b": 7621,
  "\u3093\u3060\u3088": 7622,
  "\u2581format": 7623,
  "\u4ee3\u66ff": 7624,
  "\u2581games": 7625,
  "osis": 7626,
  "\u2581Home": 7627,
  "\u30b9\u30ad\u30e3\u30f3": 7628,
  "46": 7629,
  "\u305f\u3063\u305f": 7630,
  "gap": 7631,
  "serve": 7632,
  "hands": 7633,
  "\u2581influence": 7634,
  "ann": 7635,
  "imi": 7636,
  "\u30c1\u30b1\u30c3\u30c8": 7637,
  "datasets": 7638,
  "status": 7639,
  "\u308d\u3046": 7640,
  "\u7269\u3092": 7641,
  "\u30da\u30a2": 7642,
  "LD": 7643,
  "\u2581asked": 7644,
  "\u2581difference": 7645,
  "\u5bb9": 7646,
  "eda": 7647,
  "tap": 7648,
  "\u540d\u79f0": 7649,
  "\u30db\u30fc": 7650,
  "\u30a2\u30d7\u30ea\u30b1\u30fc\u30b7\u30e7\u30f3\u3092": 7651,
  "\u4e16\u4ee3": 7652,
  "\u30ec\u30c3\u30c8": 7653,
  "}}": 7654,
  "duct": 7655,
  "\u2581input": 7656,
  "\u306b\u3042\u308a": 7657,
  "sas": 7658,
  "Am": 7659,
  "youto": 7660,
  "\u5bb9\u91cf": 7661,
  "\u306e\u3067\u3059\u304b": 7662,
  "\u30cd\u30a4\u30c6\u30a3\u30d6": 7663,
  "\u59cb\u3081\u305f": 7664,
  "Ac": 7665,
  "\u30ad\u30e3\u30f3\u30da\u30fc\u30f3": 7666,
  "\u98f2": 7667,
  "But": 7668,
  "jn": 7669,
  "Firefox": 7670,
  "gear": 7671,
  "ough": 7672,
  "\u308b\u3079\u304d": 7673,
  "\u300d\u3001\u300c": 7674,
  "\u2581ways": 7675,
  "\u9023\u5408": 7676,
  "\u307e\u3059\u304b": 7677,
  "\u308f\u308c": 7678,
  "owned": 7679,
  "\u58f2\u4e0a": 7680,
  "\u91cf\u5b50": 7681,
  "organisation": 7682,
  "\u30a4\u30f3\u30c1": 7683,
  "\u3092\u5229\u7528\u3057\u305f": 7684,
  "\u4ed5\u7d44\u307f": 7685,
  "\u2581conference": 7686,
  "increase": 7687,
  "stable": 7688,
  "\u30d7\u30ea\u30f3\u30c8": 7689,
  "\u2581ne": 7690,
  "\u2581season": 7691,
  "\u9593\u3067": 7692,
  "whichwas": 7693,
  "2004": 7694,
  "\u79fb": 7695,
  "JR": 7696,
  "sexual": 7697,
  "stability": 7698,
  "ero": 7699,
  "\u305f\u304f\u3055\u3093": 7700,
  "kk": 7701,
  "\u2581Chi": 7702,
  "\u2581Note": 7703,
  "\u8f09": 7704,
  "shown": 7705,
  "considered": 7706,
  "aroundthe": 7707,
  "\u2581named": 7708,
  "\u2581mountain": 7709,
  "linear": 7710,
  "\u970a": 7711,
  "\u2581military": 7712,
  "\u5c06": 7713,
  "\u51fa\u8eab\u306e": 7714,
  "\u3092\u4f5c\u6210": 7715,
  "efficiency": 7716,
  "\u7d44\u307f": 7717,
  "promotion": 7718,
  "\u4ee5\u524d\u306e": 7719,
  "\u904b": 7720,
  "western": 7721,
  "ionof": 7722,
  "\u30c7\u30fc": 7723,
  "\u2581billion": 7724,
  "66": 7725,
  "\u4f50": 7726,
  "\u2581host": 7727,
  "ima": 7728,
  "oral": 7729,
  "\u2581produced": 7730,
  "PL": 7731,
  "thenumberof": 7732,
  "ships": 7733,
  "\u8840\u6db2": 7734,
  "\u65b0\u6a5f\u80fd": 7735,
  "ime": 7736,
  "\u6d3b\u8e8d": 7737,
  "anumberof": 7738,
  "\u5fc3\u81d3": 7739,
  "\u2581Day": 7740,
  "\u51ac": 7741,
  "toward": 7742,
  "\u3069\u3053": 7743,
  "holder": 7744,
  "\u2581\u3057\u305f\u304c\u3063\u3066": 7745,
  "door": 7746,
  "usedin": 7747,
  "mile": 7748,
  "\u2581bank": 7749,
  "reservation": 7750,
  "DR": 7751,
  "severe": 7752,
  "element": 7753,
  "double": 7754,
  "\u2581advantage": 7755,
  "\u30c9\u30fc": 7756,
  "dict": 7757,
  "Ja": 7758,
  "putting": 7759,
  "\u8907\u96d1": 7760,
  "cru": 7761,
  "chief": 7762,
  "ight": 7763,
  "\u2581player": 7764,
  "\u7528\u306b": 7765,
  "PP": 7766,
  "agreat": 7767,
  "\u4ee5\u524d": 7768,
  "FL": 7769,
  "\u2581LED": 7770,
  "\u30b5\u30a4\u30af\u30eb": 7771,
  "\u30e1\u30bf": 7772,
  "\u304c\u3053\u306e": 7773,
  "\u30b4\u30fc": 7774,
  "Ihave": 7775,
  "\u2581block": 7776,
  "\u3057\u3088\u3046\u3068": 7777,
  "suggest": 7778,
  "\u2581fit": 7779,
  "\u306f\u305a": 7780,
  "\u2581items": 7781,
  "boat": 7782,
  "\u7565": 7783,
  "\u30ad\u30e3\u30c3\u30b7\u30e5": 7784,
  "HI": 7785,
  "\u5730\u5143\u306e": 7786,
  "\u3063\u3066\u308b": 7787,
  "\u72ec": 7788,
  "\u4fdd\u7ba1": 7789,
  "\u6211\u3005\u306e": 7790,
  "\u5927\u91cf\u306e": 7791,
  "\u8c4a\u304b\u306a": 7792,
  "\u6700\u521d": 7793,
  "ableto": 7794,
  "Ithink": 7795,
  ":00": 7796,
  "\u9178\u7d20": 7797,
  "\u2581died": 7798,
  "MR": 7799,
  "whichare": 7800,
  "questions": 7801,
  "verse": 7802,
  "\u30d5\u30e9": 7803,
  "engineering": 7804,
  "successful": 7805,
  "pick": 7806,
  "length": 7807,
  "spring": 7808,
  "Record": 7809,
  "\u898b\u3048": 7810,
  "\u6b32": 7811,
  "HP": 7812,
  "dthe": 7813,
  "\u624b\u306b": 7814,
  "cream": 7815,
  "\u2581weight": 7816,
  "\u52c9\u5f37": 7817,
  "spoke": 7818,
  "representative": 7819,
  "wise": 7820,
  "\u2581Ge": 7821,
  "Hu": 7822,
  "\u2581Power": 7823,
  "\u30bc\u30ed": 7824,
  "\u258180": 7825,
  "algorithm": 7826,
  "BC": 7827,
  "creating": 7828,
  "\u3069\u3053\u306b": 7829,
  "label": 7830,
  "\u30d0\u30c3\u30af\u30a2\u30c3\u30d7": 7831,
  "\u30b7\u30ca\u30ea\u30aa": 7832,
  "\u30d5\u30a9\u30fc": 7833,
  "uring": 7834,
  "vek": 7835,
  "\u5ff5": 7836,
  "ml": 7837,
  "thus": 7838,
  "library": 7839,
  "\u30c6\u30a3\u30f3\u30b0": 7840,
  "\u2581Pe": 7841,
  "hip": 7842,
  "\u306b\u95a2\u3057\u3066\u306f": 7843,
  "wearing": 7844,
  "\u2581Micro": 7845,
  "\u306e\u63d0\u4f9b": 7846,
  "\u30e1\u30f3\u30c6\u30ca\u30f3\u30b9": 7847,
  "var": 7848,
  "\u904a": 7849,
  "\u2581package": 7850,
  "\u306e\u5834\u5408\u306f": 7851,
  "\u3092\u53ef\u80fd\u306b\u3059\u308b": 7852,
  "\u2581upon": 7853,
  "\u2581standing": 7854,
  "\u30c0\u30eb": 7855,
  "\u5207\u308c": 7856,
  "\u306e\u524d": 7857,
  "\u2581Gi": 7858,
  "\u2581brain": 7859,
  "stress": 7860,
  "\u767a\u660e": 7861,
  "\u305f\u3061\u306e": 7862,
  "\u3092\u652f\u63f4\u3059\u308b": 7863,
  "\u6307\u63ee": 7864,
  "\u2581rules": 7865,
  "lord": 7866,
  "5,000": 7867,
  "bridge": 7868,
  "\u306e\u88fd\u9020": 7869,
  "\u9593\u9055\u3044": 7870,
  "opened": 7871,
  "\u4f5c\u5bb6": 7872,
  "bike": 7873,
  "\u2581Both": 7874,
  "feeling": 7875,
  "\u77f3\u6cb9": 7876,
  "\u2581properties": 7877,
  "phase": 7878,
  "EV": 7879,
  "52": 7880,
  "\u500b\u3005\u306e": 7881,
  "buy": 7882,
  "daily": 7883,
  "pure": 7884,
  "1997": 7885,
  "dle": 7886,
  "Han": 7887,
  "motion": 7888,
  "reducing": 7889,
  "tasks": 7890,
  "\u8a71\u984c": 7891,
  "\u72ac\u304c": 7892,
  "\u672c\u793e": 7893,
  "efforts": 7894,
  "hydro": 7895,
  "\u2581Music": 7896,
  "Taiwan": 7897,
  "vid": 7898,
  "bomb": 7899,
  "currency": 7900,
  "rule": 7901,
  "\u2581fish": 7902,
  "\u88c5": 7903,
  "\u305b\u305a": 7904,
  "category": 7905,
  "\u3092\u5b9f\u884c\u3059\u308b": 7906,
  "\u30bf\u30d6": 7907,
  "\u30b7\u30b9\u30c6\u30e0\u3092": 7908,
  "\u3059\u308b\u306e\u306b": 7909,
  "\u4fee\u7406": 7910,
  "\u7a81": 7911,
  "doyou": 7912,
  "Province": 7913,
  "\u2581political": 7914,
  "\u2581Watch": 7915,
  "\u30a6\u30a3\u30f3": 7916,
  "\u2581science": 7917,
  "\u660e\u3089\u304b": 7918,
  "\u30c7\u30a4": 7919,
  "\u2581limit": 7920,
  "\u52a0\u901f": 7921,
  "77": 7922,
  "panel": 7923,
  "\u85e9": 7924,
  "\u9999": 7925,
  "thereis": 7926,
  "\u66ff\u3048": 7927,
  "iTunes": 7928,
  "\u2581fully": 7929,
  "\u2581protection": 7930,
  "\u2581lost": 7931,
  "\u30de\u30b9\u30af": 7932,
  "objects": 7933,
  "kon": 7934,
  "\u2581option": 7935,
  "\u6df7\u5408": 7936,
  "\u51fa\u6765": 7937,
  "ax": 7938,
  "\u3092\u63d0\u4f9b\u3059\u308b\u3053\u3068": 7939,
  "thelast": 7940,
  "ates": 7941,
  "\u3053\u305d": 7942,
  "maker": 7943,
  "NG": 7944,
  "\u4eca\u65e5\u306e": 7945,
  "Play": 7946,
  "\u6e96": 7947,
  "\u3044\u3064\u3067\u3082": 7948,
  "RI": 7949,
  "\u2581\u540c": 7950,
  "\u5c06\u6765\u306e": 7951,
  "\u2581\u4f55\u304b": 7952,
  "morph": 7953,
  "\u2581handle": 7954,
  "\u72af": 7955,
  "hundred": 7956,
  "til": 7957,
  "\u304a\u554f\u3044\u5408\u308f\u305b": 7958,
  "Mark": 7959,
  "\u4f7f\u308f\u308c": 7960,
  "\u30ea\u30e2\u30fc\u30c8": 7961,
  "uw": 7962,
  "\u3055\u305b\u308b\u3053\u3068": 7963,
  "Sn": 7964,
  "\u2581East": 7965,
  "\u3092\u5fc5\u8981\u3068\u3059\u308b": 7966,
  "\u3092\u9078\u629e\u3059\u308b": 7967,
  "\u653f\u6a29": 7968,
  "onyour": 7969,
  "\u3061\u3083\u3093": 7970,
  "NC": 7971,
  "\u5352\u696d": 7972,
  "76": 7973,
  "hen": 7974,
  "\u8996\u899a": 7975,
  "\u30ef\u30b7\u30f3\u30c8\u30f3": 7976,
  "\u30b7\u30e7\u30c3\u30d7": 7977,
  "planned": 7978,
  "logical": 7979,
  "paid": 7980,
  "slide": 7981,
  "smart": 7982,
  "\u6700\u65b0": 7983,
  "\u30a6\u30f3": 7984,
  "generate": 7985,
  "Bill": 7986,
  "\u53ef\u80fd\u6027\u304c\u3042\u308a\u307e\u3059": 7987,
  "flexible": 7988,
  "rom": 7989,
  "\u6e7f": 7990,
  "\u304c\u305d\u306e": 7991,
  "mag": 7992,
  "\u30bf\u30c3\u30c1": 7993,
  "\u6551": 7994,
  "\u8fd1\u3044": 7995,
  "secret": 7996,
  "\u91cf\u306e": 7997,
  "\u2581Product": 7998,
  "increased": 7999,
  "\u2581AND": 8000,
  "metric": 8001,
  "basedonthe": 8002,
  "towards": 8003,
  "virtual": 8004,
  "\u2581iPad": 8005,
  "\u30dc\u30fc": 8006,
  "\u3092\u306f\u3058\u3081": 8007,
  "\u9650": 8008,
  "\u5927\u4e08\u592b": 8009,
  "infection": 8010,
  "\u2581holding": 8011,
  "\u3092\u4f7f\u7528\u3057\u305f": 8012,
  "\u2581expected": 8013,
  "focus": 8014,
  "\u67f1": 8015,
  "spir": 8016,
  "\u3068\u3057\u3066\u3044\u308b": 8017,
  "\u2581cu": 8018,
  "\u30b0\u30eb\u30fc\u30d7\u306f": 8019,
  "\u56e0\u5b50": 8020,
  "regular": 8021,
  "\u6b20": 8022,
  "\u8fbc\u3093\u3060": 8023,
  "\u2581requirements": 8024,
  "\u523a": 8025,
  "foryour": 8026,
  "vol": 8027,
  "\u2581bio": 8028,
  "\u6d6e": 8029,
  "rel": 8030,
  "same": 8031,
  "\u6a5f\u80fd\u306f": 8032,
  "industrial": 8033,
  "Source": 8034,
  "1996": 8035,
  "\u2581\u305d\u306e\u7d50\u679c": 8036,
  "yp": 8037,
  "oa": 8038,
  "\u2581begin": 8039,
  "planning": 8040,
  "\u2581applied": 8041,
  "\u3046\u3061": 8042,
  "\u2581\u5f53\u793e\u306e": 8043,
  "\u6642\u9593\u304c": 8044,
  "\u2581staff": 8045,
  "\u2581steel": 8046,
  "\u30c8\u30a5": 8047,
  "pilot": 8048,
  "\u304b\u3092": 8049,
  "\u95a2\u7bc0": 8050,
  "north": 8051,
  "usethe": 8052,
  "\u72af\u7f6a": 8053,
  "beableto": 8054,
  "sits": 8055,
  "\u3055\u3089\u306a\u308b": 8056,
  "Iam": 8057,
  "ref": 8058,
  "powerful": 8059,
  "\u9999\u6e2f": 8060,
  "\u3048\u305f": 8061,
  "\u5dee\u3057": 8062,
  "recorded": 8063,
  "\u7591\u554f": 8064,
  "\u306b\u95a2\u9023\u3059\u308b": 8065,
  "ifthe": 8066,
  "\u30ea\u30fc\u30c9": 8067,
  "\u70ad\u7d20": 8068,
  "earn": 8069,
  "\u306b\u8fd1\u3044": 8070,
  "USA": 8071,
  "\u843d\u3061": 8072,
  "\u2581eyes": 8073,
  "Du": 8074,
  "\u30ad\u30c3\u30c1\u30f3": 8075,
  "chip": 8076,
  "tracking": 8077,
  "Star": 8078,
  "\u2581EE": 8079,
  "\u4ffa": 8080,
  "\u2581previous": 8081,
  "typically": 8082,
  "\u306e\u9055\u3044": 8083,
  "\u5bcc": 8084,
  "thy": 8085,
  "hire": 8086,
  "gra": 8087,
  "\u30a8\u30a4": 8088,
  "GPS": 8089,
  "\u30d5\u30a1\u30c3\u30b7\u30e7\u30f3": 8090,
  "\u3092\u4ecb\u3057\u3066": 8091,
  "\u2581manager": 8092,
  "\u5178": 8093,
  "\u4e88\u7b97": 8094,
  "\u3092\u63d0\u4f9b": 8095,
  "\u30ea\u30aa": 8096,
  "iness": 8097,
  "lift": 8098,
  "\u8cb4": 8099,
  "ville": 8100,
  "\u30ed\u30b9": 8101,
  "\u3050\u3089\u3044": 8102,
  "profit": 8103,
  "continued": 8104,
  "\u2581Visual": 8105,
  "\u9589": 8106,
  "ular": 8107,
  "River": 8108,
  "\u2581born": 8109,
  "\u539f\u6599": 8110,
  "\u2581exp": 8111,
  "\u2581usually": 8112,
  "\u30dd\u30f3\u30d7": 8113,
  "ised": 8114,
  "shared": 8115,
  "\u4e00\u3064\u306e": 8116,
  "award": 8117,
  "Yo": 8118,
  "discussion": 8119,
  "President": 8120,
  "inch": 8121,
  "\u30aa\u30b9": 8122,
  "secure": 8123,
  "\u96f0\u56f2\u6c17": 8124,
  "\u7f8e\u8853": 8125,
  "\u2581update": 8126,
  "\u5bbf": 8127,
  "\u25812)": 8128,
  "\u306e\u524d\u306b": 8129,
  "valve": 8130,
  "actively": 8131,
  "\u30c0\u30d6\u30eb": 8132,
  "Galaxy": 8133,
  "\u3092\u5f97": 8134,
  "mes": 8135,
  "auto": 8136,
  "\u2581Through": 8137,
  "\u2581advanced": 8138,
  "\u2581West": 8139,
  "oj": 8140,
  "\u2581Moreover": 8141,
  "\u2581automatically": 8142,
  "Free": 8143,
  "\u3044\u304b": 8144,
  "tes": 8145,
  "\u2581ready": 8146,
  "cold": 8147,
  "intheworld": 8148,
  "\u5316\u3055\u308c\u305f": 8149,
  "oku": 8150,
  "typeof": 8151,
  "rising": 8152,
  "UT": 8153,
  "flu": 8154,
  "\u78ba\u7387": 8155,
  "vy": 8156,
  "ads": 8157,
  "\u3057\u3066\u3044\u307e\u3057\u305f": 8158,
  "\u5c01": 8159,
  "treated": 8160,
  "enable": 8161,
  "plug": 8162,
  "\u306e\u4e0b": 8163,
  "\u8b70\u54e1": 8164,
  "\u3092\u53d7\u3051\u3066": 8165,
  "\u8a71\u3057": 8166,
  "\u767b": 8167,
  "\u2581select": 8168,
  "IV": 8169,
  "\u59cb\u3081\u308b": 8170,
  "\u3044\u3046": 8171,
  "\u2581December": 8172,
  "shima": 8173,
  "68": 8174,
  "processor": 8175,
  "\u2581throughout": 8176,
  "\u2581completely": 8177,
  "\u5929\u7136": 8178,
  "\u2581payment": 8179,
  "Space": 8180,
  "\u4e2d\u9593": 8181,
  "\u5bff\u547d": 8182,
  "\u7dcf\u5408": 8183,
  "\u53ce\u5165": 8184,
  "controller": 8185,
  "\u8de1": 8186,
  "\u9805": 8187,
  "\u640d\u5bb3": 8188,
  "groups": 8189,
  "\u2581education": 8190,
  "\u3092\u884c\u3063\u3066\u3044\u307e\u3059": 8191,
  "\u30bd\u30fc\u30b7\u30e3\u30eb": 8192,
  "progress": 8193,
  "\u7b2c\u4e09\u8005": 8194,
  "Pr": 8195,
  "\u8ecd\u4e8b": 8196,
  "manual": 8197,
  "\u30d0\u30c3\u30b0": 8198,
  "\u306a\u3051\u308c\u3070\u306a\u308a\u307e\u305b\u3093": 8199,
  "tore": 8200,
  "rare": 8201,
  "\u3084\u308a": 8202,
  "\u30a4\u30fc": 8203,
  "topic": 8204,
  "\u958b\u767a\u8005\u306f": 8205,
  "registration": 8206,
  "\u2581worked": 8207,
  "UL": 8208,
  "honor": 8209,
  "vic": 8210,
  "\u2581consider": 8211,
  "ced": 8212,
  "\u306a\u3063\u305f": 8213,
  "\u2581electric": 8214,
  "\u306b\u57fa\u3065\u304d": 8215,
  "\u767a\u8868\u3055\u308c\u305f": 8216,
  "guard": 8217,
  "excellent": 8218,
  "\u5834\u5408\u306b": 8219,
  "\u306e\u53ef\u80fd\u6027": 8220,
  "\u30b9\u30c8\u30ec\u30b9": 8221,
  "\u4e0d\u5b89": 8222,
  "theother": 8223,
  "\u308f\u3051": 8224,
  "\u2581Tu": 8225,
  "\u2581Every": 8226,
  "shell": 8227,
  "\u2581tree": 8228,
  "TP": 8229,
  "raised": 8230,
  "\u30ed\u30b0\u30a4\u30f3": 8231,
  "\u2581cl": 8232,
  "\u30d5\u30a3\u30eb\u30bf\u30fc": 8233,
  "bringing": 8234,
  "\u4e0b\u3052": 8235,
  "demo": 8236,
  "\u258140": 8237,
  "meaning": 8238,
  "fell": 8239,
  "police": 8240,
  "optimization": 8241,
  "\u4e8b\u52d9\u6240": 8242,
  "Can": 8243,
  "\u6804\u990a": 8244,
  "hill": 8245,
  "described": 8246,
  "threat": 8247,
  "\u30b9\u30b1\u30b8\u30e5\u30fc\u30eb": 8248,
  "\u3063\u3066\u3082": 8249,
  "\u4e8b\u3092": 8250,
  "\u81ea\u7531\u306b": 8251,
  "river": 8252,
  "rose": 8253,
  "\u2581British": 8254,
  "\u30b9\u30c8\u30ea\u30fc\u30c8": 8255,
  "daughter": 8256,
  "utter": 8257,
  "\u4e21\u89aa": 8258,
  "\u9175\u7d20": 8259,
  "shrine": 8260,
  "\u2581\u307e\u3060": 8261,
  "budget": 8262,
  "_{": 8263,
  "\u660e\u65e5": 8264,
  "selected": 8265,
  "\u2581CO": 8266,
  "\u30d6\u30e9\u30b8\u30eb": 8267,
  "operated": 8268,
  "\u30c1\u30e3\u30f3\u30b9": 8269,
  "\u2581\u3053\u3053": 8270,
  "Line": 8271,
  "\u985e\u4f3c": 8272,
  "tai": 8273,
  "\u5b9f\u7e3e": 8274,
  "41": 8275,
  "\u2581path": 8276,
  "\u6c7a\u3081": 8277,
  "acting": 8278,
  "\u6298": 8279,
  "\u5bc4": 8280,
  "calendar": 8281,
  "\u2581moment": 8282,
  "\u5f53\u305f\u308a": 8283,
  "article": 8284,
  "\u3065": 8285,
  "\u9023\u7d61": 8286,
  "install": 8287,
  "totake": 8288,
  "Lab": 8289,
  "likea": 8290,
  "\u5143\u306e": 8291,
  "\u6d3b\u6027\u5316": 8292,
  "thatthey": 8293,
  "\u88fd\u54c1\u306f": 8294,
  "Pu": 8295,
  "\u78c1\u6c17": 8296,
  "\u258121": 8297,
  "\u2581enter": 8298,
  "\u5b58": 8299,
  "3-": 8300,
  "\u2581\u3057\u304b\u3057\u306a\u304c\u3089": 8301,
  "\u2581February": 8302,
  "\u76f8\u4e92\u4f5c\u7528": 8303,
  "sync": 8304,
  "truck": 8305,
  "array": 8306,
  "\u2581Thi": 8307,
  "\u8a2d": 8308,
  "\u3042\u306e": 8309,
  "dream": 8310,
  "husband": 8311,
  "Ch": 8312,
  "\u306b\u304a": 8313,
  "\u5b89\u5168\u306a": 8314,
  "\u2581map": 8315,
  "\u793c": 8316,
  "\u3067\u3042\u308d\u3046": 8317,
  "\u30d7\u30e9\u30a4": 8318,
  "\u2581interesting": 8319,
  "employee": 8320,
  "abroad": 8321,
  "mechanical": 8322,
  "\u2581tax": 8323,
  "1)": 8324,
  "\u2581distance": 8325,
  "sucha": 8326,
  "\u306e\u9593\u3067": 8327,
  "\u8d77\u52d5": 8328,
  "\u7af6\u6280": 8329,
  "suite": 8330,
  "\u2581\u5f7c\u304c": 8331,
  "useof": 8332,
  "\u751f\u7523\u6027": 8333,
  "\u2581Control": 8334,
  "lighting": 8335,
  "HE": 8336,
  "\u521d\u671f\u306e": 8337,
  "\u7528\u8a9e": 8338,
  "\u2581condition": 8339,
  "\u6295": 8340,
  "ria": 8341,
  "posing": 8342,
  "Hol": 8343,
  "\u56fd\u7acb": 8344,
  "\u30a2\u30c3\u30d7\u30ed\u30fc\u30c9": 8345,
  "someofthe": 8346,
  "\u307e\u305b\u3093\u3067\u3057\u305f": 8347,
  "\u2581useful": 8348,
  "explained": 8349,
  "final": 8350,
  "ged": 8351,
  "att": 8352,
  "\u6c88": 8353,
  "claims": 8354,
  "battle": 8355,
  "\u4f01\u696d\u306f": 8356,
  "\u2581output": 8357,
  "\u304b\u3082": 8358,
  "Tele": 8359,
  "fresh": 8360,
  "ump": 8361,
  "\u5206\u304b\u308b": 8362,
  "crystal": 8363,
  "\u2581Fi": 8364,
  "\u8ffd": 8365,
  "sw": 8366,
  "\u5f53\u7136": 8367,
  "Street": 8368,
  "\u2581sh": 8369,
  "ute": 8370,
  "\u4e8b\u524d": 8371,
  "\u3059\u308b\u3088\u3046": 8372,
  "\u3057\u305f\u306e\u306f": 8373,
  "lim": 8374,
  "\u2581Like": 8375,
  "\u7f72\u540d": 8376,
  "\u2581central": 8377,
  "\u30ed\u30b4": 8378,
  "cable": 8379,
  "\u6c17\u304c": 8380,
  "\u5834\u6240\u306b": 8381,
  "Har": 8382,
  "81": 8383,
  "\u5965": 8384,
  "\u2581Ruby": 8385,
  "Spec": 8386,
  "automated": 8387,
  "\u5207\u65ad": 8388,
  "oka": 8389,
  "\u2581Museum": 8390,
  "America": 8391,
  "\u2581Han": 8392,
  "himself": 8393,
  "bea": 8394,
  "\u4e3b\u8981": 8395,
  "\u5468\u6ce2\u6570": 8396,
  "\u30b9\u30d1": 8397,
  "\u304d\u307e\u3057\u305f": 8398,
  "\u306e\u7279\u5fb4": 8399,
  "acr": 8400,
  "\u30d7\u30ed\u30d1\u30c6\u30a3": 8401,
  "Sky": 8402,
  "\u2581imp": 8403,
  "infrastructure": 8404,
  "\u6570\u306e": 8405,
  "reading": 8406,
  "\u533b": 8407,
  "partner": 8408,
  "lean": 8409,
  "\u7687": 8410,
  "trace": 8411,
  "south": 8412,
  "VC": 8413,
  "Technology": 8414,
  "relative": 8415,
  "\u2581starting": 8416,
  "transaction": 8417,
  "\u2581hands": 8418,
  "\u30d0\u30e9\u30f3\u30b9": 8419,
  "\u8acb\u6c42": 8420,
  "\u901a\u8ca8": 8421,
  "piece": 8422,
  "\u2581em": 8423,
  "UV": 8424,
  "\u2581startup": 8425,
  "\u8abf\u9054": 8426,
  "\u2581hardware": 8427,
  "steel": 8428,
  "dead": 8429,
  "\u81f3": 8430,
  "equal": 8431,
  "\u2581pass": 8432,
  "studied": 8433,
  "strategy": 8434,
  "\u63d0\u4f9b\u3059\u308b": 8435,
  "\u3088\u3046\u3068": 8436,
  "Yoshi": 8437,
  "\u2581Their": 8438,
  "\u629c\u3051": 8439,
  "\u6cd5\u4eba": 8440,
  "\u2581bi": 8441,
  "couple": 8442,
  "sch": 8443,
  "\u6388\u696d": 8444,
  "\u308d\u3046\u3068": 8445,
  "\u30ef\u30fc\u30c9": 8446,
  "trial": 8447,
  "\u30bb\u30f3\u30b5": 8448,
  "Services": 8449,
  "thatcan": 8450,
  "\u5e81": 8451,
  "fair": 8452,
  "\u2581introduced": 8453,
  "\u5171\u548c\u56fd": 8454,
  "TED": 8455,
  "\u4f1d\u7d71": 8456,
  "\u8c46": 8457,
  "sites": 8458,
  "\u306a\u3069\u306b": 8459,
  "\u8f9e": 8460,
  "dinner": 8461,
  "root": 8462,
  "\u2581seat": 8463,
  "pad": 8464,
  "\u53f0\u6e7e": 8465,
  "Ver": 8466,
  "\u30a4\u30f3\u30d5\u30e9": 8467,
  "dust": 8468,
  "rus": 8469,
  "imagine": 8470,
  "\u3078\u306e\u30a2\u30af\u30bb\u30b9": 8471,
  "tre": 8472,
  "industries": 8473,
  "capacity": 8474,
  "provider": 8475,
  "\u30af\u30e9\u30b9\u30bf": 8476,
  "\u3081\u305f": 8477,
  "initial": 8478,
  "kick": 8479,
  "compete": 8480,
  "\u4f5c\u3063\u305f": 8481,
  "\u30c6\u30f3\u30d7\u30ec\u30fc\u30c8": 8482,
  "judge": 8483,
  "\u81ea\u3089": 8484,
  "\u3092\u6539\u5584\u3059\u308b": 8485,
  "\u5e55": 8486,
  "saying": 8487,
  "\u30d5\u30ec": 8488,
  "pair": 8489,
  "attend": 8490,
  "\u2581normal": 8491,
  "\u7dca\u6025": 8492,
  "\u5438": 8493,
  "\u795d": 8494,
  "guide": 8495,
  "rac": 8496,
  "\u2581Network": 8497,
  "typical": 8498,
  "comprise": 8499,
  "\u5de1": 8500,
  "\u885d\u7a81": 8501,
  "56": 8502,
  "\u2581\u541b\u306f": 8503,
  "char": 8504,
  "3%": 8505,
  "\u30ec\u30c3\u30c9": 8506,
  "YO": 8507,
  "\u78ba\u7acb": 8508,
  "concentration": 8509,
  "experienced": 8510,
  "\u5206\u91ce\u3067": 8511,
  "\u2581win": 8512,
  "\u30c7\u30d9\u30ed\u30c3\u30d1\u30fc": 8513,
  "\u2581launched": 8514,
  "collection": 8515,
  "highlight": 8516,
  "\u304b\u3089\u306a\u308b": 8517,
  "\u2581facilities": 8518,
  "tiny": 8519,
  "org": 8520,
  "alongwith": 8521,
  "\u2581stock": 8522,
  "forming": 8523,
  "jet": 8524,
  "visitors": 8525,
  "\u5357\u90e8": 8526,
  "Bluetooth": 8527,
  "\u56f3\u66f8\u9928": 8528,
  "closed": 8529,
  "\u25812005": 8530,
  "Inter": 8531,
  "NASA": 8532,
  "\u3064\u3051": 8533,
  "-3": 8534,
  "wine": 8535,
  "School": 8536,
  "\u2581\u6700\u5f8c\u306b": 8537,
  "whi": 8538,
  "vice": 8539,
  "\u53cd\u5c04": 8540,
  "\u5358\u7d14\u306a": 8541,
  "\u30a6\u30a3\u30f3\u30c9\u30a6": 8542,
  "Information": 8543,
  "adding": 8544,
  "Ten": 8545,
  "strip": 8546,
  "\u2581double": 8547,
  "\u7af6\u5408": 8548,
  "\u304c\u3042\u308a\u307e\u3057\u305f": 8549,
  "atic": 8550,
  "analyze": 8551,
  "\u5144\u5f1f": 8552,
  "\u308b\u3053\u3068\u304c\u3067\u304d\u307e\u3059": 8553,
  "\u51b7\u5374": 8554,
  "95": 8555,
  "Rh": 8556,
  "\u2581pretty": 8557,
  "\u2581vehicle": 8558,
  "LAN": 8559,
  "\u306b\u3068\u3063\u3066\u306f": 8560,
  "\u2581\u3042\u3042": 8561,
  "dance": 8562,
  "bag": 8563,
  "\u2581promote": 8564,
  "\u30a6\u30a9\u30fc": 8565,
  "\u30a2\u30c3\u30d7\u30b0\u30ec\u30fc\u30c9": 8566,
  "\u2581morning": 8567,
  "sometimes": 8568,
  "theme": 8569,
  "save": 8570,
  "\u2581clan": 8571,
  "\u75db\u307f": 8572,
  "\u306e\u5b58\u5728": 8573,
  "\u4e0d\u52d5\u7523": 8574,
  "Wa": 8575,
  "\u73fe\u72b6": 8576,
  "\u2581Software": 8577,
  "carbon": 8578,
  "\u512a\u5148": 8579,
  "tant": 8580,
  "ella": 8581,
  "configuration": 8582,
  "Shin": 8583,
  "\u2581networks": 8584,
  "\u3092\u8a2d\u7acb": 8585,
  "\u30e9\u30b9": 8586,
  "\u2581developer": 8587,
  "\u3084\u308a\u65b9": 8588,
  "\u5bfe\u51e6": 8589,
  "\u304d\u307e\u3059": 8590,
  "tocreate": 8591,
  "fuk": 8592,
  "surgery": 8593,
  "alter": 8594,
  "\u6697\u53f7\u5316": 8595,
  "expected": 8596,
  "\u6e6f": 8597,
  "\u672c\u306e": 8598,
  "serving": 8599,
  "cake": 8600,
  "\u2581German": 8601,
  "wrote": 8602,
  "knownas": 8603,
  "\u2581perfect": 8604,
  "mg": 8605,
  "bird": 8606,
  "nc": 8607,
  "Cor": 8608,
  "\u821e\u53f0": 8609,
  "\u65e9\u671f": 8610,
  "\u2581physical": 8611,
  "\u3068\u540c\u69d8\u306b": 8612,
  "ind": 8613,
  "college": 8614,
  "rot": 8615,
  "compare": 8616,
  "tern": 8617,
  "\u3066\u304f\u308c": 8618,
  "\u5bbf\u6cca": 8619,
  "pit": 8620,
  "nearly": 8621,
  "\u8efd\u91cf": 8622,
  "recommended": 8623,
  "\u30a8\u30f3\u30bf\u30fc\u30d7\u30e9\u30a4\u30ba": 8624,
  "\u9996\u76f8": 8625,
  "anyone": 8626,
  "\u5316\u5408\u7269": 8627,
  "\u30de\u30a4\u30af\u30ed\u30b5\u30fc\u30d3\u30b9": 8628,
  "\u68d2": 8629,
  "\u00fc": 8630,
  "delivered": 8631,
  "argue": 8632,
  "\u60c5\u5831\u306f": 8633,
  "Type": 8634,
  "\u2581extra": 8635,
  "1%": 8636,
  "beat": 8637,
  "diverse": 8638,
  "\u2581JavaScript": 8639,
  "\u2581Yu": 8640,
  "\u30af\u30a8\u30ea": 8641,
  "loop": 8642,
  "\u2581respect": 8643,
  "There": 8644,
  "\u653f\u5e9c\u306f": 8645,
  "wire": 8646,
  "conduct": 8647,
  "REST": 8648,
  "cultural": 8649,
  "\u9069\u5408": 8650,
  "ically": 8651,
  "emb": 8652,
  "\u30cf\u30f3\u30c9": 8653,
  "\u306a\u3044\u3088\u3046\u306b": 8654,
  "\u30c6\u30ed": 8655,
  "CNN": 8656,
  "\u2581q": 8657,
  "\u5f53\u6642\u306e": 8658,
  "\u30d5\u30a9\u30fc\u30c9": 8659,
  "lives": 8660,
  "\u652f": 8661,
  "\u304c\u3042\u308c\u3070": 8662,
  "average": 8663,
  "\u8907\u5408": 8664,
  "opinion": 8665,
  "solid": 8666,
  "accuracy": 8667,
  "fluid": 8668,
  "duc": 8669,
  "\u30a4\u30ce\u30d9\u30fc\u30b7\u30e7\u30f3": 8670,
  "wt": 8671,
  "\u6a29\u9650": 8672,
  "waste": 8673,
  "male": 8674,
  "yourself": 8675,
  "gro": 8676,
  "\u2581November": 8677,
  "coin": 8678,
  "difficult": 8679,
  "accept": 8680,
  "ready": 8681,
  "\u5c0f\u3055\u304f": 8682,
  "\u2581setting": 8683,
  "mustbe": 8684,
  "\u6697": 8685,
  "\u2581Take": 8686,
  "\u53f8": 8687,
  "91": 8688,
  "mber": 8689,
  "cutting": 8690,
  "\u8fb2": 8691,
  "nor": 8692,
  "\u2581cancer": 8693,
  "businesses": 8694,
  "streaming": 8695,
  "\u7206\u767a": 8696,
  "\u30ea\u30c3\u30af": 8697,
  "\u3057\u3066\u3044\u308b\u3053\u3068": 8698,
  "detection": 8699,
  "visual": 8700,
  "tting": 8701,
  "\u2581Learning": 8702,
  "whose": 8703,
  "inf": 8704,
  "\u2581\u65b0": 8705,
  "challenge": 8706,
  "Pl": 8707,
  "alloy": 8708,
  "\u81f4\u3057\u307e\u3059": 8709,
  "\u2581element": 8710,
  "meant": 8711,
  "\u8178": 8712,
  "\u3053\u3068\u3092\u793a\u3059": 8713,
  "\u2581\u50d5": 8714,
  "\u601d\u3046": 8715,
  "\u57cb\u3081": 8716,
  "\u8972": 8717,
  "radiation": 8718,
  "\u8457\u4f5c\u6a29": 8719,
  "kill": 8720,
  "\u3092\u77e5\u308b": 8721,
  "senior": 8722,
  "\u2581effects": 8723,
  "depend": 8724,
  "\u2581basis": 8725,
  "\u2581shirt": 8726,
  "clients": 8727,
  "thisyear": 8728,
  "iron": 8729,
  "motor": 8730,
  "\u2581\u9ad8": 8731,
  "wish": 8732,
  "\u51b7\u8535\u5eab": 8733,
  "restaurant": 8734,
  "tim": 8735,
  "pain": 8736,
  "\u5144": 8737,
  "sensitive": 8738,
  "split": 8739,
  "\u304c\u51fa": 8740,
  "female": 8741,
  "\u2581caused": 8742,
  "\u53d7\u8cde": 8743,
  "\u30aa\u30fc\u30c7\u30a3\u30aa": 8744,
  "\u50cd\u304f": 8745,
  "\u30c3\u30c4": 8746,
  "grain": 8747,
  "GS": 8748,
  "comparison": 8749,
  "andin": 8750,
  "\u95b2\u89a7": 8751,
  "\u2581River": 8752,
  "\u30d8\u30eb": 8753,
  "\u2581processes": 8754,
  "FE": 8755,
  "\u2581\u6b21\u306b": 8756,
  "\u6b63\u3057\u304f": 8757,
  "\u7406\u7531\u306f": 8758,
  "\u2581Fo": 8759,
  "boost": 8760,
  "Word": 8761,
  "\u306e\u8a55\u4fa1": 8762,
  "\u81ea\u5206\u81ea\u8eab": 8763,
  "\u2581Weare": 8764,
  "\u30db\u30ef\u30a4\u30c8": 8765,
  "lunch": 8766,
  "integrate": 8767,
  "\u30b7\u30e3\u30ef\u30fc": 8768,
  "gel": 8769,
  "relations": 8770,
  "route": 8771,
  "umi": 8772,
  "\u9769\u547d": 8773,
  "\u30ce\u30fc\u30c8": 8774,
  "arc": 8775,
  "\u2581seem": 8776,
  "Kan": 8777,
  "logo": 8778,
  "\u500b\u4eba\u60c5\u5831\u306e": 8779,
  "successfully": 8780,
  "\u30c9\u30f3": 8781,
  "\u6210\u529f\u3057\u305f": 8782,
  "East": 8783,
  "concept": 8784,
  "sex": 8785,
  "\u2581\u3069\u3046": 8786,
  "\u30b1\u30a2": 8787,
  "generated": 8788,
  "\u8ecd\u306e": 8789,
  "IO": 8790,
  "ese": 8791,
  "zz": 8792,
  "\u2581ob": 8793,
  "Development": 8794,
  "\u51fa\u8377": 8795,
  "critical": 8796,
  "\u30e2\u30c7\u30eb\u3092": 8797,
  "quad": 8798,
  "Museum": 8799,
  "\u4fbf\u5229\u306a": 8800,
  "\u2581pk": 8801,
  "\u3053\u3093\u306a": 8802,
  "\u6226\u95d8": 8803,
  "\u3044\u3067": 8804,
  "\u3092\u8868\u3059": 8805,
  "Text": 8806,
  "\u65d7": 8807,
  "\u30e8": 8808,
  "\u898f\u683c": 8809,
  "simulation": 8810,
  "\u2581son": 8811,
  "\u2581See": 8812,
  "fur": 8813,
  "\u8a8c": 8814,
  "\u6a39": 8815,
  "\u967d": 8816,
  "rig": 8817,
  "\u30af\u30c8": 8818,
  "\u30f4\u30a7": 8819,
  "GI": 8820,
  "\u5f7c\u5973\u304c": 8821,
  "bottle": 8822,
  "filter": 8823,
  "availability": 8824,
  "HS": 8825,
  "cker": 8826,
  "\u2581cap": 8827,
  "measure": 8828,
  "hood": 8829,
  "\u96fb\u5727": 8830,
  "rf": 8831,
  "\u8a2a\u554f": 8832,
  "\u3053\u3068\u304c\u3042\u308a\u307e\u3059": 8833,
  "curve": 8834,
  "\u5e02\u5834\u3067": 8835,
  "patient": 8836,
  "\u4e8c\u4eba": 8837,
  "\u306e\u4f5c\u6210": 8838,
  "\u25814.": 8839,
  "positive": 8840,
  "\u4ee4": 8841,
  "\u30c1\u30e3\u30cd\u30eb": 8842,
  "Drive": 8843,
  "\u307e\u3055\u306b": 8844,
  "\u3092\u9632\u3050": 8845,
  "\u3092\u898b\u305f": 8846,
  "\u2581firm": 8847,
  "\u3068\u547c\u3070\u308c": 8848,
  "\u306e\u5185\u5bb9": 8849,
  "\u2581beginning": 8850,
  "\u2581suggest": 8851,
  "agreement": 8852,
  "\u93e1": 8853,
  "BE": 8854,
  "adapt": 8855,
  "\u5973\u6027\u306f": 8856,
  "\u5c06\u8ecd": 8857,
  "performed": 8858,
  "ett": 8859,
  "Trade": 8860,
  "although": 8861,
  "fill": 8862,
  "\u3068\u3055\u308c\u308b": 8863,
  "\u2581lack": 8864,
  "\u30d6\u30ec": 8865,
  "\u30aa\u30fc\u30d0\u30fc": 8866,
  "\u3060\u3051\u306e": 8867,
  "\u88c5\u98fe": 8868,
  "57": 8869,
  "\u95a2\u4fc2\u3092": 8870,
  "\u811a": 8871,
  "election": 8872,
  "audit": 8873,
  "2003": 8874,
  "deposit": 8875,
  "thesecond": 8876,
  "template": 8877,
  "54": 8878,
  "fault": 8879,
  "RAM": 8880,
  "otherwise": 8881,
  "\u958b\u767a\u8005\u304c": 8882,
  "andI": 8883,
  "\u4f1a\u5834": 8884,
  "\u58ca": 8885,
  "\u30d5\u30ed\u30f3\u30c8": 8886,
  "trans": 8887,
  "newspaper": 8888,
  "\u306a\u3063\u3066\u3044\u308b": 8889,
  "\u30b7\u30f3\u30ac\u30dd\u30fc\u30eb": 8890,
  "\u30a4\u30ae\u30ea\u30b9\u306e": 8891,
  "significant": 8892,
  "2%": 8893,
  "transport": 8894,
  "\u6709\u6599": 8895,
  "\u2581\u3061\u3087\u3063\u3068": 8896,
  "yr": 8897,
  "mel": 8898,
  "YA": 8899,
  "edition": 8900,
  "taste": 8901,
  "typesof": 8902,
  "\u2581brother": 8903,
  "VA": 8904,
  "\u2581sell": 8905,
  "\u5f93\u6765": 8906,
  "\u767a\u8868\u3057\u305f": 8907,
  "grant": 8908,
  "teacher": 8909,
  "finding": 8910,
  "deliver": 8911,
  "\u623b": 8912,
  "50%": 8913,
  "mechanism": 8914,
  "\u30cb\u30c3\u30af": 8915,
  "\u5730\u4e0b": 8916,
  "believed": 8917,
  "adult": 8918,
  "options": 8919,
  "permission": 8920,
  "\u2581Com": 8921,
  "\u5909\u5f62": 8922,
  "\u6c7a\u3057\u3066": 8923,
  "\u5b50\u3069\u3082\u305f\u3061": 8924,
  "tj": 8925,
  "AV": 8926,
  "\u307e\u3059\u307e\u3059": 8927,
  "\u2581\u4eca\u56de\u306e": 8928,
  "?\u300d": 8929,
  "ofJapan": 8930,
  "\u540c\u610f": 8931,
  "department": 8932,
  "\u63d0\u4f9b\u3055\u308c\u308b": 8933,
  "Touch": 8934,
  "Face": 8935,
  "lia": 8936,
  "measurement": 8937,
  "PRO": 8938,
  "designated": 8939,
  "\u2581questions": 8940,
  "argument": 8941,
  "ori": 8942,
  "\u30ab\u30c3\u30c8": 8943,
  "\u00f6": 8944,
  "fourth": 8945,
  "\u2581factory": 8946,
  "specify": 8947,
  "background": 8948,
  "\u2581\u79c1\u9054\u306f": 8949,
  "skills": 8950,
  "\u2581easier": 8951,
  "Xt": 8952,
  "uma": 8953,
  "\u2581purchase": 8954,
  "emission": 8955,
  "\u2581su": 8956,
  "\u3068\u3057": 8957,
  "\u308f\u306a\u3044": 8958,
  "eve": 8959,
  "\u2581themselves": 8960,
  "\u5bb9\u6613\u306b": 8961,
  "\u2581Ten": 8962,
  "\u2581volume": 8963,
  "\u3053\u3068\u306a\u304f": 8964,
  "\u91ce\u83dc": 8965,
  "earlier": 8966,
  "\u306b\u5bfe\u51e6\u3059\u308b": 8967,
  "\u2581compared": 8968,
  "\u5074\u306e": 8969,
  "\u2581chance": 8970,
  "\u52e2": 8971,
  "\u30b5\u30eb": 8972,
  "soil": 8973,
  "\u5150": 8974,
  "\u2581Im": 8975,
  "\u2581Yoshi": 8976,
  "Dynamic": 8977,
  "fusion": 8978,
  "sco": 8979,
  "\u5012": 8980,
  "\u30b5\u30a4\u30c8\u306e": 8981,
  "\u2581wind": 8982,
  "properly": 8983,
  "\u7279\u6b8a": 8984,
  "outdoor": 8985,
  "\u547c": 8986,
  "Home": 8987,
  "\u30aa\u30d6": 8988,
  "Mt": 8989,
  "\u82e5\u8005": 8990,
  "\u2581Capital": 8991,
  "wheel": 8992,
  "\u306e\u3059\u3079\u3066\u306e": 8993,
  "resistance": 8994,
  "\u5f7c\u3092": 8995,
  "\u5854": 8996,
  "\u5f01\u8b77\u58eb": 8997,
  "valuable": 8998,
  "1994": 8999,
  "RL": 9000,
  "\u2581sort": 9001,
  "Samsung": 9002,
  "\u3064\u306f": 9003,
  "brought": 9004,
  "languages": 9005,
  "\u307e\u3068\u3081": 9006,
  "FO": 9007,
  "\u30c3\u30b0": 9008,
  "10%": 9009,
  "lose": 9010,
  "\u7cd6": 9011,
  "tte": 9012,
  "\u5bb6\u306b": 9013,
  "\u6a5f\u80fd\u304c": 9014,
  "\u30b1\u30f3": 9015,
  "\u8d85\u97f3\u6ce2": 9016,
  "ford": 9017,
  "North": 9018,
  "expose": 9019,
  "Control": 9020,
  "tour": 9021,
  "haveto": 9022,
  "sale": 9023,
  "reg": 9024,
  "relatedto": 9025,
  "operate": 9026,
  "\u767a\u73fe": 9027,
  "\u6295\u4e0e": 9028,
  "\u5e83\u3044": 9029,
  "\u88dc": 9030,
  "\u30d9\u30eb\u30c8": 9031,
  "implementation": 9032,
  "\u8fd1\u304f\u306e": 9033,
  "\u6bce": 9034,
  "\u2581\u30a2\u30e1\u30ea\u30ab": 9035,
  "\u3092\u53c2\u7167": 9036,
  "\u2581understanding": 9037,
  "\u30d7\u30ec\u30fc\u30e4\u30fc": 9038,
  "\u3092\u5909\u3048\u308b": 9039,
  "\u3064\u3044\u305f": 9040,
  "forest": 9041,
  "slightly": 9042,
  "cel": 9043,
  "\u2581efforts": 9044,
  "installed": 9045,
  "\u3065\u304f\u308a": 9046,
  "\u5c5e\u6027": 9047,
  "\u306e\u65b0": 9048,
  "\u9ad8\u304f": 9049,
  "\u601d\u3044\u51fa": 9050,
  "tbe": 9051,
  "\u2581Mc": 9052,
  "\u3059\u304e\u308b": 9053,
  "minimum": 9054,
  "abit": 9055,
  "\u3053\u308c\u307e\u3067\u306e": 9056,
  "tl": 9057,
  "JSON": 9058,
  "\u3044\u304b\u306a\u308b": 9059,
  "unknown": 9060,
  "2021": 9061,
  "\u6df7\u4e71": 9062,
  "\u3092\u898b\u3066\u3044\u307e\u3059": 9063,
  "\u5c31": 9064,
  "extended": 9065,
  "Sea": 9066,
  "inour": 9067,
  "hospital": 9068,
  "\u2581traffic": 9069,
  "\u6a5f\u306e": 9070,
  "ceremony": 9071,
  "cess": 9072,
  "\u30d7\u30ed\u30bb\u30c3\u30b5": 9073,
  "compatible": 9074,
  "\u2581gave": 9075,
  "Singapore": 9076,
  "\u2581da": 9077,
[...]
