[PAD]
[UNK]
[CLS]
[SEP]
[MASK]
の
、
。
に
は
を
が
と
で
年
・
（
）
さ
して
した
いる
する
も
「
」
月
から
れた
日
こと
し
である
れて
や
２
１
いた
ある
『
』
れる
など
３
−

この
ない
ため
日本
人
”
より
４
れ
第
いう
者
その
なった
もの
へ
後
まで
また
市
なる
５
中
６
一
同
県
これ
１０
７
内
８
なって
おり
よる
９
大学
つ
大
国
よって
時
１２
であった
か
家
駅
ように
ら
現在
的な
本
１１
軍
上
：
化
であり
的に
なり
放送
名
性
ず
部
回
目
町
時代
それ
なかった
おいて
世界
代
線
間
戦
でも
られる
あり
会
場合
行わ
二
ついて
所
その後
東京
前
多く
州
だった
地
あった
なく
しかし
い
られた
号
数
できる
的
作品
彼
選手
他
｜
使用
機
昭和
語
られて
郡
位
研究
当時
存在
新
元
アメリカ
長
側
三
活動
映画
初
学校
社
等
１５
，
全
下
番組
呼ば
東
区
２０
会社
出身
および
／
車
約
のみ
代表
形
権
なお
テレビ
西
系
発売
型
以下
地域
法
開発
１４
歳
作
１３
１６
中心
チーム
たち
北
分
られ
館
鉄道
おける
時間
以降
３０
ドイツ
小
出場
一部
南
用
さらに
！
発表
度
試合
平成
＝
だ
高
学
賞
局
登場
大会
版
開始
（）
次
フランス
川
際
点
式
関係
曲
参加
記録
体
ような
所属
％
多い
利用
ｍ
でき
だけ
世
．
１８
１７
シリーズ
明治
以上
事
ゲーム
見
お
力
##な
な
音楽
せ
シーズン
開催
##子
リーグ
島
ともに
にて
各
級
国際
いった
監督
氏
イギリス
山
両
世紀
問題
村
２０１０
旧
対して
優勝
知ら
都市
１９
行う
金
場
道
一般
中国
物
出演
設置
ので
せる
持つ
地方
事業
社会
卒業
戦争
共に
官
委員
２５
位置
計画
同じ
Ｂ
プロ
２００９
変更
Ａ
２００８
省
教育
結果
中央
２０１１
大阪
２００７
王
影響
アルバム
２１
期
文化
きた
頃
政府
隊
役
ほか
番
そして
２０１２
特に
獲得
ながら
Ｃ
##に
派
一方
手
建設
２４
いく
通り
##ラ
##ａ
なら
とき
自身
担当
外
考え
２００６
当初
ｋｍ
##ク
うち
設立
方
バス
##ｓ
機関
円
及び
種
事件
##ナ
経済
２２
２０１３
現
生
年間
２０１４
ア
かけて
０
情報
選挙
水
女性
都
政治
主義
販売
それぞれ
２３
意味
城
以外
地区
不
攻撃
２０１５
科
デビュー
##ｅ
##の
Ｓ
子
調査
艦
構成
グループ
##で
Ｄ
高等
米
かつて
２０１６
再
発生
##タ
２００５
アメリカ合衆国
##し
受け
技術
##ノ
##山
##り
可能
自分
##ｉ
または
航空
就任
父
##ｙ
##ｅｒ
２０００
路線
状態
##ｏ
歴史
話
システム
行って
場所
##ス
勝
採用
２６
行った
決定
##田
契約
２８
Ｍ
神
２０１７
最も
台
せた
制作
人口
２７
施設
正
ただし
公
終了
製造
対する
##リ
船
部分
関する
Ｐ
高校
##ト
総
石
組織
公開
ほど
教授
収録
Ｆ
無
株式
生産
ロシア
２９
車両
必要
最
使わ
海軍
全国
列車
帝国
##コ
野球
用い
書
##川
大きな
全て
Ｔ
ラ
初めて
シングル
モデル
枚
Ｋ
Ｒ
##フ
##ダ
面
四
Ｇ
高い
２００４
議員
部隊
率
主に
受賞
メンバー
名称
企業
〜
目的
最終
##ド
道路
##ティ
勝利
##ン
##カ
そこ
機能
センター
京都
運動
受けた
末
員
活躍
店
１００
管理
党
独立
実施
移籍
取り
海
##い
人物
時期
ほとんど
##ム
Ｊ
生活
務めた
戦い
Ｌ
経て
入り
通常
製作
Ｈ
##ル
サッカー
構造
馬
クラブ
年度
対応
教会
カ
##ロ
朝
成功
デ
エンジン
量
ところ
イタリア
発見
例
基本
含む
江戸
重
戦闘
受けて
##レ
府
以前
##って
##シ
Ｎ
##ズ
##リー
##ア
設定
３１
実際
キャラクター
搭載
名前
##ニ
非
ここ
規模
対
協会
##ら
２００３
アニメ
ホーム
内容
設計
アル
##った
##イ
##野
Ｖ
漫画
編成
決勝
##ツ
指定
リ
人間
室
作曲
エ
評価
##サ
特徴
ドラマ
##ジ
女子
指揮
科学
交通
マ
異なる
再び
##る
出版
最初の
運行
##き
専門
副
ヨーロッパ
##マ
##チ
先
指導
連合
運営
制
み
五
予定
国家
イ
光
期間
大きく
表記
主
対し
彼女
品
結婚
向け
翌
’
バンド
リリース
##Ｓ
対象
団
連続
５０
経営
歌
廃止
色
多数
##く
タイトル
団体
##ガ
##キ
時点
２００２
当
すべて
しまう
##ｔ
あるいは
条
##ブ
様々な
程度
小説
藩
記念
製
院
英語
参照
理由
大戦
持ち
##ｉｎ
事務
提供
ド
導入
自動車
群
Ｅ
１９９０
ローマ
２０１８
オ
##テ
死去
４０
人気
##ー
たい
２００１
達
##ディ
労働
##島
生まれ
よう
展開
##バ
周辺
ザ
全体
デザイン
運転
基
方法
領
サービス
今
##ｅｎ
その他
サン
形式
コ
真
公園
##ネ
橋
以来
##ｏｎ
白
ラジオ
小学校
サ
しか
説
兵
結成
##一
議会
総合
同時に
大統領
##ａｌ
のち
##人
マン
##Ｌ
警察
舞台
環境
言わ
宇宙
支援
引退
##ｄ
娘
##グ
関連
中学校
最高
国民
由来
会議
初期
スーパー
持って
ほぼ
競技
自治
飛行
自ら
連邦
バ
スポーツ
##ｎ
完成
いずれ
含ま
夏
北海道
裁判
ドル
陸軍
##Ｔ
組
街
##Ｃ
ひと
行い
＿
カード
##ウ
ｃｍ
ル
変化
１９８０
巻
共同
特別
##か
寺
支配
花
士
スペイン
主張
大正
オリンピック
類
天
学者
##さ
アン
Ｗ
##み
対戦
とって
##ａｎ
妻
丁目
アジア
パ
文
校
個
##ｅｓ
建築
##Ｂ
頭
よく
整備
撮影
##ミ
形成
作戦
演奏
共和
##プ
レ
英
神社
移動
右
輸送
与え
##Ｏ
##Ｅ
制度
１９９９
ニューヨーク
法人
能力
発展
左
営業
レース
非常に
ハ
文字
登録
##マン
子供
状況
##木
伴い
準
ス
風
表現
母
##Ｄ
ファン
産業
韓国
まま
表示
イン
圏
企画
以後
試験
##ゴ
公式
着
得
##Ｆ
男
データ
発行
行政
##トン
誌
区間
##す
##ラー
##デ
##Ｇ
す
御
春
論
姿
合併
##Ｋ
距離
複数
心
##である
##ｕ
認め
新しい
方面
##ｍ
##スト
選出
分類
種類
広島
口
１９７０
ｍｍ
##オ
階
新聞
##リン
赤
シ
番号
##ｈ
成立
工業
##ｉｎｇ
##れ
なければ
工場
運用
言語
自由
##ｌ
##ｃ
南部
装置
##ｋ
付近
行動
人々
メートル
経験
物語
空港
祭
掲載
近く
義
成績
ロ
せて
サイト
##水
相手
動物
族
＆
１９９８
銀行
通信
美
死
大臣
電気
言葉
音
##本
強い
美術
男性
##した
##シュ
値
報告
##して
私
方式
庁
##エ
##Ａ
##Ｍ
翌年
清
木
出
会長
##ール
別
##Ｈ
トップ
写真
条件
現代
支持
##わ
部門
平均
復帰
##ヤ
イベント
多
事故
劇場
平
未
為
確認
批判
##Ｐ
息子
個人
ＪＲ
紹介
もと
敵
##ｂ
名古屋
##ター
港
ジョン
タ
##モ
王国
モ
文学
ぶり
##寺
入る
ライブ
しまった
よれば
１９９７
効果
愛
状
学生
女
勝ち
後半
ク
##Ｎ
保護
記述
##ット
楽曲
諸
同様に
##城
連載
司令
カー
１９９６
例えば
師
拡大
同じく
超
高速
政策
インド
福岡
##め
##ｏｒ
##こ
生まれた
##原
地元
##ａｒ
病院
##平
はじめ
##ック
##Ｒ
##道
艦隊
地球
得点
自然
Ｘ
進出
装備
１９９５
方向
##Ｗ
初代
八
##ｅｌ
枠
製品
何
限定
雑誌
黒
元年
編集
開業
政権
声
作ら
##ラン
最後の
受ける
##Ｉ
##ｇ
ＣＤ
##ニー
打
王座
ミ
ビル
史
示す
追加
座
Ｉ
工事
古
過去
##ケ
横浜
##ビ
スター
観光
重要な
##谷
増加
競馬
社長
取得
##Ｙ
朝鮮
星
言う
協力
##州
芸術
編
和
##だ
事実
１９９４
ダ
器
博士
##部
あ
途中
しよう
表
ロック
“
Ｏ
俳優
果たした
学部
##ｉｔ
安
北部
市立
ベ
国道
植物
唯一
あたる
ＦＣ
夜
##メ
##井
ｆｏｒｍｕｌａ
映像
##ｐ
##ｆ
項
##線
き
半
６０
近年
候補
００
近い
テーマ
作家
住民
##え
パリ
専用
信
選ば
ロンドン
軍事
１９６０
少年
##ｉｓ
仕事
いわ
こ
１９９２
属
客
ナ
コン
土地
秒
関して
##ｉｃ
クラス
いて
差
１９９３
最大
##ワ
ビ
##長
##町
##行
将軍
戦後
各地
家族
外国
##バー
##ｅｔ
セ
系統
足
従来
反対
よ
標準
隻
相
国立
統合
市民
ごと
##屋
分野
細胞
１９９１
配置
バー
##生
地上
付け
始めた
図書
##パ
条約
森
女優
台湾
定義
聖
##之
発
##セ
防衛
つつ
オープン
生物
直
##ａｔ
##Ｖ
メーカー
特定
１９８９
そのまま
直接
始め
規定
帯
秋
##ま
民族
千葉
ハイ
内閣
ボ
##地
業務
市場
派遣
六
店舗
タイ
##ｒ
##国
勢力
呼ぶ
字
説明
ガ
拠点
ん
原因
盤
描か
キ
敗
原作
ライン
低
##ダー
ウ
ＮＨＫ
付
所有
フリー
至る
※
革命
親
次の
反
出て
弟
##ギ
行為
できた
建物
障害
＋
主人公
もって
域
貢献
さん
丸
湖
創設
門
発電
層
職
ト
理論
天皇
破壊
成長
##カー
系列
##神
込み
##ナー
伝統
務める
##上
込ま
被害
ラン
所在
段
反応
兄
横
指摘
置か
##家
##村
##ザ
電子
##美
た
記載
##Ｕ
商品
したり
公演
紙
教
引き
ベース
１９８８
続く
##じ
ｓ
あって
##レン
法律
～
ノ
##ｚ
武
業
##大
湾
べき
界
ディ
##ｕｓ
関東
県立
くる
→
電話
最大の
##ヌ
実験
主演
配信
宗教
１９８７
ソ連
九州
購入
計
七
統一
作業
##物
太平洋
紀元
少ない
レコード
##リア
##文
メイン
実現
気
タイプ
名誉
どう
同盟
速度
自動
競走
集
有
２００
##イン
こう
カナダ
##沢
Ｕ
本社
上げ
ダム
##ハ
住宅
明
化学
##ッ
メ
達成
ツアー
ペ
設け
加入
行
すぐ
広く
##々
土
Ｔｈｅ
##シー
精神
のである
要素
直後
死亡
ニュース
空間
維持
挙げ
核
１９８６
生まれる
青
タイム
本部
実
##風
処理
スタジオ
１９８５
海外
ステージ
作成
ヒ
節
制御
入学
商業
集団
エル
広
料理
##王
屋
##明
##ボ
忠
民
ホール
プレー
ニュー
く
オリジナル
接続
千
流れ
参戦
？
裏
役割
単位
このような
ソ
欧州
##三
来
形態
別の
改正
思わ
カップ
##う
ホ
毎年
##名
加え
オランダ
減少
##見
##っ
もう
##ゲ
結ぶ
基地
ま
ポイント
刊行
新たな
米国
失敗
指す
書か
強
##が
身
原
選択
理事
流
かつ
取締
メダル
イングランド
##ｗ
移転
愛知
##口
自体
大陸
##クス
歌手
##ｌｅ
神戸
ブランド
古代
ビデオ
ｋｇ
管
高く
体制
安全
画
空
作り
本線
１９８４
いい
誕生
##光
アイ
波
感
ソフト
面積
##法
シュ
投票
記事
昇格
入って
##宮
要求
４５
郵便
連盟
沖縄
##ｅｄ
##石
医療
機構
違い
エネルギー
軌道
##ａｓ
得る
報道
３５
通称
ヒット
##ヴァ
１９５０
病
改革
短
男子
無い
ニ
現役
十
##手
首都
岩
主要
通
オーストラリア
継承
電車
大型
通じて
主な
改造
本名
##ベ
メディア
続いて
シャ
ベスト
神奈川
作用
プロジェクト
中継
新潟
組合
内部
##門
皇帝
仏
ポ
##ゼ
東北
制限
質
復活
新たに
う
しばしば
ポジション
ジ
予選
便
西部
用いる
##ソン
バック
ＤＶＤ
段階
##ヒ
基準
資料
##ーン
##津
用いて
##せ
向上
##ａｎｄ
幕府
大学院
##太郎
禁止
半島
ベル
博物
１９８３
ネット
##マー
出す
##橋
１９４５
原子
レギュラー
##ａｄ
##二
農業
おら
代わり
到着
性能
思い
３２
可能な
##中
観測
##高
ホテル
前後
史上
葉
ヘ
##ロン
１９８２
学園
建造
追い
##Ｘ
コーチ
仕様
自
##和
解散
経由
松
##む
見る
交換
ユダヤ
首相
##崎
指名
政
##元
相当
地下
熱
##夫
隣接
コンピュータ
メジャー
弾
書き
訓練
##吉
停止
近代
上記
分離
銀
アフリカ
惑星
路
限り
コーナー
入った
フル
##治
レベル
命令
##ｖ
更に
８０
オー
ポーランド
生徒
強化
対立
兄弟
責任
見て
長い
継続
スタート
投手
太陽
##ｏｌ
##ぎ
得た
脚本
##ソ
マル
続けて
##間
付き
リー
##ガー
述べて
判断
務めて
基礎
関西
安定
入
コース
打ち
鉄
ロー
ひ
##であった
倍
もしくは
Ｚ
会員
帰国
乗り
強く
記
１９７２
出さ
テ
属する
建て
絵
憲法
展示
##ルト
食
１９７９
##け
あまり
提案
アー
##と
使う
ｔ
夫
兼
少女
ピ
ブ
##目
宣言
通過
傾向
マーク
イメージ
フ
知事
父親
機体
延長
田
主催
ライト
機械
ｈ
本塁
駆逐
陣
##ｏｆ
##馬
入団
師団
自己
有する
完全
週
本来
判定
可能である
ミュージック
１９８１
ワールド
章
##た
合わせて
埼玉
任命
動き
比較的
１９７５
南北
操作
立ち
##江
グ
プログラム
##デン
呼び
明らかに
既に
著作
##海
静岡
シー
貨物
ヴィ
伊
オブ
注目
交流
防御
いわゆる
あたり
使って
酸
任務
ます
トラック
##心
連絡
##出
きっかけ
領域
発足
玉
同様の
当選
孫
マー
同様
シーン
宗
##ロー
１９７３
源
小さな
得て
ゴール
連
##ｃｈ
ヶ月
１９７８
##里
占領
野
改称
席
地震
陸上
本人
重要
スタイル
##書
ユニット
こうした
県道
治療
##ａｍ
##彦
ショー
供給
##だった
李
出した
仙台
まだ
行き
ご
確保
後継
##Ｊ
進学
東部
普通
置く
一種
ふ
保存
対策
海岸
開幕
温泉
加えて
逮捕
比較
意見
衆議院
##ート
##ポ
り
異なり
推進
##ん
アップ
トン
全く
カル
地名
計算
１９７６
山口
普及
範囲
読み
だが
長野
##ックス
詩
１９７４
終わった
週間
幅
マイ
Ｙ
部長
１９７１
起用
##Ｚ
##ヴ
ジャ
図
出来
１９６８
７０
１９６９
長崎
始める
地位
諸島
##ード
##であり
板
兵庫
##成
##ーム
レイ
すなわち
ガス
改良
４８
交差
##徳
残って
顔
声優
技
宮
機器
始まった
のだ
長官
案
オーストリア
周
軽
通算
概念
藩主
挑戦
資金
成
後期
犬
執筆
久
部屋
最後に
夢
思想
銃
天文
ケ
更新
車体
家庭
デジタル
ち
ストーリー
登板
学科
福島
##司
割
##堂
##ンド
制定
##頭
植民
価格
太
薬
林
演出
カリフォルニア
角
１９７７
ネ
##雄
すれば
長男
##南
命名
完全に
ム
冬
目標
##や
５００
周囲
##ち
一定
##アン
##リング
開設
勤務
悪
##ヴィ
周年
分布
豊
砲
旅客
なか
実行
チ
オール
立場
プレイ
ティ
エン
後述
##場
ワ
##スター
市街
##ｕｍ
続けた
期待
##ピ
出来る
プロデューサー
症
ＣＭ
ピアノ
インターネット
移行
市長
回転
乱
階級
パン
バージョン
##ビー
統治
##久
跡
マイル
哲学
ｎ
向かう
意識
かなり
課程
火
ヤ
##蔵
言い
##尾
九
##体
組み
そう
３６
コード
務め
シティ
欧
交渉
ランキング
学院
命
戦車
設備
９０
##セン
##音
ブラジル
機会
３３
１９６４
解説
民間
##ｉａ
園
プレイヤー
出力
資格
##信
区別
旅
##作
消費
軸
##ｉｌ
潜水
##び
##つ
１９６７
分割
取引
ゲスト
##６
物理
加盟
##ッチ
殺害
電力
##れる
物質
作詞
##代
前述
在籍
連隊
本格
除く
結局
##リス
定
##レー
撤退
対抗
３８
認定
込む
谷
やすい
##院
##４
まず
##んで
奈良
立
前作
今日
貴族
##える
##ジャ
##男
扱い
施行
年生
始まり
ジョージ
鹿児島
岡山
##９
ＩＣ
検討
##ｒｏ
ハー
##陽
民主党
##スタ
３００
##台
##５
ファ
##丸
徳川
前年
使い
ゴ
##レス
切り
文書
##ザー
保険
管轄
権利
##戸
像
大きい
財
］
沿い
##政
独自の
低い
多かった
出し
表す
１９４４
少なく
略称
編入
##波
再開
##れた
残り
合流
##ース
乗車
率いる
##３
かけ
スウェーデン
呼称
適用
中止
##ば
酒
札幌
行く
共通
方針
１９６５
視聴
モード
準備
##オン
球団
公共
ｐ
経
旅行
売り
合計
セット
地点
用いた
じ
列
児童
##太
逆
##年
先発
##ンズ
やがて
与える
１９４０
スタッフ
アナウンサー
民主
ね
ただ
コー
定期
武器
##ｉｄ
３４
すでに
１９６６
最初に
練習
##志
##ッツ
大半
続け
固定
歴任
金属
永
##ランド
##タン
費
##～
##ＥＲ
秀
ギ
ジュニア
形状
進行
国鉄
優秀
##サー
##分
信号
持た
熊本
南西
エリア
##エル
良い
描いた
伝説
塩
単
##内
語って
カン
作る
処分
岐阜
##重
##ホ
アイドル
兵器
背景
誰
推定
発言
主題
結合
##ルス
単独
北西
前半
鎌倉
入社
果たす
全員
 
##ｏｓ
発射
ブルー
アカデミー
回復
##ｏｔ
##れて
ルート
１９３０
比
３７
燃料
##所
崩壊
##ジー
始まる
ずつ
直前
解放
##通
##ペ
停車
##ーク
与えた
出る
ＴＢＳ
古い
ｄ
５５
諸国
収容
改善
医学
##流
良
生息
券
トンネル
##ろ
##会
日間
愛称
順
区域
伴う
##ｕｒ
ライ
集合
開通
拡張
##ｓｔ
友人
ネットワーク
ソフトウェア
理解
表明
求め
守
芸能
秋田
積極
素
本拠
現象
関数
深
許可
カトリック
チャート
##宗
ケース
##ｅｎｔ
１９６３
つまり
定め
会場
×
藤
一般に
シン
件
認識
平和
ミニ
上位
アンド
空軍
##万
急
##葉
伝え
好
剤
##アー
ユ
地帯
ブラック
京
ジャパン
##武
残さ
ウィ
学会
##パー
仲間
手法
議論
１９６２
##コン
吉
選
##ｏｍ
ラテン
低下
劇
世代
前身
移住
提出
否定
##事
進め
##・
金融
##士
規制
阪神
姓
ルー
詳細
##日
首
沖
論文
侵攻
分析
##瀬
わたって
在
王者
講師
新設
国勢
翻訳
##ｒｅ
罪
相互
##スク
堂
検査
##ファ
##東
##シン
血
押し
##次
##ベル
残した
##安
１９４３
つけ
産
池
カラー
ベルリン
酸化
証明
杯
尾
必要な
##義
用語
##天
奥
##て
審査
##方
パーク
元々
依頼
観
身長
１９４１
共産党
負け
ｂ
利
性格
え
１９６１
魚
東海
１９４７
１９４２
メキシコ
##ａｙ
朝日
##モン
解決
##ブル
##こう
分子
リン
合成
どちら
##テン
負傷
録音
百
各国
##伝
集落
弁護
##ａｃ
注意
３９
価値
キー
ほう
反乱
##ｒｉ
根
外交
##良
大き
##前
死後
衛星
若
抵抗
サイ
河
拒否
名義
貿易
なし
４４
ワールドカップ
鏡
異
新人
カール
##気
ソロ
統計
キリスト教
縁
買収
訳
網
万
フィ
##月
##２
コンサート
敗れた
政党
込んだ
余
サイズ
１０００
サー
ルール
##合
##下
逆に
考えて
雪
遺跡
確立
ワシントン
生成
調整
犯罪
##路
有名な
##坂
ウィリアム
母親
ハン
アーティスト
打率
考える
視
１９４８
##ント
壁
富
##んだ
東西
１９４６
##岡
龍
プロレス
判決
体育
披露
求める
##正
緑
##７
ブロック
##ング
草
中世
意
アイルランド
ダンス
上昇
現地
限ら
やや
フジテレビ
承認
戦略
不足
過程
ミサイル
##ａｔｉｏｎ
消滅
カメラ
急行
プレ
香港
張
脳
バン
記者
##ＡＮ
古墳
１９５８
茶
危機
北東
##式
##ップ
インター
ギリシャ
##色
転
自衛
富士
##エン
一覧
##林
初回
##ゲン
開か
戸
居住
特急
##チャ
##金
１９５９
チェンジ
雄
用意
福
ダン
##フィ
満
初頭
グランプリ
バル
せい
従事
陸
黄
発達
ゲ
##ヴェ
額
大使
##シャ
中間
記さ
特殊
医師
信仰
兵士
##める
執行
ソビエト
健康
強制
広告
軍人
##形
１９２０
表面
##ｘ
常
田中
##．
初め
迎えた
桜
英国
##ニア
投入
１９４９
早
##億
スタジアム
ぬ
１９５５
不明
関
中学
下記
続いた
４２
空気
規格
##花
合格
ジャン
挙げた
投資
開
巻き
ｃ
基づく
銅
ＴＶ
集中
１９５６
ページ
##立
終わり
機動
末期
輸入
さまざまな
毎週
神経
国王
フォン
小型
人民
従って
長く
##ｉｍ
残る
かかわら
塔
守備
正式に
雨
##松
４１
河川
わけで
郷
年齢
ダウン
同一
鈴木
難
フェ
収入
装甲
##ＩＮ
ギター
携帯
改名
護衛
冠
海上
##お
常に
側面
ヴァ
か月
##いた
＃
ハンガリー
立て
##座
スキー
財政
わ
サポート
ソング
ポール
見える
##ｒａ
数学
長期
スペース
バイ
料
遺産
昇進
窓
食品
竹
##トル
画面
幸
分け
１９５２
肉
伊勢
同士
知識
タウン
ファイル
走行
ツ
事態
超える
リスト
ＩＩ
ｘ
閉鎖
４３
##郎
ジュ
##８
伯
１９５４
タレント
##クト
留学
劉
##ロス
送り
##ｕｌ
一族
江
スペシャル
##いて
患者
キャ
グリーン
来た
保有
歩兵
##ジュ
議長
君
しん
…
オフ
カバー
創業
##者
##室
宮城
加
世帯
テスト
ホー
羽
##公
##西
出た
##型
##ラス
べく
沿岸
最後
続ける
レーベル
吸収
であって
##性
再建
##介
述べた
中部
##電
渡り
無料
希望
牛
４００
寺院
藤原
ハウス
箇所
変
##ッド
次第に
スイス
境界
具体
ボール
国境
漢
０．
イオン
ポルトガル
工学
主要な
通して
##ガン
##ｊ
つき
出して
栽培
しまい
解釈
エジプト
予備
危険
４６
駅舎
１９５３
佐
そのもの
１９５７
##ジェ
財団
サウンド
モン
北京
##めて
動作
様子
手段
教師
石川
##数
青年
インタビュー
臨時
チャ
スクール
中村
込んで
南東
話題
見た
比べて
文庫
大分
阿
妹
##バン
税
争い
向けて
傘下
現場
個体
武装
保守
資本
端
弟子
ブラ
きて
１９３９
標高
##ぐ
協議
衝突
パー
育成
トゥ
もつ
コミック
志
もっとも
リング
##ｕｎ
公立
国会
##えた
１９５１
流れる
出現
迎え
レッド
地下鉄
正式
##助
##ＡＲ
ユー
様式
要請
悪化
性質
Ｑ
##ＡＭ
康
深夜
５４
##命
学習
両者
ロサンゼルス
チャンピオン
骨
ベトナム
翼
アクセス
##語
近
進む
唐
引き続き
徐々に
４７
終戦
次元
再生
現存
吉田
改修
徳
ｋ
呉
伝
富山
##史
仕
ロード
爆発
仲
エピソード
調
現実
紀
サイド
構想
##ａｇ
大部分
各種
##市
善
判明
アクション
続き
最初
##チン
生命
剣
共演
服
およそ
片
だろう
##学
業界
チャンネル
画家
自転車
戦隊
め
職員
モスクワ
アリ
飛び
区分
令
トルコ
##めた
卵
実質
ドラフト
新宿
養子
歌詞
類似
指示
クリ
アメリカン
##車
こそ
キャリア
極めて
主力
ごろ
##ジン
１９３７
##リオ
的である
創立
ころ
ユーザー
捜査
##ず
古典
##保
孝
徳島
幾
振り
##ぶ
過
##する
佐藤
##サン
##ィ
パワー
合意
規則
わずか
##根
将来
人員
軍団
##キン
##北
実業
業者
##えて
上映
ビジネス
戦線
##機
ヘッド
ｉ
同時
街道
遠征
著書
##ＡＬ
免許
変換
中華人民共和国
的で
しかしながら
##状
マシン
ブレーキ
##ｕｔ
即位
る
湯
演劇
オル
ジョ
子会社
署
霊
重量
環
脱
廃
混乱
よい
##é
当たる
上陸
医
心理
保持
##キー
鳥
境
売却
クラ
票
ｆ
ＰＣ
戦国
場面
入れ
##角
感染
扱う
##ける
仏教
左右
毛
ガンダム
##レイ
協定
修
##軍
同日
##ｅｒｓ
戦死
姉妹
結び
ガン
転換
ｇ
##知
楽器
三重
重視
ロケット
です
天正
竜
向かって
楽団
自宅
墓
一番
ヨ
離脱
事情
興行
宿
##ディー
１９３８
一緒に
カラ
だい
青森
##勝
プ
１９３６
そのような
##ａｒｄ
ギリシア
プラ
文献
トリ
授与
使った
活用
とおり
若い
かん
１万
##越
歩
##ＩＣ
あと
こちら
駅前
##利
##ｏｐ
無線
##ＡＣ
クロ
被
人類
週刊
–
##ａｋ
作った
##世
##シア
保
無く
極
##倉
東洋
一致
補助
戦艦
翌日
##次郎
て
構築
住む
取る
輸出
川崎
単行本
##骨
家臣
##力
教徒
訪問
両方
##ａｌｌ
震災
##ｅｌｌ
体重
通って
投げ
修正
##デル
山本
示した
泉
頼
出走
ワン
創刊
扉
オペラ
##郷
〉
〈
コル
##かった
##カル
［
故障
起源
決め
様
交響
かい
球
##也
敗北
発着
##字
##ＡＴ
松本
料金
##化
##カン
放射
幕
大和
知
歴代
予算
電
##毛
描く
似て
権力
新幹線
しょう
ウクライナ
上げた
ちゃん
警備
イスラエル
ジェ
在学
項目
うえ
書籍
穴
味
奴隷
もともと
山形
模様
持った
宝
包囲
動画
描写
ブル
##船
##ンス
敷地
外部
茨城
##主
フォ
考慮
目指す
##ウス
参謀
単に
##女
##楽
学び
鬼
##ったり
放映
早稲田
解体
ルイ
休止
原則
体験
隆
キング
ジャンプ
称さ
##ｏｗ
艇
オーバー
含め
趣味
身体
##ｉｇ
替え
マリ
移り
解
午後
む
交代
応じて
主体
襲撃
爆撃
ほ
両親
司会
楽
##ＳＴ
残して
半分
離れた
浜
矢
記憶
##浦
称号
建
##用
信頼
フィルム
山脈
##ご
ダイヤ
おお
##ティー
機種
合
観客
##ｔｅｒ
夫人
##テル
何度
１９３３
##樹
学んだ
守護
##ドル
フィールド
##ＯＮ
殺人
##雲
##ーズ
##ｉｅ
費用
消防
弁
インディアン
６４
##そう
そんな
増
進み
ボー
高橋
刑事
測定
似た
知る
決めた
平安
気候
ヘンリー
恋
効率
追放
出馬
公表
渡
けん
シート
半ば
人工
温度
やま
##朝
短い
評論
友
大幅に
書いた
激しい
##ｉｒ
付属
宮崎
依存
印
背
コンビ
数字
##綱
大字
ロボット
締結
エア
次いで
##面
##仁
せん
ターミナル
象徴
関与
広場
姿勢
基づいて
可能に
トーナメント
１９３４
全長
プロデュース
##位
進化
手紙
##チェ
ｃｏｌｓｐａｎ
ダイ
マリア
##紀
局長
定着
再度
パイロット
子孫
次男
守る
午前
特
姉
スケート
しばらく
起こった
１９３２
１９３５
##定
##帝
小さい
１２０
雲
仁
分岐
専攻
##ゾ
案内
深い
完了
最近
資源
予想
補
アニメーション
５１
伊藤
##ｅｍ
貞
生み
山田
分解
モーター
領土
公認
##ど
##ｔｈ
ドア
ＧＰ
提携
５８
独
アラ
連結
言って
##ＡＳ
戦士
同期
チェ
##ｅｃ
ＦＩＦＡ
##実
Ｗｉｎｄｏｗｓ
電動
収め
士官
神話
画像
生涯
歯
プロダクション
利益
イスラム
##度
弱
許さ
##身
継いだ
石油
生じる
ロバート
ライター
ワイン
エイ
セント
かかる
たとえば
尚
##ａｂ
下部
加工
##守
議席
流行
大手
モー
仮
##キロ
トラ
劇団
##外
ど
##スカ
カット
治
男女
健
武田
働き
関心
示して
暗殺
ノー
##兵
含めて
ジャンル
モンゴル
フィリピン
興味
かも
聖書
ディスク
##県
経緯
##メン
打撃
スコットランド
##館
復興
クレ
音声
##よう
##トラ
コミュニティ
グラ
荒
家督
職業
出発
負担
見せ
帰還
名付け
学ぶ
がっこう
先行
##民
##ニング
##食
##スコ
どの
上げる
##直
シカゴ
亜
６５
降伏
流通
##記
##ａｐ
##球
フライ
遺伝子
教皇
整理
推薦
援助
戻る
血液型
遠
上海
いえる
##ミン
##ジャー
折
滞在
ロング
##ｉｎｅ
##トー
年代
際して
傷
１９３１
５２
中期
取材
意図
発揮
貴
戻り
先端
線路
旗
ファッション
１９２８
作者
少し
デュ
訴訟
福井
##トリ
商店
嘉
卒
甲
##スティ
静
措置
絵画
##ッシュ
魔法
１９２９
##バル
修了
##ね
課
##ネス
農
洋
##経
戻った
落ち
活性
譲渡
選抜
現れる
酵素
コメント
##一郎
##ｅｓｔ
残
##星
フォー
過ぎ
##賀
総督
露
手術
行なわ
##ＩＳ
アイテム
とう
福祉
印刷
弘
輪
隣
防止
精
##１
次々
群馬
移民
箱
油
ちなみに
病気
体系
部品
##氏
ベルギー
##社
未来
少将
起こる
商
コピー
５６
ソウル
占める
##ｏｄ
ＳＳ
功績
率いて
興
義務
－
郊外
平方
セル
上部
陳
４９
申請
ベン
##意
相続
砂
辞任
大賞
ジャック
##務
分裂
顧問
柔道
騎士
一切
タッグ
プリ
##ｉｐ
俊
四国
ヘル
住んで
里
栄
失わ
起きた
誘導
腕
##春
##ろう
操縦
筋
##園
純
デンマーク
##ヴァー
ミュージシャン
有して
コスト
幹部
キリスト
##歌
ジャズ
リーダー
イー
スト
ａ
記号
早く
優先
##べ
##三郎
北朝鮮
平日
ウェブ
言及
蒸気
材料
イラスト
需要
フラ
文学部
当主
突き
ラー
##ミー
少数
ビー
勃発
高度
順位
症状
ウィーン
修道院
##香
##スキー
結んだ
タン
後方
##かん
梅
連覇
##房
編曲
コムーネ
大名
収めた
香
毎
違反
自社
柱
住居
和歌山
近郊
##かい
℃
##ケン
連携
加藤
津
国防
１９２７
博
キャラ
到達
ペン
問わ
月刊
脱出
テキサス
成分
繁殖
西武
##足
トー
退団
後者
##０
泰
感じ
電鉄
言える
いき
地理
宝塚
暴力
入手
祖父
長年
上演
１９２４
小林
とり
魚雷
耳
ラグビー
既存
往復
師事
##都
ガラス
ステークス
該当
絶対
##戦
屋根
打点
##ドン
司法
エンディング
吹き
保障
オープニング
とる
リンク
##げ
したがって
##ヌス
又は
ビッグ
##質
以内
直線
清水
慶長
アナ
水素
程
方言
船団
茂
人生
##河
５７
##ルズ
巡洋艦
##シェ
総称
##ライ
配備
##泉
上下
バスケットボール
冊
一環
下り
接触
１．
示さ
区画
漢字
格
ユーロ
；
テレ
双方
##板
ストリート
発掘
証拠
伝承
一連の
１９２５
縦
きょう
##フェ
ウル
直通
収集
##まり
術
##よ
##量
どこ
通行
リード
つける
引
胸
##論
振興
##天皇
##興
ば
代理
確定
台車
基づき
失った
提唱
株
良く
ハル
ホワイト
属して
有効
##ｈｅ
退職
１９２３
山梨
資産
敗退
災害
破り
一家
##業
テニス
##けて
肩
##ユ
助教授
自殺
ビット
捕虜
進んで
ライセンス
岩手
スポンサー
ＦＭ
フィンランド
証券
ナイト
##ディング
マッ
司教
一帯
印象
華
##マル
氷
当たり
主流
脱退
コンセプト
相談
チャールズ
##之助
ブリ
用途
ベイ
ならば
広い
レコーディング
ウェ
ミス
えき
安打
立候補
１９１８
ジェームズ
在住
試作
##プロ
ゆう
##進
つく
グリ
##ＯＲ
撤去
##せる
処刑
ズ
逃げ
サル
含めた
巨人
喜
やって
##八
推測
バラエティ
遊
イラン
ドーム
策
メール
通る
毎日
ｓｔ
実績
社名
例外
クラシック
挙げる
帝
##ダン
優れた
であれば
銀河
##品
上野
可
損害
マク
クリア
減
##点
##ＬＥ
##ピー
侵入
球場
##しい
ローカル
##ｏｕ
うる
着用
##イル
フランク
##番
ドゥ
主導
ランク
差し
マイナー
軍隊
攻略
ヴェ
必要である
##せん
今後
女王
##六
ＳＦ
演じた
複合
東映
##ション
ジャケット
巡
競争
マッチ
##ネル
井
置いて
速
享年
当該
##幸
参考
インチ
監視
並行
堀
書記
##草
##ａｎｔ
解析
想定
ドライバー
置き
取って
合同
原題
終わる
向かった
観察
続編
##忠
支部
##清
##ビル
##も
ヴァン
##ッカー
陽
##白
訪れた
国土
##佐
端末
解消
修理
１９１９
圧力
##ｉａｎ
伴って
防
財産
ボクシング
１９２６
次ぐ
ばかり
抗議
ボル
代替
微
入力
聖堂
得意
十字
学術
クロス
##ヴォ
##言
別名
あらゆる
周波
戦う
デモ
ボタン
実用
圧倒
笑い
合い
走る
進んだ
従
有名
##華
##輪
##ニン
桂
及ぶ
##広
爆弾
近隣
なくて
１５０
参議院
差別
ついた
渋谷
挙げて
池田
##教
竣工
有力
宇
造船
##ブラ
こうして
そのうち
渡って
共有
##理
ライダー
トーク
アッ
目指して
敗れ
大佐
北条
下位
雇用
渡辺
座席
王朝
##ティング
１９２２
除き
棟
王子
違う
井上
##トゥ
ごう
駆動
ｌ
アニ
峠
謎
##ナン
スタ
Ｆ１
##章
進
受け入れ
全域
合戦
アク
滝
暦
５３
後任
短期
炎
深く
ジム
子ども
マイケル
扱わ
約束
ゆ
##チャー
果たし
##浜
栃木
ミッション
本体
足利
送ら
社員
上流
文明
気象
相撲
診断
最低
居
集め
根拠
姫
無かった
ゴー
やり
少なくとも
ハード
勢
動
このように
５９
事例
ＡＶ
アルゼンチン
##コー
見解
要因
積
日常
委託
##タル
ポンド
クレジット
成果
##ノー
ノルウェー
##動
離れて
フットボール
ナショナル
有限
オスマン
腹
小学
秘密
冷
パラ
ゴールデン
バイパス
言った
床
任じ
森林
射撃
殿
離婚
ゴルフ
跡地
乗
密度
求めて
中将
試み
前期
砦
軒
宣伝
プロイセン
##ルー
じょう
再編
武将
特性
中山
緊急
権限
バラ
ＰＳ
造
騎兵
セルビア
織田
祖
演技
クル
##付け
サブ
食べる
自民党
佐賀
ざる
ところが
攻め
##ｉｓｔ
開拓
##ｏｖ
最多
集めた
衆
相対
ボード
ました
高知
あい
ポスト
天然
##ワン
西洋
発音
考えた
ボディ
死刑
三菱
レー
詩人
##別
火山
図る
旨
書いて
火災
再現
流域
出席
大隊
つけて
さえ
シェ
発明
桁
全面
##火
地形
》
戦時
ロゴ
戦力
頭部
ついに
題材
《
出来事
私立
経路
７５
##ｉｏｎ
##ｅｇ
脚
別に
ユース
決意
##岩
短編
コレクション
絶
必ず
##師
##ｉｌｌ
##ステ
起こした
メイ
##種
キャンプ
デル
##鳥
一体
キャンパス
##走
１９２１
選定
カレッジ
##澤
##２５
抗
北米
##先
能
##ａｔｅ
非難
勇
##そ
昔
要
ダー
ステーション
##塚
##兵衛
##隆
パス
##土
反発
応援
##しく
##キング
アート
##来
略
証言
##ｏｇ
##ｄｅ
難しい
１９１４
降格
坂
未満
ネタ
誠
犠牲
Ｓｔ
損傷
募集
丘
存続
アマチュア
##沼
巨大な
基盤
景
当局
派生
特許
批評
取ら
入れて
##ビン
##ニャ
ＵＳ
代わって
促進
サラ
一員
６２
メル
ウイルス
１９１７
無人
平野
来る
見せた
数々
##しょう
紛争
山地
附属
かわ
##親
メッセージ
至った
連勝
優
パターン
家康
ゼ
与
取
智
##昌
備えて
戻って
柳
##造
大将
本土
ブーム
韓
##イド
装
指
授業
異なって
海洋
##連
##れば
##類
スピード
運航
##８０
向き
商人
##ｏｃ
敗戦
☆
意思
##ドゥ
求めた
航海
空母
解除
数多く
##ウェイ
ステ
不詳
ター
炭素
薄
ちょう
経過
エース
ボーカル
６１
提示
グランド
トレード
改
寄り
接近
回数
期限
改め
終結
買い
君主
命じ
ごく
##盛
##セル
##辺
伯爵
古くから
駐車
ＫＯ
碑
##景
不満
晴
パフォーマンス
旅団
##リアン
わたり
アウト
キン
連れて
役所
除いて
ブラウン
粒子
であろう
殺さ
信長
審議
シャー
菌
亡命
空襲
##臣
##ＩＴ
人種
##，０００
語った
##ジョ
疾患
##オス
パソコン
フロント
バトル
幼少
応用
猫
１９１２
現れ
ぎ
松平
##ュー
艦長
理
レストラン
入れる
##組
外務
##号
投稿
Ｃｈ
出資
晩年
ゴールド
気温
##ノン
冒険
要塞
岸
枝
##ルド
甲板
一旦
##死
戦前
##科
##フォード
##ヨ
前方
##ｉｏ
先頭
ドン
教員
##将
帰
１９１０
この頃
建立
ケーブル
打者
##まって
ほん
##弘
６３
##ドー
ＳＰ
上げて
部族
昌
ファミリー
王位
飼育
実装
反映
来て
鎮
ｅ
接する
事前
##１０
厳しい
##Ｑ
厚
ボストン
パーソナリティ
屋敷
細
沿って
##羅
魔
向かい
##ブリ
イラク
若干
転向
シナリオ
たか
##ュ
マスター
ポン
金沢
やすく
質量
ライフ
##ｒｙ
並ぶ
保安
防ぐ
校舎
##スキ
農民
##ラル
北方
##ａｓｔ
亀
夜間
れたり
##玉
##３０
老
飛
紅
分かれて
ＵＥＦＡ
６００
低く
人形
ないし
##永
リニューアル
塗装
装着
初期に
果たして
鶴
内外
ハワイ
##ｕｒｅ
そ
退任
リチャード
歌劇
若手
移管
課題
補給
アド
鳥取
会見
加えた
不動産
呼んで
##ｅｐ
##池
送信
放棄
１９００
##バイ
前提
雅
町名
仮面
ピン
オーディション
陥落
感情
素材
##ファー
材
官僚
##界
学区
ナンバー
##湖
##ｃｅ
##ａｖ
紫
伝える
なされて
突破
モチーフ
動員
液
ガー
延
修士
稲
日記
ブログ
ワイド
文部
けい
##端
表彰
化合
ソニー
##古
ネーム
恵
ヤング
愛媛
高級
豪
##パン
##条
盛
暗
ボックス
ヘビー
由
割合
高松
##チュ
受験
一貫
当日
騎手
灯
奉行
僕
登
ヒル
バレーボール
ドラ
苦
終えた
フィギュア
演じる
暫定
史料
疑問
わたる
##多
ナチス
双
ちゅう
改札
##等
##能
結んで
##奈
##任
裕
ディーゼル
打ち上げ
すら
オンライン
##ェ
自主
都道府県
トム
書店
##斎
不明である
ライバル
刑
##陵
##栄
乗客
制覇
共産
##真
創作
あたって
故郷
ダブル
ウルトラ
遺体
持
シンガポール
よし
法学
論理
国有
白い
##ウム
多様
読者
トレーニング
##メント
##宝
##ｅｎｄ
##姫
船舶
温
順に
##アル
##福
##羽
##後
クー
##砲
##ｆｏｒ
レーダー
コール
オート
強力な
駒
##ツァ
海戦
ケン
##ｅｓｓ
もし
ケイ
パッケージ
小さく
##ブルク
関わる
ラウンド
かける
請求
##産
アプリケーション
##シャー
地図
布
##曲
快速
##藤
ポリ
電波
##グル
##居
養成
大西洋
残った
##さん
タンパク
削減
##ざ
観点
##ストン
僧
展
比べ
ｔｈ
デザイナー
航路
上院
満州
慶
つけた
##話
原理
縮小
厚生
鉱山
講談
##トロ
ロス
現行
急速に
##勢
市町村
ポー
思って
##空
##シス
署名
エク
困難
##衣
現れた
認知
悪い
若者
余儀なく
フロリダ
受
##礼
ｃｃ
退
ＭＳ
勲章
投
ＴＨＥ
新規
##声
##ビア
追
少
関わら
ヤード
ソース
回避
落語
卿
起点
##ドラ
埋葬
断
初演
むら
毛利
避難
回路
掛け
##官
終盤
生じた
##ネット
芝
短縮
##病
##出し
##ナル
##ヤー
黒人
並んで
ワイ
ＡＣ
パートナー
底
受信
怪我
宮殿
描き
##龍
ファイナル
##たり
ヒトラー
組み合わせ
##時
##ｉｋ
切
エー
やはり
８００
##ナス
三振
立つ
源氏
寛
放出
ゼロ
あなた
赤い
ルイス
ぶ
上り
１９１１
至って
##制
起こり
##ズム
ショップ
正面
テロ
Ｊリーグ
１９１３
評議
フリードリヒ
白人
雑
オン
しれ
内務
ようやく
美しい
らしい
迎える
ミュージカル
助け
確率
働く
積み
##巻
装飾
生き
オーケストラ
英雄
##どう
香川
与えて
滋賀
教室
ＢＳ
検出
浦
##ベルク
方程式
最高の
##２７
玄
近鉄
渡る
行事
起
##せい
陰
ウォー
ＳＴ
奏者
ナポレオン
混
没
次に
エドワード
量産
独特の
海峡
起こす
偽
##２０
び
繰り返し
潮
蔵
祭り
庁舎
逆転
離れ
助手
回収
工
容易に
種目
フラン
会館
土曜
出土
大橋
聞き
巨
乾
眼
恋愛
コート
排除
##ムス
##付
出会い
トランス
配給
密
合唱
アウ
酸素
競輪
礼
神宮
##ない
ジョー
司馬
乾燥
行列
団地
近畿
２．
東宝
番線
つか
ＡＳ
支店
ファースト
業績
焼き
亡くなった
ヒト
１９１５
##ヘ
法学部
##いで
メン
タンク
義塾
ＳＣ
おか
フォード
##薬
##千
開館
舞
パート
強調
天保
##クル
マガジン
書く
２５０
ドライブ
##ｏｂ
上杉
##帯
容量
樹
レンタル
国連
じゃ
ニュージーランド
道具
##ｉｔｙ
ドー
賞金
向
衰退
##まる
当地
ディレクター
下院
インドネシア
領主
##ＳＳ
著名な
クイズ
高齢
##ダル
混合
コメディ
述べる
##慶
停留所
大気
廃車
##留
終
##期
##ｏｕｒ
オフィス
炉
丁
東南
対決
時計
デー
音源
態度
取った
刀
むしろ
合わせ
学名
示唆
##森
##使
トロ
併設
まさ
夫婦
送る
奪わ
運賃
糸
物資
慶應
##レット
##工
##刀
結ば
必ずしも
パル
思う
##入
工作
##とう
##友
搭乗
達した
甲子園
移植
とら
##ａｎｇ
数値
読売
奇
考案
完全な
##フト
描いて
囲ま
焼
決議
有機
##ドリ
##筋
学問
彫刻
##メル
療法
偵察
会計
##弾
八幡
##じょう
##十
照
参
頻繁に
周り
濃度
食事
カイ
飛行機
プロセス
管区
衝撃
マルチ
気筒
施さ
鳴
編纂
##リック
武士
モンスター
食べ
##府
水戸
##像
報
宮廷
逃亡
入賞
モノ
構内
上京
車線
決める
チェコ
芸人
直径
##衛
在位
意向
激しく
##相
スー
折り
征服
才能
挿入
##職
知って
中断
マラソン
##フォ
ハム
##しゃ
総理
ノース
財務
増大
トラブル
互いに
##ｔｈｅ
説得
##４０
横須賀
デイ
横断
コロンビア
##ＡＤ
##ハン
典型
教え
加速
ボート
通貨
##調
大衆
コンクリート
リスク
マイクロ
信用
戦術
配属
立地
任意の
架空の
黄色
達する
##クラ
総裁
け
##小
増えて
任
変動
無視
かけた
##１１
スミス
荘
比例
戦場
登山
埋め
維新
出典
射
##１５
同人
ＭＬＢ
マーケット
サンフランシスコ
昭
徹底
論争
認可
##ｅｂ
学位
前面
避ける
生存
ウィル
突然
中隊
##２６
１９０７
運河
ボン
##鉄
##恵
プレミア
組んで
１９０８
バレエ
水域
フレ
研修
隊員
##バス
開放
グレイ
##ａｉｎ
秘
送って
引用
循環
独占
敬
ブー
##秀
語り
プラン
ピーター
##管
ボス
##２８
ダービー
褐色
斉
##Ｓｔ
麻
役員
東方
ショッピング
中華民国
宇都宮
兼任
皆
松山
ラブ
いち
##けた
訪れる
##ＥＣ
レスラー
正規
融合
天体
##系
法案
##くて
国籍
限界
内戦
東海道
犯人
##出して
山岳
１９１６
朱
##切
ようである
助
##ＡＰ
名乗る
外観
バージニア
回り
##員
限
１８８９
決まった
サム
任期
庫
予測
失点
死者
支流
見せる
努力
ブック
文章
軽量
突入
##ｔｉ
歌う
皇
願い
鹿
認める
鼻
前者
##視
自由に
ＮＢＡ
トレ
複雑な
棒
称する
##ぼ
熊
##ａｈ
終点
尽力
墓地
送った
主宰
##集
親王
塁
創造
誤
##発
通う
大人
上級
畑
運輸
チャン
剛
アラブ
エリ
リア
虎
鋼
変身
ディズニー
広域
保管
痛
雷
落選
ブレ
##タイ
##説
コミックス
実力
後ろ
ウェスト
下流
従軍
悪魔
##射
ヶ
見え
##１４
##ＥＮ
３０００
神学
創
オス
合わせた
今回
##ＴＯ
町村
正式な
半年
トーマス
##マス
高原
抑制
コンテンツ
圧縮
山頂
時刻
メモリ
##デス
##〜
##ｑｕ
言
特典
##２４
牽引
##ｔｉｏｎ
古く
フィート
風景
呼んだ
衛生
キャッチ
##典
岡
プレーオフ
##シング
周期
成人
コントロール
共
ランド
フィリップ
々
奉
インターナショナル
前線
開校
黒い
大量の
人数
定理
護
２万
哨戒
キャンペーン
シリア
タワー
将棋
好きな
厳
招待
闘争
ミドル
内側
禁
##００
たく
交易
ＦＡ
##イス
勝負
##役
##紙
##圧
散
講演
容疑
##ｉｂ
ジャクソン
甲斐
知った
##５０
就職
影
１９０５
探偵
後部
何らか
あげ
アルコール
修復
噂
品種
岡田
##ＩＤ
牡馬
はっきり
##術
チベット
液体
テープ
甘
##血
従業
##節
おく
楊
南方
##オー
マリー
ハート
##アス
着手
にくい
##７０
米軍
##洋
特殊な
視点
##報
シル
審判
なされた
日曜日
通勤
##ペン
毒
死んだ
##器
刺激
##出す
ＴＫＯ
入れた
犯
集めて
奪
ヒロイン
ヒーロー
分間
##ＵＳ
９５
んだ
ませ
キック
##２１
総務
邦
夫妻
配布
ヌ
広がる
オリコン
巨大
大量
長編
##リエ
落
阻止
まち
##ｕｄ
最中
解雇
外側
瀬戸
位置づけ
黄金
##２９
有料
ティー
駐屯
ウォ
##ａｓｓ
##縁
##ａｒｔ
述べ
##ラム
入門
品質
フレーム
##ｇｅ
応募
後年
砲撃
太字
変え
ヤン
モル
##ｐｈ
中野
木村
具
##取り
土曜日
北陸
学年
スカイ
ファー
ディー
##プラ
タイヤ
救助
マイク
レン
２，
##権
感覚
バイエルン
新田
南海
民営
猛
飾った
８５
入場
##１２
##洲
教科
寄付
新型
##有
ツール
離
探検
盗塁
１９０９
起こし
ブロ
修行
１９０６
定数
劇中
##無
車種
南アフリカ
##英
８８
不良
あれば
アレンジ
##ソー
オプション
カリ
電源
加わった
##枝
ノミネート
騒動
駐
定める
選考
宣
合う
##１６
##ディン
##フル
室町
水上
日曜
朝廷
備えた
##ゴン
##エー
改装
##ａｃｋ
##新
変わら
恐れ
日々
空中
配
大坂
##クロ
知り
高架
証
たる
部下
##ネー
実践
質問
抗争
Ｓｈ
模型
ジェット
コンテスト
##１３
マルクス
ルーマニア
敷設
懸念
珍しい
##念
動力
琉球
みなさ
丘陵
ペア
##則
乗って
功
##ＯＳ
師範
録
抑え
満たす
昆虫
出産
##取
ブルガリア
ダウンロード
同意
##跡
総会
開き
進めて
##ｅｙ
越
##３５
大日
##デー
##五
幅広い
##画
ムー
―
恋人
会話
##マイ
取り付け
漁業
ＡＴ
##ケット
：）
##ノス
グル
脇
首位
報じ
入口
##２２
建国
キャスター
走り
キュ
##ボー
##族
変形
事項
張り
##２３
##ｕｐ
遺
##豊
庭園
青山
腰
遅れ
##ＩＩ
叔父
しま
乳
しゃ
警戒
スパイ
冒頭
ＡＡＡ
おそらく
虫
##レル
##領
ショ
コント
オリ
境内
怒り
夕
晋
住
船体
##９０
綱
##四
バリ
アラビア
試
栄養
ショート
クロアチア
間もなく
五輪
化石
結論
絶滅
放
トイレ
伊達
改めて
校長
看護
##貴
寛永
所長
身分
##ゲル
##ウィ
人権
##ＭＡ
寝
水道
アレ
称して
やす
梁
レンズ
##３６
##１７
##ツィ
但し
リュ
統制
命中
堺
衣装
左翼
全線
収
##５２
ドキュメンタリー
救援
##郡
エレ
長らく
##喜
スカウト
##Ｃｈ
α
法則
##感
７２
##峰
高山
トヨタ
併合
洪水
ロマン
換え
ｃｏｄｉｃｅ
タクシー
ベクトル
共和党
＞
閉
元禄
移った
医薬
多摩
ゆく
##ラント
河口
##祖
##５５
環状
課長
いえ
選ぶ
##吾
浅
しかも
調達
口径
タッチ
検
不可
改編
昼
主役
##ャ
技法
破
##まった
冬季
ひろ
くらい
原料
地中海
秀吉
前田
話し
沈没
飯
##ツェ
命じた
参入
福音
ポート
ユニ
##布
##ｉｇｈｔ
##堀
理想
キャスト
##しん
まつ
先生
##ゼン
配慮
##然
##満
がん
作って
##ｍｅｎｔ
すぎ
交
ＣＯ
スリー
リトアニア
##ＩＮＧ
桃
##極
ジャーナリスト
##ｉｖ
入植
階段
マス
流れて
トル
セン
##５３
##納
１１０
判
ロン
乗降
検索
##常
変わる
##着
##寿
ジョンソン
ハリ
出撃
敗れて
ラム
所蔵
従い
排気
##たら
台風
格闘
##解
不安
ちなんで
備え
文芸
中退
##６０
ヴァル
パネル
##具
島津
幕末
分散
アシスタント
沿線
美濃
伝わる
水準
固有
武蔵
雰囲気
##ヶ
樹立
まもなく
金曜日
協同
結晶
適
山陽
後退
ミュンヘン
##出した
押
抜き
我々
着陸
##３１
将校
保証
##ＲＥ
##隊
甥
辞職
殆ど
##５６
食料
オーナー
比率
キューバ
中核
バッ
８６
三井
分けて
結
開いた
太田
介入
過ごした
補佐
寿
売上
実在
復
１９０４
シャン
魅力
寒
か所
ヘイ
実は
異常
北九州
ユナイテッド
できて
##けん
##ディア
進める
調教
戦った
##上げ
１，
##魚
##４１
##おう
##いち
##３９
##ＲＡ
祐
浩
##６６
ファンタジー
フェスティバル
滅亡
##ＭＥ
先輩
味方
宿泊
符号
リアル
演説
松竹
１０万
アナログ
定年
チェーン
##印
##ＣＯ
ベー
修道
低迷
１００万
上がる
１８９０
大韓民国
チャレンジ
行方
みんな
コンクール
贈ら
マサチューセッツ
##ガル
小倉
##夜
於
総長
浮
特集
恒星
秘書
秦
##達
グラン
入院
##だい
重複
残す
とった
フォーク
撃破
社会党
ビール
緩和
##柱
##出さ
##弁
三男
駆け
心臓
ＷＢＣ
個別
夕方
##カイ
まったく
検察
止め
単語
この際
橋本
捨て
尊
退役
客車
##キシ
##装
権威
航行
##米
ソー
力学
##ノフ
ブルース
ｖ
##３８
ギャ
ブラン
社団
賢
##ダイ
使
沢
ダブルス
##格
創建
メタル
Ａｌ
占めて
芸
コマンド
個々
儀式
薬物
司
特別な
盛んに
##ｍａｎ
ＴＯ
のに
班
##潮
著者
ジー
繊維
振動
##ｉｚ
パイ
住み
ゾーン
寮
港湾
クリスマス
塾
バランス
州立
曲線
趙
考古
要望
力士
失い
##リーナ
##味
##サイ
失
##善
エリザベス
アカ
１９０３
熱帯
##５１
マネージャー
臨床
民衆
表さ
ジョージア
城主
勉強
岳
##御
連れ
削除
##スラ
##ボン
一時的に
##議
騎乗
##ＰＳ
明確に
近江
##図
長女
広がって
##ウッド
盛り
##９９
平面
ＤＮＡ
##関
##智
##望
##から
鍵
ＤＪ
##愛
##ＳＣ
##令
人事
アプリ
有名である
魂
徹
牧
公式に
顧客
##ワー
##ショ
レスリング
##置
プレート
担う
##５００
零
海域
児
７００
男爵
生じ
ヴィルヘルム
##３７
レオ
宋
##茂
チョ
封
成田
３．
村上
刑務所
走
期生
至ら
退社
返還
歌唱
##層
６８
付与
##ａｒｙ
いか
始めて
割り
変える
##４８
ＣＨ
解任
全般
接して
隠
引っ
新作
学長
省略
テン
イスラーム
フィラデルフィア
何も
配列
偏
プール
##ベン
対称
ヴァイオリン
##畑
##ゼル
受章
発覚
妙
捕
作画
詰め
篇
毎回
Ｍａｒ
ハウ
##ＭＳ
手続き
筆
サンタ
ポップ
##談
語る
細川
##ヴァン
釣り
ＳＥ
賠償
休日
ベルト
菊
しりつ
ヘリコプター
弥
重力
石炭
互換
いって
##ａｃｈ
##グラ
##ＴＶ
ビュー
メガ
##ｕｃ
隔
聞いた
##７９
ＩＩＩ
スラ
保健
条例
くれる
暗号
ＯＳ
変数
ゲート
テーブル
幼い
人材
焼失
細菌
数え
延伸
公社
叙
ボーナス
##ケル
フジ
季節
残留
上がり
##康
記して
併用
訪れ
##ａｇｅ
マンション
銭
皮膚
奪取
##域
予約
##右衛門
背番号
ＡＭ
##ｉｅｓ
王立
討ち
上田
あき
鎮圧
テル
１９０２
##３４
初戦
カンパニー
最古の
##床
筆頭
##母
順次
１億
ビーチ
ナイ
断念
主任
##ｅｒｔ
##竜
阪急
中島
セミ
属し
潜
ピー
##ｏｎｄ
もっと
捕手
６６
傍ら
覆わ
岡崎
フー
盛期
公務
ターボ
ガル
##霊
みる
並び
恐怖
メトロ
金曜
##４５
称した
大型の
##０８
党員
上回る
前日
１１５
遊び
##塔
スポット
##レッ
##眼
##５４
海水
電化
##版
##算
顕
ならびに
##妻
９９
芸名
Ｗｅｂ
アム
##チョ
併
##ティン
年次
##せた
スタン
##酸
##尊
選んだ
会談
任ぜ
芳
変わって
就役
同僚
警視
活
１，０００
対照
##あ
ファイ
壊滅
膝
寄せ
##リーズ
下旬
膜
白色
侵略
カフェ
ｗ
ＰｌａｙＳｔａｔｉｏｎ
海兵
エド
紋章
##イト
皮
余り
##０６
十分な
##バッハ
上述
##３３
##運
エンタテインメント
スコ
なぜ
##開
辺
降下
スタンド
講義
都合
##膜
バルセロナ
所持
ジョーンズ
通路
認めた
角形
シンボル
百貨店
髪
電圧
##８７
対処
恵ま
##ｏｒｙ
耐
この後
とても
グロ
そうした
付いて
要する
引き継が
##ブロ
治安
汚染
クライ
撃墜
コーヒー
セーブ
木造
##ヨン
フェア
発注
##リティ
山城
徒歩
公爵
立体
##１８
##ｏｏ
語ら
狭い
##プル
移さ
##リアス
施工
##段
##壁
##フィー
猿
ｒ
ミル
俺
返し
懐
圧
##ｕｂ
調理
大宮
##ティス
東急
ダイヤモンド
待ち
内陸
##プス
マレーシア
もたらした
大いに
妨害
##やま
海賊
##カラ
##藩
函館
本国
正しい
祝
３，
７８
大島
イル
シドニー
セイ
評判
近世
サークル
乗務
激
造ら
老朽
馬場
気持ち
涙
４，
##たい
大尉
##込
１９０１
ＩＴ
マスコミ
スコット
三島
付けて
歌舞伎
カッ
##宿
アマ
クリス
目撃
##観
##ネン
５０００
##暦
評さ
##五郎
延期
##ａｓｅ
サウス
##応
##７１
株主
##ｉｃｈ
切れ
##織
邸
##ターズ
受容
早期
##ウェル
快
ショック
博多
ゲイ
最小
見せて
記す
負
ＲＰＧ
故
##５９
##コフ
帳
置いた
集会
##覚
商標
招集
太郎
闇
あわせて
##０２
看板
養
って
柏
発症
賛成
変わった
##七
レール
踏み
藩士
イースト
##的
微分
講座
##港
ガソリン
菓子
##は
甲府
早い
べ
##孝
専念
##順
とりわけ
##スケ
１８９８
みな
短く
前回
思
度々
水系
役者
アラン
括弧
幹線
日中
決して
契機
教養
メタ
市川
登記
ハリウッド
１８０
反射
高田
ポケモン
狂
通学
##ＲＯ
あの
概ね
ローズ
##盤
キャプテン
各社
こく
句
##５８
隊長
シングルス
##４９
怪獣
臨
７６
ケー
##ウン
##９５
##儀
##鹿
８１
タイガース
市営
ロイヤル
普通の
癌
支払い
冷却
##ｓｏｎ
アイランド
##ヴィル
てん
##ミング
行使
##入れ
史跡
享保
飲食
##１９
バレー
##遠
復元
##富
金額
オリジナルの
##７７
残し
マップ
##庭
職人
乗員
出店
シアター
ツー
実況
拘束
皇后
獣
近衛
浜松
##輔
##０５
主として
錦
充実
滑走
##ｉｆ
##ナイ
十二
実家
プロテスタント
コア
観音
表紙
野生
ヨハン
競合
##密
##ヴィー
三浦
更
もたらす
増え
田村
標本
被災
幼稚園
グレート
##席
##嶋
築いた
楽章
西方
##ティア
教区
ゲル
##艦
##ｉｔｅ
永禄
##ＡＩ
##虫
ＮＴＴ
ステップ
家老
佐々木
セントラル
杉
必要に
流用
輩出
転用
##トス
##向
ドラム
パイプ
簡易
水中
しゅ
雌
山崎
量子
継ぐ
同一の
敏
整
恩
加賀
フェル
加わり
ルーム
統括
ラッシュ
##ｅｖ
##フェン
##ｏｎｅ
付加
##かり
集める
７７
ウェイ
応
抜擢
共通の
スコア
薩摩
##スタン
妊娠
マックス
平行
弓
ペンシルベニア
閲覧
##バーグ
法令
在任
ヨー
ゴム
悪く
歩行
幻
ふく
まとめ
虐殺
挙
しょ
##切り
捜索
函数
淳
旧制
弦
併せて
釈放
現状
チャンピオンズ
出入
シャルル
＊
所得
牧師
立って
遭遇
艦艇
マドリード
フェリー
正確に
ウー
のだった
大量に
大蔵
脅威
アダルト
メー
させる
次官
死ぬ
ペル
燃焼
##ＵＲ
嵐
丹
見方
##３２
##便
##ｅｃｔ
##ハー
##６８
昇
##護
奨励
盆地
１８９６
グラウンド
開局
サーバ
カ国
勧め
##ｉｓｈ
働いて
##せて
##ルム
##ｓｅ
仕組み
ゆき
１８９９
感謝
わかる
##コス
進歩
グラフィック
##ドロ
##ｉｃｅ
正確な
##在
##ゾン
欄
ＭＣ
瞬間
婦
州都
オハイオ
##ポン
##らし
代数
変わり
全部
中学生
出生
取り組み
弱い
##ヴェル
侯
推理
##４６
壊
話す
##つけ
果実
##製
６９
パッ
休
支
##ＤＥ
ウッド
コマ
空手
もちろん
ＢＧＭ
##ｎｅ
リゾート
##エフ
##ｕｇ
上がった
発動
##髪
都心
##ロウ
##憲
制約
継ぎ
飾り
踊り
ＳＨ
タル
先住
##甲
魏
ｎｄ
##ｅｒｎ
投与
講
継が
レビュー
##０４
認めて
##４３
巣
窓口
野菜
格闘技
兵力
１．５
##片
崇
##朗
##ひ
医学部
見なさ
９８
電池
ＤＳ
行なって
係
##貞
超えて
１８９７
##クター
サイクル
泥
牧場
##７６
適切な
肖像
付ける
##８１
斎藤
演算
０８
##乃
##壇
則
数十
##リカ
ヴォ
喪失
還元
スクリーン
１１８
##ｕｎｄ
そのほか
ざ
本店
ＲＥ
もらう
ラリー
##ペル
クーデター
信濃
殿堂
あくまで
フィル
道場
３万
##加
狭
示し
ドラゴン
景観
新しく
検証
牝馬
たびたび
ロケ
慶応
##ザン
ギタリスト
＜
今度
正義
##ｏｋ
野村
中川
プラットフォーム
ヵ
損失
天使
原型
将
##タス
管弦
レーシング
多用
小川
##頼
##６３
##差
##売
専属
少佐
じゅう
##ｅｎｓ
伸び
伝達
##洞
##しかった
##つき
##渡
##幕
中盤
虚
パーツ
カム
女神
針
宏
うまく
コミューン
##劇
##８９
向けた
判事
訴え
カーブ
貨幣
礼拝
内蔵
撃沈
会津
読む
##岳
排出
ヴェル
安政
広報
東芝
誇る
１５００
完結
##ギー
回答
監査
岬
農村
領地
住友
又
サイン
おう
##スル
満足
１８７１
小学生
スカ
##菜
##−
付けた
##バーン
メス
教団
##宣
図った
除去
技能
ミー
全身
隠居
せよう
##ムシ
敵対
やる
予防
陸地
菅
##ｅｗ
反撃
討伐
すぎる
就航
定員
##ｅｘ
##ｏｒｄ
ふた
間隔
スイッチ
習慣
天井
##わった
けんどう
独自
砂漠
中東
ペルシア
ゲー
６７
茎
##俊
精度
庄
暮らして
民俗
侍
パーティー
庭
なん
推移
策定
著
歴
代行
##ＡＧ
アス
##アイ
##フォン
ｉｎ
安倍
不正
##モア
ヒュー
ラウ
加える
納
好き
聞か
豊かな
債務
エス
定めた
##丘
##Ｓｈ
得票
##０３
##４２
##仙
生態
右翼
灰
チリ
外見
水産
小野
##ｏｆｔｈｅ
ユーゴスラビア
漁
貫
ペット
技師
元素
呼吸
##ｕｅ
##養
粉
検定
あげた
砲塔
アブ
ロッ
ＣＰＵ
がわ
市販
##６７
地質
流出
流入
旭
頂点
担って
ホールディングス
ＳＤ
##亭
##源
##矢
##６９
去った
特技
母音
ＤＥ
##坊
信者
濃
ガイ
##ニス
同じである
路面
マラ
ソフトバンク
照明
言え
溶
ストア
島根
記した
くん
##リウス
起訴
緑色
アリーナ
セー
土壌
要件
９６
演習
挟んで
鎖
イエス
職務
さい
治世
##ＶＥ
救出
国務
##給
尾張
##技
とくに
アドレス
題
和田
浦和
識別
##漢
コミュニケーション
##ニック
親交
ダメージ
角度
ダル
気圧
１８８０
１８７０
##ＳＡ
柄
モール
演じて
公益
石井
生きて
疑い
##ふ
広大な
開く
遺伝
７４
##児
あまりに
ロッテ
弾薬
住所
##６４
ラッ
イェ
使者
南極
バス停
家系
抜け
パック
配下
備える
##ティック
チャンピオンシップ
遂げた
電流
いつも
８７
##５７
##君
重ね
水雷
##パス
##ツォ
小田原
適応
特撮
運命
立法
降板
##ａｃｅ
広がり
繁栄
作風
妃
思った
済み
後世
楕円
ライヴ
##ライト
開戦
豊田
三角
##ゥ
鷹
##トリー
グレ
##百
比べる
７３
##営
ラスト
浮上
##訳
##カス
角川
##なく
陣営
堅
阻害
アント
１８６８
門下
因んで
##祭
##４７
##８４
ＩＰ
##ＵＮ
アーケード
ピンク
##舎
アイス
クロー
変えて
データベース
あら
##ｉｃｋ
予告
##７５
##８３
##ガイ
##服
彩
##ヤン
単なる
肉体
おき
物体
年～
マグ
フリ
含んで
浅草
チュ
##デイ
トラン
##８８
袋
##柳
ＭＡ
党首
海底
あん
審
##ヒル
詳しく
鞍
瀬
##まら
モバイル
大野
##ＣＨ
簡単に
ノン
リレー
忍
山下
ベンチ
##ＳＥ
ハッ
ＭＯ
##７８
走って
造り
鳥類
守り
集まり
##殿
##６２
##局
出来た
知名度
位相
##４４
軍勢
##情
バイオ
##律
アキ
謝罪
きゅう
退官
関節
７１
貧
交戦
１８９５
##交
革新
用水
##したり
##９６
##ハイム
ミン
##９４
ヴェネツィア
正体
ネオ
ウェールズ
神殿
糖
硬
##バラ
亮
典
小笠原
増強
きれ
芝居
筑波
##ａｗ
羅
老人
我
寄与
特化
地獄
##９８
##群
傾斜
ＡＲ
日光
経歴
骨折
皇太子
##−１
成る
しゅう
指して
##プリ
伊豆
アトランタ
葬儀
胴体
##統
ｙ
砲兵
肝
坂本
中立
博覧
立った
先進
##殺
相模
再会
##がい
##０万
土佐
##京
匹
真珠
##ａｎｎ
親友
日付
テキスト
目指した
ガード
年金
ＡＢＣ
##シティ
踏襲
０１
噴火
どれ
##サイド
収益
貫通
尺
診療
声明
夏季
沼
設けて
法廷
ストップ
単純な
水平
##侯
レーザー
著しく
##犬
幹事
##８６
シュート
ドリーム
妖怪
改訂
##９１
##ＡＦ
手がけた
##ナム
つながる
ＳＯ
稼働
ＧＩ
ムスリム
##６１
込め
沈
ＡＰ
ＧＴ
法務
レッ
蛇
奪い
##比
チップ
学士
輝
倉庫
ホル
磁気
採択
ポル
バイク
##チー
庶民
##しき
ガール
胡
木材
エディ
フロ
関わり
##プレ
高層
不能
##ＩＰ
ニコ
##ブス
##ｈｅｒ
打席
文政
探
ぼ
相次いで
農林
##ミル
餌
べきである
##延
ほしい
##ゴー
チェック
情勢
誤り
警告
○○
##００万
マリオ
##住
商工
越えて
##ｉｄｅ
##賞
##速
##ａｆ
##ｏｃｋ
ヶ所
支線
オレンジ
武道
出荷
##クション
##０７
南端
アシスト
表題
蜂起
ランプ
ＦＩ
和解
厳しく
ミラノ
##芸
割り当て
小型の
##ガス
##ニュ
捕獲
青春
誕生日
##ａｚ
勲
##アナ
ストーン
##絵
##断
##メイ
リズム
##湯
ＷＢＡ
##乱
日野
ＵＦＣ
シェア
盛岡
##ｉｒｅ
怪
モハ
原則として
破って
セガ
##ｉｘ
友好
ウィン
トライ
８９
##区
信じ
##８００
##列
ＰＲ
ペース
当然
プログラミング
発祥
付いた
##博
自由民主党
ケンタッキー
##起
##賢
幾何
エッ
出品
列島
暴
##泰
把握
ガリ
バルト
かみ
##ロフ
乙
関わって
##ＭＯ
##ヴェン
引き継いだ
##ｍｅ
長岡
語源
ホイール
ウィリアムズ
科目
ケル
貧困
喫した
序盤
##益
親衛隊
マスク
独裁
##ｔｏ
官位
小屋
軟
接
墜落
支給
８２
大変
寛政
ジェイ
##ケー
多様な
##表
##ＬＩ
さいたま
パーセント
擁立
##バード
希
##ｓｈ
悲
##２００
出口
##９７
十分に
申し
月曜
くれた
##ピン
ピーク
ホームページ
突撃
毎月
玩具
キハ
##サル
始
まとめた
フォル
神聖
##ドール
##フィン
従五位
椅子
廃棄
貴重な
演じ
合理
決戦
##基
母体
β
１８７３
##０００
遠く
煮
メアリー
推奨
オイル
使える
##約
##シャン
アンテナ
##舞
代々
摂取
干渉
##ｉｃａｌ
姫路
個性
##グリ
朝日放送
死体
府立
王妃
取り入れ
##ちょう
こん
憲
背後
##とり
クルー
##７４
普段
肺
##悪
展望
１８７２
##ストラ
##ＤＯ
辻
実戦
ドラえもん
##タウン
ウォーター
##ロッ
切断
##９２
千代田
##ＡＢ
認証
高める
公募
赤色
没後
はら
鹿島
役職
##キュ
再婚
排水
１８８４
起こして
ポケット
倶楽部
##乗
倫理
失う
対空
置き換え
出港
グラム
総額
農家
プル
##ノール
##７２
チャンス
##打
##９３
基金
発信
##案
荷物
貴族院
客員
熊野
##ポート
中日
##証
１０１
ＧＯ
息
鉱物
ジン
珍しく
１８９４
入居
無し
車庫
##兆
プレス
名目
##わる
##冠
会合
吸
視覚
##しま
運
セカンド
同行
５，
メリ
休み
継
番地
トマス
##１世
前進
農場
ぞ
中華
触媒
沙
グレード
##−２
化粧
##ＳＩ
##トゥス
福田
ハーン
ラップ
うた
シナ
ｔｈｅ
脂肪
ヤマ
赴任
独自に
救済
行なった
超えた
ＡＤ
高崎
曹
言えば
なす
##ワイ
赤字
介
ダーク
##肉
ｃｏｍ
津波
暮らし
上場
矛盾
シャル
勘
プレミアム
##らい
福山
かかった
首長
三木
##ニョ
控え
靴
日立
歌い
りゅう
都立
ゾ
##筆
ＭＶＰ
飲料
##わら
##ホン
胃
失って
さくら
京阪
１１４
土木
ＭＰ
報酬
リトル
シネマ
触れ
台頭
抱えて
従う
フロー
##末
帰って
##ＵＴ
##ａｉ
係数
望遠
食い
##昭
##寧
スマートフォン
##ジョン
##熱
メニュー
幅広く
著名
##細
##底
##淵
##派
近藤
当たって
水路
中等
二十
ピアニスト
##ｓｐ
##党
##左衛門
格納
プロモーション
制服
皇子
７９
着工
フィン
##タール
いれば
他人
舟
正月
困難な
懲役
山中
陥った
欠場
##フィールド
聞いて
勾配
ニー
蘭
探査
##老
南京
##ージ
サーキット
ビジョン
づ
せよ
べきだ
くれ
##聖
##トレ
志願
##ＤＡ
栗
政務
ハーフ
１８９３
単純
##ダム
##獣
種子
羊
介して
本質
房
【
##アリ
８３
後藤
##ｐｌ
##テス
続
##ｅａ
##竹
】
師匠
染色
Ａｒ
駅名
９１
頻度
ＴＲ
９２
水力
残存
##称
創始
仮説
辰
ＭＦ
##いだ
日産
中佐
##ａｔｈ
既
##＆
スペ
支社
音響
歯科
落下
##キア
須
農地
セッション
生没
キーボード
排
体操
引く
固
ｃｈ
もり
１８８５
バーン
国軍
迎えて
スル
１３０
コンテナ
スク
没した
##６５
##陣
##ｉｌｅ
アイヌ
中でも
賃金
馬力
機材
詰
加わる
ゲージ
退学
飲み
一気に
ブライアン
##レーション
奏
ＮＯ
運搬
##牛
根本
ラーメン
藤田
アルゴリズム
旗艦
いま
仙
クイーン
通商
エレベーター
貝
##散
ジャイアンツ
常務
##ナウ
煙
違法
指令
##ｉａｌ
ガイド
ニュージャージー
##８５
##近
標
##ｔｅ
達し
野党
名詞
ザクセン
##示
１８８６
##穂
貸
##札
ダニエル
工科
##嶺
ホラー
##積
##カム
ＣＧ
スプリング
##ｒｏｎ
分かれる
洗
仮想
##引
ＡＢ
乗り入れ
分かる
軽減
定住
##哉
遅く
軍用
##呂
繁
扇
##旗
進展
アテネ
そば
##夏
小山
採掘
継いで
消化
十分
食用
追わ
ボクサー
##ヴィチ
加熱
血液
##ハイ
刺史
ユニバーサル
プロセッサ
##ゆ
野田
三河
磯
##歩
氏族
行なう
籍
コロ
ワー
写本
協奏曲
辞退
部位
スケール
きん
諏訪
もち
跨
起きる
告白
##ジア
刺
##好
工芸
##ｕｋ
ターン
ｋＷ
貨車
淡
河内
##クリ
横綱
銀座
まる
１８８８
溝
##ＮＥ
薬剤
伝えた
##モス
働いた
##輝
##ｉｎｄ
ノート
倉
たけ
##リスト
他方
勧告
倒産
セレ
仕えた
ビン
１８９１
地面
プラス
可能で
順序
光学
佐世保
有数
カップリング
勢い
８４
国産
１６０
厩舎
ハンド
外科
郷土
峰
なかなか
撃退
##むら
バンク
啓
荒川
出雲
育て
蘇
無効
##団
制圧
投球
早朝
##ミリ
ロイ
フォワード
京成
さま
##弥
興業
金銭
最新
幼
##ッグ
一門
追跡
##８２
中旬
表して
マーティン
幹
##価
上空
スピ
１８８７
数百
渓谷
習得
ＥＸ
彗星
棋士
辛
自国
品川
出張
巡って
##鶴
出会う
##同
番手
好評
起動
##ＣＣ
１８６９
坪
給
°
聞く
##柄
免疫
交際
Ｃｌ
阿部
回想
狩猟
相違
理念
プリンス
補強
不振
##ティブ
アンダー
##ハウス
並びに
##持
保全
評して
##様
キュー
##ヴィン
弾圧
様に
連動
##ジング
望む
就いた
##容
症候
デン
恒
鑑賞
エウ
ゆえ
合わ
種別
再興
ＣＳ
コンパクト
工夫
進軍
上方
伏見
決めて
任さ
ばかりの
……
台詞
利点
斜面
神田
ずっと
越える
開いて
皇族
ホンダ
##シル
ボブ
##ボール
満了
即
アルメニア
誤解
##ちゃ
伏
出会った
重点
用地
本数
孤立
スパ
どのような
##ディス
ヤマト
ＤＦ
薄い
斜
##モー
伸
ＨＤ
##てる
大山
振
１８９２
ヴァー
##えよう
もん
スキ
直轄
越後
転じた
１８７８
シャトル
##じん
食糧
寿命
##ｏｎｇ
首席
砲弾
わずかに
リメイク
攻勢
##希
カナ
番台
なが
吉本
後日
##さい
鈴
ＥＵ
##魔
アフ
そもそも
シェル
それほど
療養
３６０
##落
試みた
##ーター
##材
ＡＬ
コラボレーション
厳密に
キル
綾
附
##０００万
カルロス
招聘
##ファン
ミラー
強度
爵位
南米
５万
##ｙｌ
乗組員
##雪
調べ
##ＳＰ
拳
旗本
債権
送
混同
##聞
##季
強豪
明確な
至
##率
##鎮
ブドウ
アドベンチャー
##けい
まつり
進めた
親子
多発
##ストロ
ピエール
##しょ
倒す
産地
気動車
蓮
プレゼント
楽天
ワンマン
外野手
工程
題名
イリノイ
慎
異動
##ａｕ
太守
名所
銘
Ｔｈ
並
たび
ナー
単式
一郎
##エス
邸宅
愛好
陸奥
##ァ
果
ムハンマド
##功
##かし
スターリン
標的
サンデー
##スン
カントリー
台北
欠点
遣
##ければ
オートバイ
皮切り
起工
エンド
ベースボール
##ｃｈｅ
変異
##油
焦点
##傷
##雨
汚
掲げ
みつ
差異
因子
１１７
問
ろ
ヘン
積分
タービン
初日
##ｉｅｒ
１６００
掌握
告知
ねば
北上
クラーク
##グス
敗れる
捕食
ノーベル
つもり
歌って
##マリ
##税
豆
組み合わせた
一行
途上
##７３
##ｒａｎ
便宜
降り
高まり
##イズ
セブン
和平
アイデア
当て
閣僚
１８６０
##塩
トニー
##サス
自作
##ビス
明るい
##虎
元帥
手がける
立ち上げ
##選
粗
笹
裸
破綻
ＡＮ
ＪＳＴ
住人
生前
秩序
返す
益
手前
台地
入隊
無限
４．
##九
電磁
和歌
本当に
シミュレーション
寄贈
なき
ＩＢＭ
探索
競
ブライ
仮定
実態
包
テネシー
洞
克
無理
##ＡＫ
##遊
補償
縮
明け
黒田
##クレ
##カリ
ダンサー
宅
##荘
##シップ
エリック
ソル
槍
生育
##ＩＲ
避け
クール
深刻な
ナレーション
歌わ
アンリ
引き起こす
ストラ
本尊
伝道
朝日新聞
##銀
##態
過ごす
供用
略奪
堆積
在来
オブジェクト
えん
マネジメント
頼朝
##ｒｉｃ
吉野
１２５
##変
リンカーン
聖職
各駅
ヘリ
アナウンス
宮内
擁護
露出
家屋
##ウェ
バスク
艦船
自称
楽しむ
両側
マレー
シフト
オオ
マケドニア
##ほ
##菌
リスナー
血管
耐え
長谷川
リオ
意志
クリスチャン
ディスプレイ
覚
ライオンズ
シニア
９３
名乗り
助言
Ｎｏ．
橋梁
標識
政界
高温
巡る
移る
アプローチ
悲劇
##合い
盗
見直し
多大な
シュー
必須
##店
ちょうど
まとめて
閉店
猪
##ほう
不動
高地
最上
欠
有し
##テー
##影
体調
##皮
耐久
ラジ
作動
##リッ
属した
好み
メイト
司祭
げん
注
探し
１１９
自由党
##録
領事
最寄り
分かって
救急
含める
綿
天下
ナン
車輪
##ＴＡ
##備
投下
天候
多少
歌った
シード
難民
襲わ
ねん
１８７６
指数
ＤＤ
西暦
染
ノベル
体力
隠し
直ちに
フランツ
上がって
許
はる
##敬
洞窟
写像
土器
##込み
ファル
月曜日
塗り
ギャグ
除
##半
水泳
尿
モジュール
##当
談
箱根
色彩
マンガ
##＝
##ＢＥ
##刻
図ら
##岸
親善
改築
否
づくり
##乳
ペルー
##庫
大学校
##リーン
##セイ
進水
武蔵野
季
○
##０９
拝
りょう
招き
ドメイン
ないで
テー
つれて
９７
動く
客室
起きて
##０１
橘
衛
象
次郎
済
アール
さらなる
与党
基幹
征
歩道
書簡
難しく
突
鄭
ＨＯ
マンチェスター
ミックス
医科
供
偶然
ハインリヒ
Ｓｐ
運ば
##ＢＯ
##温
注釈
交付
たま
申
威
Ｌａ
一橋
終わって
現職
三郎
ＡＦＣ
アフガニスタン
伊東
ホット
導
ボランティア
佳
成し
##ｉｕｍ
筋肉
渡った
正室
##茶
##脚
##航
京王
書房
ＩＳＯ
##糸
シルバー
大津
ＮＦＬ
ウィルソン
##エイ
魔女
コッ
緊張
プレーヤー
応じた
不在
支える
みや
天気
１８８２
名人
先代
萩
拓
火力
はじめて
グローバル
滑
##辞
ＴＤ
授
グッド
えい
アルバ
ライオン
ワークス
もはや
浸透
知的
頑
のりば
グロー
集英社
##立ち
増えた
##ＬＯ
間接
占め
援軍
##ちゃん
##須
優位
バルブ
ヴォル
１８６４
実証
祖先
逸
告発
繰り
ハードウェア
ホークス
飯田
詞
付随
春日
じん
ボーイング
囲碁
複
重い
緩
##那
忘れ
改札口
##ルフ
硫黄
途
復旧
求
ヴィクトリア
手続
返
町域
##っと
有罪
抽選
損
殻
##ｐｅｒ
ＲＯ
ユニオン
一角
間違い
嫡男
ポンプ
ヴィー
★
ＩＳ
##ジオ
話して
どんな
スキル
育ち
##付ける
豊富な
降水
マニ
重傷
繰り返す
おおむね
##サウルス
１８７９
##サム
抑える
八王子
親しま
##酒
軍艦
##７００
市議
目指し
食堂
##周
ブリッジ
ドライ
その頃
伝えて
書類
後輩
##ＢＡ
拳銃
生きる
英文
広義
こうとう
中小
具合
##かく
目立つ
大幅な
ブレイ
##ぽ
めぐる
９４
調節
大敗
##支
文法
流さ
訪れて
急遽
##父
ルーキー
瓦
##農
ヤクルト
トロント
側近
集積
可決
立憲
やってきた
重要である
律
##ｉｎａ
##チア
１８８１
##ｏｒｔ
主権
抱き
支え
キエフ
##詞
恐竜
紙幣
Ｇｏｏｇｌｅ
渋滞
あさ
特有の
集まった
埋
小島
労
ドコモ
世間
##素
バンダイ
青い
代謝
筒
変遷
##なし
##脈
##ｏｒｅ
醸造
降
東武
ＲＡ
常陸
拒絶
吹
日程
圭
集まる
ハリー
防災
献
欲しい
測量
動機
半径
荷
タイムズ
##剣
免
ＡＫＢ
##然と
氷河
冷房
写
売
ハンター
##兼
##額
採
##わって
１０．
##宅
ＰＶ
１８７４
神々
ぐ
鑑
破産
遺構
チュー
##ひろ
センチメートル
##ッタ
パキスタン
カウント
##リク
エージェント
##ｉｎｔ
##液
追求
##ｒａｍ
原稿
優秀な
##シオ
兼務
営利
婦人
##リオン
ミシシッピ
##たく
放った
絵本
げ
割引
##巣
セールス
復讐
再選
##習
婚約
執政
１８６２
チケット
首脳
暮らす
阪
大久保
宇治
悩ま
いたり
全曲
増える
付く
留まった
開店
##ナイト
天王
カタ
呂
哲
モーション
勅
##ｓｉ
アンナ
階層
##黒
超人
##四郎
##問
連敗
踏切
奈
ぐん
人文
際し
名づけ
フォーマット
束
決まって
常勤
完
喫し
掘り
##ョ
##浪
複雑
##退
ミッ
映
##ＡＮＤ
##若
計測
闘
Ｒｅ
反論
０５
中毒
高木
管制
ＥＣ
名声
たん
整数
径
蓄積
##クタ
高度な
１８７５
俗
１８７７
感じて
##ｄｅｒ
##ＣＤ
狩り
##央
ＦＷ
ミシガン
育った
感じる
どのように
ＩＶ
背中
的であった
グッズ
決断
##じた
##属
危険な
##略
##姓
フランクフルト
詳細な
渡さ
注文
逸話
グレー
グラフ
##弟
講和
払い
##ＳＯ
松田
Ｌｅ
デトロイト
淡路
内海
ウェル
##騎
Ｂｌｕ
##ｏｏｄ
小泉
ガールズ
##ダス
情
ヴ
操
諸説
日活
ネイ
##а
昼間
##ＤＳ
しまって
マジック
##害
東端
##軸
各々
ライナー
序
ショット
侵害
徴収
越前
##á
総数
決着
新生
##ヴィア
カンザス
全土
ハーバード
##ＵＥ
新興
練
名乗って
##ヴァル
バリエーション
合わせる
##ローズ
奪還
売買
アリス
襲名
いけ
##ｃｏ
不可能
別れ
築か
領有
容器
破った
##回り
人質
３５０
媒体
寛文
ヒューストン
テイラー
旅館
シベリア
##ＩＡ
優れて
##晴
つづ
旋回
川上
関わった
預
アーサー
アピール
先駆
いけない
##垣
炭
ＢＯ
川口
エントリー
木製
慣習
##休
収穫
似
陣地
天神
##張
##仏
干
孔
麓
墓所
工学部
##客
青木
涼
出家
水源
##ＰＣ
ギル
キャン
ボーイ
増設
寄生
##げて
禅
デッキ
コーラス
かかり
組ま
パシフィック
グラビア
法的
貸し
叩き
想像
##リャ
##，
恭
才
武力
動詞
思考
不全
わから
##ＳＤ
##ハラ
らしく
捕らえ
家畜
基づいた
まん
##宏
アーチ
民事
旭川
謙
稽古
永久
功労
解明
ＭＢＳ
ブレイク
曰く
上限
ブッシュ
アントニオ
ｈａ
ダグラス
すると
正統
パンチ
母艦
答え
１８００
式典
か国
##ずる
遅
琴
ウエスト
１８８３
##チョウ
##ＭＰ
発する
##校
ボウル
高かった
１８６３
行進
燕
中京
麦
##庵
動向
##ｓｉｏｎ
##祐
##國
介護
##いたり
##えば
Ｕ−２
##鏡
封じ
²
持続
##セット
道徳
回る
熟
パレスチナ
火星
北端
自立
##孫
切り替え
鎮守
霧
##舟
懸
ヴァイ
##ｖｅｒ
なくなった
スピン
主席
マスコット
官房
##じて
##因
処
重大な
ＯＶＡ
一揆
手がけて
取り入れた
分から
垂直
下関
##存
特筆
##読
対岸
##胤
演
かかって
ハンドル
王室
オファー
始まって
エンターテインメント
就く
車輌
##フラ
トゥー
##かる
ヘッセン
ā
９．
前橋
##ＴＲ
##導
普
##指
ビクター
石垣
##ａｔｉ
ターゲット
感じた
フェラーリ
実務
陰謀
##ｕｓｔ
東大
人格
いつ
所管
##級
誘
主将
スティ
戯曲
伝記
石器
かた
ふじ
半数
##飯
世論
ＨＰ
曲目
招か
##ぬ
ウン
彦
##敏
つながり
##青
ローン
有無
##商
##陰
しき
哺乳
属性
２．５
##クー
ケネディ
##ピア
座標
##レート
トルク
左派
サッ
任官
##澄
瑞
ガーデン
暴動
１４０
##９．
名乗った
公民
朴
はん
桐
##Ｃｌ
##スパ
##フスキー
ゴル
視察
裂
ジャー
タイミング
牧野
大砲
アルファベット
保育
オリックス
砂糖
６，
##５万
原始
パロディ
適合
##ローン
バブル
大塚
##ＩＭ
置
##ＧＯ
##ｖｅ
##マール
##ＴＨ
生じて
拠れば
##付けて
毎日放送
景気
特権
##奏
造営
名門
##初
棚
##尻
測
追撃
商船
乗る
民国
裁
祖母
とく
みどり
ロール
威力
##ｉｓｓ
##転
小松
##けば
レアル
近接
大谷
##フェル
浴
地盤
大田
ペイ
##ジャン
挨拶
液晶
行える
もたらさ
泊
双子
入会
ヌー
##マニ
２，０００
１８６１
紅白
迎撃
集まって
##不
ナトリウム
##ロイ
アレクサンドル
全集
当事
ヴィル
ＣＲ
塚
仲介
遂行
##氷
広東
イヤー
アグ
女の子
育
##モンド
##ＢＣ
刻ま
##固
腫瘍
危惧
先祖
##籍
##ｆｆ
模索
駆
Ａｎ
有人
ＩＮ
##もの
クリー
立てて
ムービー
##継
取り扱い
三好
ＳＭ
春秋
９００
Ｔｗｉｔｔｅｒ
原産
反面
##ライン
辞
Ｌｉｎｕｘ
ＥＤ
センチ
##ｂｅｒ
少なかった
松井
少尉
冷戦
腸
合金
##威
実写
必殺
明らか
アルバイト
見学
##かな
Ｕ−１
ループ
最多の
役人
ＷＷＥ
ランダム
営
挿絵
専
賞賛
大王
ペー
書物
手掛けた
##止め
##ｏｓｔ
##ヨー
##ＴＥ
現金
辞典
Ｂｅ
産出
留まり
デバイス
没収
逃した
斬
カテゴリー
##なる
ウォル
##修
大内
##帳
ピア
佐野
##笑
断絶
立てた
ライフル
みた
放つ
カロ
ビーム
移し
寄
如
##剤
##Ｃｏ
##演
ＳＵ
小田
セキュリティ
サンディエゴ
後援
ポスター
##書き
僧侶
抱いて
硬貨
##衡
吉川
##Ｔｈｅ
プラスチック
きょく
船橋
依
防空
##げる
電撃
和名
##麻
取扱
ワイルド
王女
エンジニア
柴田
横山
ワーナー
##ｕｎｇ
統
窒素
ホッ
住吉
##トゥー
１８６７
体長
世話
ＡＡ
##オール
ハミルトン
フォース
ナポリ
殺し
晩
崖
スペクトル
吐
ジェリー
院長
##照
選び
苦戦
させ
ポルノ
はずの
ロードレース
##ムズ
始動
紀伊
##コム
生まれて
スポ
生理
転じ
放置
なされ
休養
公衆
##ＦＣ
エクスプレス
入り口
##セス
大社
中尉
分ける
役場
##メー
##秋
指標
アパート
教官
##ＩＯＮ
円形
チェン
ＪＲＡ
尊敬
合体
##邦
##Ｍａｒ
サウ
借り
##ウト
アリゾナ
嘉永
ＵＳＳ
芽
##ＡＹ
借金
考察
麻薬
プラハ
菩薩
樹木
プラザ
コンピューター
シンガーソング
小沢
グラス
線形
##ｅｋ
慢性
煙突
水田
携わる
遅れて
川越
原田
国旗
Ｕｎ
魚類
ニコライ
##ディオ
特色
免除
特異
水面
シチリア
去る
インディーズ
国語
##ｔｏｎ
ヤマハ
##ヘン
##ぱ
浅野
けど
１８６５
天国
マンハッタン
ｚ
連立
マウス
今川
馬車
##ＩＬ
烏
片側
曹操
##歯
蕭
石原
世田谷
北極
志向
##題
ナチ
出航
モーニング
デス
改組
##脇
んです
させた
ギャラリー
上旬
##協
右手
天才
型式
##注
採取
見舞わ
水野
有馬
ガラ
##ｙｎ
バッテリー
簡
漫才
射程
##ステン
所要
０９
オーディオ
石田
菊池
ブロードウェイ
桃山
##ソウ
熊谷
潤
大地
田園
##珠
##１００
安田
##ウィン
等しい
ピット
##ｉｇｎ
改定
鐘
一例
木曜
爆
ザン
##句
後楽園
成熟
外来
##ａｓｈ
明石
##徒
運び
親族
駆使
##向き
##ステル
##封
##破
指し
##値
めぐって
##伯
オットー
歌謡
系図
常時
動脈
負った
ショウ
太鼓
ビートルズ
アシ
王家
信じて
マット
##想
##我
ミステリー
運送
はず
ミズーリ
##ぷ
進撃
抽出
豊橋
まい
築城
##症
難易
製薬
ファミコン
宛
##鬼
高麗
勤
終えて
課税
習
陶
##−３
犯行
ヤー
刃
ミネソタ
元来
極東
除外
揚
とどまった
ＬＥＤ
ひら
##罪
##ヌー
答えた
パンク
不要
違って
条項
##ｉｃａ
制した
樹脂
激怒
ワット
##ｔｒ
固体
ＩＤ
予報
諸侯
五十
札
曽
尖
起き
固有の
##ａｄｅ
Ｍｋ
伊予
ニッポン
大友
花火
決まる
Ｉｎ
多目的
##ぼう
##らす
ヤンキース
##ぞ
Ｋ−１
コロラド
宝暦
超え
穀物
備
もらい
あげて
祭神
播磨
換装
神道
##ａｒｅ
そうに
植
ストー
使節
部員
嫌
法政
##３００
目黒
戻さ
意義
メダリスト
券売機
れん
##嗣
応じ
移設
通告
りん
立た
舌
##о
スタンダード
##ベイ
あらかじめ
産駒
リース
溜
保つ
ＣＰ
シロ
内装
仰
篤
監修
スケジュール
##ｏｌｄ
再発
ぶん
##めよう
ナイター
##亜
参事
アルミニウム
オルガン
##ｍａ
あたった
主翼
Ｄ．Ｃ．
予言
でん
ユーザ
武家
##ＭＩ
##得
頭文字
玄関
オレ
##Ｓｐ
##僧
##麗
公布
心配
ＤＣ
信徒
巡回
##ラク
離れる
野外
誘拐
つながって
東亜
レジ
マーケティング
##豆
面して
同等の
娯楽
インディ
ストレート
主人
セラ
くら
蓋
亜種
単体
控訴
リバー
ＧＭ
ジョセフ
現れて
聖母
##難
ばん
逃走
国営
救う
最新の
##揚
異なった
##ＩＧ
承
Ａｄ
有力な
##禄
直営
造成
アーム
幼児
パレード
封鎖
取り扱う
##尚
バンタム
##掛
藤沢
特番
##渓
国体
重臣
##ベリー
漏
汎用
支払う
遺族
ようだ
バイト
原発
ゲリラ
本願寺
##切って
スーツ
ブロー
ＳＬ
通知
待機
大関
クハ
##引き
断層
##著
骨格
趣旨
変えた
破損
飾る
##候
ヶ月間
アベニュー
指向
下野
かず
爆破
正しく
擁する
##６００
本物
出血
俳句
著した
##斗
徐
選帝侯
##梨
０４
##２世
郭
羽田
##刊
つれ
##イー
フランソワ
湘南
宣教師
堤
電機
源流
ともない
位置付け
混雑
##合う
のり
祝日
成年
##ヴィッチ
##ｅｎｎ
ＳＩ
湾岸
以南
タキ
フォーミュラ
##しゅう
大井
留
リッ
順番
処置
困難である
##ロック
##シュタイン
機銃
立川
キャッシュ
##ールズ
##ハウゼン
タバコ
改めた
公職
摂政
１８６６
絞
わかって
凝
重奏
鮮
##労
掲げて
いったん
灰色
##グレ
垂
０６
##ッター
改宗
麻雀
つな
##首
転送
##ブレ
読
種族
生体
オックスフォード
０７
##二郎
男優
アップル
ＰＬ
肌
一面
ラインナップ
代官
町立
郵政
長調
優勢
フラッシュ
買
##ｏｌｌ
八戸
ビリー
フェザー
平地
##せば
##スティック
異名
##ガム
検事
真理
達して
ｊ
友達
暴走
マーシャル
ｍｉ
##ッジ
耕
１８５０
回線
那覇
生年
##嘉
##ａｒｉ
模した
撤回
ゴジラ
##打ち
定めて
帰る
##パル
ジェイムズ
キット
ＤＯ
布告
もうけた
真空
鉱
西村
馬身
扱って
アレン
僅か
てい
遡る
歓迎
造形
府中
##ールド
累計
ミュー
占拠
５．
運ぶ
南下
滅
ＮＡＳＡ
したら
導いた
公的
置換
舞踊
ＹｏｕＴｕｂｅ
ノースカロライナ
##円
のであった
農学
設ける
セントルイス
##づ
民法
イラ
数千
##えん
遅延
##ベルト
デルタ
兼ねて
##げん
愛国
鑑定
Ｄｅ
収束
ケンブリッジ
低減
０２
喧嘩
精力
秩父
徴兵
##己
一説
悠
##のり
死んで
率い
教諭
アルバニア
太平
出入り
キム
乗用車
##籠
元老
##歴
##ゼー
築き
屋外
卓
重ねて
探す
‐
摩
余裕
見つかって
研
##もと
何の
##鳳
倒
レオン
##ＥＳ
添加
宰相
##きょう
同様である
主砲
鋳造
縄文
ファイト
ギア
##腸
転落
##丹
語学
##ッカ
専修
メロディ
選択肢
婚姻
##貫
北区
平原
ソン
小田急
右岸
センサー
石灰
ふる
文久
ルートヴィヒ
炭鉱
ノル
ヨーク
器具
鉛
伸びる
ルネサンス
##替え
##検
みて
虹
逃れた
中型
民兵
安芸
##如
ニックネーム
称し
追悼
増殖
落ちて
講習
病死
ケア
##済
輝いた
##トロン
##ＦＩ
ドリ
ＴＥ
古河
仮名
築
資
墨
##違い
サロン
絹
ＧＫ
制し
本田
##葬
アタ
ハンス
失業
##費
##宇
##ｓｓ
ＵＮ
テイ
##ネッ
奇跡
行か
設けた
いえば
##閣
会派
ぜん
土俵
左岸
東山
##願
高野
お前
ぷ
直接の
風俗
西口
##建
届け
佐竹
ＭＥ
弥生
あや
携わった
##ＣＥ
痛み
シェー
ＭＴ
プー
洗礼
菜
ドラマー
原爆
フード
メモ
##ｉｃｓ
豊臣
インストール
宝石
喜劇
笠
発作
誘致
##弱
組成
誘い
##ウル
##ニウス
##バート
##ｏｙ
##アラ
民放
起因
ジェフ
マイアミ
狙い
子爵
越え
簡単な
コイン
系譜
山麓
直流
アサ
##スポ
推
非常
旋律
シアトル
多岐に
梱
##レータ
中枢
半導体
戦果
名鉄
##童
集約
凍結
発現
メカ
魔術
聖人
初年度
組む
正当
サマー
##チャン
渦
点在
笑
集結
警官
転写
疎
さか
本山
迷
##参
Ｈｅ
マイクロソフト
##ｌｅｙ
##てん
収める
頂上
ワーク
##ポリ
最適
リュー
つとめた
##ギン
続行
ドクター
互い
要員
公使
舎
古来
待って
呼
透
締め
駐在
２０１９
エルサレム
##例
##ＴＳ
缶
読書
１１３
停留場
順調に
木曽
包括
抽象
フランシス
##入り
##果
属す
アルファ
##ポー
局所
封印
##ｏｕｓ
ソナタ
射殺
ＮＡＴＯ
荒廃
訴えた
おと
専務
漆
安土
カレー
##立て
亡くなる
アムステルダム
那須
大相撲
詳細に
ユニフォーム
しろ
落とし
##アップ
クレイ
##クロス
太子
##ＫＯ
##がく
通じる
##蘭
岡本
１２００
細かい
問い
モンテ
１８４８
虐待
ラッセル
##ｉｔｈ
シンガー
親会社
##グラム
モントリオール
##í
アイスランド
緊
失脚
倭
##かって
##ったら
望
##ＳＨ
ＣＦ
起こって
##炭
##溝
たかった
之
多項式
盾
好む
ツイン
召集
##ｒｅｓ
珍
翔
ニコラ
古巣
アドルフ
駿河
塗
##ボル
幕下
ＢＥ
天平
左手
##阪
公安
誇り
塩基
クリーム
##監
負荷
傾
移した
##っち
丹波
暖
各種の
##ＶＥＲ
帰り
仕え
罰
あいだ
スロバキア
嫁
ローラー
坊
膨大な
フォート
Ｆ−１
##ハルト
##杯
フォックス
##ブリー
##聴
ホセ
念
取り組んで
荘園
##受
フォーラム
かく
酒井
ＭＨｚ
通じ
##省
##グロ
想い
マウ
メリット
殺した
##孔
破棄
成り
あげる
郎
ＡＩ
兼ねた
ＢＬ
香り
エレクトリック
アポ
揺
##コード
カンボジア
枕
ノット
合って
##ヶ谷
フランクリン
痕跡
始発
##ネイ
浪
侯爵
##ホー
ストック
##Ｔｈ
##腹
塩化
儀
盲
##ごう
拡散
通い
マニラ
劣
及ば
近縁
ジョニー
金剛
ミッド
依然と
移って
アーキテクチャ
遺物
エアロ
##全
バート
急性
スロー
融資
本多
##ザール
##アーノ
スタメン
木曜日
激化
ブラッド
繋がる
グローブ
##かに
駅伝
豚
エチオピア
##Ｃｏｎ
ニコニコ
複製
Ｊｏｈｎ
鍋
本堂
##岐
ダイエー
ストローク
迫る
##遇
偉大な
青色
聴
じゅん
押さ
ロボ
剥
カタログ
リオデジャネイロ
建てた
打た
決
藍
##腫
掛
添
意欲
真っ
##ロール
ステレオ
よば
前部
１０５
カウンター
巡礼
進路
##針
ヘー
女学校
##シェル
西鉄
概
価
凱旋
##雅
除籍
サンダー
ドロ
敦
##魂
特攻
バカ
ＢＢＣ
分断
摂津
##ｌｅｓ
意味合い
天明
中頃
帽子
一宮
触
瓶
小児
疑惑
##ｓｋ
役目
弘前
退却
単発
マウント
##紋
アルプス
クライアント
##唐
宗家
繋
基調
党派
アレクサンダー
製鉄
宣告
３，０００
パウ
加わって
袖
成り立つ
ヴォーカル
津軽
##シャル
四季
##鷹
代わる
駐留
１７０
正解
休刊
杜
##沙
爪
西宮
哀
##吹
封入
招いた
信託
仕掛け
ぜ
##左
##評
真実
館長
気体
##ｏｏｋ
催
詳しい
広まった
有名に
抱える
捉え
殺
##妃
強盗
除いた
イタ
王族
伊賀
禁じ
##飛
訓
アシュ
##コウ
##譜
大輔
工廠
専任
##ｌｙ
待つ
キャップ
##載
壮
##ö
遮断
争う
##Ａｌ
##俣
立てる
はるかに
無罪
嘘
採集
無償
暁
本書
知り合い
スリ
##敵
突如
出陣
リーガ
##フェルト
##ヴェー
困難に
覆
##ａｋｅ
デヴィッド
##裂
暴行
きわめて
調子
尋常
恐慌
##炎
ホスト
分配
遠藤
改変
祈り
##ＫＥ
対馬
引き上げ
ＳＡ
安藤
##ＣＡ
##８．
加算
サスペンション
胴
成す
##サラ
衣
ハワード
あきら
解剖
堤防
##デール
解答
流し
ヒュ
公家
及んだ
##ＳＵ
先述
ロウ
振る
##ぎょう
テクノ
インディアナ
金庫
かね
##づけ
下した
##и
グレン
##ｏｘ
##露
アクセント
##タリ
##ａｃｔ
当社
ＥＰ
勝った
##純
エキ
沿った
増やす
ディア
##象
##バリ
蔵書
マツ
カルタゴ
長老
突起
校区
なされる
トウ
##フー
オレゴン
##衆
ニュータウン
狼
新党
##訓
扱った
ヒロ
立案
充
均
受託
グラント
生地
倉敷
レバー
鷲
##芳
ＭＩ
亜科
プリン
パナマ
かな
０３
島田
##焼
ウラン
##なら
##じる
城壁
##りょう
狙う
アダム
訳さ
##かけ
年少
マリン
肯定
負う
家具
励
##らく
吹奏
鱗
直結
新羅
未明
##ブー
グルジア
見つけ
##ベール
##モント
居城
国々
適した
訪
メッ
##ｅｎｃｅ
##ゴス
##かさ
阿波
##いん
害
未だ
急死
奥州
大国
月間
柴
フランシスコ
高島
##バック
日向
千代
カンファレンス
狭義
ようで
戸田
彰
##ぶん
##ａｉｌ
鶏
もらった
##配
##ＥＤ
警報
決まり
譲り
##ティウス
ファイター
一新
２．０
好意
亡
切る
ろう
##４，
公卿
掲示板
組んだ
発車
的であり
カタルーニャ
ビルマ
プロトコル
いっ
資材
私鉄
刑法
対話
殺す
住んだ
##束
山内
着て
近似
対外
##ニカ
ベリー
アンダーソン
アルミ
革
##４００
##料
機雷
ストレス
佐伯
植え
##ケイ
消失
幼虫
追って
苦労
薫
含み
##毒
##ｃｌ
Ｅｌ
以北
近辺
激減
##医
明記
葬ら
いかなる
傍
##厳
後漢
触れる
池袋
田舎
アビ
##ホール
梅田
教えて
##ノキ
本文
浸
展覧
通報
落ちる
ウィー
征伐
##ｂｏ
７，
藤井
普遍
４万
ＮＰＯ
制式
休暇
分泌
まんが
カミ
Ａ−
アリー
群れ
新曲
ハンブルク
県民
活発
##砂
河原
メロ
##腕
下し
経た
##ａｔａ
聡
見つける
平定
予
##緑
教職
民謡
クリーブランド
いん
閉じ
工房
おこなわ
内藤
周回
タイアップ
代用
和泉
##穴
歌人
政令
##防
##ä
総統
消
##稿
喫煙
参拝
サポーター
ルノー
##切る
##ミック
挟ま
##胞
剥奪
背面
##ンソン
##コール
欲
狙撃
直面
納入
基底
観戦
##！
##丁
##エール
##静
Ａｍ
１８３０
##敷
カメ
追う
##玄
図って
火薬
##２．
任意
卓球
##熊
ネパール
吊り
ニンテンドー
##Ｒｅ
辺境
本家
ブルックリン
架
##６，
##丈
腹部
フレデリック
##磨
ボルト
派閥
松下
導く
町田
喜び
格子
合った
ゴシック
唄
##ＢＬ
小銃
##立った
国政
##皇
國
葬
##たる
准教授
任天堂
鳥居
セリエＡ
皇室
どおり
釈迦
育つ
襲い
##つける
遂に
繋がり
枯
ベネズエラ
町長
ウェルター
無関係
御所
拉致
マネー
##１・
##もり
##ＨＯ
##しゅ
抹消
セックス
##恩
ＮＥ
拾
確信
##範
##ＣＳ
塊
コラム
調和
カラオケ
トリノ
##スピ
会い
##ｂｙ
##仲
コロムビア
モニター
##鉱
生殖
麺
##際
シリンダー
両端
落とした
挑む
中原
ローラ
枚数
アセ
合衆
繰り返して
##ＧＥ
テクノロジー
医者
常任
円盤
敷
奪う
##ｈｅｌ
##資
自家
ナイフ
##付けた
##ロード
##セー
１２．
過半数
トミー
給与
##苑
##さま
アラスカ
斎
##登
隋
ムーア
落とす
幻想
摂
##ボリ
留置
パチンコ
##寒
##ニエ
たとえ
モロッコ
チーフ
ノイ
がた
##ガラ
２０万
詠
ナムコ
摩擦
##幅
組み合わせて
マイン
異母
船長
##牧
アジ
バット
用品
不安定
律令
メチル
面会
配分
注ぐ
規約
ミッドフィールダー
軽い
２０１
公示
商事
##規
西岸
商用
施した
##１万
去って
足り
##旨
語族
波長
委
##為
かぶ
留守
繋がって
チン
##迫
時折
##Ｍａｎ
かか
切手
##唱
改題
フロア
##ワーズ
自然の
戦って
##ダーズ
Ｖｏｌ．
悟
##才
白石
温暖
可能であり
かねて
評
参画
最大で
上層
トリオ
東口
##上げる
剣道
バグ
##ｌａｎｄ
教える
評した
葛
遅い
##鑑
大学生
桜井
プロペラ
終日
##共
水深
豊臣秀吉
##ザル
コレ
京浜
##條
顎
止める
純粋な
奨学
視野
喫茶
潰
##ＯＫ
１１２
服装
ハドソン
園芸
鶴見
不況
５０万
つる
コミ
##顕
母国
フェニックス
官職
透明
就
##右
##煙
着任
学芸
鎮座
道中
河野
母方
##ヶ丘
処罰
##伏
チーズ
調印
##ａｌｅ
小売
去り
ヶ国
引き分け
##ａｎｃｅ
ＢＭ
営む
擬
みち
入国
関ヶ原
教義
ベッ
聴取
##めい
##刑
崩
分かれ
応答
##ビット
謝
畳
##Ａｒ
信任
グー
叙任
カウ
高雄
１１１
山号
内田
ダート
黒色
クラウ
ビタミン
青少年
##抜き
大映
コーポレーション
遠隔
入れ替え
勅令
ペンネーム
頁
異性
磁
２０２０
##冬
ライブラリ
宅地
##ニアン
##Ｓｙｓｔｅｍ
##カーズ
クラン
急増
常設
ホームズ
寄稿
なったり
##蓮
##コロ
春季
下さ
ルーツ
##エンド
唯
届か
好ま
##エラ
エッセイ
汽船
ルイジアナ
製紙
ルドルフ
高まった
##わり
##えたり
伸びて
提督
伝わって
奇妙な
急激に
概要
告げ
１０９
大きかった
##研
山間
面した
リリーフ
明日
庵
籠
##くり
収蔵
##ゲー
停
当たった
産卵
パーティ
社殿
１０３
ユリウス
篠
スクエア
誤って
経費
ナル
##決
絶望
手掛ける
ピッチ
寸前
##じり
楽譜
以て
合法
##肥
獲物
##ｏｄｅ
イリ
##んだり
インテル
同等
##スロー
バッハ
##サール
淡水
延喜
##ヘル
##ｕｌｌ
##ＤＣ
火器
##てい
発酵
クリーク
自信
楽しめる
報復
##ＷＡ
隅
分家
進入
##リュ
こういった
尊重
ベッド
ゆかり
ＰＫ
寄進
レポート
交点
エロ
ＮＥＴ
おかげ
##Ｐｒｏ
警
豊島
鈴鹿
増備
浮世
ジル
奉納
西南
ラグ
銃撃
補充
ハイブリッド
法制
##がって
ウィンブルドン
フェイ
メリーランド
回って
ディビシオン
カ月
探知
確実に
##暮
贈
大勢
アンティ
秋山
罰金
ケリー
リボン
ヒー
Ｐｈ
対峙
部落
詐欺
利便
##Ｍｅ
ノーフォーク
はな
エンターテイメント
光線
リクエスト
##ＧＰ
白河
Ｊａｖａ
セルフ
##ü
##ＡＣＫ
金子
換
自由な
##快
大洋
舗装
原案
ボイス
最高峰
準拠
##ａｎｓ
器官
湿地
憧れ
字幕
反転
##ａｎｃ
不明の
ぼう
##テイ
全権
讃
##銘
冠した
廃業
南朝
助ける
繰り広げ
##厚
探して
ハット
臣
フィー
ユネスコ
忠誠
ビート
断片
ラフ
儀礼
ＪＡＰＡＮ
##ローラ
##７，
樺太
奴
及ぼす
舞鶴
##券
転身
フリゲート
ＡＦ
御用
ＢＯＸ
手掛けて
##裕
モーツァルト
肘
クルーズ
窯
難波
サミュエル
待遇
遺言
怪物
好んで
治水
放ち
##ビュ
事変
モリ
極端に
アレックス
つくる
ルター
##ａｅ
異例の
毒性
ホン
##ＴＨＥ
##設
##ポール
読んで
北口
##ｉｖｅ
##ニウム
##おり
##ＵＭ
飛ぶ
屈指
無名
真相
リバウンド
最高裁
##がり
録画
邪
固め
##エロ
外伝
艦名
中古
借りて
纏
ジオ
代役
アンドレ
落成
特例
郡山
存
わけ
半球
朝倉
##ニル
エム
戴冠
桓
ＬＯ
スティーブ
チェル
基質
##ウェア
日清
##夢
とも
鴨
滞
薄く
##ボウ
最速
浜田
打ち切り
稀
大森
ゼネラル
わかり
出世
本館
##です
ラヴ
崇拝
分化
採ら
##婦
##ｍｅｒ
水分
幸福
担
じょ
田辺
小樽
##Ｂｅ
積載
##ごと
##自
##ｏｈ
武術
##祥
奉仕
ＣＥＯ
##十郎
地裁
建って
帰投
共用
##審
水曜
##陀
西端
死に
##小路
フォーム
みず
取り組む
スロベニア
三田
騒音
手順
迂回
土砂
Ｗｈ
構え
通し
##策
##増
女流
手塚
一見
チェコスロバキア
##フォー
ジャーナル
ドナルド
清朝
ブラザーズ
##でん
旧来
伴奏
オペ
てつ
好きで
あえて
賛同
従属
接収
タラ
志摩
デイリー
ぼく
狭く
地価
##緒
調停
破る
実権
元和
陥り
南口
次期
炭酸
鉱業
呼びかけ
直列
観念
##Ｐｌ
日本橋
駿
新造
##覧
ディフェンダー
ファーム
##階
##ブン
細い
蒼
まさに
##払い
江戸川
##ワース
##ｋｅ
##ソス
ＶＴＲ
食物
##ワール
特設
ペトロ
十三
燃
##ワーク
##ロット
必
##察
##ビエ
以って
持ち主
右投
コウ
ワルシャワ
スイ
知能
まとめる
Ｑｕ
風土
曜日
換算
フォト
使え
ゴン
特記
ピク
１１．
##投
進言
大別
バーデン
臭
##ＡＴＩＯＮ
マツダ
狙って
セク
せき
容
浄土
上皇
中田
終え
獅子
見込み
惣
乗った
１８５９
##健
地表
減らす
つくば
国府
脱走
寸
ギャング
住職
撤廃
ケベック
##ｑ
中堅
ルーズベルト
受け入れる
磐
密着
次回
有志
##始
##イラ
１８５８
釜
松尾
パラメータ
ヘブライ
ジミー
転移
##屈
硫酸
電信
尼崎
マジ
実に
ドラッグ
預金
ヴィン
密かに
愚
##ショウ
図り
不思議な
赤坂
織
ＬＰ
名残
繰り返さ
通訳
しっかり
つくら
ケープ
増刊
##網
西郷
右派
受け取った
アップデート
##タケ
ＧＥ
##やかな
##ッティ
##滅
支出
チャー
Ｍｉｃｒｏｓｏｆｔ
３．５
倒れ
##シュタット
オーク
打つ
##境
情熱
劣る
##こく
##ＹＯ
作物
あくまでも
##きん
ヘクタール
守ら
ハプスブルク
ゆめ
計量
婚
トライアル
掲げる
##フレ
セリフ
ＮＷＡ
##ＡＺ
最強
後続
##トラン
##々と
##雷
アミ
祀る
バルカン
##庄
##棒
キロ
１５．
回帰
〔
６０００
立ち上げた
細長い
入党
持株
２億
学級
リミックス
サザン
Ｏｐｅｎ
〕
収納
##寛
イニング
無事
##途
財閥
##さき
装填
父子
##ップス
出兵
慕容
教鞭
子音
傭兵
集配
マック
〒
テナント
マニュアル
切った
ＲＯＭ
##ハル
１３．
速い
##ボーン
##ゴール
辺り
素子
同点
##マツ
弾道
胞子
##インズ
落ちた
栄誉
結城
##奇
ばら
##ｅｍｅｎｔ
堰
##いに
##震
Ｍｙ
准将
県庁
睡眠
意匠
従四位
幼名
##財
##索
レート
##ツキー
ベテラン
##上げて
本郷
寺社
ボイラー
ヲ
コネチカット
みなみ
収めて
１，０
過ぎる
訴える
援護
カルシウム
ハッチ
流派
エピ
水曜日
ｒｄ
電灯
クリミア
くろ
##分の１
##息
暗い
含んだ
##とも
オークランド
知行
素晴らしい
##ミア
過ごし
支払わ
穂
入部
##ｒｉｓ
１８４０
実数
代打
体格
名付けた
世襲
分かり
招く
##ＣＭ
海運
売ら
フェイス
テレビジョン
踊
好調
平方メートル
##ミール
慈
##ビング
明和
##ビュー
出自
適して
８．
ロータリー
棘
巡航
今井
風呂
離党
##ｒｉｇ
広州
豪族
総監
##滝
離陸
バンコク
##チル
ジェン
エフ
シューティング
Ｓｃ
感動
##ｓｏｆ
次長
話者
自伝
ＩＢＦ
##Ｉｎ
わずかな
Ｐｒｏ
##琴
伴
旗揚げ
クリスタル
同志社
バンクーバー
高岡
番付
第三者
逝去
##イツ
静止
栄えた
##尉
##第
的だった
多額の
寝台
近海
薬学
支所
Ｊａｐａｎ
##袋
別府
山陰
##つく
打数
ａｕ
押す
動かす
チェロ
囚
ＢＢ
##きゅう
迫害
あお
監
盛り込ま
低地
抱く
##まい
##アーズ
##ぞう
貼り
##練
特命
抱え
移す
安置
なれば
単一
貯蔵
##８，
しょうがっこう
はじめた
掛けて
至り
ムーン
シェイクスピア
##ａｔｏｒ
撃
様な
##芽
ジャマイカ
城下町
楽し
腐
##２万
デイヴィッド
フィクション
うら
わたし
処女
発想
切って
シールド
１８５４
アルバート
ピッツバーグ
レイアウト
##オブ
１１６
過剰
##ｓｃｈ
##ＰＯ
目立った
許容
##キャ
松浦
##添
白山
担った
学んで
甚
##峠
シラ
デッド
歩く
議
告げる
マーガレット
蝶
##寮
アンドリュー
直し
貯
ロジャー
施
兵役
##スラフ
召喚
艦首
事象
モスク
##計
次女
##ｒａｄ
往来
##キュー
本町
べきで
ベストセラー
プリント
高圧
模倣
ディビジョン
木星
パイオニア
伊丹
ペドロ
エール
止
知れ
わか
ボーイズ
ケルン
ベネ
ティン
##拳
井戸
##ぜ
クラフト
関税
ダンジョン
ゆっくり
##ａｌｄ
次第
常連
##チェン
まつわる
長安
磁場
託
エストニア
くり
尚書
電荷
負債
##取る
祖国
##放
火曜
促す
おも
濃い
ノード
##ＥＮＴ
陥る
ＧＨＱ
招いて
天津
外さ
フック
結核
ペリ
芦
疎開
ＦＦ
##ＥＭ
四日市
発刊
瞳
##夷
憂
生んだ
倒さ
##いき
入ら
５，０００
##的な
##リズム
入選
願
##銭
ラス
赤外線
２００万
囚人
ネコ
のび太
可能であった
##ッキー
五郎
強かった
献上
##１．
刻
補完
レバノン
Ｍａｃ
##シエ
脈
覚醒
のう
松原
ゲルマン
同居
ソロモン
山手
お互い
##ぴ
ン
さら
人体
過ぎて
見つかった
飛躍
褒
##９，
##しか
範
望んで
尾崎
黙
##査
あつ
ニール
ストライキ
カープ
知人
地主
病理
別荘
こなす
##ｕｌｔ
定かで
弾頭
ベートーヴェン
##ギア
常磐
６．
見えた
つながった
蒋介石
エンタープライズ
梨
実体
名物
##リアー
門人
真言宗
エリート
ディフェンス
フアン
うん
等級
隷下
##Ｆｏｒ
日高
祀ら
家電
ホルモン
すぎて
##かす
酒造
##コル
もっぱら
表情
戻す
おん
一色
夜行
##回
##ｅａｒ
出動
ぶつ
ヨハネ
莫大な
開花
定時
知らせ
人称
内野手
明示
釜山
##プトン
協
Ｆｒｅ
めの
##／
年俸
１０２
##ハム
中流
##けよう
洋画
クリエイティブ
##ピング
ＡＫ
マニア
アワード
クラッシュ
稀に
削
寧
ブリテン
コロニー
帰郷
ついで
多彩な
##強
##総
格差
翻
スラヴ
震
紋
カリブ海
にくく
##ぁ
##スリー
尾根
##鳴
貧しい
初出
終焉
##５，
##ションズ
大神
##張り
寸法
リットル
交互に
移送
萬
搬送
##楼
コリン
釣
##е
##ドス
ルパン
翌月
ナレーター
臨んだ
攻
渡し
潜在
##Ｙｏｕ
崩御
キリ
洪
サイエンス
##ツー
ローレンス
却下
ミュ
コーン
一躍
##ガメ
示
刊
ハンドボール
メンテナンス
レス
アルジェリア
慰安
点数
文禄
山東
ゆる
##刺
記念日
調べる
吾妻
トヨタ自動車
硬式
４０００
##詩
トレーナー
##分け
撃ち
受け取る
転居
平家
ＮＰＢ
祭祀
助成
友情
パナソニック
多重
迫ら
リサーチ
火曜日
食べて
広がった
奪った
##識
通った
大村
断面
組み立て
おおよそ
宮中
並列
ファミ
##従
中高
##収
隆盛
北魏
疑わ
脱落
有効な
衣服
村田
##釈
インフラ
ひろし
バロック
星野
圓
スマート
在職
フルート
##ｓｃ
遅れた
支えた
子役
リバ
オバマ
旧暦
嫡子
ＬＩＶＥ
如来
##裏
混在
企
##ＬＳ
##リコ
##眠
ニューオーリンズ
##がわ
宮本
ブッ
##×
博した
##かわ
８，
緑地
絵師
##Ｗｏｒｌｄ
久留米
団長
##コア
早々
妥協
はく
##浩
協調
プライベート
思い出
片方
掘削
##レンス
##ＬＡ
荻
ピュ
不明だ
コマーシャル
釧路
##オリ
ミャンマー
##ｏｗｎ
##レム
スティーヴ
美容
性別
｝
浅い
石橋
ハナ
読ま
##攻
オールド
頂
ロベルト
##鰭
##堤
脅
枠組み
祈願
接合
リンゴ
稼動
傑作
奇襲
発案
##粉
でしょう
##適
開閉
ＷＢＯ
裕福な
白鳥
##標
円筒
ブレーブス
答えて
デジ
Ｆｌ
軍需
兵員
##えい
部数
##ｅｔｔ
トランプ
ウッ
不法
航
アダ
椎
払
祥
大同
ローリング
末端
引き継ぎ
武帝
アンケート
取れ
たけし
セダン
ベラ
長尾
##精
宝永
努めた
サンプル
ウラ
真宗
ウルグアイ
赴き
##抄
のです
尻
ダラス
##側
各所
足立
珠
１８５５
義勇
含有
目録
##込む
##ヒト
授け
可変
##てて
一因
ＨＥ
##ベリ
丈
渋
ニック
パトリック
八幡宮
サクラ
著しい
スズキ
疲労
##ＡＳＴ
##らさ
上洛
プリンセス
架かる
##ｉｎｏ
肺炎
チョコレート
じゅ
支障
台本
本当の
合作
アタック
提言
ヒンドゥー
すみ
踊る
##篇
##邸
コラボ
除けば
メカニズム
三十
担保
終える
理学
唱え
##ぃ
ｒｅ
海面
けんりつ
食べ物
##泊
鳥羽
灯台
##ｓｔｅｒ
蝦夷
喉
##アム
北緯
ＮＥＣ
名簿
クリントン
いかに
ボヘミア
##ＥＴ
ぐらい
##らして
操業
忍者
旅客機
##ｆｌ
稲荷
発し
出羽
ひょう
##えき
たった
ボイ
靖
薬師
##蓋
##ミス
パズル
拍子
##ＮＯ
即座に
カスティーリャ
巧
##入れた
推力
##ＰＡ
公転
遊撃手
##ッセ
１０８
受注
端子
携わって
称賛
つくり
苦しみ
末裔
せたり
相模原
##止
麻生
文脈
ツァ
インド洋
フン
アルト
匹敵
誘わ
##燃
賀
フィッシュ
避
閏
##リーグ
拷問
ラング
##ポリス
低温
##イタ
楼
機密
望ましい
承諾
隙
賜
エーカー
##箱
通用
新井
##要
チャーリー
複線
新築
##ａｉｒ
算出
桑
商会
克服
##伊
発光
##ギス
いし
後進
ファクトリー
##れん
凶
勝者
##ｙｓ
##が丘
ヒッ
##カップ
矢野
鉄筋
##霧
ヨーゼフ
死傷
反省
##汁
Ａｎｄｒｏｉｄ
##ゲーム
アーク
供養
灌漑
テオ
サンパウロ
分校
晃
伯父
開港
投獄
見受け
イヌ
称
スライド
##ペー
##負
着目
３０万
抑えて
ｍｇ
マスト
##トウ
##警
##ユー
澄
##ねる
アミノ酸
大差
##イア
ヴァージョン
##☆
ぞう
##繁
貰
ペーパー
##述
##筒
##ｒｏｍ
１９０
閉館
サーバー
##りに
クレー
ＯＢ
仕える
格好
明かさ
スクウェア
還
遠い
勝手に
マクロ
##烈
紐
秋季
両軍
岩石
##ｆｏｒｍ
ゴードン
短調
梶
##限
反響
７５０
取り戻す
アメ
飛鳥
Ｖｅｒ
##ａｂｌｅ
下級
##ングス
コナミ
補正
ヘルマン
打倒
四方
Ａ．
代理人
返上
怒
まと
高額
アロ
のうた
じんじゃ
西区
カレ
食材
他者
フライト
##ａｘ
##梅
##至
屈
選んで
##弓
##ａｎａ
初等
##リッジ
ｒａｙ
レッスン
Ｏｒ
浴場
##ａｒａ
大破
算
Ｎｅ
転じて
リック
血統
培養
遭い
##せつ
麻痺
レーニン
永井
##エム
粒
有利
時空
##５０００
村山
囲
揃って
##レーター
付着
サウジアラビア
行き来
灘
百済
##イング
##ニュー
史実
##千万
ノイズ
薬品
狩
愛人
ふるさと
０．５
版画
##ラール
Ｘ−
楠
##ソル
詩集
##訴
ファイターズ
連行
提起
メーター
ＰＯ
ا
##カール
カプセル
因
北海
休憩
膨張
##ナーズ
圧迫
高句麗
議事
据え
竹内
ウラジーミル
ウォーカー
ボルチモア
広瀬
きり
命じて
##ＩＩＩ
カセット
そういった
##マラ
流す
棄権
弦楽
運転手
##ベラ
理科
送電
定番
##やす
交配
##卒
屋上
ＣＬ
リポーター
原点
##ジェット
ひがし
グリー
妖精
##ＫＡ
親戚
雷撃
さわ
##環
##ＳＬ
看
##植
森田
逃
回し
##育
打診
##免
菅原
疑
守って
１４．
ラスベガス
十一
##包
恐
##切った
奄美
##Ｌｅ
世俗
ニュートン
燃費
##н
クライマックス
通話
突出
支局
巡り
急進
美人
絶賛
諜報
洛陽
こども
陽子
上越
アカウント
キス
アウグスト
産物
サヨナラ
松江
仮に
幕内
１８５７
批准
単純に
列挙
目次
##ＢＳ
屋内
肥
##りつ
委任
##顔
鎧
ドレス
レイク
理工
##クロン
サンド
試みる
全滅
活発に
##ドウ
架け
##貝
牛乳
施策
ゲン
サンクトペテルブルク
未遂
Ｍａ
ウイング
コム
ワゴン
致命
コンサルタント
上る
退場
容姿
真田
##雀
安永
例年
極限
##ドリー
売春
アポロ
返した
##のう
流動
##キンス
可動
Ｗｉｉ
ミシェル
浸水
##ゴル
##異
ディオ
オフィシャル
従兄弟
たばこ
アトラクション
蹴
ＡＧ
造語
がく
スワ
メイク
##湾
ＪＣＴ
歌曲
過激
何とか
飛騨
ネルソン
すい
明るく
##ぎり
鯨
##Ｍｕｓｉｃ
覆う
対局
最期
##エリ
一括
オラ
論者
自然に
斉藤
##リアル
##銃
騎
ポピュラー
公式の
南区
リタイア
築造
##ＵＣ
仇
セメント
恐れて
雇
Ｘ線
カーン
ブリュッセル
##紅
公明党
まれに
##メラ
カヴァー
富田
平田
##結
早くも
対面
##グマ
推計
１，５００
進ま
ジオン
生誕
ウォルター
語彙
##ｉｅｎ
話した
騒ぎ
猟
１８５６
歩き
若年
グスタフ
抗体
ちなむ
物流
ＶＳ
金色
##頂
出題
##Ｂｏ
制裁
麗
一層
待た
１８５３
遷
ぴ
兼ね
##ワル
胆
再戦
##齢
互
##貨
ウズベキスタン
##返し
原画
テリー
法定
フレーズ
手数
立命館
スケ
##耳
砕
啓蒙
向いて
いちらん
大江
盧
弱点
##ＥＬ
給付
Ｂｌ
Ｃａｒ
##アニ
なれ
決済
こんな
ください
ベーシスト
従った
木下
庇護
戦法
##ミニ
工法
告示
ヴォー
ｐｈ
##販
逃れる
パーソナル
##桜
輝く
##核
##況
いじめ
##テレ
ジェファーソン
乗せて
##ヴル
商号
減速
変速
##爆
そうな
アト
イーグルス
都営
筐体
##ぜん
市制
規範
スカート
平衡
名跡
オクラホマ
神秘
対比
ホウ
遼
会う
前衛
出向
澤
移
まり
チー
気分
畠山
宗派
弱く
##侍
レーン
碑文
帰属
ミスター
体積
重ねた
日本書紀
##幹
深刻
良好な
ビュ
まるで
蹴り
##送
野戦
英称
##ッパー
##尽
母校
##ばら
ピラミッド
鳳
##ＴＰ
ＥＭＩ
合衆国
民家
##そく
歩いて
ヴュルテンベルク
慕
スローガン
##５０万
報じた
##承
青銅
古川
始祖
デッ
##ポル
布教
王権
辞書
分かった
キーパー
４５０
とん
織物
給油
ダニ
コンスタン
一派
##由
ひで
##砕
ステンレス
ＭＢ
##しろ
狙った
##セント
ＣＢＳ
##挙
赤十字
ブンデスリーガ
##徹
Ｓｅ
戸籍
カジノ
７．
##ａｒｋ
噴射
大川
ワクチン
ホモ
##麻呂
トゥル
救
かたち
時々
カップル
##ＧＡ
停滞
脅迫
８０００
捕鯨
##肢
##ＭＣ
ケーキ
##９００
ＷＷＦ
##ｉｔｉｏｎ
##ｕｒａ
カワ
鎌
有形
アイオワ
帆
袁
呼び名
##テック
Ａｂ
メルセデス
マスターズ
キネマ
惜
簿
出仕
たつ
永正
醤油
がっ
湧
##Ｕｎ
一線
ノーザン
導き
柿
廻
##上がり
##んな
アンチ
詔
取れる
墳丘
ライプツィヒ
驚く
河北
ウェスタン
届
５００万
シール
収監
##彩
漸
陥って
ばね
##オル
##レーン
Ｐｌ
因む
臨海
耐性
割譲
泣き
##離
またがる
ネズミ
##タム
保って
ウルフ
噴出
タウ
志望
中性子
エルンスト
公団
ダイナ
寿司
悲しみ
##パラ
ツェ
ＣＡ
オッ
ねじ
ロープ
##撃
インタフェース
反対に
悩み
天王寺
##シアン
インターハイ
停車場
職場
被告人
ＮＴ
##ｏｕｔ
緯度
一流
供与
おこ
ウエ
バウ
抜いて
トリック
クラウン
長門
スプリント
慣例
愛する
##与
##ｈｙ
ドッグ
起こさ
カリウム
被告
望み
磨
明らかで
丸山
誤差
ニン
庄内
振付
単一の
サイバー
軽く
藩政
解読
スパー
ライアン
##ゆき
隠さ
円墳
参議
##テラ
##プト
納得
##咲
勝つ
オペレーティング
１０４
用法
##ＭＬ
##ｅｔｈ
##マッチ
曳
スープ
集計
バレンシア
請け
コイル
##ｉｓｅ
早世
なくなり
就いて
演目
延暦
##豪
共鳴
Ｓｕ
様相
トランペット
為替
ヒップホップ
デュー
７０００
##ｃｏｎ
服部
##処
農園
防護
公司
廣
響
体色
コソボ
##５００万
陶器
敢行
寅
フェロー
μ
率いた
教えた
粛清
見た目
ＮＡＤ
プライ
邑
##上げた
対談
日刊
コミュニケーションズ
引き継いで
若松
信玄
国分
猶予
休戦
平等
Ｍｅ
繰り返した
コス
見れば
大師
尼
表した
退いた
##築
ホイ
工藤
仕えて
魯
腐敗
ＳＫ
保留
フォント
手配
取り入れて
##糖
浄
腎
牙
日～
デハ
引き継ぐ
宙
##判
年寄
養殖
ウォン
##スペ
豊川
フィレンツェ
発砲
細かく
渡す
火事
キャンセル
あわ
Ｃｏｎ
喜多
流体
諮問
米子
逃げる
主たる
高騰
開口
カート
##禅
ぱ
速く
キャッチフレーズ
艦上
終始
しげ
小さ
カシ
武蔵国
留まる
ベラルーシ
徒
近づく
イースタン
ミリ
カーター
上司
ＩＳＢＮ
団員
合弁
##にも
朗読
ルクセンブルク
生かした
路上
消した
先制
放火
追及
##アウト
北野
##慮
アゼルバイジャン
樽
##熟
蛍光
公営
立教
実習
荷重
カザフスタン
国宝
##ヂ
考
##かで
##荷
発進
タカ
争った
##ーション
##快な
##ぞく
##ｎｅｒ
洗浄
脊椎
##娘
充電
##合わせ
顕著な
皿
諱
亘
##やく
元首
##ールス
初版
##ンドラ
偶
##程
逃れ
鈍
チャージ
##ｕａｌ
柵
Ｓｍ
大河
##闘
カーネル
ｕ
##ワード
全勝
人名
アクティブ
優等
水質
##活
バード
重ねる
粟
オーダー
##レンジャー
伝来
ニッ
反抗
部会
尾翼
原動
宿主
電報
##灯
引き起こした
##ツェン
物件
つなぐ
１６．
溶液
草原
久保
キャサリン
大垣
スピンオフ
貯水
##なり
農耕
##よし
##ガール
催さ
１８５２
無駄
妖
買って
頭取
テクニック
レター
シア
パーカー
サブタイトル
マフィア
込めて
##干
地層
穏
##Ｌａ
##ダール
閉塞
声楽
スーダン
市区
##痛
少しずつ
碁
##つか
炎症
連想
連鎖
転校
崔
溶解
ポートランド
下降
遊牧
谷川
幽霊
##６．
外れ
##ＲＩ
ゲオルク
若き
顕彰
湊
ラバウル
慰
ノア
##キャスト
乏しい
完封
##窓
##釜
重く
売れ
##フス
伝送
証人
##ｏｔｔ
能登
##ズィ
##ニク
っ
ますます
##タク
##テロ
##ó
問屋
勝率
含
しの
コンゴ
欠陥
効力
サウスカロライナ
安価な
将兵
落として
２４０
##ＡＶ
##Ｓｃ
##ＭＭ
ビジュアル
話さ
##ランス
楚
隙間
マール
さらさ
客観
いすゞ
解く
豪雨
ナノ
##ｅｆ
消息
＄
冷凍
履
洗練
劣化
##じゅう
混血
##獄
富士見
入線
##ゅ
##メリ
平氏
##ＤＰ
シュタイン
##通り
口座
##パーズ
凡
##テージ
大将軍
判例
ＡＴＭ
主婦
浴び
クイーンズ
法科
筑
取り組んだ
知り合った
Ｃｏ
説教
その場で
暗黒
外れた
茅
シュル
復刻
##パイ
西川
高まって
##堅
鵜
##ブリン
不可能である
炎上
病原
いきなり
テロップ
余剰
##リウム
過ぎた
フィルハーモニー
入れ替
Ｔｒ
到来
リビア
濱
大小
##ゃ
米沢
徴
##急
##深
転倒
三宅
休業
柔軟
##フリー
フェルナンド
##忍
帝政
ステー
##摩
金山
湿
書道
##佳
四川
ヒント
##ォ
満たさ
アラバマ
ＶＨＳ
巴
不可能な
議決
人道
ＪＡ
##奥
すけ
##キリ
請願
##ゆう
##翼
蒸
ジャンクション
ヘルメット
肥後
鉢
飲む
##ＵＫ
水害
Ｍｉ
##р
##ｆｔ
停泊
発した
チョウ
レア
はや
ＧＢ
トイ
問う
ブラウザ
グラミー
ムラ
水溶
マルタ
久米
陥
桐生
##架
照射
焦
載
返済
斬り
オク
過酷な
おもに
##棚
##ｗａｙ
止まり
走者
ルーシ
サントリー
弾丸
コースト
ハノーファー
パウロ
潜入
Ｊｒ．
複素
ＴＨ
かま
かき
別冊
##ＲＴ
超過
ワル
助演
ポルシェ
ストックホルム
大作
同種
石碑
代名詞
##早
長寿
溶接
見通し
出願
６万
興奮
異端
岩崎
ブルック
掲げた
燃え
##ヤマ
ロビー
ベビー
##笠
振る舞い
##ｆｅｒ
讃岐
柔術
レンジャーズ
##ＴＣ
##チュー
##ｙｐ
##寄
ハイウェイ
エクス
サイモン
ユタ
有権者
##曹
ドジャース
掃
##れたり
我が
惟
縫
軍令
投げる
市電
憲章
ガリア
リフト
国交
右衛門
浴びた
##ｒｏｐ
理学部
ＩＢ
セミナー
実子
佐渡
門司
回った
##リンク
亭
##ＧＨＴ
勇気
##シカ
指輪
アルベルト
とある
##ちゅう
パケット
この世
一生
金利
買う
##可
マウンテン
インパクト
癒
左衛門
クエスト
ドック
討論
激戦
児玉
忘
仮称
##キス
乗り入れて
イソ
##錦
高まる
砲台
悔
ガリシア
官吏
##シオン
マルコ
揺れ
##梁
のぶ
Ｎｅｗ
愛情
##余
衰
ＯＰ
ヘア
##モリ
##ザーズ
やら
##カード
スピーカー
##雑
##ＵＰ
絞り
##秦
発令
万国
天地
婿
俗に
満点
##腔
キャロル
孤独
１２８
同志
粘土
自害
及
フュー
戦功
別途
##欲
しら
動揺
引き換え
９，
くじ
##３，
１８４９
近所
##径
##じゃ
風刺
戦績
湖南
大崎
攻防
２２０
体型
くに
是
親方
絆
##絶
己
本島
Ｐａｒ
魔王
下水
躍進
初心
肝臓
手動
ミズ
##ｉｇｈ
言動
ソーシャル
##がら
豊後
伝播
反動
蒸留
支払
先駆け
製法
青葉
##ドゥー
富裕
特異な
コリ
熱心な
退去
絡
クリスティ
四郎
##デュ
一塁手
車掌
カテゴリ
広げて
ｖｓ
加増
赤穂
敬意
殺して
##責
##ックな
音節
３分の１
ウイ
ラク
以西
##まし
エニックス
不調
明神
終わら
##考
ヴェストファーレン
舵
使徒
編制
アドバイザー
点火
たた
争わ
転々
生き残った
##ＯＬ
ジャワ
塁打
ムル
負い
付さ
救命
##ズリー
ドニ
内包
沼津
##軽
飾ら
壁画
##尼
中道
##ａｎｅ
半減
##ドラー
眞
普通に
届く
##諸島
去
明る
大連
波動
金星
蜀
ロビンソン
##渠
容認
リベラル
プラント
##７．
熱狂
スケッチ
##べる
浮き
アイアン
ウルトラマン
##リュー
架橋
ＳＲ
国定
海抜
勤めた
避けて
ママ
アンソニー
エフエム
侵
怠
ＭＧ
##ベー
免れた
##われ
##リヒ
細部
気に入り
モーリス
正確
掘
随
##ツァー
クック
物産
若く
##トマン
レンジャー
アテナイ
##爾
キッズ
パンタグラフ
##è
メルボルン
織り
浪人
築いて
スロット
キッ
##耶
ヴィッ
うどん
##唄
隕石
テンポ
利根川
尽
採り
##〇
##ｔｔ
八代
おこなった
##ＬＤ
見出さ
充当
マルク
##Ｏｒ
でした
毎日新聞
胚
##征
分かれた
オンタリオ
扶
糖尿
帰化
プエルトリコ
生きた
見つけた
ハチ
ＧＬ
##ショー
クリストファー
##てた
##５，０００
松島
響き
史学
カス
##的に
シンシナティ
プロテ
いろ
##くら
##バーズ
練馬
空き
クラリネット
公言
##フロ
誌上
拡充
タイガー
荒木
答える
コンサルティング
閉じた
越えた
常識
視界
自生
日報
アバ
本殿
ケニア
棄却
精霊
三塁手
レーサー
##接
そういう
停戦
没落
怪人
大火
１３５
##ゾー
バリア
ジョゼフ
##ポス
年中
##Ｊａｐａｎ
##スム
##美子
マナ
ミハイル
消耗
厚い
董
Ｌｔｄ
建武
激突
##誠
##らん
馬主
カルチャー
無形
##バンド
毛皮
優駿
あだ名
台東
遷移
バリー
閑
松岡
ｄｅ
##．Ｃ．
立花
里見
均一
実弟
希少
ジョーダン
尊氏
神父
親しく
##ベック
##ラト
通達
入試
ＪＯ
茶屋
あれ
ずれ
アドバイス
貼
消えて
幕僚
ニュルンベルク
サテライト
音色
ロマ
ハヤ
没年
板橋
忌
目の前
株式会社
##羊
ポロ
##診
ＭＶ
仕方
##ｉｕｓ
アイスホッケー
パブリック
商売
##癌
墳
童話
受講
政宗
失踪
照準
ホームラン
片岡
股
フィッシャー
１８５１
ハリケーン
中日ドラゴンズ
幽
マカオ
シャーマン
キプロス
##みん
鳩山
救い
ジェーン
バックアップ
軍部
##ａｔｉｏｎａｌ
偽装
まえ
オロ
応永
ゴミ
頭角
環礁
成虫
富士通
憎
Ｗｏｒｌｄ
赤松
競う
水銀
##ＰＬ
泡
消火
ミサ
##少
##涼
貸出
日比谷
スティーヴン
どころ
ナイジェリア
速力
リプレイ
吹替
飽和
##ＦＡ
レッズ
豪華
ウィスコンシン
##洗
イエズス
阿蘇
顕微
デイヴィス
塞
##笛
ドラゴンボール
眠
上手く
##渕
カメラマン
千歳
ガイドライン
##狼
ホルン
カンヌ
##展
姪
抜ける
窪
##イヤー
ポテンシャル
クローン
砲身
留まって
じけん
帰宅
東岸
胸部
##ボス
クレーン
補う
区立
打って
進級
バッグ
##ゅう
##託
清掃
接着
酔
信念
月～
賃貸
特務
必然
フットサル
杏
##ビアン
勇者
ダウ
##Ｄｅ
フィルター
シャープ
##ｅｎｇ
究極
ケータイ
居留
閣議
ソニック
配達
全編
ソマリア
筑後
卑
スマ
ひき
##プター
##スターズ
##宴
判別
有る
係る
貸切
##ｎａ
河南
##ＰＥ
葛飾
３００万
##らした
ローテーション
或いは
ベリ
本番
##茎
￥
預言
##テッ
リーチ
部活
増幅
ＤＡ
国史
著述
乗馬
Ｂｉｌｌｂｏａｒｄ
Ｃｏｌ
##潔
直す
華族
##アド
##嚢
ＢＭＷ
サハ
ヴェルディ
チェス
頓挫
##ねん
精製
演歌
占い
ＬＯＶＥ
Ｅｍ
トロフィー
##えれば
産む
イエロー
##ｒａｔ
屋台
鶴岡
亜目
祈祷
光景
支那
買った
公正
貢
ＥＲ
##もん
仕上げ
淵
美女
△
間に合わ
葵
帰った
弱体
受付
相馬
受領
万博
ラック
謳
反して
こうえん
永田
##リーニ
一転
西尾
##ッパ
##Ｃａｒ
ＬＩ
反対の
宜
アンディ
あま
##軒
マスメディア
八重
Ａｃ
ボリビア
破片
リヴァプール
エージェンシー
未亡人
良かった
ファンド
景勝
近傍
##ストリ
基板
キャンベル
かれ
##ＡＥ
曖昧
##銅
モナコ
養父
##ｅＢ
改易
遭難
ジェネ
くま
##熙
星人
フランコ
ブレー
##ディーン
登用
##ラート
##碑
##ドルフ
不定期
共著
##密に
反則
アガ
##アリング
ジェームス
##続
マクロス
斗
##ＲＳ
呪い
乙女
ＢＤ
大原
包ま
陵
タンカー
たて
ＪＦＬ
カツ
相関
戒
早川
貞観
イズ
川内
##もう
Ｅ．
美し
パワ
通例
スロ
カエサル
導か
なに
Ｗｉ
惨
十字架
相次いだ
奔走
要衝
コメ
完走
リッチモンド
ギー
Ｐｅｒ
接し
開山
県警
インク
##申
借
ＵＣ
##瓶
勤める
使命
競艇
ウェン
入省
憲兵
罠
満洲
制動
開会
最寄
点検
面する
１０７
##りん
官庁
紺
##げた
もった
いわば
渡した
ＣＯＭ
特産
同位
眼鏡
邦題
叶
##ッケ
たまたま
両面
ハロー
Ｅｎ
ドゥー
覚え
甲州
ロマンス
##デラ
ミラ
藤本
反する
杖
日経
偉
本貫
伐採
同調
入札
勧
ジョル
##下げ
延宝
##敗
おこなう
##コーン
備前
銘柄
##どり
勧誘
イエ
演芸
伝導
##３万
長州藩
易
##試
マッカーサー
発端
ホロ
表し
##妙
##ＡＡ
イブン
トレイン
##ＡＸ
##ａｔｔ
##プライ
##たん
触れて
クモ
公方
覚悟
欽
極端な
##ストリー
草津
地蔵
乗船
１８４６
船員
引いて
参詣
咸
桑名
騒
借用
請
ＩＭ
黒海
アンジェ
暴露
コパ
棺
広げ
##ＩＯ
##トランド
サード
##割
野口
ランナー
回送
隔離
メイド
奇数
両手
フェデ
##やかに
戦列
飲酒
##ルン
##掌
##ニオン
ミュージアム
何者
##鷲
##リヤ
題して
八木
##Ｇｕ
##かみ
##ガード
一応
リム
古事
見込ま
##殻
リンパ
フレー
ブリー
ブダペスト
祭壇
##マニア
##未
ｒｐｍ
共存
軍政
大納言
厚く
弔
さす
大物
ウサギ
受け入れた
流れた
両立
##すけ
キッド
##軌
##亀
##陸
マディソン
##浄
アダムズ
１８２０
均衡
出展
有明
討
トリプル
チャーチル
祇園
増して
ＯＨ
鉄鋼
Ｅｄ
合宿
##つけた
困
吾
空挺
吉良
Ｂｒ
勝敗
結社
##５．
鋭い
原告
ＬＥ
か月間
ケルト
主軸
マクドナルド
島々
公判
リーマン
##セラ
義務付け
##ょ
ちなんだ
##ＨＩ
リヨン
血圧
二輪
当てる
ａｌ
ＵＴＣ
終着
換える
タク
其
繰り広げる
打った
デビッド
相場
准
あらわ
占有
ハリス
スノー
直下
##ＣＲ
ワード
協賛
浄化
##街
遥
貝塚
単身
乗り入れる
童
##クン
マイナス
セクション
幌
##ｒｉｄ
ライス
ニッポン放送
重なり
松戸
難航
敗走
去ら
ＮＢＣ
廃校
##ッサ
Ｍｏ
本丸
##倫
プリキュア
下る
反逆
支配人
大通り
色素
レパートリー
ゴート
売店
総括
##亮
Ｂｏ
恒例
茶色
斑
果たせ
すり
サイレント
仔
##ｒｅｄ
解像度
１８４３
１０００万
積んだ
入所
権現
やく
賛
##いし
訂正
果物
誓い
##炉
レンガ
扁
裏面
陰陽
##ムラ
選任
Ｃｏｒ
##ナード
聖地
無事に
##ヒー
育てる
独身
小牧
強烈な
ショーン
##０．
##うち
度重なる
アデ
サスペンス
田原
##ガニ
桶
稲葉
替
皮肉
キラ
消極
正則
兼ねる
##塾
授賞
##ツク
老中
##シブ
コモ
もも
うつ
倒した
裾
呼応
良好
ウェブサイト
重用
｛
バレ
##ッズ
側室
稼ぎ
不安定な
民政
##−４
握る
圧勝
言論
二郎
蓄
スズ
増す
唱えた
ＩＲ
エリー
##駅
被爆
オイ
クーパー
部署
##つけて
ユン
通じた
直撃
つま
ムン
最悪の
##飾
朝鮮民主主義人民共和国
混成
##）
##縄
崩れ
ゼー
##染
バファローズ
最強の
とうきょう
減って
短歌
付録
##峡
トール
工兵
##ｕｘ
ピース
##めたり
##ｈａ
##ＳＫ
廃線
養育
スリランカ
ブランデンブルク
省庁
義経
恥
##ｍｏｎ
東経
悪役
##テール
コナン
漏れ
政友
若狭
ソフィア
##暴
Ｗ杯
有利な
デリー
召
レディ
密集
##ツキ
だん
要した
２１０
翌週
アコースティック
バックス
結末
##アリー
最長
ジャニーズ
Ｅｘ
可能だ
##ＳＲ
１３００
刷新
余地
プロフィール
にん
１００００
警部
なんて
頻発
弁当
川端
れい
河合
##牌
##ドック
##ッシング
久保田
##ｏｕｎｄ
添付
下げ
即ち
物価
アトランティック
ブラウ
並木
##ＣＫ
不変
ボビー
水族
内地
##ダード
ブルゴーニュ
イスタンブール
遊ぶ
ウィンドウ
自覚
##背
１．２
指針
##準
ＡＴＰ
##持ち
ティム
飛来
株価
##かけた
１０，０００
スタンフォード
風習
決算
スン
養老
発効
構える
廟
唱える
玉川
##峯
数える
霞
信越
目論
納言
##卿
メロディー
デニス
##クロー
##垂
画策
管弦楽
主君
##請
スポー
##ＦＦ
##レフ
##現
開園
歪
##合って
ベンジャミン
軌
古今
バナナ
顔面
どん
ヒン
ブエノスアイレス
##あい
ディープ
フランチャイズ
のだろう
##ｍｉｎ
深海
梗塞
濃く
ブルターニュ
那
御殿
信州
釈
##ｉｔｔ
解禁
都督
坑
##がる
結びつき
Ｂ面
トレン
##ラフ
サント
プライム
ちょ
渡航
実父
##メイト
ボスニア・ヘルツェゴビナ
外野
溶岩
##ｌｉｎｇ
従わ
自発
太夫
もた
##りゅう
罷免
##Ｆｌ
侍従
溶媒
マキノ
ちゃ
替わり
杉並
##塵
迫った
プファルツ
水車
枢機卿
宇部
翌朝
##スベルク
##テーション
素数
上手
譜
糞
支えて
――
セリ
構えて
遮
バク
広範囲に
勘違い
土屋
行先
##鼻
日テレ
雌雄
回廊
広げる
盛ん
読んだ
ポニーキャニオン
Ｊ．
大抵
カ所
アルカリ
パイレーツ
適切
スターズ
裁定
##立てる
カモ
抜
レシピ
ポップス
レッドソックス
イサ
慈善
目さ
名作
１７００
綴り
ウォール
ジェイソン
古賀
モンテネグロ
モノレール
リール
アオ
孵化
内定
桑田
エンジェル
傘
凍
##対
##薄
紡績
別当
感銘
１．６
産経
##弦
増援
津山
１０６
レイン
手伝い
行ったり
落とさ
##編
裏切り
先立って
改番
目覚
##越して
出番
エラー
##ょう
高官
ジョイ
##ｉｎｓ
ハイパー
銃身
内野
戦災
##ＦＥ
##塊
かさ
苦手
１・２
ＧＤＰ
抑圧
恐れた
##［
違
##ブズ
みなす
エビ
##Ｅｎ
##ｋａ
椿
占
盆
##かけて
チア
１８４５
失格
亀山
黎明
苛
マキシ
１８３７
イカ
##サイト
十数
あか
津田
イワ
断った
##わし
収縮
江東
##グー
反復
すす
ドリー
ＭＲ
１８４７
不十分
土浦
メッツ
二塁手
乗せ
日数
##タナ
##俗
過激な
公害
ましょう
分担
赤道
頼って
ハイン
マキ
ポーズ
##トール
遊園地
取り壊さ
クン
喪
##ラーズ
ＯＮ
パール
ラオス
臓器
凌
##グラフ
にし
高め
一斉に
風味
容易
すぎた
##だん
##大夫
後押し
ｑ
ヨルダン
負って
毅
クマ
御家人
ＣＢＣ
オウム
##ボット
晶
##ぇ
##終
##返り
耕作
鄧
社交
寄せて
川島
餅
##ｅｄｅ
##枠
肥料
油圧
##ズン
##映
踏
有り
引き起こさ
##窪
##ＣＴ
##テッド
急激な
１８３２
起業
##鐘
マルティン
北岸
差し替え
ヒール
小池
ネー
１８４２
まき
旧約
ユーラシア
安い
１８．
##しみ
フィリップス
サミット
##めん
ドミニ
実効
偶数
##ｅｖｅｒ
汁
##ヴァイ
フランケン
スカパー
ポルト
鴻
教習
年始
##込んだ
告げた
本校
ｅｎ
##ＣＰ
めい
危
１８１５
雇わ
店頭
串
学説
サーカス
Ｎｏ
さほど
下層
##いな
面白い
断り
奪回
重心
打ち切ら
海中
着いた
帯域
##リョ
ハブ
ケント
クジラ
窮
ブリティッシュ
##尿
ちなみ
連なる
めぐり
乗り場
ソユーズ
異議
浮かぶ
１８４４
駄
未だに
アンサンブル
##ナート
１８４１
岡村
##ノイド
見送ら
捨てて
##郭
鍛
##帖
落合
カニ
蔡
レフェリー
有名で
##カナ
チャネル
西田
宣戦
韻
いたる
招
散歩
入浴
生駒
さき
挺
加茂
##ｉｌｄ
登り
市原
カージナルス
スペック
Ｓｕｉｃａ
##椎
ヌード
保ち
サラブレッド
ピュー
閣
監禁
つぶ
高台
生後
##特
ドレスデン
営んで
浅井
芥川
同定
過ごして
牢
##３．
##ｇｅｒ
##ＪＡＰＡＮ
ＳＮ
##プー
ピストン
シャツ
フライング
キノコ
独特な
挟み
##鋼
同じで
スパルタ
クレーター
下車
１７．
敦賀
綴
##立てた
##ｌａ
抜いた
おおさか
傾倒
配偶
嵯峨
近親
同じだ
浴びる
##督
健一
紅葉
京急
パルス
メモリアル
##ＣＩ
イラストレーター
碧
入城
スキャンダル
書院
３２０
##キル
カイロ
ビスマルク
やり取り
かたわら
ハンマー
##勤
本庄
##スブルク
新報
##シェン
##げよう
車輛
絡み
##返
プラズマ
平方キロメートル
##取った
受け入れて
望ま
計上
ヨハネス
##焼き
##ジル
築く
鍾
唇
揶揄
エステル
##ニズム
##ジェント
ノンフィクション
以
遠ざ
##ｗｅ
咲
ＬＤ
##反
タケ
##勇
奉公
##ｉｎｋ
死因
##Ｂｌ
ハマ
落城
インタ
だいがく
ウェイン
ウォルト
賄
譲る
１８３６
強行
ヨウ
稚
アース
##Ｍｙ
決闘
##Ａｎ
##ＡＬＬ
点灯
幅員
##駒
##却
シンプルな
##スス
確実
転戦
大木
劉備
がち
亜鉛
·
##晩
制して
##ｏｐｈ
##ＴＥＲ
レジャー
ｓｐ
鳩
##クラブ
##突
##リンゲン
惹か
捧げ
ふさ
棲
イベリア
##ズル
ユリ
レジスタ
松永
ゼン
文科
はた
郁
Ｘｂｏｘ
笑顔
建つ
ざわ
題した
東郷
パーキング
平山
ミリオン
ペリー
いわき
鉄砲
カブス
中身
プロト
セリエ
ＣＴ
連帯
共生
ゆり
機甲
アーツ
##オフ
縄
##出た
自力
淀
強硬
ひっ
安全な
ミクロ
泳
驚き
白川
三原
バッファロー
アルフレッド
喰
文字通り
##４．
長江
ひかり
##切れ
運休
離反
##阿
とどまり
平坦
コペンハーゲン
##シュー
##胡
嫌い
面倒
##ＩＢ
元気
地頭
源泉
ヴェー
共感
聖歌
ＦＢＩ
ナイン
カプ
##ブール
山村
##バリー
大麻
共作
宣教
覚えて
##ｒｉｔ
移して
戦役
きら
受け取り
理性
逃れて
##援
勤め
##ホーク
血縁
##ｉｐｐ
第一人者
べし
デラウェア
引か
有害
望んだ
伸ばし
幼年
堪
進駐
吸血
事柄
神様
敷か
一人
４，０００
秋葉原
アウェー
村落
男児
門前
天野
##ｒａｌ
１８１４
##ｉｌｌｅ
亡くなり
日蓮
六本木
匿名
トウモロコシ
王宮
##ヶ岳
ｏ
味噌
毛沢
##リース
降車
電極
込
シリ
シャフト
日立製作所
正常
要職
列強
不審
##テュ
氏名
杉山
##なわ
流路
埠頭
錯
酷似
１８０３
クロック
ジャガー
##ｇｅｎ
街路
##タニア
１８３９
不利
弾き
▲
##スマ
##ヴァルト
経典
寄港
フラワー
ＺＥＲＯ
氾濫
文京
モーガン
ふさわしい
学業
地中
英名
雑貨
明言
銃弾
所沢
４．５
ＯＮＥ
殺到
点差
ほどなく
檜
来場
ドッ
ブロッ
##ＰＲ
市道
##ノア
泊地
美しく
##ジェン
手間
癖
正徳
驚異
##もって
##込んで
三味線
材質
ヘルシンキ
戊辰
##ダンス
##スロ
深川
##レース
鋳
新星
百姓
末尾
##ウォ
セクター
税金
城郭
推挙
とはいえ
ダッシュ
おさ
ＪＩＳ
##ａｎｏ
形質
オリーブ
年々
付か
インテ
復員
##ＥＰ
##ます
##付き
符
哲也
吉村
##ＵＮＤ
活発な
ジョナサン
##告
仕立て
飢饉
高めた
歯車
査
雲南
直訳
走ら
##課
外装
##やか
##密な
側線
強姦
##フラン
スライダー
##フスキ
ロンバルディア
Ｃｏｍ
ヒート
尼子
義理
あう
##デント
１８０６
##メス
##ヴィッツ
拡幅
##ｌｉｎ
雛
軍務
郷里
２３０
隆起
パニック
そん
クロウ
歓
##ｙａ
##ＭＡＮ
##ＩＤＥ
##振
ドナウ
アッパー
##曜
##当に
楽しみ
ロビン
ベンガル
ＥＵＲＯ
ＰＥ
謀反
混ぜ
##妹
筆記
コンビニエンス
##舌
所定
メディ
平城
特別に
年上
ぎょう
のぼる
平塚
##あき
入港
酢酸
##Ａｉｒ
椎名
ノルト
エヴァ
##ダック
クロード
西山
限って
浮か
売る
軍備
文人
リチウム
##災
祭礼
コサック
コンピレーション
下がる
山名
##アール
家業
退位
フェルディナント
繋がった
享
##ＶＡ
１８３５
はま
売上高
引き渡さ
許し
平壌
隠れ
万葉
##麿
散乱
執り
及んで
キーワード
##棟
キャスティング
##ＱＵ
濁
ＦＥ
国歌
同窓
ベオグラード
検閲
##ＥＲＯ
##渡す
十六
##チオ
醸
ドキュメント
捉える
スワローズ
ＡＰＩ
Ｆｏｒ
赴く
サビ
プラットホーム
ネーデルラント
Ｒ＆Ｂ
狩野
劇作家
##賓
公式な
吹田
方位
スレッド
Ｄ．
幽閉
ける
レモン
同族
大軍
臨む
アレッ
番外
譲
舞踏
不思議
先駆けて
争奪
阿弥陀
##穀
旧称
##ばん
##Ｐａｒ
発熱
代議員
Ｍｒ．
硬化
##刈
##故
学期
乗合
生かして
こだ
１，４
東京電力
もらえる
１６５
掴
教材
##トフ
ロイド
取水
ヒルズ
低かった
原油
対潜
##創
譲った
満期
汎
##へい
遂げ
構図
##思
肥前
なして
##ンドルフ
おそれ
##ｂｌ
保た
アマゾン
１７５
往
月面
##南道
致死
淀川
ペルシャ
ＣＩＡ
Ｈａｒ
変革
##赤
曳航
商法
ＲＮＡ
スプリン
草案
フレイ
このまま
減り
くう
##Ｓｃｈ
##Ｓｃｈｏｏｌ
終身
ぎん
アッシリア
##袖
会った
タグ
国名
家政
冨
体質
独奏
江南
ファイブ
上告
ギュ
募
共闘
##シド
##−５
漁港
スレイ
簡略
時速
兵装
##構
アーノルド
内訳
単線
キャブ
全額
聞
##っぱ
コンポーネント
累
ジャンヌ
##鈴
北見
##Ｒｅｃｏｒｄｓ
国分寺
ＵＳＢ
物品
和睦
レインボー
橋上
ステッカー
輝き
俳人
寡
結集
##リル
卸
手形
鬱
やめ
団結
乗せた
シャーロット
フェン
リハビリ
こま
恩恵
—
３億
配線
私有
函
##コミ
##気な
##ッチング
天理
デュオ
オークション
新車
誇った
獄
##マーン
一夜
ウォーズ
尾道
##ナール
##Ｅｘ
生き残り
もとより
佐久間
テク
脆
ミナ
ジーン
メトロポリタン
ドール
山林
不信
Ａｐｐｌｅ
##腺
ネバダ
出征
ナッシュビル
リッチ
アラゴン
２５００
１０，
鉱石
レコーダー
［［
サックス
花序
１．０
輌
ハンセン
コンコース
締
とど
##じょ
林業
大東
石室
コラ
##ａｊ
スミ
存命
##ＳＭ
高槻
謀
奥羽
土井
##辰
小麦
中継ぎ
掌
リベ
高価な
賭博
マヌエル
磐田
ニーズ
よこ
校名
通す
強要
目前
引いた
Ｙａｈｏｏ
紛
解か
星雲
返して
架線
##レッタ
諸葛
動いて
採って
倒れた
消し
字体
ＳＵＰＥＲ
降る
載せ
嬉
中津
離散
##グラス
満たして
コカ
ミルウォーキー
ジュネーヴ
警護
観覧
類型
##ペット
転生
わが
バラード
ケプラー
##オラ
撮
##ヅ
シュトラウス
鼓
ＤＸ
要領
略して
ミルク
##綬
##大な
市政
１８１２
ゴロ
沼田
デンバー
変貌
速報
凹
##プール
##姉
汽車
魔法使い
呪
惨敗
封建
流して
やってくる
突っ
福知山
##取って
##ｒｕ
Ｇｏ
##レール
##ベス
藤子
Ａｐ
旧式
襲った
追贈
島原
インフルエンザ
ユーモア
士気
##ＰＰ
壁面
ＭＭ
私生活
##ＡＲＴ
##Ｓｅ
ブース
胎
有利に
見えて
別人
天守
なろう
提訴
高砂
賑
申し出
##栖
漁獲
邪魔
了承
戦記
没する
##晃
用紙
滑り
香取
まれ
合致
守った
関白
利根
即興
旬
放浪
なんとか
法華
天然ガス
客船
Ｓｋ
１７８９
知性
##せき
羽毛
##寄せ
はずだった
積雪
頼み
##遣い
買わ
##ほど
細分
説話
結党
就き
##ンドー
遊歩道
修業
エステ
察知
待合室
縁起
##ティエ
##ペイ
ＣＣ
新宮
##ＲＣ
ＷＷ
##項
日産自動車
交替
そっくり
築地
藝
サク
テラ
サイパン
##ｔｉｖｅ
妨げ
精密
Ｃ．
試行
炊
申告
太政官
麻酔
従前
##グラー
##ＣＬ
Ｏｐ
増築
##ｃｔ
聴く
##スティング
祭典
##幡
円谷
襄
松前
蒋
##ａｍｂ
劣勢
バネ
元号
Ｌｉｖｅ
##スマン
２０．
内科
##ｉｎｃ
安心
ＱＢ
純粋
##レスト
##ｒｅｎ
##倍
女児
上段
戻
養女
ＷＯＲＬＤ
##バンク
アディ
##ＵＬ
##慢
トマト
随時
Ｂａｒ
納税
隠して
１８１８
欠かせ
前輪
登る
ＷＥ
##隅
フロンティア
下げる
シグナル
脊髄
キングス
着想
処方
ウィキペディア
図形
抱いた
祝福
大西
城跡
芳香
小西
合間
##恒
水没
埴輪
３３０
漁師
渡来
フォレスト
##黄
バークレー
ブリュ
頼り
いち早く
こだわり
跳ね
参与
名高い
##禁
東名
##ａｖｅ
移築
謡曲
##ダース
##ヴォー
グルメ
##ーナ
ゲームボーイ
入閣
続出
Ｇｌ
違った
ナウ
注射
栄光
勝って
赴いた
エンジニアリング
無断
河岸
##リッヒ
エディション
クラウド
儒学
へん
##００１
石巻
##伸
服用
ボウ
開け
長州
Ｈｅｒ
ウィンター
ベンツ
センス
##ボルト
Ａ＋
様々である
##写
並んだ
並べ
ＩＳＵ
出せ
１８２１
ベンチャー
メリー
ＣＥ
飲ま
黒川
紀行
その内
公文書
ＰＡ
##в
専業
愛さ
可視
##勲
Ｗｅ
礎
##２・
リュウ
本稿
大工
ＦＲ
素人
漁船
軌間
上水
拡
倒し
永遠の
さく
預け
生計
気球
青島
##ゲート
ニコラス
１２３
##々しい
先立ち
ī
開場
##Ｇｏ
インフレ
タム
降ろ
よしもと
安全に
ディーン
福建
##犯
土岐
上面
五島
京極
やった
##渡し
スパイク
##がん
##戒
承継
##ＳＢ
孟
高価
Ｍｏｎ
##撫
テロリスト
果て
１９．
##致
ちょっと
告
マルセイユ
急速な
偽造
##恋
内紛
紫色
天狗
イチ
ロスト
掛かる
しず
素早く
アレルギー
聴覚
##止める
ボロ
Ｍａｎ
##かつ
堀川
投げて
ヤクザ
##Ｌｏｖｅ
ジョルジュ
安堵
法名
ハイデルベルク
ささ
三部作
図柄
組長
##狭
内政
重なる
ラベル
水位
ナビ
１８３１
サラリーマン
光年
フィニッシュ
グアム
##供
山川
リスボン
手当
撮り
１５５
１８３８
##ファイ
##帆
商社
##トム
寂
行軍
ゴースト
７万
フラツィオーネ
大沢
１８１０
##ｏｎｓ
##抜け
失速
##兄
収支
##后
クリップ
フランドル
リス
##さく
##ビジョン
有効である
##腰
ローマ字
喋
握り
塩素
持参
##ｉｓｉｏｎ
下落
メンフィス
##マンド
容積
仏像
噴
笛
採算
書状
見出し
補欠
志賀
##ニッ
フロン
##売り
生かし
多年
ジャイ
ノルマン
買い物
コーラ
##ヴィス
玲
Ｃ＋＋
箕
ヴェン
ローゼン
##ロワ
イデオロギー
別々の
##より
ラトビア
凸
念願
態勢
親しみ
不明な
ＯＥＭ
文理
##クール
負わ
移入
ピッ
抜けて
勘定
蒲田
##荒
##ｏｌｏｇ
タックル
##賊
準急
オリン
Ｇｕ
##スタイン
円錐
規律
ギミック
回顧
潜伏
リーディング
Ｓｃｈ
振るわ
武者
フランチェスコ
グラフィックス
##立って
チューリッヒ
ＵＦＯ
ノウハウ
ニッケル
ゾンビ
ヒューマン
随筆
カスタム
ＫＢＳ
アズ
ゾイド
##ａｍｐ
ＦＬ
##苗
増田
配当
柔
消す
脇役
##ぶり
##ピュ
##ジウム
赤城
##諸
インテリア
ボーカリスト
ウィーク
およぶ
貯金
法的に
船首
アルフォンソ
奮闘
なくなって
アウグ
マヤ
由紀夫
失策
ウエスタン
あて
##ティーノ
多々
ＤＯＳ
はじめる
囲む
フリーランス
遍
田畑
メソッド
密接な
琵琶湖
熟練
電位
ツィ
ヘッ
ＬＡＮ
慰霊
注入
##ニーズ
畜産
置き換える
雀
##上がる
##ｅｒｖ
ユニークな
大切に
##ブロン
鋭
時事
風力
デュエット
Ａｍａｚｏｎ
シャッター
甘い
挑んだ
国司
ベニ
##ｕｍｂ
年数
Ｔ．
繋ぐ
打線
Ｓｏｎ
ココ
##ロイド
退治
虚偽
##翅
##２００万
ＣＩ
助監督
##瑞
ダブリン
帽
襟
挿
スティーブン
肉食
##ファル
##きり
ギルバート
なくなる
アレクサンドロス
チョン
１８３３
隣国
迫って
よら
わかった
育てた
##分ける
##廟
優れ
シネ
酷
##符
##タリング
取り付ける
震度
##ョー
並み
フェリペ
若しくは
酸性
もら
イグ
##ｉｅｌｄ
カクテル
めに
衰え
決心
驚か
##やし
ブレン
断ら
転出
交友
##巳
##振り
##ざき
完備
王冠
竹田
チャーター
ＲＩ
掲示
耐震
人造
エスカレーター
アイディア
２７０
##跳
獣医
執った
ぽ
ガルシア
増し
Ｔｅ
誤った
子女
信条
星座
監獄
干拓
ルン
##復
かす
ギン
##はら
勝ち越し
コスチューム
##越し
ジャングル
日蓮宗
タマ
髄
透過
説いた
基督
##с
代金
##シマ
##桂
##Ｍａ
絶縁
##就
モント
祝い
テクニカル
マネージメント
村人
##取ら
周防
財界
##悪な
吸気
そちら
##アンド
##プラス
困窮
マーベル
熱心に
##レオ
君臨
蛋白
##ピオ
いつでも
深度
##沈
書体
白井
ＵＮＩＸ
##富士
年下
コロン
おの
##シリ
着く
##ガリ
##３・
転任
鍛冶
##坑
馮
ボリ
##潤
今では
##ザメ
##ＦＬ
検知
強力
謙信
佐倉
カタール
犯した
ビクトリア
##戻し
##講
##ジョー
パンフレット
都会
##トラー
##ルート
吐き
ヒメ
##ｏｌｏｇｙ
聴衆
ゴッド
旋
ギャップ
Ｖｏ
厳格な
トンプソン
マネ
Ｐｒ
新橋
Ｏ型
##ｅｏｆ
１．８
ムッソリーニ
ウォーレン
老舗
ラル
かえって
企図
誇って
構文
サロ
編み
シリアル
##ＰＧ
ネイティブ
取り戻した
修繕
廃墟
ガブリエル
値段
##恭
##弱な
太い
セルゲイ
エディンバラ
学制
オーガ
##ＬＩＶＥ
##モノ
##まさ
薬局
ドミ
望月
少なからず
命じる
絵柄
##カワ
多賀
##ＷＦ
宇野
震源
ワーグナー
##ｋｓ
##掛け
一目
##４万
##稲
属さ
投影
へい
トーン
黄色い
遂げる
##かした
卸売
切り離
粉末
暖房
エヌ
Ｎｅｔ
##すい
光子
伸ばした
全日
凄
１８０１
Ｍ．
##乗り
スコー
##づける
矯正
隠れて
##芝
##タカ
ｅｘ
Ａｌｌ
供さ
長き
##じま
スルタン
盛んである
掃除
##河原
レク
細く
切腹
１２１
ドバイ
悟空
組み合わせる
補修
利害
##以
イルカ
##減
臼
下して
オムニバス
巡業
過失
##邑
##ｙｏｆ
有田
帝位
原子核
生む
一座
抜く
アトラス
マクラーレン
##毅
那珂
フレン
苗
至近
##００億
##ロボ
図鑑
相まって
イヴァン
パチスロ
佐久
ＶＯ
##ハウ
代々木
##屋敷
油田
アトリエ
ｉＰｈｏｎｅ
櫛
ヨン
##久保
ロータス
ウィング
おいた
送付
彦根
仰角
乗じて
##ＬＬ
##がみ
商学部
猪木
##寄り
伝染
沙汰
馳
霊場
祈
堀江
##晶
祝う
いろいろな
ＰＯＰ
戦況
返さ
パルマ
清算
鍵盤
小平
論じた
尋問
ルース
ＥＮ
冊子
アーカンソー
##５千
エルフ
##過
命題
描
メモリー
片山
艦載機
新約
檀
##２０００
給水
グランドスラム
竹中
直属
粘
##切ら
誤認
優しい
速やかに
今治
形容
Ａ面
ぐるみ
適当な
急逝
下ろし
煉瓦
##篤
##揚げ
##コイ
洛
造園
##ｏｒｎ
剣術
帯広
履行
レオナルド
##ｌｌ
役柄
宮川
心身
かわり
ハードル
寄席
和音
##ＷＳ
エドゥ
させて
##なに
ＧＲ
農産物
##ｉｎｉ
切符
ノルマンディー
改める
##紫
Ｍｉｎ
延べ
北斗
##コック
５５０
ザイ
おこなって
ナイル
標榜
オスカー
唐津
序列
一言
スクロール
操る
県境
オウ
常用
コンパイラ
##ＦＭ
勤めて
やっと
溶け
Ｂｌａｃｋ
群島
##ラング
議院
恒久
##ブラー
破ら
社格
水槽
アスレチックス
待避
０．１
三菱電機
ＮＨ
コンタクト
参列
皇女
湖畔
実の
ＴＴ
##鶏
##ｐｒｏ
キース
一時的な
栗原
懐疑
四球
ディーラー
占めた
不足の
マサ
縦断
課さ
フェー
岩倉
ヴォルフ
##けたり
倒れて
##ｕｅｌ
花園
られたり
ＴＯＫＹＯ
神楽
##墨
廉価
賞典
スワン
密接に
１２２
カレンダー
残骸
##ねて
レニングラード
民進党
##入れる
パラダイス
専ら
試料
村長
上原
温帯
庶
仮設
ジャッキー
取り扱って
滅ぼさ
起草
抑えた
ネル
シッ
豊富
薨去
##翔
ＰＴ
業態
何故
東邦
##治郎
兄妹
嫌悪
##ＤＦ
見つ
花弁
紳士
##ａｍａ
志す
プリンストン
##ＯＮＥ
伸ばして
##５・
元服
曾孫
１８３４
ブール
納め
##Ｃｏｍｍ
長方形
ども
ピレ
３．０
ゆうびん
岩国
ＰＡＲ
異常な
室蘭
養護
浅間
双葉
回す
レコーズ
譲って
クランク
##附
##稽
ロッド
牌
##ＡＧＥ
フット
シグ
##距
愛して
##ニクス
隠す
##濃
ペダル
萌
消え
##к
ちゃんねる
二男
##ミュ
挽
大腸
##大に
直系
紀州
##罰
組曲
仲裁
かかわる
併記
##卵
太刀
チェルシー
##タリー
##ッセル
藤岡
残党
じま
失調
##ンベルク
さんま
土着
Ｈ．
ただちに
前任
##磯
##學
航続
上がら
閉校
アニメーター
スウィ
安く
ゲノム
##ｏｎｔ
署長
漬け
れれば
見つから
全力
##アト
シュミット
打球
残せ
##ＬＣ
歌声
チューブ
##かせ
戦中
省令
フリーの
受諾
１，６
ターナー
反感
怖
画質
ベイスターズ
釘
広範な
デラックス
シュトゥットガルト
錠
カルロ
ステータス
蒲生
固めた
モト
ガダルカナル
レイカーズ
ドロップ
踏まえ
八尾
充て
抱
ワークショップ
検挙
講堂
一方的に
カウンティ
##換
救難
アカデ
グラー
限度
パスポート
１４００
##ｇｌ
離島
天草
##ＤＩ
的だ
ハイチ
以東
１８２５
はち
応力
コンパ
##リントン
身柄
乱入
瀧
##ｙｐｅ
寛容
実名
プリメーラ
条文
菌類
チンギス
ハビ
ラビ
##すぐ
##ベット
笑って
Ｌｏｖｅ
##替
##ナリー
手がけ
了
長者
モダン
当面
アームストロング
失望
陽性
##爵
##クリー
ハッピー
生家
長良
ＧＮ
施す
島嶼
略さ
##Ｔｏ
ホイッグ
ディック
ロースター
形容詞
メラ
広範囲
苦しむ
強大な
汚職
ｎｍ
##ラウ
オースティン
兵衛
規程
夕刊
経理
払う
天台宗
助けた
濡
いつか
##艇
優遇
藤村
##スティン
##街道
便所
諦
垣
ダイジェスト
サリー
パスワード
黒澤
潔
トータル
##おか
##ＡＯ
届出
湿度
正平
##週
稔
轟
伊那
昨年
貸与
##廉
諦め
選曲
人為
バター
##立てて
##膳
産生
廉
ギルド
アレクサンドリア
##Ｃｏｒ
軍医
投降
備中
被弾
ホース
##モンズ
／ｍ
##さつ
狐
壺
カサ
##ラード
回生
ウリ
満たない
擲弾
##誌
##継ぎ
武藤
##廷
##パート
岩田
悦
マフ
発布
大平
ニューメキシコ
１７９０
俵
##並
倒壊
ＥＭ
Ｍｅｔ
広まって
上智
時系列
##ぺ
銃器
竜王
崎
返答
剃
故意
自然な
ジュース
格付け
語尾
野心
できれば
庶子
##くる
屋号
ＮＥＷＳ
##Ｌｉｖｅ
開ける
戦わ
公的な
##アント
##メロ
居る
##ｅｎｅ
ブリストル
##センス
本流
##剛
プライス
##廊
いまだ
大成
一瞬
同一である
拒
爬虫類
越冬
ワースト
##ウィー
プラチナ
ニクソン
モリス
知覚
##臼
財源
##戯
ＧＰＳ
遺骨
ブロード
ｓｈ
熱中
##質な
開墾
ニューギニア
ふたたび
広げた
ファンタ
アベ
##л
厳密な
呈する
とどまら
池上
歩み
闘い
舷側
静脈
はし
１７９３
富岡
放流
北村
筒井
オキ
トラスト
適切に
##シウス
##Ｉｓ
ピクチャーズ
エコノ
機首
飼料
コンスタンティ
パラグアイ
準じた
ほんの
##ギル
嫉妬
開けた
##ｍｙ
空白
神輿
薩
クビ
苦痛
##トカ
野手
１７９２
遡
切り替
チュニジア
さかのぼる
バーチャル
なぜなら
細工
箇
ＩＬ
感想
手腕
##賜
噛
たくさんの
##ムー
コック
神事
飛翔
ＮＩ
射影
ツリー
潮流
有線
高野山
花粉
埋める
てつどう
##失
谷口
ピル
皐月
新庄
ベータ
咲く
豪華な
騎馬
ティル
##ヨウ
沈黙
卓越
Ｉｎｃ．
##冷
ストリーム
左京
募金
##ｈａｍ
ＢＣ
##了
ギャンブル
旭日
受理
垂れ
はるか
##エンス
中略
##福寺
ドット
誓
汲む
##ｅｒｅ
愛用
##がった
間際
ノヴゴロド
薔薇
茨木
在庫
漂
エコ
役立つ
遊戯
誘発
グルー
##ｍａｒ
タスク
エンブレム
ＭＵＳＩＣ
##カート
１１００
ケビン
Ｙｏｕ
曲面
ロドリゲス
崇敬
##ヤーズ
##甫
広まり
コンビニ
クラー
流布
１８０４
ブレーメン
飛んで
描画
##斉
##オロ
自律
ランニング
ファイバー
感度
刑罰
現生
ジュー
年貢
比重
デパート
ディン
##ＳＸ
チャイ
１８２８
生えて
マッド
恐らく
ヒドロキシ
##卓
流星
四肢
##−８
吸い
イアン
ＥＬ
塵
幸せ
なさい
パトリ
##消
##ニャン
長浜
ランス
ＰＲＩＤＥ
＠
ものまね
Ｂ．
校地
##ａｒｌ
本誌
随所
リサイクル
##フスク
撰
個展
確かに
ジョヴァンニ
ゼウス
ラド
アントン
消えた
##囲
##ビオ
許す
戦乱
畿内
モンロー
金田
ミゲル
訴えて
覇権
１，５
履歴
耶
トレイル
徳間
課せ
##叉
ビス
ダメ
マクシミリアン
効
##十二
みん
派手な
執り行わ
グリル
直交
シング
二度と
スペンサー
##耗
腫
正午
同業
公理
##ビック
##磁
スプ
くだ
島民
倒して
握って
シティー
前座
##ＴＹ
ＳＮＳ
充填
菩提寺
年月
水利
傷害
ＢＩ
##ミネ
##チック
無くなった
こみ
##曽
火葬
Ｍｕｓｉｃ
##ｉｙ
１５９０
フレッシュ
ダーウィン
冷蔵
もらって
隼
テイク
田川
チャップリン
ＰＰ
まっ
ふれあい
##傑
スティール
講道館
遷都
逓信
上り線
ファシズム
禄
明かした
伸ばす
##ディーズ
みずほ
キャット
等価
ろく
内乱
光沢
サバ
##Ｐｈ
叶わ
強固な
グレゴリオ
軍縮
快挙
レイテ
スコープ
繰り広げた
マダガスカル
##酷
面接
##矩
噺
否決
僅差
紫外線
##モフ
覆面
育児
##たろう
##ルーズ
高倉
分社
##幣
儒教
##ギャ
常備
クーペ
きよ
聴いて
移封
委嘱
ミラン
##Ｈｅ
ＯＲ
日時
##т
審理
##Ｑｕ
##詰
局面
ＵＰ
##柔
がちな
曹洞宗
##Ｐｏ
##らぎ
ブラザース
フレンチ
すぐさま
##株
牽制
カートリッジ
慣
ひさ
６５０
南洋
スルー
ポリス
専売
転覆
フィリーズ
紙面
マザー
マタ
林道
リモコン
たろう
ミッドウェー
飽
遥かに
マシュー
飛車
配合
盗賊
##マーズ
放って
吉岡
であったり
請負
眉
１８０７
名神
握
ヨシ
訳語
さよなら
ヒューズ
いっぱ
苗字
晒さ
爆雷
たくさん
水晶
##チング
##ＩＶ
ジロ
##Ｃｌｕｂ
高値
##ｉｑｕ
なかったり
##ｏｏｌ
##Ｃｏｍ
元祖
ルネ
ジャム
配さ
チャリティー
##ッキング
朝夕
教え子
つい
ＮＰ
##イロ
届いた
一変
店員
##Ｗｅ
輔
##庁
##エア
合祀
クラシ
主観
##菊
江川
葛西
ハラ
握った
有した
ストライク
通販
##どころ
パラオ
１８１６
銅像
##翁
客演
鳴門
爆笑
魅
亡くなって
ラファエル
啓発
嶋
相次ぎ
##癖
銀貨
ひめ
リソース
戦犯
新規に
##じゅつ
##ｃｏｍ
なかでも
将軍家
##アンズ
##綿
カリキュラム
##Ａｄ
あず
##股
##除
欠く
因み
ひどく
実兄
バーグ
##ラック
##ボラ
##杉
床下
海防艦
郡名
麻布
落ち着いた
動か
パトロール
１７７６
８万
外出
ゴット
##奉
挑発
##スハイム
コンパイル
デスク
##ｓｙ
切ら
親しい
Ｂ−２
アイコン
学力
好投
愛し
田口
整合
楽しい
ＦＳ
ウイスキー
黒字
起こら
供述
軽井沢
煩
交わした
知多
##予
上総
##ＮＳ
満た
蒲
篠原
##ティヴ
特別の
ل
ＵＫ
##Ｏｆ
インデックス
エドガー
毎時
確執
水量
明確
バーミンガム
アンコール
##ｅｎｃ
連発
嘱託
匈奴
曾
インドシナ
フレッド
かえ
##ｙｄ
##邪
載って
知恵
１５２
流量
辿
##シク
##ＧＩ
Ｗｉｌｌｉａｍ
転職
除名
##ナビ
政変
陪審
三沢
商務
焼け
##ＲＡＭ
頭痛
パウル
諡
帯びた
刈谷
乗っ
##しむ
忠実
Ｄｏｎ
花崗岩
飼
英字
増やし
創出
ダイビング
##サーズ
中西
フォール
##いる
益田
##ホフ
嗜好
##灘
壇
新制
一斉
観賞
Ａｔ
セグンダ
スカル
デビル
炭化
コリンズ
添え
樹林
ときに
浙江
加古川
ＵＳＡ
稿
金貨
##ストーン
##チカ
小室
殴
溢
下回る
必要だ
おもちゃ
妻子
ウェルズ
とどまる
川村
サンスクリット
思惑
マッキン
貫く
##Ｎｅｗ
斡旋
通説
乱闘
骨髄
富豪
丹後
正規の
一度に
##スラー
##フォース
降雪
##回し
巫女
##補
豊前
ないしは
菊花
##ギリ
襲来
湘
セーヌ
トキ
活かした
カタカナ
チャイコフスキー
##短
坂井
##削
##測
タイル
それゆえ
歌集
神仏
法典
西園寺
##ミナ
##ビール
ＥＦ
##バナ
按
なれる
是非
コスモ
忘れて
##チュア
音速
##受けて
ｉＯＳ
動植物
ロペス
終末
うま
官邸
海老
部局
##ボロ
いたら
伴わ
成り立って
両院
時計回り
分譲
播
知らせる
下田
##ボイ
当てて
##スタル
タブレット
##秘
光明
叫び
泥棒
明智
脚色
呪文
陛下
羽根
##哲
１８１３
士族
比定
俳
##訪
別々に
ピート
##ダウ
客席
##髄
いす
なおかつ
侵食
しも
右腕
##ドマン
行ない
音階
患
疾病
出塁
ＯＫ
##隣
酵母
夕張
ＤＢ
んじゃ
##ダウン
驚いた
##ルク
##まつ
稲垣
デート
忠実に
成形
恨み
密教
ディレ
テュー
給料
擬似
アンゴラ
##ミット
##ピース
##撰
##圏
一本化
アワー
天竜
書き下ろし
直行
セロ
顕著に
白血病
##バイン
生母
トレー
マド
子育て
退け
ブルボン
山々
嗣
ロート
##ジム
ＩＧ
古文書
松阪
セグメント
ＤｅＮＡ
文言
教訓
ジブラルタル
三遊亭
つなぎ
付き合い
##スティー
可汗
越中
##降
アングロ
ボリシェヴィキ
出所
アセン
岡部
増発
１４４
６，０００
１５８２
櫓
##ニム
皇位
厚木
いくらか
##溶
ＷＥＢ
自決
洗濯
γ
監察
机
胎児
だから
軟式
自機
伽藍
督
チャールストン
##ヲ
首領
窮地
##ッシャー
##仁親王
遠山
クイ
更生
此
ディスコ
##デュー
散見
アンカー
##廠
胤
キョ
回さ
ロッキー
回航
##マド
##ＲＮＡ
暮らした
##北道
疫病
##ｉｊ
った
一式
##メール
第一線
飯塚
##レッド
視力
等しく
##湿
チャイルド
平戸
インバータ
関し
立方
##ショナル
##トレー
こくさい
沖合
アリストテレス
##ールト
買い取り
ワイヤー
蒸発
不幸
説く
信じる
ラルフ
##ヘッド
オプ
撒
こい
携わり
下がり
加水
##藻
会期
冗談
牛肉
ガンマ
漂流
##朱
桜花
受給
ヴァイオリニスト
２６０
盛んな
唐代
闘士
妥
憤
予め
応急
フルーツ
##燈
かり
やむ
芦屋
測度
洋楽
##カレ
ブレード
##ＮＴ
称え
登頂
秋月
緩やかな
ミステリ
妄想
宇和島
告訴
##ｐｏｒｔ
浮遊
##謀
代償
不祥事
ソフトボール
前夜
稼
##カッ
コスプレ
上回って
百選
秀忠
坂口
ミッチェル
会戦
##メト
##潟
##ＡＨ
抵当
元就
豊岡
クラッチ
無数の
因果
地雷
##気に
可能だった
リターン
スタンプ
##呼
パラリンピック
##スカヤ
バトラー
##ろく
相性
人民党
らい
ベルク
水着
根岸
光源
ヴァイマル
Ｆ．
人力
プラモデル
##ｉｎｔｈｅ
盗み
司る
たかし
税務
同化
譲ら
見事に
はじまり
英訳
##グモ
母子
らん
１８２４
##ては
セブ
ヨット
潜航
平井
##ｂｅ
糾弾
##ばし
##ぐる
Ｏｎ
租税
こなし
##待
突然の
叙事詩
１７９５
ジャガイモ
ヒスパニック
南岸
##スバッハ
高速で
再起
校歌
##滑
叔母
##斐
開けて
##Ｔｒ
被った
断続
出来て
千住
モロ
入幕
坐
##ｗｉｔｈ
１７９１
ファシスト
エッジ
業種
東国
天満
クワ
初年
網羅
ワンダー
西条
ＡＥ
Ｆａｃｅｂｏｏｋ
如何
ペナルティ
プロット
レーガン
手足
##アレス
ＫＥ
満ちた
でんしゃ
プロパガンダ
##田川
電装
ちん
##ｃｏｌ
##鍋
プロフェッショナル
スタック
プランテーション
##嶽
大仏
ストロ
♪
亀田
アクア
##Ｗｈ
一味
##婚
##珍
２８０
シモン
後輪
触れた
症例
発して
いとう
シクロ
##粒
生還
きみ
カバ
ボローニャ
病没
新書
培
土台
宮古
##ｖｏｎ
開削
捕縛
##ｈｔ
ツインズ
経った
切り替える
１８２９
ＰＳＰ
##出る
蜂
マカ
活字
##庸
右舷
賦
府県
##まん
欠番
ハードコア
グレッグ
ラピ
グライダー
グリッド
変種
サターン
済む
##ｎｅｙ
１８０５
並べて
ラーオ
セルティックス
泣
ミッキー
下り線
長兄
ウインド
サンプリング
跳
遂げて
１８０８
##ｌｅｔ
##Ｒｏ
##栗
複雑に
尽くした
Ｇｅ
八郎
引数
雁
降雨
履修
榴弾
操舵
１６８
##鮮
めぐみ
確
わず
囃子
ドッキング
アインシュタイン
##フン
風潮
レディース
野望
宴会
##タリア
Ｈｉ
升
##徴
コメンテーター
着た
クロム
直立
ぶら
ホワイトハウス
##答
瑞穂
遊撃
ＭＤ
挟んだ
##アンス
##タニ
千秋楽
##しお
##ゲイ
分光
シーア
##ＨＥ
ヘレ
霧島
淮
分隊
栃
上回った
体裁
ヴェルサイユ
##がた
##てつ
杉浦
上った
１２７
##っくり
##ＢＭ
##レーヌ
プラトン
１８０２
大韓
シンプル
常駐
農薬
グラハム
Ｓｙ
工具
明朝
江蘇
ロジャース
要所
イェール
どうしても
音波
わん
スピーチ
ボーン
##ｒａｙ
大本営
植生
敗者
##Ｂｒ
原宿
１６２
ビア
クリック
##横
伊集院
柳川
窃盗
##レア
着色
辿り
連ねて
岸和田
##疹
ＭＬ
致
溺
##レーナ
##きた
##キャラ
本隊
ボギー
発送
##なみ
##ディオン
課金
腎臓
##ついて
ツーリング
腐食
ステファン
汝
機長
アンプ
コンソール
元治
攘夷
モノクロ
ひこ
ジュン
撫
##ｙｃ
ロッキード
もたらし
ポーツマス
##ティスト
暑
増やして
##グン
他界
不定期に
ネック
みゆき
##Ｂａｒ
産んだ
ＪＰ
坂田
逆の
度合い
国造
ソナー
##河内
##ｅｒｇ
即時
頭蓋
心筋
たいてい
朝日新聞社
吹雪
ｏｒ
過剰な
##もる
アスト
##ｉｎｇｓ
ウルス
２０５
やりとり
ハンプトン
尹
品番
遠距離
満塁
吉備
セッ
お互いに
ダニー
##ｉｒａ
オーロラ
ＧＳ
きち
##Ｓｔａｒ
果樹
保った
アーマー
リハーサル
エクアドル
手帳
マインツ
ルーカス
萩原
カジ
ゾン
解き
下方
まわり
漢方
散布
アルブレヒト
外壁
バラエティー
偏諱
媒介
##フリート
マハー
取り戻
醍醐
下賜
欠如
両岸
１８２２
叙爵
脂質
台枠
クウェート
テンソル
平民
間違
宿舎
百科事典
もて
##逸
左腕
##ターン
水島
維
嘆
イノ
習い
##ダラ
マーチ
##クサ
冥
欠席
左右さ
バーナード
疲弊
不服
##辻
観衆
コンペティション
贈呈
Ｔｏ
従兄
商科
苦情
加群
逢
嫌って
応える
オンエア
##ニェ
##セラー
Ｗｉｎ
速球
##エット
ゼル
不定
勧めた
##頓
##たし
錯誤
メッセ
夜明け
##ぶつ
掛ける
##しら
ノルディック
旅順
##サキ
統率
ズボン
手助け
正当な
可換
超越
ｐＨ
転入
##ミラ
儲けた
寒冷
不可能に
Ｒｏｂｅｒｔ
醜
蔵人
信奉
パーソナリティー
返却
Ｍａｔ
１４５
棋
コク
１８１９
向こう
##ツィア
らく
取り巻く
東区
ヘリウム
沢田
##ＷＮ
趣
アイン
うつ病
ボリス
排他
ＢＲ
走った
賛否
髪型
冪
とし
枢軸
團
くち
一撃
オセ
ルカ
アムトラック
悪かった
掃討
推し
坂上
防備
襲う
チューニング
翁
念仏
小浜
変調
訴
そろ
童謡
１８２６
序文
遠江
##サウ
##ウイ
##ミントン
本因坊
Ｊｏ
探求
##煕
エイリアン
シューマン
シャーシ
及ぼした
山上
蜜
画期的な
執
許した
##狂
Ｔシャツ
##ウェン
##ａｓｃ
マティ
ディズニーランド
##ｅｐｈ
Ｖ型
##８０００
要人
冠して
両用
##親王
ブン
詰めた
やむなく
１８５
鉄鉱
ＪＮＮ
沸
頼ま
行こう
ぐち
チェスター
取り入れる
熟成
##ッケン
接種
アクセル
働きかけ
##マッ
##Ｔｒａ
滝川
気流
トレント
１８１１
踏む
勧請
ＦＫ
連作
##ｚｅ
廃藩置県
だした
膨ら
ジュール
フェス
三菱ふそう
艦尾
スチュワート
嬢
負けた
##ｓｔｅ
積んで
##ｓａｎｄ
重症
マリーンズ
外傷
王様
参政
今年
##喰
ＭＡＸ
##れい
カーボン
筑紫
東大寺
パロ
１５１
冒
##ａｎｋ
##リーノ
##４・
ボルドー
繁華街
とどまって
自慢
ドミニカ共和国
当てた
わら
##リティー
取り付けた
カラーリング
インディアンス
##匠
家事
レクリエーション
帝王
芯
硫化
##ｏｓｈ
撃た
楯
専制
烈
シンセ
落葉
目玉
魔界
俗称
##遣
先鋒
社民党
怨
棋戦
カーニバル
海南
フェンス
アナトリア
##ジェー
テント
カウン
カッセル
最短
夜中
救わ
オセアニア
##鉢
足跡
文体
宝物
横田
##寇
##’
##廃
聴き
某
##ｉｓｍ
##ＴＴ
##なか
ザルツブルク
##崇
吉原
##合った
##ざい
抗原
殲滅
ホフマン
##斑
##ドーム
バートン
##であって
##ミクス
##ラーゼ
破裂
模
スパル
##ペラ
目安
ゲームオーバー
既婚
##直し
修学
新川
Ｓｙｓｔｅｍ
ゲーリング
プロトン
孤児
##ヶ崎
##がれ
件数
オアシス
ショパン
マルティ
侮辱
居た
明らかな
家光
共学
明かして
戦勝
動態
ジェノヴァ
エアバス
##宰
ロブ
申し出た
本陣
大道
クルーザー
ＭｉＧ
捨てる
スタイン
相次ぐ
直した
##ループ
経口
靖国
通した
##ｕｒａｌ
賭け
下着
断定
直人
##灰
##ならば
オーボエ
##Ｃｉｔｙ
父方
アンソロジー
乗り物
覚える
##蔭
下総
スイング
ランディ
ＲＣ
##セフ
発起人
入江
駅員
萌え
##暑
バビロニア
##整
面影
しな
##墓
バシ
債
王政
ブックレット
のであり
艦砲
大変な
直さ
##出て
峡谷
右京
殷
不明に
室長
数万
構えた
加担
##ズド
電器
当ては
誉
ニューポート
１８１７
千島
運んで
向ける
ボディー
定額
ツル
##スバーグ
冷たい
##嘆
随行
脱線
モニュメント
##オウ
愛宕
##ＯＤ
##猛
向か
Ｇｒｅ
##ｉｈ
熱い
確実な
原住民
伺
３分の２
模範
##まず
ヒョ
##ラブ
##験
風速
ハリソン
オールナイトニッポン
デフォルト
法皇
三菱重工業
排泄
参院
サハラ
パブリ
初旬
１７９４
対向
東晋
種々の
法規
##等に
ジグ
除隊
##啓
苦悩
事典
大介
##欠
モザイク
未完
##キョ
ＶＩ
１５３
来訪
一騎
クライスラー
嘆願
１，２００
軍曹
メソポタミア
スルターン
##ＤＤ
廃刊
アレクサン
トマ
##ティカ
帰順
開基
賀茂
フェルト
瞑想
加害
１２４
独学
ブルーノ
##フォール
鳥栖
弾劾
埋蔵
続々
鮎
クルド
菱
##ステッド
ファンク
綱領
増した
登校
縦貫
航法
位階
##巡
テッド
##ヴン
##ポロ
アレク
ペレ
詰める
聖なる
注ぎ
きょうかい
柔らかい
グリーンランド
チェー
##肩
##槽
製菓
寺田
テム
名字
モットー
サンズ
注力
僅かに
たちまち
ヒドロ
##ＯＦ
外れる
ベア
マリナーズ
定格
長身
フラット
大石
色々な
##グラン
バチカン
待
修飾
丸い
保養
沈み
祠
##クマン
アプ
ＦＩＡ
面白
越し
１７７５
##スリ
奪って
譚
精算
##ズー
飲んで
世に
##まま
マナー
##損
##ミヤ
石狩
そのように
##Ｆｒｅ
１．３
##スチ
必要で
きっぷ
ａｎ
子弟
イオ
利き
##Ａｍ
離着陸
##ｅｒａ
##Ｂｒｏ
キリシタン
空爆
土塁
怪談
苫小牧
原生
見事
##２，
淑
秘密の
トラップ
徳山
内面
落札
ブルズ
タール
ハウゼン
ホス
斯波
１８３
漢文
##ラマ
大雨
なかよし
立ち入り
テンプル
食肉
論じ
プロトタイプ
触発
アスリート
アイデンティティ
同型
三輪
ネガ
直樹
##イエ
強引に
範疇
ビルディング
星団
##っか
##上がった
手本
##ｕｃｋ
##ポイント
居酒屋
##ｒｅｔ
アンモニア
ボイコット
ディラン
さとう
バッファ
サンティアゴ
棋院
ＲＳ
##駄
眠り
訪ねて
黒星
アルベ
砂浜
屈折
##ナップ
デューク
光緒
宇文
える
キャッ
鞭
擁して
ガウ
要約
所領
総主教
フラー
スラム
トランジスタ
##革
母語
見なす
##かして
長嶋
有理
テッ
パッド
##光寺
千里
それなり
甲賀
のぞ
頸
##武帝
亀裂
丹羽
汗
港町
Ｓｕｐｅｒ
隼人
口腔
のであれば
チョーク
##チス
ー
##飼
##ｉｔｓ
娘婿
美作
硬い
エタノール
キャピタル
１８２３
人柄
##ながら
嶺
不利な
静かに
衆院
捧げる
##ころ
六甲
迎
抜か
伊勢崎
##Ｈｏｔ
##蹟
１７８３
担任
##ニッツ
##パーク
念頭
霜
ホールド
頬
いずみ
Ｄｒ．
節約
執る
キューブ
不二雄
ピックアップ
テトラ
##ＫＳ
関脇
諭
寵愛
大理石
##まえ
##くろ
小早川
レジスタンス
アミノ
スクラ
ＡＯ
大牟田
プロヴァンス
ＩＳＳ
一夫
伝わった
甲状腺
叫
##６万
テール
戦没
蔓延
苻
紡
奏法
ｆｌ
カリフ
ビック
連日
白紙
オスロ
必要であり
独断
枚方
おはよう
譜例
ステロイド
パパ
気づいた
だし
握手
##マーク
値する
##ーニ
フィルタ
ジョアン
Ｍ−１
全廃
滋
行程
白く
グラスゴー
##すり
リアリティ
持ち味
亀井
スタッ
気味
スチール
注いで
仁川
１，８
アフター
##明天皇
減った
東横
聯
暮
ボク
彩色
１８２７
文治
##リード
同情
##ｅｎｔｉ
スクリプト
ＪＢＣ
大隅
普請
##スドルフ
カラス
かご
エミー
ＣＡＳ
密輸
シークレット
先立つ
##婆
迫撃砲
病床
首謀
昇段
にっぽん
ＤＲ
##デア
逃げた
##びれ
通年
自著
昇叙
にち
興味深い
##細な
１５６
まずは
##リッツ
１５万
##猫
##気で
明白
マリアナ
スキャン
ａｎｄ
カスタマイズ
翅
レガ
ならでは
案件
市町
増税
熱海
郡上
ＬＧ
Ｆｅ
オークス
極秘
モーメント
鹵獲
##メガ
京橋
汲
食べた
##野川
ことだ
比して
音質
よろ
##頃
##７万
高低
躍
ｐｌ
##カタ
##リッチ
アーカイブ
全幅
ミヤ
消える
黒く
スターリング
##ＡＣＴ
あゆみ
放牧
購買
任せ
奮戦
パンツ
##デット
彫
フェンダー
１．４
下す
ふり
足らず
Ｈｏｔ
嘴
大文字
願う
##なかった
##シーズ
座礁
Ｈｚ
##変わり
##ｌｅｒ
ダイレクト
何でも
青梅
踏まえて
##ナーレ
ウイグル
バッジ
座って
##きょ
知見
サクラメント
委ね
##ＥＲＳ
１５８
セーラー
船尾
海里
##ぐち
町民
就学
睦
公約
ドロー
##Ｍｏｎ
ポツダム
##靖
##ひこ
朗
インストゥルメンタル
ストレーター
サタデー
花嫁
属名
空位
磁性
逆襲
ＩＣＯＣＡ
福原
##ｅｅ
年長
##謝
駆除
ワーキング
ワラ
健闘
ｃｌ
４０万
紗
ことば
１７８０
変則
不振に
##エビ
##克
##ｑｕｅ
義昭
##マリー
顔料
ペテルブルク
リマスター
程なく
##ＮＧ
毎秒
戸塚
１８０９
リヒャルト
クロスオーバー
述懐
藝術
推さ
Ｆｉ
覗
がる
乞
立ち上げる
ルーク
男の子
一元
ジョーク
施し
勾
捕ま
上人
##漁
調布
救世
挫折
二宮
##Ｔｉｍｅ
懇
いな
ｍ／ｓ
樋口
豆腐
いこう
ゲオル
一節
増減
芋
##ワークス
茶道
自転
はっ
シミュ
焚
あたかも
３１０
シュテ
筑前
名手
勤労
カルト
##Ａｒｔ
貼ら
用具
欠乏
Ｊｕ
めん
複素数
木戸
冠する
白亜紀
偏見
摘発
チャット
穏やかな
##ＭＴ
準ずる
メロン
２３．
##ＭＡＸ
ボウリング
##妊
少な
##虐
縞
##ねた
##胎
採決
巡査
##ライブ
##シャス
シルク
ジョイント
パルチザン
服役
応仁
##ゴリ
計器
##アッ
遠方
川西
渤海
適正
後身
レンジ
幼生
##ニコ
ゲイリー
大倉
オリオールズ
別称
鍋島
##仕
鮮やかな
見習い
##専
つとめる
埋立
##武天皇
段丘
##ＦＳ
##à
西経
##かける
開票
替える
豊富に
賈
ザク
ＵＤ
スプリ
逸脱
修験
赤く
甚大な
シェン
執事
マラーター
混入
デュアル
網走
シュタ
見積
定式
コミュニティー
県下
救った
モビルスーツ
松村
空海
昨
可愛
掛けた
視認
Ｏｎｅ
よかった
センサ
後発
練り
パース
一意
ヘーゲル
カスタ
子宮
##ＩＸ
コスモス
ＣＢ
ライド
##湊
中絶
足首
コンプレックス
スクー
##スカン
好んだ
旅人
##デッ
梵
宴
１７９６
ゲームズ
寄せた
副題
たいかい
##込ま
弾性
##ベスト
##ハーン
##蛇
##メット
長井
##似
御前
ネブラスカ
部材
ＦＯ
聞こえる
##ザイ
アクロ
カエル
迷惑
オレンジ色
携
漕
ハイム
朔
##認
チタン
ユークリッド
違和感
クロスカントリー
未知の
物事
喫する
ホッケー
獲
##遺
阻ま
ＷＯＷＯＷ
汐
リーフ
Ｅｒ
##滴
積む
ワルツ
アドバンス
っぽい
平時
志村
キラー
##ヘイ
従弟
結びついて
主である
租
後見
ノーマン
抜粋
レキシントン
放水
籠城
##当たり
ハロルド
##ＦＴ
決行
羽柴
急に
地殻
ルイーズ
鋼鉄
１２６
抄
字形
下った
荊州
酋長
戯
先導
北川
細長く
民生
硝酸
公道
極めた
##ナリ
##カット
プレイオフ
斑紋
##伴
##ツィン
南宋
外れて
##悟
神明
褒章
##フィル
光秀
煽
##猿
薪
##トレット
##舘
容易である
座敷
##実な
浄土宗
絶大な
映し
雍
たき
榎本
##ついた
##ｅｎｚ
##ｒｉｃｈ
兜
テュルク
幡
なるべく
秋元
伝授
ちば
奉天
悪性
ナッシュ
１７８１
ウシ
ヘルム
##麓
##ドア
同胞
シカ
ｃｏｎ
##ハール
##之介
##帽
グリップ
ナッ
カフ
向かわ
賜った
無機
１７９９
##ｔａ
ヤロ
鉄路
親指
朋
いとこ
成体
推論
ヴィラ
##ぐら
シド
##なが
視線
レプリカ
ふう
秀樹
怒った
##オーネ
ＮＣＡＡ
コイ
サトシ
ドーピング
吉野川
##Ｉｔ
##折
左舷
ソラ
葦
丈夫
##ワールド
バラク
ロナルド
振り返って
消して
ＤＦＡ
整形
重なって
臣下
強風
##Ｃｏｍｐａｎｙ
ティムール
近づいて
雇い
##れれば
１，７
##Ｃｏｌ
削り
呼びかけた
##ュル
休場
すず
##イヤ
欠き
だす
##Ｃｈａｍｐｉｏｎｓｈ
##ｂａｌｌ
関根
洋上
フィード
砂丘
##トリック
貞享
言い伝え
３４０
##ニオ
##ＳＦ
リポート
１．１
フェリックス
ＦＮＳ
水谷
載せて
台場
採った
##ツェル
プトレマイオス
##ゼット
退き
忙
ローソン
ヘルス
メト
支柱
挙動
エスカ
##Ｐｅｒ
##もった
ノリ
##マキ
公称
被疑者
規
ＨＴ
エレクトロニクス
##ｉｉ
##ｂｅｒｇ
シノ
##ｏｔｈｅ
ダッ
安保
Ｃｙ
##ドッグ
プエ
手放
エミール
四股名
ニトロ
砲術
馴染み
湖沼
##ウリ
大町
##ｉｔａｌ
●
##明な
下面
服従
パッチ
採る
屯
ハーグ
##テク
もらえ
黎
##ましい
##クラー
きちんと
##午
整え
マーキュリー
７．５
賢治
ムガル
Ａｎｄ
大切な
デア
捏造
##タース
苦しい
シップ
化した
税制
２５６
ハーモニー
打ち出した
努め
乗り出した
卯
清原
気付いた
##ＡＲＤ
ミール
##フティ
づけ
シューマッハ
退避
##っこ
タウンシップ
車軸
災
##ウィウス
Ｓａｎ
累積
レノン
ラット
曲名
２１１
三女
##ｙｍ
##レント
アーセナル
イングリッシュ
##ストー
ゾウ
費や
車道
ユニバーシアード
伸びた
１６３
##キンソン
放射能
目立た
フィアット
##隠
##Ｃｅｎｔ
建てる
宣誓
名取
公子
三方
##にち
魔物
深める
見かけ
答申
カーネギー
暫く
戦局
着物
##Ｍｃ
生える
##すみ
掛川
##６・
##合わ
アスペ
シュレー
一掃
バーゼル
帝都
ざん
縄張り
カーテン
ウイン
分か
１・
欠ける
##Ｅｌ
デスクトップ
ベック
憲政
多摩川
メソジスト
原典
羽生
海部
記入
受け取って
##ミュージック
減る
Ｉｎｔｅｒｎａｔｉｏｎａｌ
動乱
無色
##脱
取り決め
ＡＴＳ
ハーバート
筆名
減らし
控えた
##らしい
アミューズメント
ジャイアント
ベストナイン
壱岐
##オニ
有用
降りて
##戻さ
サファ
トレーラー
ＩＯＣ
ことごとく
##霜
ＮＣ
みなと
総計
長所
ドリンク
県営
数理
方角
ミトコンドリア
コネ
##マチ
ギャラ
##ç
##アジ
清盛
田代
行え
##債
ＳＢ
世の中
ルワンダ
ドク
本所
温室
バース
化成
土手
テムル
兆
湖北
種小名
##１５０
##鎖
カザン
リフ
球面
タタール
##抜
空洞
真ん中
下向
最小の
式部
風船
下顎
明瞭
傀儡
アングル
引き起こし
再演
##バッ
極力
幕張
在外
騙
ソプラノ
##泥
覆い
セレクション
##手な
##ＹＳ
##ｅｈ
死別
##．Ａ．
クリスティアン
割れ
鳴き声
盟友
ホーン
竹下
##ノワ
投げた
日吉
##スカー
ジェル
##ＨＤ
##ヒェ
争議
厄
ＳＭＡＰ
穿
ザー
皆無
セレモニー
六角
オルレアン
捜
ＹＯ
ひまわり
子息
高めて
電線
Ｌｉｎ
##こと
パット
壕
##コラ
ū
##はん
三越
乏しく
牡
モラ
甲殻類
秒間
争って
治癒
開示
##函
１７９８
艤装
##ライス
抗戦
戻し
##メチル
渡河
##ラッ
##弼
三宮
##エッ
結束
本庁
バトン
すれ
##立た
弦楽器
ファイン
製剤
##ブラン
群衆
建ち
##Ｏｎ
独創
##ＥＸ
斜め
上回り
幼馴染
芝生
無差別
スィ
減衰
ＨＴＭＬ
ｆｔ
##デンス
##否
キール
同様な
源義
空冷
すすめ
欠けて
##ヴェイ
ガーナ
反共
##たった
空力
##遅
##Ｈｅｒ
新種
旧姓
集権
困難であった
倫
旧道
欠損
貯蓄
町人
新編
トッド
由緒
鉄製
##塁
城塞
娶
##ソール
##ｎｅｔ
梶原
クラウス
号した
拘置
##易
ナンシー
国債
大晦日
談話
ａｍ
儒
引き離
レポーター
バッド
湿潤
板垣
画風
抑
吊
城下
相棒
下町
チャック
##ストゥ
##尹
内臓
ゾー
三鷹
ＴＯＰ
傾き
化物
ホワイトソックス
##ロア
##壊
ペプチド
バナ
揚陸
##錯
プラグイン
##Ｗａｒ
##侠
##ＮＣ
オホーツク
３０１
バドミントン
あっ
##蒲
##リート
コロコロ
類別
##ウィック
Ｉｔ
##らう
長島
５．５
近距離
三陸
札所
主眼
欲望
つう
殉教
##幌
パナ
##ｉｃａｔｉｏｎ
##蹄
##Ｍｏｒ
購読
ノーマル
あわせ
ＫＤＤＩ
自爆
スマトラ
##クライ
投じて
ビルバオ
巌
パプ
##ミオ
見直さ
諫
懇願
演義
サメ
##８万
相良
上奏
３８０
技巧
##レク
ジェフリー
めざ
社屋
セネガル
ＩＡ
ギャラクシー
隠蔽
慧
音頭
##ルカ
パドレス
ペンギン
放電
想
賃
##入れて
ＲＡＷ
破門
次作
##ログ
正教
狭山
##渡した
##ＰＩ
しめた
僚
押さえ
ニューハンプシャー
##張って
正史
就業
戻した
立山
皇居
##ＧＳ
すずき
桟橋
水色
一端
様々
１７９７
ラインハルト
巻末
いさ
鶴田
∞
##篠
##クラン
ネッ
重合
穀
１５４
旧名
##ドキ
フレームワーク
ブースター
アルビ
おい
携行
敷き
出国
ＩＦ
岩井
##稜
狙わ
ロイヤルズ
大勝
ａｒ
ばし
１，３
##リアム
##カース
職種
公論
鞘
肩書き
伝わり
##フォート
フリッツ
シンデレラ
吹く
##Ｕｐ
##ヌイ
祀
大胆な
活かし
##なう
つくった
冬期
蔑
##ウー
Ｐａｕｌ
助けて
ＴＩ
##付いて
##ＮＡ
ばかりで
萼
柳田
関口
昇級
破滅
##ＮＩ
試みて
##脳
スバル
現す
##カビ
ｌｅ
置き換
随一
ガイウス
かぜ
杵
パウンド
ｈｐ
ストーンズ
原文
##ＣＯＭ
なぎ
空輸
信夫
ＪＵ
##霞
押して
迷い
石見
##淳
十八
小麦粉
采
メド
##韻
エリオット
##Ｂｅｒ
番頭
払い下げ
σ
上皮
カント
濃縮
浩二
ログ
女房
ベネディクト
着実に
##タゴ
ポーター
反戦
##コット
下宿
ダンカン
モナ
出せる
気づき
##ｓｔｒ
１０億
盛んで
バーンズ
ハングル
##ＦＲ
ザル
アブラ
中庭
##グラフィ
分けた
掃海艇
##ｔｉｍ
受精
ボスニア
重慶
区切り
全軍
安房
施して
##新田
カステ
北山
ひどい
##ＴＩ
帝京
慶喜
##臭
ギムナジウム
スタイ
ストーム
誘惑
##１．５
実情
ジョンストン
プライバシー
局員
キルギス
菌糸
##リアヌス
打上げ
##ａｕｒ
##働
ウェア
丸の内
津島
Ζ
税関
背鰭
版権
マート
ナショナリズム
速射砲
下段
めっ
乱れ
どんどん
ポッド
兵科
国税
ゼネ
ブロン
トラス
レギ
勝山
##ＡＳＨ
##Ｓｃｉｅｎ
了解
空調
##トキ
曲輪
宮沢
酢
１７８７
概して
恩師
Ｍｏｒ
治承
##いろ
ドレ
グルコース
##ニョン
論じて
見つかり
デザート
銀色
災い
高裁
ディス
がたい
##マックス
発火
隠岐
短波
##ジス
中興
明王
トスカーナ
神官
Ｔｏｍ
アーネスト
ストライカー
据えた
ＢＥＳＴ
２２５
ウミ
サンライズ
Ｉｓ
##ｏｕｓｅ
恩赦
覚書
がって
##ベルグ
解離
トランスフォーマー
叱
みの
ハーバー
##没
品目
追随
景色
##ブロー
参道
部類
負けて
収拾
後醍醐天皇
モデ
経って
治虫
##維
かから
仕掛けた
小作
##メネス
##リスク
##ティーナ
##デック
Ｊｏｓ
美味
クリーン
峯
違憲
完投
ＸＭＬ
ラト
Ｊｅ
##ｐｓ
##ａｔｅｄ
華北
福澤
##スィ
普通である
慎重に
##拠
オリエント
彭
マグマ
ローター
ｏｎ
中性
捻
４００万
２０３
波及
文帝
ＦＯＲ
酒場
##付く
現し
小国
##ヴァール
浄瑠璃
たら
ホノルル
なおも
##ｒｉｐ
キャリー
てんとう虫
始末
狂気
##様に
##ｏｕｇ
身近な
グン
##穏
##ＩＫ
ＤＩ
１，９
ワトソン
楽しんで
##ピック
サンアントニオ
数量
##ｔｉｆ
##悦
延岡
スリップ
イネ
線維
しょく
栗田
幻覚
白黒
２・３
イデアル
因縁
膳
ウガンダ
石山
衣料
随伴
中井
アーロン
##バチ
原曲
ボッ
##フマン
スクラップ
チャーチ
##ｒｉｂ
控えて
サルデーニャ
ゼミ
チェリー
博文
##Ｎｏ
断崖
##ＣＢ
##うた
予科
蒙
恐ろしい
王太
更迭
軍服
火炎
面々
眠る
##ゼーション
日置
病変
高度に
磁石
留まら
##ハリ
召し
##ｏｏｔ
転勤
当たら
宗像
メドレー
ワンダ
今村
少子
Ｉｍ
ロバーツ
キッチン
##グラード
１３２
１５７
漱石
退化
耐える
嫌わ
絶版
真似
づらい
##そり
都城
熱心
割に
すっかり
続投
前記
謹慎
##越した
阻
瑞宝章
イーグル
合図
髭
湧水
光度
##れよう
##りな
私的
年鑑
水原
飾
主戦
献呈
頒布
尾上
##棋
大幅
エレクトロ
長屋
申し立て
鋼板
遵守
長政
グアテマラ
和声
ボケ
ストレートで
強奪
##ンドン
ＳＴＳ
##遼
北宋
##鵬
われわれ
ソクラテス
云
大竹
モレ
リニア
##酔
配位
マスカ
##であれば
陸戦
取り戻し
ポータル
乃木坂
##麦
２．４
##Ａｌｌ
辞め
ハイビジョン
##メア
転封
勝て
山荘
蟹
マイヤー
ＵＦＪ
龍馬
##トゥール
入間
げき
なぞら
パラシュート
シンポジウム
心地
扮
ヴィオラ
スチュアート
ノズル
つとめ
ＷＣＷ
ｐｒｏ
##扇
ブリッ
煙草
##コーラ
助力
１７７７
正方形
##ールー
家柄
靭帯
##傘
夏目
ｍｌ
##ブルー
限る
名勝
親和
黒部
テラス
オニ
義兄
呈して
神崎
台帳
亜熱帯
努めて
##明に
プリンター
爾
##他
アンドレイ
メイキング
並べる
ダイアナ
拝謁
純正
市外
スーザン
##しり
##オレ
##ッション
##Ｐｒｉ
支隊
アリア
クリニック
葺
スクリュー
促した
嫌気
##違
酒田
懲戒
フォルクスワーゲン
松坂
##ス１世
シャイ
ユル
馬術
配管
表向き
洋子
山車
Ｕｎｉｃｏｄｅ
許諾
ブタ
φ
上梓
売り場
ロッカー
体温
ＦＯＭＡ
主幹
##Ｃｏｒｐｏｒａｔｉｏｎ
バスケット
ベイカー
臭い
藻
ギブソン
裏付け
偶然に
コンバート
亡き
##Ａｇ
水蒸気
衝
フィーチャー
軽便
抱えた
兼用
フッ化
##ムント
ありがとう
捕捉
飼い
兵隊
葛藤
ローリー
蒙古
ＭＳＸ
能楽
バングラデシュ
##シュト
##鉄道
厨
##倒
鴨川
木更津
石高
Ｓｔａｒ
コロンバス
富んだ
包装
コンテ
観世
豊中
達人
陸海軍
抑止
自走
爆薬
吻
なかむら
全焼
##たか
ホルシュタイン
##逆
自重
応え
陸路
杉本
##坪
学歴
慣性
異論
頼る
本宮
Ｍａｇ
クィ
頭脳
##牙
びょういん
カレン
マクレ
##オーン
##ヴォル
議定書
変態
父母
永遠に
県庁所在地
インターフェース
ヘロ
アケ
上山
##Ｍｅｄ
##帰
フィリ
待合
##ネーション
似る
ミニチュア
医院
土産
ウェイト
##ＢＩ
慶安
Ａｕｔ
##ビッチ
エセックス
ブラー
立派な
アーベル
しく
壬
スライ
行き詰
沿う
柏原
ヴォルガ
疾
片道
中傷
プレイステーション
半田
メタン
オーディ
Ｃａ
引き取ら
座長
生田
カプコン
##Ａｂ
ベストテン
マガ
微妙な
##ナルド
##ＴＭ
##Ｏｎｅ
ホープ
##簡
ロベール
排斥
##裁
##礫
遊泳
##懸
ｐｅｒ
８５０
駆けつけた
沿革
稼ぐ
耕地
退陣
##トゥル
行幸
##Ｃｏｍｐ
ディヴィジョン
##深く
帖
巧みに
全高
２５．
なみ
１２，
##トマ
##Ｓｅｃ
酷評
快感
接点
消去
探る
臨済宗
##だし
##ｍａｔ
銚子
厚み
妥当
七尾
精通
渉
早速
##づけた
シェイ
クリスト
スタッド
##礁
山西
綺
入れ替わる
ギネス
伸長
止まった
ツイッター
図案
楽園
引き金
レギュレーション
架空
１８８
カンパ
レナ
捕え
##２，０００
小坂
十五
発芽
台所
ＷＲＣ
##ｅｚ
##皇后
東大阪
儲
チャイナ
##尋
荒野
考証
護国
新町
ジュリア
呉服
水兵
ハンナ
##拍
明応
会津若松
返事
Ａｇ
リヤ
シム
１３１
##しも
炒
高揚
国学
##ガタ
共役
絶頂
直近
##疑
題さ
ケイン
ガッ
カルチョ
##ックル
ニューカッスル
##ａｕｓ
平坦な
振ら
菅野
弁論
双対
カルデラ
師管
##ＵＢ
##マルク
三条
##ズマン
ラザ
盛り上がり
文様
材木
ヘレン
嫡
ざい
中南米
忠実な
モンタナ
止めて
叩く
カリー
##譚
##狩
強打
手話
ブラームス
バスケ
イザ
技量
オム
検地
先天
電解
はつ
ブナ
##ルソン
脆弱
取り除く
因幡
八千代
後裔
Ｎａｔｉｏｎａｌ
絶え
##ＮＥＴ
エドワーズ
２０２
間違って
こなして
アルデヒド
湿原
ポジ
##モル
##がす
##ランズ
じろう
房総
ヴェーザー
店主
取扱い
クイン
身延
悟り
ペーター
歳月
うけ
敵機
曙
まこと
##是
##ッピング
１３４
刻印
范
コンシュー
イヤ
法的な
##ムソン
発給
粉砕
狂言
命ぜ
##チャーズ
##アカ
##蕃
論説
Ｐａ
目の当たり
交尾
国文学
岸田
マグネシウム
重き
ソルトレイク
清和
９０００
手首
応じる
Ｐａｒｔ
斧
##リーヌ
スピリッツ
遠州
エイベックス
なな
アイザック
１３３
６．５
日田
はずだ
##之内
##パック
脱却
Ｃａｎ
おんせん
トルーマン
##サイン
大家
##閑
遅れる
太く
１７８８
障壁
開城
ＮＡＳ
トリニ
エスパ
##きる
退院
寓
音韻
##バク
延びる
７４７
載せた
強襲
水温
##テンベルク
ヴァルター
ノルム
罹
護送
衣類
蕎麦
##の間
開祖
##優
農作物
史書
ステア
塗料
酒類
##ヒェン
赤羽
##ディッシュ
廃位
##インター
公然と
防水
美学
抑留
和夫
稲作
式内社
ＵＴ
##やかで
##ａｍｅ
タップ
最長の
競い
ニース
降りる
必要であった
煎
造詣
没頭
張ら
いくら
拝殿
ヴァレン
逃げて
後悔
みなして
シマ
ＯＬ
総じて
権益
Ｗａｌ
サムライ
ロム
##ｅｎｓｅ
シルエット
##確
法曹
総局
皇太后
Ｇｒ
レイモンド
##ストレーション
１７７８
バプテスト
世子
多種多様な
追討
典礼
立ち向かう
##ざん
##銀行
転じる
朝貢
##隈
近づ
ごとく
１６１５
投じた
イエメン
##クマ
２，５００
渋川
火口
##障
惜敗
佳作
リウ
##張る
抜けた
榎
##ウオ
熱田
##しな
活かして
家紋
##款
絶えず
枯渇
しめ
##ディウス
白書
シク
横手
宛てた
##痕
##わさ
モーリ
塩田
大岡
患って
夏期
ルソン
着る
つり
１７３
スイー
実物
国策
１７８
拒んだ
セネ
２４．
頼む
口論
##ｕｎｔ
セナ
義父
天龍
直ぐに
異説
##まち
##Ｇｒｏ
フーリエ
模擬
院生
ＦＮＮ
取組
有効に
ウィリー
マッサージ
##ドゥス
##チャイ
由良
国技
サリ
１６１
交えて
深めて
š
画素
喚起
ドラゴンクエスト
ひろしま
長田
宮島
ＳＴＡＲ
配役
##縮
バルバ
##八郎
道教
眠って
クライン
１９５
##サロ
##組み
カッコ
インディー
##ノル
##新世
１３，
田島
分枝
##ＤＩＯ
ハロゲン
１６４
ウェーブ
簡素な
連打
ガウス
ものがたり
##桃
##差し
博し
リザーブ
祀った
Ｃｈｅ
戻ら
真偽
嵩
ナラ
グッ
中曽根
手榴弾
ダイヤル
##ハート
構
スパイダー
徴用
##ｂｕｒ
臨界
舞い
下って
焼却
治める
橋脚
頭骨
溝口
バーク
##太夫
スティック
だらけ
歪み
合奏
２６．
銃殺
１９３
斜めに
会って
ソリューション
吉宗
低音
##Ｄｅｓ
創り
是正
償
ＮＹ
留意
ラッキー
達也
成城
片手
遼寧
緒方
卵形
パラレル
アルゴ
ちろう
マグニチュード
ステート
螺旋
ｂｊ
ともなう
本位
有楽町
##タラ
座り
農協
刷
こむ
ヘビ
しお
##ＷＯＲ
尽くす
ゲッティンゲン
##海峡
ビジター
錬
ペイント
##ú
診察
##単
利子
##ＡＣＥ
スケー
発せ
１５０万
防具
吏
ロックンロール
和彦
義満
##韓
禁煙
誇
ロコ
##１，０００
ゲーテ
##せよう
刀剣
Ｂｅｒ
ニューズ
ＴＡＫ
##去
キリン
家計
献金
##上がって
##ットマン
内村
重役
嗅
マシーン
痩
リバイバル
蝋
喫して
##バース
乗換
##Ｉｎｔｅｒｎａｔｉｏｎａｌ
移譲
００７
翻弄
##融
球形
##．Ｓ．
交わる
リサイタル
##濠
布陣
##ラジ
多田
切り離さ
##ｂｌｅ
招致
シウ
##バレー
プライド
左遷
根室
##ターゼ
見返り
##ボード
一同
カノン
アソシエーション
##菓子
分立
大豆
準じて
エグ
##ジット
たなか
##帥
罹患
レスター
オト
やろう
証書
錯体
##ゃく
阿南
グラフィ
##丞
ゆえに
現像
喜んで
打開
ざき
停電
后
売って
##ＷＥ
##等な
ブーツ
ボナパルト
カメルーン
イヴ
権勢
##レッジ
##又
崩し
児島
急襲
井伊
##ｃｔｉｏｎ
ＷＨＯ
ミーティング
##ａｍｉｌ
壮大な
##忌
##じった
その先
レジェンド
ゲームス
プーチン
エンゼルス
孔子
兵站
紹
ストロング
ハーブ
その分
##üｒ
##スー
##畳
絶た
若林
##エンヌ
疲れ
入れ替わり
音域
ヒマラヤ
エミ
リーズ
ハープ
##ＤＢ
賛美
##ホーン
新鋭
##負う
嫌う
国力
刈
##んじ
アクセサリー
慣れ
安達
大乗
##テレビジョン
贅
##濁
##解な
がら
国庫
##勅
##１０００
馬券
設
別所
荷役
オーソ
##ヨシ
カリスマ
但馬
操車場
個数
目立ち
##概
##とし
ソーン
武雄
##アレ
Ｓａｍ
ハイキング
##ストル
立証
三成
実演
噛み
##ｄｅｌ
総集編
テュ
正常な
##ソーム
アッバース
砲火
捨てた
トライアウト
マッカートニー
粛
日本銀行
##ティーン
討た
止まる
山県
数えて
閉じる
追走
##シズム
##脚類
##直す
謳わ
##ティカル
やまぐち
禁酒
トーキー
黒木
ロワール
ヤコ
遭った
ガム
殺菌
アウトバーン
カヤ
##ＩＣＥ
容易な
併結
ハド
綿花
わざと
空想
##ｔｉｖ
クリエイター
マウンド
被覆
飢餓
砲艦
ジェシー
包含
流した
ロイヤ
勇敢
弟子入り
家元
パレス
円柱
角田
患い
ｇｌ
ホーク
ルビー
民話
##勒
タンゴ
奥田
##究
断熱
断って
無期
ボンド
##ローグ
##＠
##ｄｅｓ
##喝
##ＢＲ
新春
全羅
Ｓａｌ
あったり
マーカー
機運
π
浴びて
拠
不可欠
鋭く
朱印
せかい
偲
コンラート
込める
拠出
塹壕
スティー
唱えて
##げき
##百合
最適な
ヤギ
強め
失効
##キーズ
迫り
ن
ジュリアン
赤ん坊
大当たり
単装
１７７
戸惑
名護
決裂
フラッグ
魅了
ハンニバル
##骸
養嗣子
索
墨田
在り
##ＩＣＡ
セレクト
チェンバレン
気に入ら
深め
##謙
夷
##ナント
武徳
川辺
搬入
容易で
五十嵐
とっ
討つ
ヘンダーソン
脚部
##めれば
給食
タモリ
順で
##ナガ
##宜
徽
おび
陶芸
皮質
１９９
候
緒
けいさつ
動いた
スタンリー
上半身
##惑
エリス
ピエモンテ
石材
##媒
勉
スモ
口語
弘仁
写し
##ｉｃｔ
本業
バースト
変電所
パープル
##寄せる
仕掛ける
中年
懸賞
##リスタ
オーランド
ｋＨｚ
ｐｓ
比叡山
担い
２５万
丞相
±
樋
ｖｅｒ
成都
見つかる
##いつ
ソヴィエト
盗ま
ＴＷ
採点
打楽器
ｂｉｔ
##ストス
絵図
如く
##ＡＴＡ
処遇
##ａｔｉｖｅ
振り付け
１７７０
##歳
##７・
川田
扶桑
ラウンジ
##旅
ウァ
球技
繊
戴
堀田
##ヴナ
ジェネラル
ブカレスト
##マネ
連座
##漫
##Ｄａｙ
別表
汪
締めく
##佑
４８０
漏洩
##ハンド
彫像
魔神
##ｋｅｒ
アウディ
４．０
蚕
考えれば
暗く
並べた
１７６３
不倫
ゴルファー
白馬
シュタット
##巾
東條
##旦
許して
リップ
##着く
斬新な
##クレア
こうじ
８，０００
２７．
キャノン
ミネアポリス
道筋
罰則
Ｉ．
止めた
祝賀
しめる
宇佐
進攻
ソチ
縁組
作法
ザウ
調味料
##允
Ｐｏｌ
牟
##しんだ
帰依
##苦
事物
##ノウ
振幅
あふ
ソリ
罵
帆船
##クソン
##ラージュ
湾曲
前照灯
１７８２
インターセプト
こころ
では
暴風
沿道
##大で
自粛
##やき
斬首
憑
水辺
庶流
村民
暗示
メカニック
鷺
創世
アナポリス
塩分
個室
詳述
##百万
##壺
ごみ
##ベア
ブレスト
##餅
少々
##ミュー
１６７
隔週
先手
健二
ガンバ
ワッ
量販
昇降
宮田
潤滑
死神
飲
丸亀
##非
題する
シャシー
##拓
滴
漫
張った
Ｓｏｌ
１２９
コンスタンティノープル
ホーエン
ファントム
腺
姚
記法
##チコ
同母
４分の１
トロンボーン
##ルイ
定量
複葉
抹殺
走塁
Ｄｉ
##効
##ベリウス
キャメロン
官能
竹島
ソード
引き続いて
ＣＶ
##鱗
本間
陶磁器
ジャンボ
Ｍｅｒ
##Ｇｒｏｕｐ
０．２
##オキシ
憧れて
##稚
ヤコブ
おもな
イナ
ソーラー
##つみ
##Ａｓｓｏｃｉａｔｉｏｎ
北原
分水
久慈
コーポレート
自白
図面
窺
故事
大宰
##促
きょ
月額
しば
垂直に
火砲
海浜
アドバン
撤収
楢
##コモ
見積もら
##直な
文筆
欲求
エラ
抗生物質
申し込み
プラット
１７２
入局
##イェ
##ベーション
##舷
害虫
##止めた
やめて
##シード
重大
小売店
バンパー
寝て
応えて
緩衝
カーティス
精錬
アイリッシュ
備わって
箕面
歯学
引き受ける
ビニール
アノ
ホリ
トレーディング
１７８４
降着
##馬場
カヌー
ウォーク
邦楽
駒澤
直進
##ッシー
初動
##ｕｒｉ
坂東
今や
##マト
根強い
赤旗
ｕｎ
ＷＡ
古参
##ウォン
１７６
おしゃ
県議
##ｏｔｈ
##ＵＤ
アブー
京大
獄中
細かな
答弁
作製
養蚕
体当たり
４億
##ところ
何ら
鉛筆
柳生
主計
バタ
トッ
三和
街頭
万能
##需
ダルムシュタット
Ｄｏ
便利
英題
##エイト
リンチ
堀内
ララ
多元
##ＡＴＥ
文教
手元
肥満
館山
うかがえる
真面目
##ケス
コスタリカ
パレルモ
カンバーランド
ラプ
于
マロ
訴追
択
Ｇｉ
##ａｐｐ
Ｒｏｃｋ
バレル
##アシ
ジャコ
##アマ
何れ
変装
暮れ
挙行
##燕
触手
渚
Ａｖ
低速
##落とし
エフェクト
##Ｓｕ
カネ
アルテ
捉えて
##ＬＰ
トゥール
ベルン
１４３
直角
かった
四谷
尻尾
経る
忠臣
アスキー
叙勲
湯浅
##インド
リヒ
当然の
##ａｎｇｕ
Ｔｅｒ
換えて
便器
##キスト
大館
承和
外す
産み
単数
##レンジ
オリバー
ペレス
パルプ
コミッショナー
防犯
##ｏｌｆ
浪曲
##奴
巨額の
山道
拍
Ｄｉｓ
殴り
##ブイ
ほし
##ｕｆ
林家
##盟
拍車
摂関
スカイライン
太宗
確かな
エマ
店長
生き物
Ｍｏｄ
キープ
##腐
##ネズミ
マンガン
##グナー
夭折
漬
払って
球体
伴った
文句
算術
預かり
水運
高瀬
らしき
口頭
桑原
済州
ジーク
Ｌｕ
強めて
Ｍａｃｉｎｔｏｓｈ
荒井
##ンドゥ
レッドブル
手書き
##ｉｅｄ
一部分
##慈
明代
アウクスブルク
返り
##メタ
Ｄａｖｉｄ
読み書き
物議
配電
キャプ
拿捕
##嫌
##やり
刻み
コト
包み
##００キロ
紅茶
且つ
##将軍
##アク
１３７
創価学会
神風
マルチメディア
クビライ
ウェー
おこし
##充
##残
貞治
義弘
推察
Ｐｅ
謁見
吸着
宮司
全通
京城
コスタ
杭
正保
##淡
##ｉｏｒ
張る
劇的な
問い合わせ
りく
叢書
恵比寿
起伏
梓
遺骸
##グレー
大學
ルナ
１５７０
##山田
組立
##セブン
阮
執権
マーラー
関門
吉井
##ＰＨ
ＴＯＫＹＯＭＸ
コバルト
送還
高座
行け
ＲＢ
健全
フュージョン
マッハ
##ＯＭ
堕
朝刊
##しんで
スナック
小節
ワープ
論議
作ろう
ＵＨＦ
早大
外洋
メディカル
替わって
明確で
アンドレア
##オット
共催
衰弱
オーシャン
挟
嗣子
述語
ケイト
公会堂
討死
ヴィクトル
原材料
海流
北畠
##劣
遺品
酪農
バーモント
手記
##でる
焼く
すごい
手掛け
バーガー
繰り上げ
倍率
ハレ
国別
##公園
心情
ティック
汚れ
営ま
##アフ
ルッ
休息
シリコン
エスト
フォスター
延びて
弧
Ｐｏｗｅｒ
##Ａｃ
暴れ
人身
叩
利権
暇
##代わり
Ｒｅｖ
町並み
オタク
残高
４ＷＤ
リッター
漢詩
地所
弁護人
古田
Ｐｒｉ
手がかり
スッ
アレキ
佑
慶尚
格式
##Ｄｉｓ
戒名
##ｅｎｓｉｓ
デュッセルドルフ
乱用
スイート
##ＧＬ
闘病
ゆうき
基督教
掻
完売
不二
惚れ
ダイナミック
##ｆｉｎ
ブイ
ゴア
配送
習志野
必要だった
凝固
タブー
安徽
##ＭＦ
クレア
取り消さ
入校
励起
匂い
勅許
堕落
ハッシュ
##バット
三十三
踏んだ
芳しく
ニカラグア
１３８
あふれる
##Ｍａｔ
ジェイアール
##Ｓｍ
国人
尋ね
豫
##ｕｃｔ
連星
ヴァージン
賞品
ＸＸ
純粋に
##５億
ハント
誓う
五男
根元
Ｐｏ
##意に
上顎
かっ
釜石
##ｗｏｒ
##葉樹
東宮
アブドゥ
きって
ＭＡＲ
倣って
敢えて
２．２
働か
方伯
ドラムス
１７１
塩谷
白地
安城
μｍ
コナ
相応
ＳＷ
ｉＰ
わたなべ
レトロ
沈んだ
所見
##譲
##まれ
ポッ
賄賂
どうして
##レイク
嫡流
準同型
事案
##ニシ
Ａｉｒ
宦官
がり
光合成
武漢
ほり
##藝
忌避
五十音
##ｏｖｅｒ
##チーニ
##ヌール
引き渡し
秀雄
低木
金銀
大泉
##ＡＲＡ
１４８
##奨
手持ち
##りの
障
タナ
訪ね
カオス
がい
噴水
官人
簡潔
換気
##生代
崩落
焼酎
##Ｂａｓ
緻
あさひ
総勢
##粛
レオポルト
和尚
めぐ
カト
ｗｉｔｈ
思え
プリー
転機
修得
終端
##疫
バグダード
ツッコミ
##拝
##ネード
再任
期日
久喜
ラッパー
アーティ
ＳＧ
カテ
増進
##ＳＶ
##ノイ
##潜
オシ
３７０
１５，０００
スカー
瀕
気づか
郵船
好きだった
##ｉｎｎ
##Ｅｍ
稀である
八重山
小原
病状
自給
##麺
##シーニ
１８９
トリニティ
贈り物
終止符
フィナンシャル
クロン
##ニエル
見物
樹皮
評定
常盤
寄せる
直感
電球
毒殺
ぐる
レナード
支庁
春日井
チェロキー
有能な
いざ
加筆
ケガ
せっ
パティ
ＡＵ
##スパー
輿
晋三
##触
飼って
出そう
安東
セルジューク
絡む
中津川
Ｊａｍｅｓ
下地
##ＩＮＥ
譜代
##カド
弾く
北朝
臣従
スチ
おじ
精鋭
##トナ
##たに
ロマー
県連
時効
日の出
１９６
増や
おまけ
予期
アゲ
##ヤシ
##ップル
大々的に
マチ
不評
防火
１４２
リボ
居場所
水冷
##ローナ
チャレンジャー
最良の
##シュア
Ｒｏ
上村
まとまった
教学
ナビゲーター
ボトル
だれ
滑らかな
##チョン
組閣
都度
Ｒｅｄ
杉田
シェフ
１７７４
サイコロ
アクシデント
藻類
連戦
血清
##とした
感知
あちこち
庄屋
突厥
進捗
新旧
味付け
シュト
バニ
ファラ
藩校
キャニオン
砂岩
ロケーション
枢密院
##Ｎｉｇｈｔ
短絡
瓜
土星
廃城
エリーザベト
ビザ
負け越し
フィッツ
矮星
再三
心霊
険
飢
ギニー
困惑
２０，０００
生い
従者
１７７２
大隈
カルボ
芭蕉
イブニング
##フレンド
来航
立て続け
擁し
朝食
隈
綱吉
憎悪
劉邦
##なって
Ｇ．
千種
##弐
サバイバル
マドンナ
##缶
定例
満たした
総武
静かな
##バトル
無関係である
##ＴＯＵＲ
##Ｖａｌ
吉祥寺
ディエゴ
成瀬
浪士
刺客
レム
##ＶＣ
球界
ピカ
##正に
ウィズ
##ケ谷
扇動
そび
召還
Ａｓ
北島
Ｖａｌ
１７８６
##かである
##ニーニ
発券
下山
ブルージェイズ
バビロン
黄河
能代
##之丞
責
リャ
トランジット
迅速に
ジャーナリズム
و
塗ら
アルペン
２０４
曝
キャッスル
##ビーム
園田
ＷＡＶＥ
##フォル
硝
赤ちゃん
発声
適時
競泳
##なた
化して
ＲＡＭ
##ＧＨ
シャア
リク
ｊｐ
１８１
スタニ
殖
自民
１６１４
特製
##様な
狭軌
成就
##度に
豚肉
プレスリー
スポン
然
苦し
##Ｐｅ
はずである
球状
協和
##Ｐｒｅ
スロープ
贈った
##亡
ウラル
到
覇
財宝
揉
バーレーン
僅かな
ルイー
##昔
格上げ
##埼
疑う
##みこ
キリル
浄水
ミュンスター
一群
集大成
##ｅｎｔｓ
いしかわ
出頭
大船
ＳＰＤ
不能に
シボレー
側窓
プラグ
##錠
Ｆｒａｎ
Ｂｕ
測る
クララ
聞こ
バレンタイン
インターコンチネンタル
穏健
とにかく
覚えた
ハイランド
たかはし
対人
剰余
促
０．３
加納
##ｏｎｉｃ
はめ
ともなって
上川
##げたり
各自
さなか
ストリップ
すき
香料
歌川
リエ
##Ｓｔｕｄ
チームメイト
往年
報知
１４１
改選
シンセサイザー
陝西
##ＧＣ
ＢＡＳＩＣ
ヴァイキング
山野
長大な
占星術
宅配
妨げる
否認
##ローレンス
散在
##プロダクション
##ｏｕｎ
##窟
榊原
##厩
ノッ
天和
巡視
十和田
ａｃ
##１０１
##ｏｓｓ
風貌
詰めて
本能寺
復権
１７７９
コックピット
鉱床
##アラー
スピリ
##アルド
ホロコースト
ウマ
プルトニウム
敬遠
##カンド
宇喜多
波形
粘膜
争
すば
はさんで
タコ
##被
##ドミ
宛て
払わ
インタラクティブ
適さ
色合い
日大
小諸
単勝
ルキウス
ロド
安楽
地検
##酷な
承久
レシプロ
最初である
総当たり
帯びて
特任
若宮
難色
マラリア
御殿場
##璋
ノック
デラ
あた
ハンデ
ピストル
新道
ر
台座
鹿屋
軽視
トゥールーズ
タイラー
ローラン
共謀
##二位
過疎
下半身
##趙
渡して
衣笠
##Ｓｔｏｒｅ
##ハナ
##ネシア
志し
新選組
オフェンス
##蒙
本当
溢れる
損壊
ي
##祀
中腹
１３６
１７８５
惹き
ジャッ
イワン
クリストフ
１４，
壬生
干潟
焼か
タカラ
##ｒａｇ
##フリ
聖霊
毛色
昆
##めば
伺える
生業
##Ｅ．
ＨＩ
川本
迷宮
丙
門弟
##ＧＭ
##Ｍｉｎ
さっ
エディタ
２９．
Ｂａｓ
ナム
不定期で
運んだ
##ヌム
パターソン
閻
製鋼
サヴォイア
またしても
塀
屏風
書面
アダムス
ブルックス
ＮＧＯ
ヴェネ
特派員
開講
っ子
下総国
義貞
擦
風邪
橿原
ピック
健在
焼いた
廃さ
糧
分派
前向き
##バルド
上官
音程
ファウル
苦しめ
察
据
備後
債券
列伝
リカルド
アロンソ
盗難
ランドマーク
ジェット機
メビウス
揃
アンデス
またがって
こういう
トライアングル
名家
リーダーシップ
ファルコン
貫いて
１，２
##Ｔｅ
極真
性交
ｒｏ
Ｔｗ
格段に
Ｅｖ
年号
漢語
セール
外資
##ヒョ
ミカエル
ルシ
威嚇
２０６
##十九
ウォッチ
守山
渥美
鰭
##調な
もろ
住まい
固める
アニー
ＯＰＳ
賊
高次
非公式
３６５
斑点
##コメ
##áｎ
１４６
若葉
温暖な
つぎ
ホイットニー
##Ｈａｒ
みせた
ＦＯＸ
##おい
催眠
怪奇
恵那
##コト
メキシコシティ
##爺
##ｏｒｓ
##ブルグ
エーテル
留め
懲罰
試運転
##セミ
ＣＤＭＡ
##テーヌ
領民
年表
前例
新年
散逸
コンベンション
Ⅱ
いまだに
##マート
##メリー
ＮＨＬ
##ゲナーゼ
別物
１５９２
一途
断裂
パド
同好
明暦
##ボーイ
ヒラ
処さ
交わし
##シロ
欺
正宗
##ギュ
造る
単離
抵触
日用
##Ｓｋ
下がって
引き下げ
優れる
誇張
下痢
音符
モザンビーク
ともども
神職
取り消し
##精神
染め
中級
リト
ラファ
##プレイ
##ＶＩ
未婚
稜線
##Ｉ．
摂食
錫
電停
秋葉
ＧＵ
ひたすら
尋ねる
末寺
ｖｏｌ
スマイル
ロレーヌ
ヤル
女装
##プレス
北伐
魔力
霊園
アストロズ
口実
関所
マンド
パルティア
義政
朽
引き出す
##ディル
入籍
献身
遺作
マリオン
イケ
ハーレム
##るべき
ヴィット
ＴＮＡ
攻める
オクター
拳法
無実
スラブ
終生
帰路
河畔
##超
町制
ムーブメント
ねこ
和風
##穏な
モルガン
そうして
公用
置き換えた
鬼太郎
エノ
ムニ
##かしい
##テナ
ＳＨＯＷ
ゴリ
擬人
遺児
ユニバース
眺望
正門
燃や
うめ
２３５
捻出
ボンネット
コマン
呼びかける
##トゥン
ミッドナイト
##ｏｒａ
値上げ
適性
白星
##タイム
なったら
勝頼
ＤＯＨＣ
開国
##トロー
##デリー
蓬
遊んで
##ＣＧ
たまに
ストラスブール
何より
アフマド
滅ぼした
公主
根源
ケニー
##透明
ガンガン
清国
大永
ローランド
元町
自我
確か
素顔
マーリンズ
##ヴィング
遙
九郎
##デリック
覆って
なんか
##ｐｒｅｓ
浅く
容赦
催し
ネプ
ＧＨｚ
和子
カストロ
江西
横領
##Ｍｏ
エコー
##ジュー
##討ち
輝元
アミン
##Ｐｏｌ
にぎ
##ＬＯＶＥ
大黒
殺傷
フロイド
渡船
費やした
ぬいぐるみ
段位
庸
割った
クレタ
コネクタ
##ｅｒｏ
現した
１７５０
##サント
呼べる
ディナモ
ナンバリング
揚げ
オマージュ
裁量
アレクセイ
６００万
新入
見地
##ガウ
納付
ピール
チャド
在京
##タージュ
食器
大門
訛
ｎｅｔ
コープ
役名
混ざ
毀損
筑摩
天武天皇
もとづ
アルフレ
ウォリアーズ
##ーノ
タミル
舎人
漂着
##飼い
##響
##テア
資質
玄武
##ＴＢ
見張り
疑念
ワイオミング
ぼん
ｓｅ
##ｒｉｓｔ
願って
刺さ
า
入道
毎日新聞社
ブルネイ
##ワラ
琵琶
北周
揃い
勲一等
##オク
Ｐａｌ
将官
気づく
スタンレー
ぞく
私設
紛失
結節
##Ｉｎｓｔｉｔｕｔ
敵国
見かける
##近い
##レイン
リンダ
ＨＲ
分館
ライブラリー
タンザニア
芹
米原
やってきて
河村
エイズ
オフィ
ブリティッシュコロンビア
自筆
忠告
##っ子
潜り
##セリ
克也
列記
鯉
１６４８
頑丈
錬金術
写実
##ｌｉ
電通
キャンディ
取り付けて
裴
国章
プッ
大邱
##ファク
コネクション
プログラマ
横行
城南
##シャール
盛り込んだ
ワト
##ＹＡ
##提
神格
行ける
クレイグ
ＪＦＡ
３５００
ブリーダーズ
括
ゲッ
揖
根幹
染料
##Ｕｎｉｖｅｒｓ
浮かび
インストラクター
弾倉
システムズ
##衛門
バスター
ハガキ
Ｓｉｌ
山寺
常緑
新発田
加法
##鋭の
弊害
ホビー
絵巻
密閉
横穴
跳躍
西成
##ブルック
##ナギ
厩
Ｃｏｍｍ
１７４
引き受けた
##壮
配した
コンチネンタル
##ＢＴ
みたいな
##ＮＨ
脚光
フェリ
譲歩
##つぶ
##爪
内裏
新装
ファイア
人脈
健全な
雑音
ＰＨＳ
アソ
##アルト
##ふく
##ゾール
馬鹿
##ぐん
村井
浦上
われ
行き先
矢作
つもりだった
ひとみ
春樹
増やした
売れた
エキストラ
トムソン
数えた
はじまる
じょうせん
アイスクリーム
プレゼン
破れ
通ら
鰓
抱か
１７６０
本種
トラクター
外して
森下
##ｏｂｅ
ミック
##ＩＳＡ
##ジャパン
真に
ヒルベルト
安部
損なわ
延享
軍法
定説
スノーボード
ＫＣ
スタンス
Ｒ．
異常に
誓約
中途
流刑
##Ｒｏｓ
##Ｉｍ
水生
##ゾフ
##瀬川
後見人
家長
ドロシー
序曲
##マック
アルビレックス
ウィレム
緒戦
ポリネシア
共済
ＥＴ
##誉
##依
インダスト
ｅｌ
汽
乃
麻呂
##ドロス
##ｉｌｌａ
瀬戸内
こぼ
守谷
トカゲ
事由
沿
任用
ミツ
石鹸
取って代わら
欠いて
コールド
伯耆
##チャク
連ねた
製材
バッティング
廃寺
天満宮
生化学
##ノート
清代
ロッジ
パシャ
##ちょ
よん
和約
組合せ
本件
##臓
書紀
ピエ
Ｄａｎ
##徳天皇
苦しんで
直接に
昇任
仕切り
敬愛
渇
カナリア
徐州
##ホーフ
露天
ヴィンセント
##戴
##リナ
タオル
小型で
退く
法師
重油
大脳
##ｚｚ
微小
縛り
相方
##マタ
懇談
憤慨
音量
戻して
同乗
身元
投じ
ウィリアムス
##紗
三河国
ファゴット
メインイベント
Ｍｏｂ
ヴュルツブルク
倒れる
一団
本能
##サック
##マク
##リフ
##ｍｕｓ
急な
青空
##デオ
７３７
サラダ
板倉
水門
ティラ
挟む
サンシャイン
トレイ
衛門
吟
##序
領海
ピラ
遺書
##巴
不備
気付き
ブランク
ニホン
Ａｎｎ
難い
##祝
淘汰
##票
足場
国務院
##ハイマー
浸食
頼んだ
ベルナール
培地
菩提
##ｒｕｓ
引き受け
宮津
接戦
##アード
##トイ
クレーム
ネク
松崎
造った
海事
ウーマン
##ｅｄｉａ
##ターレ
##高田
##田原
サーフィン
##自由
Ｔｙｐｅ
伯領
故人
融
奮
勝ち星
高円
送迎
Ｕｌ
廊下
乗せる
大口
であれ
##ジロ
アムト
ＮＮＮ
金日成
##てば
首班
賭
巨匠
デスマッチ
##ｏｎｙ
野営
こうぎょう
##ｉｓｃｈｅ
##．Ｓ
##伽
エックス
萎縮
ナシオナル
##麟
##ＡＷ
ハール
下さい
##ソリ
変容
乳母
復刊
広めた
ピョートル
交番
##Ｒｅｖ
λ
装束
易い
コレクター
労組
こっ
魚介
##ｉａｍ
##３０００
工費
蘇生
ツェッペリン
１５７３
##システムズ
新鮮な
力強い
届ける
難しかった
被って
م
末子
おろか
##乙
総体
帯同
宿場
ミロ
シャワー
##許
木版
うみ
振舞
詠んだ
捧げた
プレッシャー
##ウィッチ
試薬
稚内
最古
クス
##槌
##磐
地平
##ケーション
欠いた
呈
##ツィオ
鼠
乗艦
造幣
信憑性
##ナラ
攻めた
##墳
乱歩
ストレ
エアコン
減らして
北斉
チェイス
砂利
うけて
初音
##ｄａｙ
遺さ
配色
１６，
１５８５
Ｓｉ
植木
森本
ミニマム
朝方
取り調べ
太宰
シュトラ
##ＣＦ
健太
軌跡
原形
##メタル
ザール
重鎮
カッター
エニ
##ヘム
心中
安井
エイジ
殺戮
常温
飾って
フッド
##コング
##曇
シチュエーション
エクセ
屈辱
##尺
##ＩＤＳ
迫
寵
Ｍｏｔ
##ＤＲ
交わさ
毒素
##２０万
##ティマ
贈る
##積み
みなし
##くん
派出
拮抗
アップグレード
１９２
水流
##ウェイン
赤塚
悲願
阪和
クリケット
棲息
##当て
レシーブ
なした
モニ
イッ
##エスト
プロレタリア
クイーンズランド
寝返
赤血球
リガ
ストリーミング
ユヴェントス
幣
下がった
オニール
唱
##強く
散文
高額な
サムスン
乗り出す
##おん
ロズ
中嶋
##借
新館
##ＭＢ
ジェノ
##プレッ
磯部
ビルボード
嘆き
接地
不時着
劇的に
缶詰
オオカミ
数多い
宿営
別れた
ディアス
建久
ＳＵＶ
##産物
##ｏｃｈ
山王
イク
乗法
チューナー
ハロン
スキャ
ペスト
##ターンズ
夕食
マクド
##ザード
サバンナ
##Ｇｒｅ
ストレージ
苦しんだ
倍増
ＷＨＩＰ
瀬川
##毘
アラブ首長国連邦
ムエタイ
襲
１４７
##パール
##ｅｘｔ
イノベーション
替えた
##臨
２８．
かおり
京セラ
在地
一男
ユニバー
サモア
しゅん
##ＫＴ
主だった
クォー
ヘヴィメタル
プログレッシブ
体毛
後端
税法
俯
##Ｒｅｃ
佐川
Ｓｅｃ
##だち
葉柄
ジュゼッペ
##ｕｇｈ
バーバラ
あらわす
##２．５
##ディック
森山
外貨
##クジラ
ベネット
素晴
額面
##錫
夏場
要し
海路
##ｏｍｂ
曖昧な
がんば
##テープ
ハサ
Ｖ．
##占
７０１
振る舞
パーフェクト
##ｐｏｒ
##桁
##昇
けんきゅう
説いて
生ずる
筑豊
相変わらず
##クィ
嘔吐
和議
クレオ
##だろう
##ゼロ
##１０万
モノコック
ＩＥＥＥ
永享
翼賛
##均
エキス
薬莢
シチ
エイブラハム
水沢
押収
##Ｐｒ
載せる
##１００万
線量
２２１
日帰り
脱水
大井川
岩波
ＭＴＶ
##ｇａｎ
下げて
揮発
ちゅうおう
ケロ
##ａｓｏｎ
花期
栄え
異星人
シェパード
コクピット
Δ
簡単
Ｇｒｏ
しぶ
嫌疑
袴
ルーシー
##を
シュヴァル
Ｃｅｎｔ
トリー
クォーク
必死に
ユグノー
##ぐり
張って
サンタフェ
モデリング
オルタナ
ファウスト
##Ａｕｔ
##虚
Ｍａｒｋ
一雄
コントラ
Ｃｈａｒｌｅｓ
ナミ
宿場町
##ネラ
蛇行
流山
そのころ
広める
エミリー
名づけた
衝動
##正な
官軍
##ｏｇｒａｐｈ
##ｕｂｌ
##Ａｎｄ
補任
コロンブス
##ＳＮ
##麗な
Ｂｌｕｅ
佐々
拝領
型番
ＰＩ
篭
死球
箱館
トロン
税収
観て
‘
バラン
##Ｇｒａ
取り囲む
リヴィ
サック
##換え
神名帳
尋ねた
効能
もしも
座る
ファイナリスト
銃剣
##ＣＡＲ
廃絶
ゾル
スエズ
Ｐａｔ
愛子
Ｓｌ
##郎兵衛
スカラー
１６６０
１．７
ネイションズ
格下げ
キシ
長宗我部
みれば
##ｓｕ
パートナーシップ
##払
膵
ＩＥＣ
クレメンス
空席
赴いて
ミュラー
ＧＵＩ
ミラクル
中宮
１９８
Ｎｏｒ
##にん
農夫
サトウキビ
ケヴィン
帯びる
シャム
託さ
##フィッシュ
好物
緩行
合議
タリ
上科
なつ
ｈｔｔｐ
デイヴ
勝る
Ｇｒａ
駿府
##烈に
##クトル
手作り
##当り
##ｉｓｃ
亘って
ボランチ
##α
##トラム
天空
娘役
１８２
ラボ
自前
２０８
##ｏｌｕｔｉｏｎ
Ｗａｒ
南陽
脂
サンゴ
##．ｃｏｍ
光る
ハイライト
##ｅｓｅ
永続
問答
比喩
ブルワーズ
パーマー
##盆
グラブ
相当な
寒い
─
ビリ
辛い
高尾
西野
無力
大政
エナジー
沿海
割って
シュリー
姜
キャピ
##ロジー
芸者
貝殻
徴税
##らか
##ＭＲ
１８６
##越す
景品
Ｄｉｒｅｃｔ
多面
##ネック
ていしゃ
宗谷
ハロ
潟
##ソフト
交えた
##２５０
##ＣＷ
ベンダー
聞き入れ
共々
済ま
一茶
ミネラル
月光
##魯
血糖
Ｐｒｅ
ヴィジュアル
##牢
ラッピング
ベアーズ
ロチェスター
竜巻
##冊
腕前
##ＦＸ
Ｌｉ
Ｒｅｇ
##Ｓｔａｔｉｏｎ
Ｊｕｄ
定型
不規則
面し
けんじ
ＭＯＮ
ＲＫＢ
##粋
飯島
海老名
発泡
レンダリング
浦安
得よう
臀
##はし
嘲
##ルマン
後ろ盾
##トリア
##Ｅｄ
##ビリ
##蛮
ホリプロ
山科
ピクセル
オタ
サントス
取り締まり
相応しい
被る
隔てて
Ｆｉｒｅ
飛ばさ
##サーン
蛮
##置き
使用人
笑福亭
営団
ぶどう
岩礁
ｔｏ
##っぷ
##サリ
拘ら
兵舎
##出せ
Ｍｅｄ
読売ジャイアンツ
薛
フューチャー
冤罪
極め
インディア
##襲
揚陸艦
##イチ
##めき
囲い
遅ら
ロールプレイング
##ａｓｓｉ
吸引
クルアーン
区長
マムルーク
遠心
Ｒｏｓ
あがった
特長
ザグレブ
網膜
未完成
附近
営み
##落ち
１３９
方策
依然
##ｅａｍ
１６６
情景
被曝
サハリン
再帰
新製
ニャ
Ｓｉｍ
平凡な
引き上げる
##ファニー
持ち帰った
レズビアン
Ｒ−１
挑
ロジ
鍛え
別れて
ＭＷ
トレド
多角
見出す
支払った
##Ｓｅｒｖ
さいとう
繰
##アース
カピ
アイゼンハワー
昼夜
槇
慣行
努める
##さか
##タウ
エルヴィス
野沢
漢学
タムボン
尋
オズ
##たち
誘う
國學
十四
やつ
芳賀
メッカ
ｈｅ
カエ
ヘヴィ
肝炎
久々に
Ｂｉ
和製
休館
Ｔｒａ
ヴァレ
##メルン
京阪神
劇画
ウェリントン
##野原
##ぽう
危険に
目覚め
##薩
オキシ
スラッシュ
##トーン
朝臣
##カチ
込めた
観音寺
栗東
ＮＳＣ
とらえ
##沌
エグゼクティブ
##Ｃａｔ
ＨＤＤ
##ｕｃｈ
蚊
西晋
乳児
##スミス
ムード
叫ぶ
取り出す
見つけて
##ＭＧ
ペイジ
拓殖
##ニツァ
結実
三日月
兵部
体勢
単于
ルーフ
小山田
使い分け
##テリア
吸入
珪
片舷
民権
ボーナストラック
管理人
リセット
##ツァーノ
曲折
##モト
龍造寺
５０１
家格
学費
充分な
進歩党
顕著
ディスカ
先史
西原
大金
草分け
カロリー
小文字
ガーディアン
２．１
##シート
スパーズ
うさぎ
ヒムラー
蘇我
ハイテク
公平
１６９
##ラド
補足
城東
真正
引き連れて
葛城
ブラッドリー
##へん
ジェイミー
咲か
肥大
テップ
##Ｒｅｓ
立方メートル
江原
##下げる
今なお
ダーツ
チル
##づき
安価で
貸付
オペレーション
金田一
ノーズ
いよいよ
信濃川
##サク
エト
ダイエット
##槍
##ヴェント
回して
ナガ
ゲットー
トロイア
オリエンタル
トリビュート
鉤
##ドリック
スケル
##恵子
ＭＡＮ
外周
５．０
分流
どういう
未定
定評
借りた
エンゲルス
追い出さ
取り扱わ
アントワーヌ
ピッコロ
さだ
重信
ロッシ
粘着
スネ
別館
##きて
ボリューム
千鳥
９７８
県会
年少の
弘治
ブラント
ウォレス
##みつ
時雨
ティモ
レゲエ
Ｄｅｌ
替えて
多量の
アイドリング
ホプキンス
毎分
精子
##プリン
##Ｃｏｌｌｅ
着せ
至上
##アブ
孫娘
カナディアン
ロザ
係員
局番
コーディ
所収
Ｓｏ
対地
願望
##ヴォン
マッピング
##くじ
##言葉
##いい
##アメリカ
ノックアウト
ビザンツ
連装砲
１９７
殺陣
エミュ
喬
##サード
##奈子
ドイル
井原
ヘイズ
瞬く間に
##貧
１９１
まか
##Ｍ．
##ｓｉｓ
##御門
コーディネーター
##ダニ
例え
悼
##Ｎａｔｉｏｎａｌ
阪急電鉄
ブルク
盃
モス
止まら
白泉
##ＭＶ
やまもと
##ｙｔ
弾き語り
１５，
##トレス
代走
攻めて
稀な
##ｓｌ
着けて
##ロープ
##求
９９９
プランクトン
##シラ
深谷
ドライバーズ
イントロ
##らせ
サイボーグ
高角砲
形跡
簡素
##敦
輸
兎
ペイロード
##ｓｔｅｍ
ディケ
周知
カイザー
##膜炎
ネロ
山系
２３１
エフェ
廷
ダヴィ
聖子
一望
##滞
##ブリア
ツァーリ
詳
途絶
馬名
化身
##ｔｈｅｒ
ＡＮＮ
セシル
ウィンストン
植樹
##ハト
藤堂
##Ｔｏｕｒ
受動
途絶えた
人びと
##降り
加重
季刊
##デーション
弩級
正四位
鉄工
丸く
Ｒｅｃｏｒｄｓ
見做
瀕死
レディング
村松
２０００万
##みち
##マリン
端緒
神谷
石勒
頻
楽しく
リリー
追従
山門
湯川
ダライ・ラマ
娼婦
Ｃａｐ
受け止め
アヴィ
ร
ベッドタウン
付け根
コンボ
ブルトン
トランク
歳入
##堯
務
Ｄｒｅａｍ
オクタ
２０９
ヴォイ
陳情
Ｃａｒｌ
ベンゾジアゼピン
マウン
セス
##ジャーズ
バクー
ソリスト
クエン
フロム
木綿
##ＦＯＲ
最初で
ＦＧ
スモール
##ジニ
出羽国
##中央
飛ばす
パラドックス
尺度
散策
子午線
アヘン
悪意
有力である
廻り
戦火
母港
開成
摺
刺繍
キャビン
封ぜ
６０万
当人
##度な
野々
ニックス
厳格
たどり
Ｓｅｒ
ブレンド
プレイス
やまだ
谷村
Ｆｉｎ
##件
##ロジ
柔らかく
##ｕｓｈ
初夏
コブラ
くぼ
##っぱり
ＨＣ
有事
大雪
奔
麹
柏崎
売場
だって
ギャル
騒乱
Ｐｈｉｌ
ＵＣＩ
ロケット弾
宮古島
プレーン
##ウルフ
１６０１
たに
ＨＩＶ
ＳＨＯ
キヤノン
構わ
彼方
櫻井
フリーで
係留
##キラ
##Ｍｏｄ
##のこ
珊
後遺症
国文
仙石
土方
ＳＯＮ
防ぎ
熱意
ＰＤＦ
庇
好きに
自費
模写
パク
１５９
球速
##ティクス
ω
##桑
ヤンキー
甲冑
##本町
ヨーガ
笠間
##ウォー
ステルス
##リッシュ
感性
厳島
アクト
和紙
##ヒット
肛門
即日
たたかい
##ａｒｇ
雨天
##代子
統廃合
東上
##０億
サンクト
##ネコ
##サンダー
アイダホ
既知の
マッケン
##モラ
ジンバブエ
代えて
辞めて
苦難
川原
岩本
阿弥
没し
##々しく
##Ｅｖ
柳沢
接頭辞
１６５０
##一つ
強めた
Ｂ’ｚ
策略
爽
啓示
軍閥
ＫＢ
わざわざ
牧畜
##平な
##ｏｖａ
１５８４
０．０
気に入って
利水
幸雄
ジャッジ
相生
##筑
２１２
エスタ
##ニスト
##ダーゼ
##ティスタ
##８・
アンヌ
コートジボワール
苦境
##グサ
ＪＡＬ
Ｓｕｐ
広西
ニーダーザクセン
イシ
製粉
槽
勝ち取った
##ウンド
領邦
兵糧
寝室
ピエトロ
むす
組み合わさ
標記
ピンチ
卵生
##會
昼食
コマルカ
##わしい
ＮＨＫＢＳ
深かった
サプライズ
双発
アスタ
光速
##押
追尾
１５８０
減量
匿
デレ
Ｉｎｄ
##ツマン
主語
##プロン
切除
シューズ
##ＨＣ
エゾ
良心
趣向
脱獄
Ｄｉｓｃ
切り札
ナント
美貌
キツネ
固辞
慎太郎
開封
逃す
日没
不便
通風
##Ｒｅｇ
##旭
ＴＧ
秘匿
曼荼羅
久美子
インカ
アウグストゥス
アレクサンドラ
##ａｄａ
リョ
トリガー
ジュラ
イェー
７，０００
##ディアン
各務原
いろいろ
Ｉｎｔ
俳諧
込もう
躊躇
ネクスト
尉
一条
##エーレ
##Ｎｅ
レオポルド
想起
ソックス
##多摩
ソープ
可逆
滝沢
三ツ
金持ち
##びた
香辛料
冀
##ｓｅｒ
巨星
おじさん
ブリン
ツォ
カルガリー
ＲＦＣ
プレミ
永住
動かして
##歩き
藪
着地
異国
原本
##りょく
##陳
##Ｉｎｃ
羽目
##ｕｌａｒ
サーサーン
##ヶ島
オリオンズ
##Ａｐ
##嵐
首里
ノヴォ
##−７
１５６０
任せて
##濤
収まる
阿武隈
銅山
信管
向島
##献
撃つ
まして
非合法
半生
仕官
##畠
##アーク
野郎
ラーン
##スターン
大林
殉
アザ
知り合う
##詮
脅かす
##ライフ
Ｏ．
挑み
増資
賑わい
有界
##チュール
##チェンコ
情緒
飲み物
サイコ
セバスチャン
翻案
形而上
強める
栄一
遺棄
激励
クルト
融点
たり
杭州
屠
バンクス
##マリア
クロムウェル
##ジェル
艶
##レック
##らって
有識
##ミスト
校訂
諸将
近未来
聖公会
掲
岐
高津
鉄人
おそらくは
##続き
ふみ
魁
湛
かくして
宋代
楽屋
車載
##栓
チェチェン
１７７３
裏付ける
浅瀬
ベッテル
##妙な
悪人
幕臣
遊女
これほど
固めて
錐
オーブ
弘安
##ゼス
##ノ口
前々
的確
##リーフ
##レーズ
僭
遭って
２９０
ござい
検車
１７２０
和也
得意の
矢先
アーリー
俊足
メガネ
肥沃な
建てて
ｍａ
ジャスティン
井川
捕らえる
燃える
説き
デイビッド
短大
バーニー
半期
ｍａｎ
急いで
比べれば
誅殺
辛うじて
咬
大まかに
##Ｗｒｅｓｔ
須磨
疑似
モンゴ
Ｒｏｂ
ポリマー
ｍｉｎ
##しくて
鮫
デーモン
くっ
下敷き
##航空
みき
少量の
花巻
##鐵
飴
あべ
妙高
目付
Ｃ−１
ホラ
手伝って
スティーブンス
三役
ネーミング
にっ
現世
淡い
##エリー
ホンジュラス
##意な
ジェンダー
ダイア
扱える
フロイト
##ザム
##ß
傅
ジャスコ
岩城
ε
アロー
草稿
口調
固く
ロープウェイ
見出した
本籍
こばやし
時報
サンダース
谷間
中ごろ
家名
譲位
##ジェイ
菊地
##Ｐｒｅｓ
気性
江口
聞こえ
##メーター
ピロ
産ま
ミク
猛烈な
イチロー
みえ
##寄せた
##当である
窺える
ｋＶ
直して
拘留
末梢
岸壁
末日
##ｙｂ
##ノ内
興福
プリマス
##ざわ
ボーア
頭上
コミカライズ
エンリケ
雑種
##掘
##よく
群像
デジモン
ハイジャック
就労
##ダイン
篠山
##動詞
援
膨
##負った
享和
祖父母
叛乱
群集
やめる
走査
ふくしま
##スコット
##沖
##バエ
武功
シダ
ニュートリノ
京畿道
永野
藩邸
##ｏｌａ
##ットコム
##Ｖｅｒ
##好き
トロイ
両論
利得
洋一
テヘラン
アパレル
院政
楠木
##チューン
##ＶＳ
鳥海
勃興
Ｃａｌ
死な
##プラー
図式
いっぱい
ダイナマイト
申し入れ
沈殿
学界
後肢
##タイプ
ＵＭ
不明瞭
ゴメス
十七
無くなって
西岡
Ｉｎｔｅｌ
有償
ＡＸ
こんで
コブ
気質
試練
ディスカバリー
##ステークス
インフレーション
選別
##ｗａｒｅ
ＶＲ
薦め
ｂｌ
ネス
実感
ハザード
２２００
優位に
ミイラ
ＴＯＫ
ｎｅ
イブ
ノンス
ヴァール
##Ｉｎｔｅｒ
ナショナルズ
湧出
文永
ロードアイランド
冷静
ズー
##ゼフ
##Ｗａｌ
##Ｙｏｕｒ
パブロ
怒ら
##Ｍａｃ
##ストップ
文武
別種
山岡
ペッ
重宝
三上
##マティ
掟
フセイン
ウィリア
晒
陪
えた
天照
侍郎
##ライズ
##じゅ
吉林
フェルディナンド
帝室
次点
アトレティコ
レック
エカテ
善光寺
ＰＭ
ミノ
■
綴った
嚆矢
堡
パトロン
エンタテイメント
ニジェール
フェルミ
実技
ハンデキャップ
落馬
小脳
長慶
意気
Ｓｗ
３０５
消毒
##ｕｓｓ
重要で
##ノ宮
ポワ
１２，０００
坊主
アルキ
求人
瞬
ロビ
##みに
華やかな
前哨戦
東野
見下ろす
セッティング
笠原
##シナ
滑空
浦賀
１８７
Ｃｏｍｐ
悪夢
交え
殺し屋
##Ａｖ
##Ｗｉｌ
多忙
洗脳
アトム
##ましく
百万
ケージ
パピ
主食
みちの
メイソン
##Ｄｏ
##キンズ
ロッテルダム
コルベット
箸
文民
アーバン
立ち寄った
成して
##昂
亨
クラッ
アマー
二本松
##ホールディングス
呆
八百長
待ち伏せ
数百万
##ポラ
##５キロ
##メディア
津久
##副
うじ
エッセイスト
ヨークシャー
諡号
副葬
##レコード
##シック
百科
天領
節足
フェルナンデス
４２０
##ヒドロ
コウモリ
##あん
アンジュー
川崎重工業
ボールドウィン
倣
目当て
祈る
１６２０
くれて
コンディション
##持って
かろうじて
ケーニヒ
##ナッ
##ほん
新城
アサヒ
Ｖｉｓ
ＲｏｔｔｅｎＴｏｍａｔｏｅｓ
ソウ
モルドバ
##両
４４０
ｉＴｕｎｅｓ
パノラマ
なでしこ
リッチー
矢部
マグロ
清末
新進党
喘息
良き
号す
傑出
オズボーン
流血
##ＢＯＸ
##ＯＰ
サーブ
ＪＡＳ
ヒッチ
おば
オカルト
フロート
太后
掛け声
白金
きく
少人数
印章
動的
プジョー
軋轢
語句
後頭
コンビネーション
明星
モリソン
コメディー
初見
ムック
つね
リクルート
忠義
##ぬき
１７５５
和光
司書
岩槻
ミュン
##ギング
ウィークリー
人情
放課後
##暗
搾取
可算
お披露目
高浜
ジョチ
なさ
森永
グラナダ
洋式
指した
浮気
ナイツ
大いなる
過熱
黒崎
猟兵
終息
大根
##旛
平岡
サプリメント
両生類
ニュ
アステ
アンドロ
##しめ
##スコー
横た
##くも
リサ
##ミアン
禁忌
余生
墓石
##バール
かとう
なんば
眺め
##エーター
地誌
スモー
##操
ギヨーム
横川
正成
製糖
村立
鉄骨
頼ら
##ｖａｎ
ロイス
Ｕｎｉｘ
へて
税率
鞭毛
Ｆｌａｓｈ
掴み
##吏
無くなり
豊かに
##Ｍｅｔ
ボルネオ
##Ｇｒ
ミキ
争点
シアン
長谷
川下
##ツール
３．２
ラズ
人吉
憂慮
遊離
起こ
次代
##バスティアン
拾い
スギ
ヨコ
高千穂
幼体
ＭＩＴ
##トリング
修斗
事後
真剣に
不調に
##猟
バイエルン州
##Ｐａ
アメー
##ｉｒｃ
フレディ
けれども
光星
料亭
ブラウンシュヴァイク
##１，
ホルヘ
イット
加圧
研鑽
奉還
##Ｒａｉｌ
スピリット
##そば
##Ｆｅ
麻原
フュ
便利な
茂雄
完璧な
緑化
ウッズ
出奔
義隆
シェリー
##八幡
譲受
宿敵
街並み
但
Ｃｈｒｉｓｔ
##ｕｂｅ
##團
コロナ
柏木
##ライド
##アーツ
責め
武豊
真壁
ペンタ
##１億
##ボリューション
散ら
有用な
ドルトムント
ドラゴンズ
華僑
##べて
しっ
恥ず
関取
ブロンズ
凌駕
##の川
ドミニク
宝島
##分けて
##テンブルク
##忙
タッ
射出
ローバー
加治
ゴダール
##ノサウルス
ガロ
##ジンガー
##−Ｘ
滅多に
備蓄
##キノ
１７５８
コロシアム
ダイハツ
プチ
##ライザー
アブドゥル
##ミド
##キッド
##ネフ
ＯＧ
オリオン
孤
ノウ
柔軟な
小谷
##ｒｉｎｇ
##ＦＯ
誌面
ゾロ
１７６４
##摂
エポ
青海
整える
桃太郎
陰茎
隷
渡部
テオドール
##ソフ
づか
##リーダー
##ＳＴＡＲ
重なった
##ヒャー
冴
樹上
膠着
充分に
高梁
井口
ひげ
##諾
くわ
##廻
ヘキサ
リッキー
##ｐｌｅ
デフレ
ガイア
岩盤
マインド
いただ
##ＰＤ
シュレースヴィヒ
ｗｗｗ．
ランチ
タイタン
有様
サンチェス
岩瀬
１４９
くみあい
##グループ
理系
協約
オルガニスト
##Ｍｏｔ
##ボウル
明らかである
不十分な
ノートルダム
##争
切れる
##租
##淀川
##唇
藤枝
満ち
いちばん
##ネク
##Ｃａｎ
##Ｗｅｂ
編隊
##べり
両脇
殺そう
前原
##陶
聴いた
分室
##ｏｓｐｈ
プログレス
中之島
茹
モンゴメリー
キングレコード
磨き
すく
##葺
##ｅｔｈｅ
ヴァッ
いつしか
##キウス
č
優越
打ち合わせ
##ブリッジ
モルダー
ゴッ
エレクト
日替わり
##ａｔｉｏｎｏｆ
##Ｂｉ
ジェラルド
##遂
藁
##デッド
##屯
棄
##たま
##ストック
信雄
感受性
寄合
フレッチャー
シャドウ
のぞみ
惜しくも
調べて
中尾
##心の
##Ｊｏｈｎ
見なして
ヴァージニア
細野
拍手
##樫
新規の
コミカルな
ＡＨ
スプリングス
１６８８
##手に
乳房
梯
生年月日
##Ｓａｌ
##奪
クラクフ
ザム
ｃｏ
窒
マクシ
０．８
家出
##ナック
つとめて
ゲット
アフリカン
##なお
１８４
フォルム
##重に
##禎
答
黒幕
##ｅｒｙ
##大なる
有価
荀
氏子
テイスト
リハビリテーション
ぬま
ニュアンス
７７７
城山
カービィ
##トゥーン
ジュリー
レックス
アルザス
ストーブ
##テルン
ぎふ
届き
##Ｒｏｃｋ
書ける
##ひと
##д
##スポー
内モンゴル
横切る
清涼
軌条
ガザ
##ムード
雑草
ガバ
##理子
残虐
ウラジオストク
秀次
礼儀
送り出した
殊勲
交信
二の丸
泳ぐ
上尾
２，０
興した
反旗
##莱
ブレイン
江藤
ほっかいどう
京葉
任せる
快楽
##ディナ
文春
オマハ
ウェストバージニア
嫌がらせ
豪雪
目処
不要な
ＯＰＢＦ
野原
はがき
残基
##ウェーブ
エナ
Ｂｒｏ
次走
##ホルン
##ＢＥＳＴ
ふし
Ｓａ
恋する
ジェイク
Ｌ．
##透
##ｏｗｅｒ
##ロド
２２２
Ａｍｅｒｉｃａｎ
ブランコ
テンプレート
ネクタイ
ＩＮＳＥＥ
##ハマ
ヘッドライト
オイラー
カカ
大夫
##スティス
県令
算定
##怒
Ｗ．
グライ
スタミナ
Ｇｅｒ
##瑚
タンパベイ
コカイン
ウズベク
チューリング
クメール
##隙
提
ＵＲ
承知
チャリティ
博して
河川敷
微量
ビルド
廿
受刑
アドリア
クリッ
コーティング
復調
奥村
くみ
抜群の
ＫＡＤＯＫＡＷＡ
##Ｒｅｐ
悲惨な
布施
##がし
見事な
テンション
##プレックス
蜂須賀
捧
##レージ
樫
応戦
はずであった
シックス
##グリー
三谷
##ガート
##クレイ
サクソン
ＶＶＶＦ
チューリップ
##乃花
取りやめ
デビ
臆
ジングル
複雑で
こなした
飛地
エイト
##義語
曇
イザベル
鳥山
返り咲き
木場
インターフェイス
コシ
見舞い
洋風
ＴＳ
コロンボ
明徳
私塾
会費
サケ
##腱
コルドバ
Ｗｉｌ
品位
##データ
＆Ｇ
シューベルト
ガルフ
引き揚げ
##逐
##Ｇｌ
１７，
ブレア
##ホーフェン
マルセル
使役
レフト
ジョシュ
シャロン
刃物
オメガ
日誌
##辱
赦免
襲って
ルージュ
ＪＳＬ
小人
哲郎
##アミ
ラーマ
##スワフ
サイヤ
##ｏｏｍ
定常
２．３
ベール
元文
##シーム
伸縮
##ガーズ
試算
育てて
等式
最低の
２０７
##こい
堀越
マリノス
##ｍａｎｎ
春日部
まちづくり
交雑
重度の
３部作
ＤＴ
叙位
頸部
純一
労働者党
ソーセージ
シュター
間柄
政敵
交わす
##ロッド
ＩＳＩＬ
未熟
##ラーン
イレブン
散騎常侍
齋藤
小路
助役
##Ｃｈｅ
プロバイダ
茂木
微妙に
主審
恒常
ＣｏＡ
偽り
##フライ
老齢
１５９８
同様で
##ヴス
フレンド
ＧＰＵ
##しに
##Ｃｏｕｎｔ
小結
ルイビル
完璧
享受
時差
##ｕｌｅ
露呈
高宗
チームメート
##イギ
長沼
ローレンツ
武芸
ＡＷＡ
寺領
思春期
古書
投棄
##クイ
神体
##ネート
身代金
迷彩
２１５
ＡＴＣ
ご飯
弁天
マラウイ
峡
痴
##ＯＲＹ
征討
##ガエル
丼
旺盛
##Ｃｅｎｔｅｒ
ジョブ
Ｉｎｔｅｒ
##瓦
深部
おこない
##然に
パンダ
賭けた
フェスタ
##オート
決起
##井田
マーカス
鋸
会頭
マント
##ｏｆｆ
##ｉｅｗ
ひいては
処せ
たどる
群落
確証
ふじわら
日銀
ＥＴＣ
歓喜
##ぐれ
##Ｉｎｄ
風車
##哀
Ｃｒｏ
Ｊｕｌ
２６００
失明
##絡
##コリ
不当
ドナ
##恨
途絶えて
##覇
Ｐａｎ
ａｖ
続か
ステファ
トラベル
##ワシ
ナマ
出水
１２．７
１６０３
偉業
グラウ
##耕
##之江
いただき
不純
##葉山
##ビウス
軟骨
ヴォルフガング
恵子
##トランス
ディレクトリ
##ミネーション
浪速
墳墓
沈静
巧みな
##メニ
在留
契丹
連射
万治
表層
アスレティック
夕刻
わけである
抱卵
リムジン
##Ａｄｖ
連名
撮った
キャバ
見聞
トレンド
シュラクサイ
Ｎａ
畏
仙人
レスト
激闘
異変
##でた
##うら
依拠
##禍
##ＡＢＡ
##Ｃｏｎｔ
##９・
みずから
目立って
意気投合
##われた
ひみつ
##刃
弘法
ビオ
イプ
暖かい
ケネス
続日本紀
##浴
##ウォール
ヴォロ
怒って
キングストン
ダイオード
紆余
コレラ
マンハイム
坂道
審問
##スワ
##授
我孫子
聖徳太子
１７５６
小字
インテリ
ベンゼン
アウェイ
##ＸＸ
##ｏｚ
テリア
##り合い
##彫り
接待
注いだ
０．６
##ティル
ゾフィー
##ベッ
アレイ
糸魚川
ｔｒ
ハク
大体
あっさり
蒐集
ファラオ
Ｇｅｏｒｇｅ
##ｍｅｔ
##暴な
龍之介
李氏朝鮮
ベロ
##彰
思わず
こだま
七夕
２１３
##智子
刺し
控除
ａｖｅｘｔｒａｘ
##われて
リミテッド
蔚
りつ
##怪
引き上げた
##Ｗｉｎｄｏｗｓ
サイゴン
##７．５
仲良く
##ñ
自走砲
求婚
##ｕｎｎ
スターク
飯能
歩む
眼球
##立つ
正常に
##２億
自由形
遺した
キャッツ
##メイド
ゴッホ
バレン
２１４
武夫
##棲
読切
３１１
塚本
##ｅｐｔ
##ｅｒｃ
実話
ＲＣＡ
ＩＷＧＰ
近かった
ポリシー
加勢
##盛り
星系
ツイ
今夜
アンデル
インスピレーション
暗闇
大型で
一杯
##サギ
元日
##ジェス
主事
袁紹
館林
死闘
掃海
赦
当てはまる
##ＩＥ
確固たる
象牙
##ケート
柚
ベーコン
１５６８
新婚
那賀
ブリスベン
１６６１
遮蔽
一翼
クリスティーナ
混ぜて
##寅
ａｔ
##ムン
心から
併せ持つ
寿永
持ち前
フライブルク
##ズバーグ
闘う
##ハブ
フリート
カンタベリー
##ｌｉｎｅ
科挙
餓
Ｏｌ
スランプ
バーネット
断る
スリラー
マクマ
勝手
後編
##新聞
##ホウ
##柴
弾いて
##廣
そら
ふくおか
##ＶＯ
##圓
ミステ
天台
主管
改姓
同席
スターダスト
遷座
節目
殉職
フェイズ
亡くした
祝祭
末っ子
小僧
ハンク
先着
覇者
アバター
足元
気仙沼
##１２０
わし
##Ｌｉｎ
安価に
コミンテルン
蒔
ウォード
住ま
##蕊
チューン
##日本
好機
３０３
##采
巣穴
能勢
電離
##滸
梁山泊
増結
ピオ
進法
##及
ジャカルタ
フラップ
気付く
瞬時
連ねる
がちである
物部
肢
外郭
ソノ
ＮＰＣ
ウェブブラウザ
ウマイヤ
##賛
##磁気
##ｅｍｂ
ロケッツ
選べる
ドネ
臼杵
インスリン
##Ｃａ
タチ
##タキ
ＧＨ
エドウィン
もたらして
詩作
##ストリア
興隆
調べた
整って
喜んだ
##朋
近づき
ガレージ
出入り口
高所
石棺
##み野
スズメ
制止
扱
瀋陽
##さら
勧める
##べつ
受勲
混じって
かかわり
創部
##堰
##縫
##モール
グロスター
メダ
蹄
##２０１
メイヤー
著し
ジェレミー
本姓
##ＢＢ
欣
ぎり
惨事
康夫
金髪
被り
整った
##ジュン
探題
のべ
##Ｆｉｌ
水平に
オデッサ
レイチェル
ハイドン
ひょ
コンペ
後宮
ＮＫ
叱責
正直
印字
金城
ＦＸ
さやか
トレードマーク
##川原
##Ｔｅｃｈｎ
ＲＸ
居館
店名
書家
マントル
##ｅａｎ
ハサン
書写
犀
橋下
手中
抜本
##３．５
属州
インカレ
フレスコ
##消し
亀岡
リアリズム
しのぶ
取り立て
方形
##Ａｗａｒｄ
野砲
１５８７
削ら
ＩＰｖ
年月日
別居
行おう
過渡
有名であり
水圧
直義
アナスタ
１８，
デメリット
##テスト
Ｍａｌ
花見
代わった
卜
##刀流
初恋
ハノイ
暴徒
ダマスカス
建康
##掛けて
さかい
##セッ
##クラフト
繰り広げて
こな
野鳥
１５７５
筋力
牧草
直子
ほとり
冥王星
##クレス
ブータン
チャージャー
シュメール
##ラーノ
ワニ
透明な
発散
詮
ＤＶ
送受信
たどり着いた
##つま
２４００
アライアンス
##れな
##ｆｒｏｍ
モダニズム
満載
エプ
コルト
完治
揚州
蜘蛛
掩
鉄板
鯖
既成
おんな
デモンストレーション
##Ｍａｇ
近づいた
##ヤード
レイノルズ
ナッツ
折衷
##クロウ
絞首刑
∈
Ｌｅｓ
１６８９
モンキー
曲げ
##明け
１７６５
##璽
減額
##扉
衣裳
カーディ
並走
融和
石造
左利き
##キュール
フッ
ナオ
勿論
諭吉
##替える
らし
軍港
高射砲
##ｓｅｒｖ
止まって
正明
ビラ
大宝
久しぶ
Ｍｉｌ
のぼり
##ドリア
##戻
肉眼
前川
ヤク
##５０００万
野間
ひろみ
ガレ
レイズ
ベルナ
##パリ
ा
##出そう
##ＩＣＳ
埋も
ジュネーブ
寒河江
大月
饅頭
獅
授かった
１７０７
コメディアン
##ｉｐｓ
ロジャーズ
富む
義元
スクランブル
５・
振替
##讃
Ｂｅｓｔ
##イット
##嫁
エレン
皮革
フロッピー
##の乱
簡易な
アパッチ
ナス
繊細な
磁器
向く
##食い
下ろした
呪術
インスブルック
##ロピ
##ロク
##賦
ジョッキー
純度
ヨル
悩む
旅立つ
##ぶら
##ａｋａ
先例
縛ら
アナハイム
鳴らす
法隆寺
##ゲージ
##Ｅｎｔｅｒｔａｉｎ
土居
千秋
嫁いだ
##づけて
１７６８
いたずら
１７６２
黄海
リエージュ
##くわ
敏感
耽
##リンズ
ミラージュ
凌ぐ
##フール
##ナイン
出会って
韋
ナバラ
Ｍｉｃ
宍
ヴォーカリスト
ＭＢＣ
##ＮＰ
インスタント
右折
ファサード
##キャップ
劣って
アパラ
根底
度数
便乗
ダルマ
ヌエ
ロックフェラー
古馬
##ソンズ
誓った
怯
つぐ
いら
ガメラ
##楠
沈下
当代
篆
熱烈な
##かりな
まとまり
##ブソン
境遇
ダンテ
アーサー王
効用
１７５９
ギニア
##聯
芝浦
シケリア
##靴
諫早
ＶＥ
習性
大和田
ほうじん
クラスメイト
鑑別
５１２
動かし
独走
サンマリノ
素性
関羽
ＤＲＥＡＭ
##ｅｎａ
味わい
シグマ
##Ｓｉｎｇ
東シナ
金型
##卑
掲揚
⇒
サイクリング
水彩
競売
ペイン
京子
ａｄ
ＵＦ
十分で
輪郭
レスリー
神代
体感
快勝
遭う
回遊
ジュリエット
暗黙
３・
ドミトリー
##ひん
##メラーゼ
侮
集成
##Ｍａｎａｇ
織り交
##っぽ
##居士
書評
１６８０
信義
##デリア
ＰＰＶ
綾瀬
ロッキーズ
##禅寺
不仲
##ばい
茜
隔て
建材
プン
投機
識
灌
賭けて
険しい
ＡＮＡ
触角
１７０１
##マヌ
２２３
わけに
登山口
羽衣
ワイヤ
エスパニョーラ
選挙人
ミランダ
##キッ
取手
##ワク
和菓子
とんねるず
翠
##ｐｏｓ
定価
段差
とどめ
官公庁
悪霊
鶏肉
打破
敗訴
神保
新馬戦
野獣
##コナ
##召
後妻
##れない
##＆Ａ
##れに
労使
慎重な
クルス
４・
##カメ
小栗
園長
ホームレス
アラム
降級
顧
すえ
##葛
##テオ
各人
プロダク
家譜
一晩
ニューロン
愛着
四角
服飾
小津
スパイス
ライデン
##チーム
捉えた
##えろ
募ら
##でて
協働
よしだ
南雲
降った
スプレー
沈む
##串
##ｅｓｓｉｏｎ
幸運
密告
模式
アンパンマン
ハウンド
コンサ
フレッ
列した
カスター
パラマウント
羊毛
アムール
##埋め
##そこ
空いた
爆風
被験者
##ＵＮＴ
植田
##グマン
叛
設営
##ソーン
ファクター
わい
プッシュ
みえる
##ａｕｄ
好奇心
##縞
界隈
呼びかけて
７２０
育英
##ｏｔｏ
帰納
極性
ＡＭＤ
Ｇａｍ
アルカ
著して
##鋭
露見
##胆
南山
レイプ
凝縮
拠る
１７５７
正治
生長
##狐
Ｐｅｎｔｉ
蛍
只
呑
宮原
##ツル
タマネギ
当の
岩見沢
Ｂｒｅ
テノール
##暮れ
オスト
橙色
振り返る
ＮＧＣ
緋
２４６
##いわ
英二
ウェストミンスター
ともかく
見当たら
ボウイ
袁世凱
石岡
リマ
##シアス
同じに
血筋
０．４
クトゥ
##Ａｓ
ＲＫＯ
##ッツィ
仏典
賢者
##スカル
あとがき
走破
痛めて
##ゥー
##レウス
神山
艦種
庚
溶融
##ビデンス
茅ヶ崎
ＴＣＰ
メンデルスゾーン
紳助
はじ
或
Ｐｅｔ
私的な
##Ｔｅｒ
##歩く
稲田
隠れた
##ヴァーン
新居浜
書誌
##リータ
当たり前
##巌
貧乏
折れ
界面
寺内
双方向
アクター
カルボン
バチ
##質の
##シュテ
オマーン
髙
ミード
のすけ
鉾
##ｇｒｏ
えび
##パシー
ＺＯ
三代
ｅｔ
半月
シャッ
送金
ｍａｃＯＳ
異色の
手札
指南
刻んだ
りぼん
ヴィリ
烏丸
ヒース
区切ら
注記
##千代
##Ｈｅａｒｔ
ムスタ
Ａｎｄｒｅ
束縛
グリニッジ
デイズ
そごう
禅宗
##ｉｃｏ
尾部
充てる
Ｂ−１
##であろう
##追
休眠
日照
イオンモール
１５６９
エントロピー
撲滅
斥
兆し
クリン
ツバ
オバ
散発
矩
穆
##歓
##ＫＫ
##マグ
長沙
アリソン
隣人
ハイド
##企
##ヴィエ
同棲
マーズ
ブレット
安中
ベティ
ヴィレッジ
読める
健太郎
マルガ
減らした
異種
ハルビン
遊覧
阿賀野
クモハ
本領
##ニカル
様々に
鍼灸
飛び出して
義光
パンクラス
##ＡＭＡ
δ
着信
村社
天山
ポータブル
精油
ミネ
ｏｐ
アヤックス
##偉
西北
カズ
##ｒａｃ
ウェッ
##杵
##ｉｅｌ
允
操り
裏腹に
##蝶
浮動
甘粛
元弘
リベリア
遊具
##トニー
妾
##チェク
Ｍａｓｔ
沈んで
##ニアス
ぶんか
親密な
##レコ
##アキ
１９，
##ステージ
##アウ
くえん
ロリータ
ブルーム
マリーナ
カリブ
彷
##Ａ．
床面積
みょう
##Ｂｕ
##烏
初級
テリ
いわく
思える
分科
背負い
根絶
雑食
リッペ
憧
アフリ
納める
アット
姉弟
厭
こんだ
なんらか
##堺
Ｔｕｒ
##楽寺
パウエル
フォーカス
ウィンチェスター
##ｏｖｅ
松川
支払って
##昧
見守る
両腕
ベレ
１７１０
交わり
中和
題し
パレット
導出
復古
唾
駆潜艇
なんと
マーフィー
容貌
解さ
金丸
##トゥム
洋服
２．７
##ｃｋ
##深い
両足
課す
鉄橋
大事に
中森
政体
サリン
莫
仕掛けて
２，７
クレイジー
３０２
深めた
雨季
##ＴＦ
放題
人件
病棟
山小屋
ニシ
##ＶＴ
使えば
元親
Ｓ．
オカ
かつら
乳幼児
１７３０
繋ぎ
##回って
##セウス
カルヴァン
悩んで
予後
宝亀
##−６
割り振ら
対流
売れ行き
ＥＳ
忍び
盟主
パント
１６１０
危険である
あし
靱
何か
下村
ナビゲーション
在校
表皮
我慢
成さ
決選
拓郎
##ヶ原
##ＨｉｇｈＳｃｈｏｏｌ
吊る
バイオリン
アブラハム
##マウス
白鵬
ナッサウ
共振
##Ｌｉｂ
危害
ため池
試写
##亨
演者
ストラヴィンスキー
コーカサス
クロロ
ローザ
ウィンザー
成型
賑わう
ルピー
##らみ
カビ
アヤ
一挙に
トランシルヴァニア
平賀
Ｍａｙ
集い
泣いて
##メリア
４３０
豪商
極度の
商学
簒奪
##Ｗｏｒ
がかり
スカラ
##カツ
藤波
変質
軽巡
饗
学舎
ＮＥＸ
繰り出す
優子
怖い
素質
鐘楼
##兄弟
植村
黒潮
義仲
記し
振って
##ウォーク
##ｒｏｌ
無声
樹齢
ラグラン
ＴＯＫＹＯＦＭ
##わう
略号
栄えて
狸
決別
有望
１７７１
腹心
１６０９
彫ら
ＬＧＢＴ
けっ
採石
名主
愛読
１７４０
１６４０
##跋
オーラ
ＭＧＭ
１９４
もっ
シンフォ
しい
盗んだ
退けた
Ｂｕｒ
ミレニアム
取次
利息
蓄電池
喜ば
コルネ
##はる
ディナー
ジェネレーション
サマセット
労務
アピ
ログイン
捕らえた
##よい
ルド
##ｅｌａ
訪ねた
シュヴァ
聴か
１７６９
Ｖｉ
##キヤ
##ムーン
オゾン
メチ
辰巳
隅田川
エリトリア
堆
Ｄａｖ
取り仕
救護
##莉
往時
モハメド
シャンソン
ラインラント
六郎
名曲
Ａｆ
##残り
製糸
Ｂｅｌ
ＥＣＷ
南アルプス
##ＧＮ
##ました
##へ
##レオン
禁じた
４０１
Ｍｅｌ
戒厳
隠棲
勝田
##バーマン
道長
大通
##ッディーン
伽
滅ぼす
草地
セオドア
英会話
ナチュラル
ファイヤー
大まかな
##ヴォニア
オーガスタ
反攻
閘門
クィン
##フェア
##レンベルク
##ＳＧ
##エース
逼迫
帯状
膠
負ける
越谷
外し
優しく
##意味
##渡さ
改元
童子
０．７
フィジー
##ニッシュ
保釈
謀略
尽くして
草食
##乏
称えて
ナイアガラ
##コッ
登って
##泳ぎ
##フォーム
##Ｌｉｆｅ
鄴
扇状地
織機
勧進
龍谷
##ネーゼ
回折
##ロル
金森
高杉
丸子
スカリー
本選
泳ぎ
実例
悟った
傲
違法な
おろし
太閤
焼いて
平沼
モア
##暢
ベガ
類する
供出
アーカイ
ほっ
城門
放り
兵団
画廊
重篤な
幸子
らせん
担い手
大伴
##こそ
テューリンゲン
##ティブな
逗子
ホエールズ
リモート
法要
白雪
奥行き
##ＧＵ
閉会
おおい
温水
##まき
月組
甲種
譲り受けた
宮澤
ガリレオ
気付か
##ニーク
##海岸
##ＸＰ
防弾
ブルン
サンゴ礁
ユトレヒト
##まとめ
敬称
野中
ポット
結びついた
肇
##畜
憶測
コンバット
##痴
モジュ
ベルガモ
ヴェーダ
ッ
マテ
漁村
メディチ
熱血
撮る
帰途
##マジ
減らさ
フレンズ
敵意
額田
身の
２．８
アウレ
匡
##簿
果汁
格安
##スナー
ジェニファー
１７０４
時として
黄緑
１７９
楓
配流
玖
ユーリ
ヨハ
##婿
シュルツ
##ほく
３．１
##巻き
エッグ
箏
陰性
接尾辞
ウィリス
正一
礫
快適
デビスカップ
コンピューティング
抗菌
Ｓｕｎ
融解
戦史
##ジアン
##トゲ
ヒーター
##ｇｅｎａｓｅ
フルシチョフ
アコー
ウェーバー
エベ
ナツ
経つ
とらわれ
##м
成り立た
ナット
貪
カーク
##鉾
ハッスル
落と
生死
失意
語り手
２３８
##ンドール
八十八
落差
実母
要綱
##署
西魏
谷崎
借りる
扮する
##ッテ
綴ら
沢村
エトルリア
##シーナ
シリン
櫻
従三位
突如と
カポ
ほうそう
リタイヤ
シンプソン
##一人
シュナイダー
姓名
幼く
１６０２
８００万
##淑
##リアーズ
オタワ
一直線
寄宿
##Ｔｒｅ
松方
##ッツォ
クア
巣鴨
##フェイス
おおた
切り替えた
ブラス
富士川
捨
シンクタンク
コーンウォール
投射
##イント
勉学
##カメラ
ユダ
##ビーノ
生まれ育った
間違った
##チェロ
果てた
黙認
偽名
秀夫
海溝
ディズレーリ
変わ
まつもと
##４．５
ＥＢ
##こり
素粒子
##カリー
割り当てる
１７６１
楽隊
将門
ＴＳＵ
巻き起こした
山腹
落胆
##ストロン
##淀
芙
動輪
システ
クローバー
##アット
##謂
２．６
##叔
だて
デカルト
喜ぶ
眺める
##ズボロ
ケッペン
リュック
義弟
##るま
ミケランジェロ
ヴィーナス
##ａｔｉｏｎｓ
ジェシカ
Ｍｉｃｈａｅｌ
##落とさ
小道具
##カラー
ロット
複々線
界磁
##ティーニ
本場
##й
無限の
そうだ
エスパーニャ
##愁
悪用
ロバートソン
傍受
##ツカ
ディストリビューション
リチャーズ
ｓｃ
蜂蜜
貧血
成って
##られ
雨水
軽傷
刈り
##ＩＳＣ
気づいて
互角
驚愕
ぴあ
##ａｓｋ
不可欠な
打ち明
カメオ
ホステル
レザー
前倒し
ヴェルナー
グリフィス
プレゼンテーション
御嶽
Ｓ−１
優良
送球
西域
大槻
のこ
ゲール
河東
Ｎｉｇｈｔ
##ｅｉ
技研工業
足軽
##れたら
不発
たどり着く
曹長
##建て
コレステロール
ＰＡＳＭＯ
香水
キングダム
薬師如来
##ウェイズ
１，６００
##ｏｃｏｍ
追った
ラウル
ルソー
２１７
小金井
勝訴
さっぽろ
ビッ
強度の
##Ｅｎｇｉｎｅ
蓮華
手袋
イマーム
血小板
##＊
花月
##寸
##ルール
きたす
##ｅｒｓｏｎ
木々
免れ
ミオ
セーラームーン
有益
制する
##ズビル
メッキ
グアダ
写って
遺志
破局
ＮＦＣ
シェフィールド
こふん
学徒
グレゴリー
##寄せて
いのち
遼東
外した
姶良
性器
インダ
禁じて
讃え
##シュタ
ハルク
##並み
２１００
昇圧
整えた
兆候
委譲
校章
##神経
ドキ
１６３０
八雲
##ドゥル
##ＨＦ
カタパルト
難関
ＲＤ
揚力
２，５
薫陶
##林寺
韮
麾下
コンスタントに
金堂
ＳＩＭ
##下げた
Ｔｕ
迄
オンデマンド
戸数
隔壁
不可能であった
グレアム
英和
##ｅｓｃ
ダイアモンド
山水
##洛
ブリュー
ホップ
##旧
体現
全会
作れる
おかしい
たって
ドリル
痛め
友愛
##ネオ
衛兵
クローザー
集う
##ロマ
歳時
親鸞
免職
Ｔｈｏｍａｓ
オールバニ
Ｉ／Ｏ
トミ
##ニコフ
実刑
サガ
ゴルバチョフ
サザエ
ＳＵＰＥＲＧＴ
引火
完敗
彫り
脊
閉幕
##ファックス
##ｐｅ
イノシシ
輝いて
昨今
##体字
論じる
##ッキ
##読み
大杉
結託
桐朋
祓
バイアス
冗
晩餐
スキーム
コンセプ
バロン
さらば
２０，
##ｐｔ
叫んだ
臨み
##見る
##ｖｅｎ
壽
##マインデ
供する
ソールズベリー
マッスル
猶
馴染
##詠
乱獲
スクープ
鎮痛
心境
留めて
Ｗｅｓｔ
戦地
チキン
１６８３
姑
##日市
更改
##買
##ＰＭ
琢
家賃
草創期
耐熱
テキ
刑部
湿った
##６０００
気絶
観る
##だか
バール
漁場
##Ｐｒｏｇ
かざ
増産
葡萄
ノックス
##ヘビ
募り
Ｎｏｔ
包丁
エヴ
島村
肋骨
初段
虞
開学
スモレンスク
ベイビー
インディペンデント
##ぺい
##薙
予知
##Ｓｔｒｅｅｔ
クッキー
##今
ｒａ
背負って
避けた
別個の
コンゴ民主共和国
##モナ
引き出し
１５９１
いっぽう
ビーズ
##ザクラ
##分けた
エジソン
シュガー
指宿
榛名
##グア
九七
バイナリ
氷期
ルク
総帥
神託
借入
何事
全校
Ｋｅ
Ｄｅｓ
##駆
##コート
谷山
潰瘍
##キム
ブロンクス
嗜
留任
前駆
禎
ウィザード
２５，０００
後円部
偏り
カウンセラー
十代
鋼管
立て直し
アンモニウム
ＣＤＵ
鳴る
路地
閉じて
代入
シンクロ
ターリバーン
僅
新居
沖積
こぎ
いっそう
嚢
二階堂
Ｊａｎ
パーカッション
ＦＵ
ペガサス
疑わしい
Ｅｖｅｒ
大湊
内国
ビョ
##コフスキー
１５７８
新進
##汗
ＪＴ
マルグリット
##暁
電工
蔵王
##杜
少量
美穂
解隊
##田町
勧業
丸太
##ｕｌａ
##冶
##鬱
電卓
ブレーン
文系
与那
カウンセリング
見な
傑
内山
生け
##套
めざま
##胸
離さ
##くう
無意識
駒場
逐次
ドライバ
強力に
ピリ
ヌル
端役
平和な
##ゴロ
グラッドストン
##Ｃｒｅ
無敵
報じて
##ーる
腰痛
段落
##おき
立役者
申込
##高い
アギ
真澄
ユーティリティ
小競り合い
稼いだ
##フェルド
種子島
##桓
##Ｃｏｍｍｕｎ
##ｈｙｌ
牝
ファウ
##向け
薬草
トラキア
畝
訊
テッサロニキ
相殺
ファンタジア
サンフレッチェ
あろう
西安
クェ
Ｄｒ
グリム
ハンコック
##シュカ
放た
シヴァ
共犯
グランデ
アパ
団子
##ホーム
##ＤＡＹ
ポリュ
４８５
神祇
研磨
サタン
席巻
著名である
##払わ
駅弁
両替
タイタニック
相鉄
亡く
称える
##彌
##Ａｌｂ
Ａｒｔ
ランカ
１５８６
生え
チョー
引っ越し
ＵＲＬ
##蘇
リリ
モートン
鋸歯
岩波書店
１６３２
１７０２
##ｉｆｉｃ
そろって
飛び出し
揃え
ＳＫＥ４８
射手
ビレッジ
##電機
ジェローム
文壇
リベンジ
阿久
トラウマ
フョー
任意に
平ら
ハバナ
善戦
面識
３．６
##生児
コーネル
プラネット
##ｉｋｏ
倉吉
摘出
ノベライズ
##チーノ
国士舘
出かける
往還
##轄
禍
##チェル
小石川
対価
ポエ
##肺
減税
生贄
大樹
カイル
妊婦
##ミズ
共立
ブラッ
笑う
モリエール
##ｅｎｔａｌ
原語
まともに
渓流
おっ
マゼラン
目印
##郊
Ｖｉｒ
蒲郡
##翠
毒物
レフ
伏せ
評し
クオリティ
志士
ツイート
九鬼
##われる
##デッカー
##レロ
異例
Ｅｌｅ
##カスター
三枝
##Ｒａｄｉｏ
##ベルデ
断言
１６１６
##у
フォーレ
川岸
ジャーマン
##たけ
##閉
##ｐｒｉｓ
##ＡＩＮ
Ｍｃ
##紹
##アビ
１２万
総力
点滅
ＷＥＣ
１７６７
##ｒｏｗ
##祚
##急に
##きょく
コンソーシアム
##マース
親類
障子
スクーター
##ジャール
##ジャック
離宮
葉山
パスカル
マギー
波乱
色調
大河内
王政復古
ＴＲＰＧ
##がね
裕子
ウィッ
決壊
なんでも
竜江
サヴォ
三崎
プルー
９５０
絡んで
控える
##守り
うけた
１６４４
廠
乖離
ちか
タフ
ハムレット
オーケ
Ｇｅｎ
大滝
ワンセグ
人骨
ローガン
##ドッ
列せ
旧作
##ｍｂ
緩やかに
##チナ
エクリプス
北洋
ソリッド
ブックス
犬山
みらい
##ザンヌ
義明
盟約
##疆
ヘンリク
キャラバン
##ウルス
チラシ
浅川
飯山
ＴｈｅＬ
とれる
中谷
##テレビ
ＮＲＮ
マネージャ
折衝
ザック
絞め
##ズラ
Ｄｉｇ
涼子
５億
##鳩
不当な
ミヒャエル
プランク
説か
イング
エリザベ
レコン
挙がって
##ルダー
Ｊｏｓｅｐｈ
反り
##ｕｊ
##ゆり
俊一
正人
渋沢
体高
半額
燈
##の里
Ｒｕｂ
##懿
特訓
弁明
入館
##グローブ
アミール
##トレイン
即応
ハミ
##ＢＤ
##チド
好転
ラティ
康熙
アルキル
集電
電場
垣間
海辺
とやま
##また
##シム
７．６２
ハーマン
ビートたけし
ＯＥＣＤ
平仮名
ドラキュラ
二・
フリップ
朱子
チロル
清正
因んだ
##ｉｅｖ
通産
付き添
##モロ
レヴィ
オイゲン
史記
荒尾
義教
喧
貴方
##ゼント
沈め
５．１
##ＫＩ
##ＡＮＴ
必死
肩書
##かき
ベーシック
背甲
##カミ
テック
三星
火傷
ヴワディスワフ
江ノ島
アウトドア
拘
擁
##Ｐｌａｙ
##連れ
小柄な
琴平
船上
拒み
エーゲ
力量
好感
スカーレット
１７１５
##晋
架装
##ＲＡＣ
スピードウェイ
##利益
コミッション
淫
モンテカルロ
カブ
降臨
##Ｌａｂ
３１２
固い
##ピスト
無限に
戒律
用心
重光
雨量
時限
##分の
認
ミハ
出かけた
柑橘
校尉
##ＩＴＹ
ミリタリー
Ｍｉｋ
##Ｋｎ
まだまだ
##ケ丘
行商
植林
坑道
敵陣
モンケ
カザ
砲架
##ｚａ
##里子
でんき
ジュピター
こけ
デイビス
##改
わた
扶持
違いない
##チュアル
浜崎
##佐美
##クターズ
払拭
##４０００
薩摩川内
##ウラ
水星
##慧
##遅れ
メキシカン
クーラー
てんかん
慣用
Ｓｉｎｇ
２５２
スキン
##ニール
アマチュアの
遠ざかって
的中
##十六
舜
##ｕｍｅ
這
ピアース
義務づけ
堂々と
##ｕｔｅ
辞し
##舗
##．Ｄ．
持ち上がった
縮尺
ō
##入る
##槻
##鼓
サラトガ
##るみ
略記
速達
イートン
幾らか
ジョエル
１，３００
##ＧＴ
エリクソン
サミー
インディアナポリス
Ｈｅｌ
合資
あめ
女官
生野
長城
バイロイト
ｆｏｒ
一緒
モノラル
快く
ＦＤＡ
はかる
藤山
##Ｒｉｖ
外戚
ユウ
##ポップ
##起こす
ｑｕ
百合
渾名
油脂
ب
挙句
わり
帰ら
効か
##ｈｏｒ
Ｏｓ
##んに
後手
##ファイア
##輪車
實
１５７２
##ＧＢ
二十四
揺る
Ｉｇ
動け
家斉
キノ
滑ら
ストリー
##３００万
病態
見いだ
単葉
大義
円周
##濱
可愛い
パーシー
盛んであった
##メンツ
花形
時宗
ランドルフ
佃
次ぎ
ブリヂストン
緩急
風雲
ふつう
隠した
##餌
１６１９
##遜
降りた
ピカソ
越境
ドリフト
内通
テレサ
ＡＩＭ
##わしく
マルス
##実に
##大路
良質な
本屋
執着
デリバ
大声
弁済
น
ダナ
天敵
勝浦
皆殺し
マンモス
幸せに
長久手
１７１６
来襲
守ろう
もうける
Ω
待った
クラゲ
はやし
値下げ
太古
霊魂
境地
コーダ
蘆名
１５５０
称す
##ＡＰＰ
郵送
吉永
冷や
オースチン
アグネス
住持
カド
伊奈
上って
Ｌｕｃ
シトロエン
低空
間違え
欠落
##払った
##付いた
ストライプ
片仮名
##ＥＣＴ
ペイトリオッツ
空知
ノートン
浩一
居合
##ニャク
Ｐｈ．Ｄ．
カミーユ
断行
変圧器
架設
イコン
唱歌
事績
常滑
オリンピア
Ｂｒａ
音素
仮装
下請け
タイトー
ローザンヌ
##ミッツ
大事な
ガードナー
発振
マネジャー
ヘラルド
殴ら
##リーガ
漢人
九重
防府
##皿
ラージ
迅速な
中空
痙攣
笠松
チャイム
##ゴケ
ライツ
顕著である
##のぼ
##ディーノ
カウル
本性
##こもり
組員
ＬＣ
見込んで
２０２２
Ｊａｃ
マイソール
薬用
ラディ
ａｂ
天長
長けて
##祭り
置き場
楽しま
クイック
沸騰
ジョゼ
吉見
ルーブル
##ｕｍｐ
ＡＢＳ
天然痘
助長
錆
##デム
過剰に
##ジュラ
国衙
##宋
マメ
学研
スンナ
##ＤＶＤ
難し
##エント
汲み
目論む
Ｐｅｔｅｒ
なごや
パーダーボルン
バディ
頚
ゆか
ラツィオ
浪費
持ちかけ
乗り越え
生かす
##ソロ
##コネン
１６２４
８．５
##ザス
迫力
確かめ
追いつか
浴びせ
##トヴァ
トラム
##ｓｋｉ
パーム
天子
##チャイルド
新たなる
１７１１
血栓
##らしく
Ｓａｉｎ
##ニヤ
##ステリア
星組
雅子
讒言
ロンド
付記
エスコ
ヨアヒム
ソーダ
ポラ
満員
艦橋
高専
##推
サウサンプトン
仙北
任じた
##ＳＯＮ
ウィンド
##ＣＵ
字母
Ｔ−３
ＳＢＳ
##りば
##シャフト
##ソム
##ｄｕ
##ＬＥＣＴ
少輔
##Ｄｅｖｅｌｏｐ
正雄
アユタヤ
転籍
フォロー
あがり
デンプン
除雪
モニタ
##シール
コックス
ヴェスト
サンガ
形勢
踏まえた
っこ
城址
１６３４
極右
Ｆｅｌ
あてて
オラン
縫い
##ｒｏｓ
ポッター
ロマネスク
駅長
南国
ＭＩＤＩ
濾過
小郡
結び目
ジア
プロダクト
フィリッ
それとも
Ｌｉｂ
Ｐｒｏｊｅｃｔ
ブランチ
小出
##刹
関西電力
##Ｐａｒｋ
下限
空戦
矢印
拓跋
エスペラント
アステカ
##だれ
ＩＷ
蓄え
強まり
和ら
乗り出し
２７５
##どき
立像
ヒンデンブルク
コンテンポラリー
イニシャル
分身
エリザベート
久世
高貴
##かえ
Ｒｉｃｈａｒｄ
風化
スプーン
チカ
シナゴーグ
キャベツ
ハズ
賜り
越智
Ｔｉｍ
ロレン
グラフィー
##ねこ
Ｈｏｍ
ビーバー
さすが
##厚い
なかったら
積ま
好ましい
一つ
エイドリアン
１７６６
折り合い
フォークランド
レシーバー
グレゴリウス
##ずみ
##マシン
大洲
スクリ
##ｏｒｄｓ
岡野
安西
九龍
##適な
衛門尉
辞表
アーリントン
キティ
高額の
ラント
上着
風間
交わして
##禽
##ゼイ
塗布
オゴ
ビジ
リッジ
##Ｌｉ
降って
##泡
いじ
１６９０
遊べる
##町通
##ただ
矢島
Ｍｂｐｓ
義雄
##ｏｓｅ
##くに
Ａｄｖ
木曾
ティア
剥離
成蹊
ウナギ
スプラ
雪崩
半円
廃部
神聖な
マヨ
ヒンディー
両党
##寝
##いった
##靭
##ミッ
版図
２３３
ブルジョワ
山縣
項羽
フィット
ステュアート
匠
城砦
エヴァンス
ヒルトン
平川
##Ａｔ
##アヌス
##生き
大海
晴信
水俣
でて
##ヴェリ
天童
##頸
フーガ
高名な
１７５４
１７５１
ティンパニ
２１６
ビリヤード
##ＰＡＲ
テレコム
尽くさ
##バイト
Ｄ＆Ｄ
##０．０
常総
##津子
##寂
降ら
豊富で
エキシビション
辿る
トス
リバティ
沸点
整流
容れ
奥山
ＦＲＥ
議題
辞した
カルメン
##ナンデス
##脂
提灯
スムーズに
齢
##Ｇａｍ
教祖
アワ
高熱
ダイス
##ツェルン
##ビッド
##ｅｌｌａ
馬齢
##届
ジュビロ
腱
組み入れ
無神論
建安
##サシ
現物
派兵
##菅
２５１
##締
引渡し
純一郎
さし
##分の３
##にか
自在に
##Ｌｅａｇ
左折
感激
１６７０
##Ｐｒｏｔ
##琳
渡邊
利か
ディストリクト
パブ
ビアン
Ｐｌａｙ
ＢＡＳ
##ドナ
持病
ブルッ
ＬＩＮＥ
立ち直
遊郭
重巡
ダイムラー
漠
異教徒
一命
##とき
氷上
##ヴァッ
３０，０００
##瀧
##カーナ
##耐
ライカ
時価
##フェー
アベンジャーズ
防波堤
海苔
能動
##線型
##バトロン
広まる
見分け
デリ
スマイ
スイミング
仕業
祟
私財
旧友
ＳＶ
繭
ＭａｃＯＳ
直方
##タマ
綜
つばさ
用例
洲
長春
１６９７
アニマル
いのうえ
##ガーデン
##Ｓｙ
栗山
洗い
保元
みよう
ヴィシー
カトリーヌ
ソケット
サイザー
##九郎
睨
しり
##Ｏｐ
気に入った
オペレーター
Ｈａｌ
１７０３
取り除か
アーチャー
##般
ヴィクター
##ひょう
輸血
脱皮
入り江
ピザ
冊封
セイバー
語幹
たど
出火
ヤシ
湯沢
共通である
オービ
ミルズ
二重
ミンデン
総社
雄一
ナゴヤ
略語
喝
Ｂａｂ
ディフェン
差分
コモンウェルス
エメラルド
捕ら
太政
色気
##Ｓｔａｔ
献名
セビリア
##ｒｅｃ
Ｊｏｎ
励む
##丈夫
##ｅｔｔｅ
##ｏｄｙ
ヴェローナ
こうつう
駐輪場
リヒテン
墓碑
冠詞
ラヴェル
Ｗｉｌｌ
人家
サニー
粕
一眼レフ
##ニュス
背部
##文字
底面
アトランティス
節度
討議
まちまち
叩いて
##人数
凛
吟味
罵倒
明子
捕らえて
暗躍
Ｍａｘ
多治見
タジキスタン
失神
##凸
##ティラ
##めな
乃木
初号機
##ヴァーズ
邦訳
見送り
##せたり
萱
シェルター
のど
嫌った
ｍｏ
合同で
カルタ
ニア
##ニアーズ
エミリア
巻頭
４６０
送出
##井寺
軟禁
倣い
ヘーラクレース
きらら
##ｅｓｏｆ
カスピ
義久
いつまでも
代議士
クリム
平凡
ヘプ
ジプシー
ＤＥＥＰ
まな
##匹
樺
コノ
レプ
銘打って
全盛
難所
学識
金具
座談
４１０
カキ
西本
潘
多分
##５．５
##Ｔｒａｎ
２，４
##残って
ｗｅｂ
礁
はじまった
強まった
ラモン
立石
具現
トルキスタン
Ｗｉｋ
##ドラス
##捨
繋いで
鋏
スマッシュ
森川
花子
ＰＲＯ
##Ｍｉ
セレッソ
##なす
分遣隊
引っ越した
アデレード
ジェイコブ
イージー
そうである
局地
慰問
##３，０００
市名
踏み切った
##漿
##戻す
閉山
レベッカ
うまい
ドビュッシー
与力
アスレ
##ねり
##ストゥス
##幻
##アスロン
きむら
しょかん
図ろう
水和
さきがけ
ワタナベ
好ましく
表れて
犯して
きっと
あしらった
##妾
２５４
不本
スタント
アセチル
屈曲
チャガタイ
究明
ポセイ
民部
名士
ちょっ
持分
シリウス
１７０９
ペロポネソス
手下
##ＤＶ
活気
##ノ浦
沼地
##ＥＧ
ＧＣ
##さった
実包
カザフ
##斯
##シノ
フィットネス
##れの
敏夫
南蛮
コンプリート
かわい
##岬
手入れ
自責
一室
ＴＭ
草本
##ｆｅｃｔ
##欧
鼎
江夏
罪人
##クラス
##ッケル
がみ
㎞
##ａｎｄｔｈｅ
動かさ
１５５５
##っちゃ
サブカルチャー
洗剤
２６４
工務
##り子
殿下
陽炎
栄養素
マヨルカ
##ＭＵＳＩＣ
##ヴィッド
敵艦
相手方
というのも
ヴァンパイア
散り
単装砲架
ポリゴン
##ＧＲ
アンドレアス
##ｅａｔ
万延
薩摩国
６０１
退いて
ＡＲＴ
左近
##マイシン
すご
食さ
##フルな
Ｓｉｒ
１７４５
芳文
##払う
ヒラリー
##ローブ
##智学
マフラー
おる
八坂
##ビラ
##メンタル
星間
ｆｅａｔ
遠野
チオ
並立
クライスト
５３０
アムロ
ウラジ
##イック
本気で
##キオ
落書き
ＳＮＫ
政局
マダ
ブラジ
則って
乳業
ラクダ
##ｋｏ
直観
訪ねる
布袋
軽蔑
参勤
フェニキア
小野寺
改軌
席上
覆す
##杖
##マナ
満鉄
##ッラー
ヘルツ
呈した
##Ｔ．
おれ
高速な
崩して
スウィート
引き取った
臥
中書
有用である
##ｇａｒ
寝屋川
ヨーゼ
ＦＩＮＡＬ
例祭
ｍｅｔ
つらい
Ｋａｒ
蹴球
スターター
溺死
手の
オーウェン
十郎
１６８２
Ｓｎ
ニーチェ
所轄
植栽
月後
荏原
けれど
オリヴィエ
マニフェスト
海津
跨る
高畑
刺殺
会所
上訴
##ラーダ
翔鶴
##ステーション
スピー
尊厳
チャンドラー
騙さ
あした
##ａｎｇｅ
ビザンティン
湖岸
及ぼして
##ワット
##ＷＯＲＬＤ
ジョイス
エアポート
ケンタ
##抜く
戦意
Ｍｅｔａｃｒｉｔｉｃ
空き地
確かめる
公刊
タイムス
高卒
帰結
三村
ミルトン
##くま
プラネタリウム
岩村
の子
つげ
##Ｆｉｎ
##戚
##らった
３０００万
##重な
付帯
雅楽
食道
大帝
次兄
##Ｄｏｎ
センチュリー
ラジカル
##祢
##しょく
故に
##リーム
咽頭
無縁
９９．
##メド
ＬＬ
部首
癒し
司令塔
１６４２
##バト
##ｅｄｅｒ
みせ
笠岡
果敢
好きだ
マールブルク
間近に
##乞い
##コリー
同伴
数列
レリーフ
府道
贖
日出
セクシー
休校
##ｇｕ
チョコ
##ｉｔｅｄ
##セロ
液化
買取
聖体
グルタミン
##ヒロ
暑い
アンダルシア
フイ
陳列
りんご
菱形
##ｅａｄ
##地域圏
禁じる
ゴスペル
袂
ばらつき
自閉症
きゃ
サンバ
喫
老婆
##ばな
授けた
商家
助命
ハインツ
連接
政経
病弱
エレクトロニック
明文
困難であり
##崩れ
別れる
オデ
##キット
クロフォード
##１９０
佐原
瑠
##玩
繁盛
ワイヤレス
サーベル
膨らま
労力
退会
ＧＮＵ
覚めた
公女
モラヴィア
エクストラ
与謝野
自刃
延ば
スム
##センジャー
７００万
##割り
##ライル
竹原
ガーランド
老衰
神通
ナリ
隆信
ジョーカー
拘禁
悪事
リアルな
馨
##ｙｌｅ
フッ素
##豚
##ｂｕｒｇ
ギュン
健康な
被写
追いつ
金網
小渕
縦横
一向一揆
##屑
アナー
申し出る
ピエロ
洪武
碓
コロッ
メソ
１７４８
３９０
ああ
受け取ら
##フーン
##ニョール
スキップ
定まる
ヘンドリックス
撥
黙示録
ピストンズ
##Ｆｒａｎ
##くち
ジャージー
楔
顆粒
俯仰
倉田
殺虫
海王星
##懐
′
３１３
##ぶさ
Ｈｉｇｈ
木工
鳳凰
##セプ
小杉
経度
サングラス
むね
不詳である
無くなる
悪党
ザンビア
リビング
##椒
全日空
増額
心得
後代
寺島
秘宝
ナバー
竪穴
ウェバー
##於
##ｂｐｓ
糾
ライジング
##ステート
乱立
突進
##ファス
##â
兵法
##びき
##行き
１６０４
十津川
ロジック
君津
引き起こして
##ＰＲＥ
バラモン
新一
笛吹
溥
##貢
習合
##ｉｒｏ
##ｓｅｌ
加味
斤
##着いた
##イーン
##ブック
下回った
シャーロック
掘ら
油絵
梅雨
攻守
清張
光禄
囁
アフガン
##曳
ルック
##邇
##ランダ
##ドニ
##ａｎｃｅｄ
羽島
##ｕｎｅ
Ｌａｎｔｉｓ
カダ
♥
ハンガー
##ａｚｚ
Ｅｐ
一方的な
手伝う
Ａｌｅｘａｎｄ
##ｔｏｒ
バイン
土産物
ＳｏｆｔＢａｎｋ
グランパス
ヨークタウン
舟艇
捷運
##込め
あしら
叙述
留保
企てた
##ニンゲン
##ｃｈｎ
奇しくも
Ｒａｄｉｏ
辞して
ＧＲＥ
薬理
飯野
手ほどき
リボル
オスカル
白熱
杉原
真木
日展
ハエ
ニューファンド
とれ
１６２３
ホキ
##タミン
農奴
蘭学
胞子嚢
サト
ひろゆき
１６６４
拘わら
##ＩＳＥ
あんな
ＡＺ
外食
揃った
直隷
基隆
豹
休載
敷いた
康成
##分の一
##サレス
危ぶま
##ポジット
起爆
##ステス
合気道
##鉉
##極拳
制空
公孫
一関
きっ
れよう
掛かって
げな
気軽に
Ｂｉｇ
貨客船
##ｏｓｐ
官制
令状
##煌
親政
受難
カルボニル
木管
流水
併せ
##ＥＡ
増補
トワイ
弱者
予想外
大腿
林檎
##サンス
きょういく
##リバー
急峻
明帝
三菱重工
チルドレン
シメ
ＡＴ＆Ｔ
ＺＩＰ
北の
夢中に
フリーに
##ＭＯＲ
シーケンス
オデュッセ
上半期
惣領
ロニー
ハロウィン
##こん
##凶
キタ
年長の
洲本
どうろ
トンボ
アダプタ
焼肉
Ｖｏｌ
クァ
##厚な
##裟
カンピオナート
取り壊し
帯刀
南緯
花茎
受け持つ
##ごく
ロンメル
柳原
##洪
隠れ家
エヴァンゲリオン
鉄器
松野
ＭｏｔｏＧＰ
サリバン
スペシャリスト
ホメ
リチャードソン
困難で
ぢ
##ｃｙ
##ラジオ
紘
シャーリー
片面
ピーナッツ
##ずれ
É
メジロ
たかお
フィール
おさめた
##ロップ
セコンド
治めた
巡ら
##ｅｍａ
弓矢
２，６
##ｖｅｌ
恐れる
辞める
ファイアー
輪島
インペリアル
１５８１
##ムニ
##チェフ
軍将
岩屋
バリアフリー
切れた
ＥＨＥＳＳ
Ｒｅｓ
取り締
##ザック
キーボーディスト
ヘラクレス
ソム
塩酸
アヴェ
サブユニット
アントウェルペン
華麗な
求刑
しろう
夜襲
３０４
旗手
##ヒン
煽り
年収
無印
めで
傾いて
フェーズ
６４０
食卓
ニチ
##Ｇｅ
めざす
記章
円山
係争
キャバレー
佩
コンデンサ
##デウス
疏
教理
黒沢
プレジ
Ｗａｔ
地場
１６７３
取締り
小数
衡
義興
Ｇａｌ
Ｋｍ
ロールス・ロイス
古市
締約
単価
下げた
埋没
用量
##Ｄａｎ
摘
バクテリア
##ａｔｈｅｒ
弛
１５８８
有効で
##Ｓｏｎ
野川
とよ
軽微
満月
##ｔｅｒｎ
飲んだ
東村山
眼窩
コースター
林野
那智
洒
恩賞
##スキン
芸妓
須藤
右下
族長
##わす
ピウス
##バーランド
##枚
松代
膨れ
大沼
##ニックス
マンダ
疲
鎌田
不利に
公選
##グロビン
貴州
０．９
カウボーイ
ローブ
御影
境川
ラサ
##アノ
##ゲラ
句集
アッシュ
##下げて
##ｅｃｔｉｏｎ
##アーゼ
##エーカー
１５７１
ＥＧ
コップ
蛭
云わ
##フォルメ
垂水
バッキンガム
葬式
人命
１５８３
カルテル
酸味
揃えて
解約
ローマン
氷川
ＮＥＸＴ
アジト
みやこ
アブダビ
画報
ＢＳＤ
だんだん
償還
大奥
ＮＥＯ
凶悪
ハプニング
##チウム
食欲
##Ｃａｌ
轄
渓
みせる
追い風
巻いて
##イダ
酷い
その代わり
##棺
１７３５
##替えて
模して
硬く
２３２
ＭＢＡ
##シューズ
##らに
鎖国
体表
エレベータ
##でしょう
慣れて
##Ａｓｓｏｃｉ
##Ｄｉｖ
##９万
神主
１１８０
おや
モーターズ
##ｈｙｔｈ
生かさ
クロニクル
セビー
##ティエンヌ
ライリー
校正
ポリドール
幸せな
尖閣諸島
ガイドブック
イチゴ
ひそかに
Ｔ−１
３３３
##和田
ライブドア
大胆
花王
##焼け
昇る
##なった
資する
減便
ピープル
戎
Ｄｅｂ
官民
暴落
割当
Ｏｂ
##遁
マトリックス
##ｒé
宍戸
##切れる
##ジータ
ベト
八百
ピノ
剣士
カンタータ
##Ｂｕｒ
極楽
ちゃお
##駿
##遷
生き延びた
マダム
全治
Ｎａｔ
##虜
ＩＷＡ
ＰＨ
隧道
##ｏｕｌ
貨
添えて
グレーター
##はつ
##Ｓｉｌ
２５５
果たさ
１６４５
##ハチ
複写
丁寧に
##ｈｙｄｒｏ
##掛かった
目線
１５７４
エカチェ
猛攻
嵌
酒屋
ネイサン
##ックマン
##ノヴァ
##ビリー
ベーカー
核酸
サンドイッチ
球磨
##ぶた
アクリル
ＪＲＮ
揮
下谷
##ボンヌ
砥
##ａｍｉｎ
ジャイロ
##Ｄｉ
##Ｐｒｏｊｅｃｔ
宇品
佛
分与
まばら
##シスト
湯治
保線
##喬
副砲
ゲッベルス
ギリギリ
塑
マニュ
##クリフ
ＰＯＷ
実地
##デリ
##ジーナ
発病
拭
遡上
俸
##３億
アパルトヘイト
##止めて
低圧
##迅
悲しい
広め
##スティヌス
山の
プロポーズ
かげ
カロライナ
寄宿舎
前奏
亢進
選奨
軸受
促し
高城
売れる
絵具
搬
アルファロメオ
いちご
彷彿と
##捨て
##リアーノ
邪悪な
##ナッハ
##妓
##小な
ずれて
##ターノ
１，８００
シェリダン
ＬＴＤ
インフィニ
島崎
しだいに
田宮
折りたたみ
一役
１７２４
７０万
水木
漢訳
割る
ボルボ
サフォーク
小判
膣
一様
母屋
##蕩
只見
##伊那
ジューコフ
３１６６
##ズワース
村々
西城
まどか
のであろう
フォールズ
片倉
塩尻
##かず
延命
アルタイ
プロローグ
##ナンス
張力
サラエヴォ
咲き
嵐山
ｉｍ
いの
４．２
##Ｅｄｉｔｉｏｎ
##ドニア
疼痛
##ａｂｉｌ
##わい
かねた
競り
骨董
スカンディナ
##嘗
生き残る
##篭
出勤
パトカー
例の
アザラシ
マスタ
##嫡
##ホルム
学習院
龍一
オブザー
明かす
狭隘
＾
くうこう
文子
##暇
傷つけ
##勉
過度の
スパーク
推す
芦田
ぶろう
相姦
一・
郡司
顕在
ＪＦＮ
##ブレラ
アゴ
苞
全休
難破
休職
羨
##ガラス
Ｂｅｎ
昆布
目指
呈し
有害な
##双
##ビーズ
##縦
Ｔｒｅ
θ
##摺
小澤
異に
帰京
くるみ
##ヶ瀬
デュエル
地底
##ワイン
##讃線
希薄
##伍
カンブリア
ゲイツ
ディクソン
皮肉に
濠
特捜
Ｄｅｒ
罪状
穂積
奥義
膀胱
##ッドソン
流儀
原野
##ｂｏｒ
角栄
白浜
真鍮
錨
##スレー
１７１４
##０キロ
令嬢
##がけ
トンガ
プレイボーイ
フィナーレ
##ドレス
餓死
ＢＴ
１キロ
ｉＴｕｎ
マッチング
索敵
シンジ
指紋
##ｅｔｏ
##’ｓ
デール
##ヌーヴ
マルコム
ショスタコーヴィチ
カムチャ
##０．５
景虎
ＫＧＢ
ヴィクト
天上
##ＲＥＣＯＲＤＳ
##襟
ノーサン
ロバ
叡
榛
##フロー
##ノワール
桜木
侍女
やさしい
ゲオルギ
１０．５
しみず
マグナム
##ｓｐｏｒｔ
##ムリ
いっしょ
正和
ゴンザレス
１７１８
新撰
##６．５
フィジカル
モウ
促さ
充足
介した
あおい
##タバタ
アエ
建前
国号
般若
バンドル
ブルジョ
タヌ
多方面
１６７２
ジェニー
史観
パフォーマー
抒情
##すう
名寄
ピサ
ルイージ
セヴァ
尽くし
１００１
##じって
沖田
##多野
##刷
１６４９
真人
発育
閔
ブレイド
掴む
名馬
集客
##ｈｅｄ
##一位
フォーブス
Ｂｆ
製塩
南極点
一女
##Ｗｉｌｌｉａｍ
取り下げ
クラウディウス
根強く
##こし
##ガルタ
人気者
意外な
ヒーローズ
索引
１６３５
手軽に
奈々
バレット
##Ａｎｎｉｖｅｒｓ
マーサ
武勇
□
見送った
再審
##コビッチ
紛ら
貫き
ドワーフ
##Ｏｂ
狛
名城
１７４２
ルーン
##スーン
コーエン
##Ｃｏｕｎ
定款
詣
##理士
バハマ
##かせる
うれ
Ｄｏｍ
ピットイン
対義語
些
論評
工期
おさむ
オブライエン
１５６５
不通
鴻巣
##アミン
偏光
識字
##ポット
Ｊｏｈａｎｎ
原価
##Ｐａｔ
深層
壊さ
##リド
バロ
宿禰
バタフライ
エピック
##シモ
持ち帰り
１６１２
ＳＰＥ
遺領
鋼材
九九
媒
##ｏｌｅ
##ｖａ
##Ｓｏｆｔ
ブート
婚礼
リマスタリング
マリーア
棒状
##ｉｔａ
変位
片桐
##ゆみ
順子
##がかり
周南
ニンニク
川柳
ネギ
##ファスト
##ティナ
迷路
チェンバロ
歓楽
固形
流失
諌
鐵
特進
ブロンコス
##バートン
ひだ
##ｏｐｅ
静香
##連邦
叙情
##迷
ｏｒｇ
執務
底部
３．７
賃借
ＳＯＨＣ
宣下
犬種
ハーディ
即死
再録
東照宮
##スール
タング
裏手
２５０万
むつ
ハーモニカ
ＰＴＡ
ニセ
顧み
##つれ
とうとう
家人
##反田
##ＢＦ
数式
ドーナツ
連峰
タヒチ
キク
旅立ち
３２１
湖西
イニシア
気化
得意な
物性
アーリア
詐
日進
##抜ける
平松
##ａｎｉ
ブラインド
ルーレット
民社党
ＭＯＶＩＥ
ファウン
##ｃｏｍｅ
##ｅｔｓ
友軍
##ウェー
ラバー
ええ
モネ
バーナー
三船
ポインタ
##キネ
１６６２
たず
##ｉｍａ
##タイン
前立腺
##Ａｒｍ
たむら
マハ
得意で
ＥＸＩＬＥ
儀同三司
一回り
##ネスト
タシュケント
扮した
##ｒｉｋ
ドナー
乳製品
##加茂
球菌
ＧＰＬ
居士
謀殺
ＣＬＵＢ
霞ヶ浦
９１１
付け替え
##ピーク
聖域
余分
激し
ちく
エコール
ć
##ｐａｒ
閉ざさ
１６２２
観た
市村
ドイ
準じる
##サンドロ
##ａｔｕｓ
敬虔な
１７１３
涅槃
旧知
ねえ
##慕
##ＴＲＡ
ライム
ステイ
名産
いける
公正な
リプ
出稼ぎ
全う
ジェダイ
粘液
##聚
かながわ
##塞
サウスダコタ
##Ａｍｅｒｉｃａｎ
１６５１
##ヒコ
##サリー
公私
アドリブ
変色
##Ｏｆｆ
##ドーレ
いつの
ＬＳＤ
アンティオキア
両性
##煎
##彬
かんする
##キングス
フィンガー
閃
論点
インディオ
スカンジナ
##紀子
１６６７
好調な
