[PAD]
[UNK]
[CLS]
[SEP]
[MASK]
の
、
に
。
は
た
を
で
と
が
し
て
1
な
年
れ
い
あ
(
)
2
さ
こ
も
か
##する
ある
日
いる
する
・
「
月
」
19
から
20
大
ア
そ
こと
##して
ま
3
や
として
中
一
人
よ
ス
によ
4
なっ
その
ら
-
れる
『
など
』
フ
シ
##リー
同
この
出
時
お
地
だ
5
行
201
国
ない
的
ため
後
られ
発
200
##ール
イ
##ラン
作
日本
##ター
##ック
市
戦
マ
第
自
コ
以
6
あっ
カ
者
開
また
高
本
上
オ
##ット
学
最
とい
現
バ
サ
へ
##スト
もの
10
東
##ング
よう
名
まで
7
生
部
あり
世
プ
エ
8
##ュー
会
主
ロ
なる
という
多
"
.
機
##ート
事
新
デ
県
ジ
全
##いて
##ーム
##って
分
選
ク
##ティ
9
小
ド
当
18
##ント
ト
ラ
家
メ
##ード
公
これ
レ
場
前
チ
初
長
パ
通
S
つ
リ
入
C
キ
内
##かっ
受
特
にお
せ
A
実
##ンド
連
使
12
回
軍
##ョン
代
199
でき
記
う
おり
教
設
ブ
北
##ディ
見
11
文
テ
対
##イン
それ
目
ハ
より
)、
平
結
により
経
タ
,
##リア
によって
##00
ほ
所
関
駅
M
化
##ース
運
三
用
##リカ
ウ
放
性
番
位
政
モ
による
下
町
法
指
ず
セ
グ
)。
社
T
南
形
##ーク
取
現在
:
##ける
198
不
制
活
##ップ
ミ
変
##er
数
B
しか
##メリカ
区
元
##ション
方
間
プロ
アメリカ
二
次
参
呼
車
##ーズ
成
基
海
王
なり
ベ
神
D
F
合
建
持
移
彼
改
だっ
山
西
表
ば
明
ダ
時代
なかっ
州
P
手
において
##ージ
き
再
世界
言
水
電
197
ポ
15
ホ
なく
放送
ボ
女
につ
近
製
##ーン
す
重
られる
行わ
場合
決
受け
に対
無
アル
N
##イト
ソ
ニ
支
有
交
知
##える
17
共
##in
について
I
進
号
その後
映
試
##an
登
正
天
しかし
##バー
他
##on
昭
多く
16
広
加
##レー
G
系
原
勝
語
組
ビ
線
東京
できる
外
保
書
大学
体
昭和
総
直
研
##ランド
作品
J
道
使用
196
選手
都
物
終
金
付
m
##ライ
R
郡
##リス
音
各
ゲ
##ラー
相
##リン
存
研究
強
##ープ
万
##or
##ャン
解
集
ル
構
意
引
続
L
イン
可
反
当時
ガ
194
死
##める
向
収
映画
存在
##レビ
期
空
活動
##カー
およ
優
等
立
工
子
コン
両
/
学校
ユ
利
ワ
定
リー
W
起
考
少
フラン
ファ
先
流
##en
始
約
13
##ルト
##しい
番組
##ンス
14
得
含
##ッド
##ar
理
種
##イル
予
安
195
議
E
呼ば
および
ヴ
民
ナ
計
##ンジ
大き
鉄
##ーマ
伝
編
H
状
古
##シュ
行っ
0
可能
投
なお
型
##ニア
艦
30
同年
##大学
残
川
開発
動
異
ヒ
ノ
地域
科
のみ
協
キャ
競
演
代表
曲
石
信
み
必
野
配
周
台
同じ
さら
調
##シア
##ャー
##イツ
たち
度
武
村
以下
側
監
ピ
##al
歌
務
独
英
テレビ
規
歳
権
チーム
提
賞
年代
##れる
発売
乗
##at
##ステ
取り
用い
クラ
における
中心
##とも
##ナー
太
193
平成
男
問
際
単
要
朝
局
フィ
発表
以降
さらに
役
観
打
試合
く
完
ひ
一部
k
ど
増
式
管
派
##リーズ
出場
ニュー
大会
版
ペ
いう
25
ヘ
##まっ
住
わ
条
##ックス
関係
ライ
面
##es
島
商
専
時間
K
=
氏
団
記録
フランス
旧
%
U
開始
参加
点
装
一般
兵
登場
ドイツ
ケ
オー
##フォ
認
土
##かけ
##ブル
##ダー
利用
委
ネ
施
攻
追
技
統
福
確
V
21
個
!
考え
O
開催
過
美
##ic
非
だけ
##オン
##ファ
明治
力
別
城
##学校
以上
鉄道
##ーズン
企
##フィ
にて
比
及
ゴ
気
音楽
スタ
多い
ギ
例
就
資
シーズン
##ウェ
十
##ソン
担
思
##がら
192
##ギリス
##レイ
##スタ
イギリス
##ロー
c
歴
必要
ち
採
創
シリーズ
路
ゲーム
監督
話
国際
なら
に関
##ナル
世紀
様
知ら
##クト
今
社会
リーグ
翌
位置
問題
出身
京
##ビュー
ジャ
任
四
##ニー
仕
円
優勝
##サー
食
官
務め
##マン
領
従
愛
級
に対して
##ヴィ
防
かつ
航
事業
22
与
復
白
行う
中国
##ッチ
##ベル
設置
達
2010
率
飛
24
##まり
たり
ディ
バス
出演
地方
アルバ
せる
敗
引き
影
父
ヨ
ご
船
ドラ
店
情
頃
失
業
評
会社
松
委員
##ウン
23
着
列
半
命
楽
##is
t
##ょう
##ヴァ
ほか
計画
千
##it
##デル
持つ
説
感
100
##レス
スト
卒
低
##しく
##000
所属
真
修
転
タイ
都市
変更
生ま
推
陸
首
判
廃
和
結果
##ンター
横
獲
2008
うち
##イド
いく
一方
2009
##he
置
馬
警
##ともに
とともに
江
2011
青
親
報
これら
描
##フト
中央
##ウス
文化
影響
2007
果
##シャ
米
政府
論
司
展
教育
宮
特に
そして
##めて
ながら
##ラク
##わっ
医
##la
とき
自身
木
図
帝
検
獲得
フォ
2012
ただ
株
191
卒業
隊
遺
アルバム
限
##ンタ
最初
担当
及び
グル
異な
建設
事件
スペ
##った
消
26
当初
左
##ンバー
史
情報
機関
##衆国
s
大阪
病
通り
##ジア
戦争
##ーツ
破
##le
接
在
ので
光
2014
##ーション
##イス
農
年間
km
2006
示
同様
選挙
諸
2013
##ジオ
でも
設立
博
28
##ールド
意味
母
女性
##ラス
27
部分
##ータ
攻撃
##ぞれ
それぞれ
伊
アン
毎
##ングル
とも
##ネル
師
ウィ
2015
販
属
画
五
複
藩
##ッカー
一つ
経済
風
##re
産
退
赤
以外
契
政治
##共に
と共に
サン
##ロン
ジョ
主義
##会社
伴
販売
聖
##合衆国
アメリカ合衆国
地区
##キー
29
こう
##ステム
##わり
著
離
フェ
##ion
帰
##パー
将
##アン
または
宇
義
劇
2016
発生
八
ものの
何
##ro
未
自分
ジェ
落
技術
f
アニ
渡
構成
継
##ころ
##フェ
細
心
2017
デビュー
2005
ヤ
かつて
ん
ツ
##ーロ
2000
採用
輸
サー
整
##わせ
決定
##上げ
31
ステ
にかけ
挙
量
##レン
歴史
黒
銀
自動
制作
状態
果た
就任
負
しま
群
航空
応
超
守
路線
グループ
に関する
深
##ラム
清
ラン
契約
環
若
向け
ほど
施設
高等
送
##ジェ
処
末
)」
にかけて
短
##カル
宗
最も
株式
生まれ
職
##ーター
場所
枚
右
人口
終了
##スター
##el
##ンク
準
コー
##リング
に対する
シングル
チャ
急
最後
ところ
ブラ
導
組織
与え
##スク
最終
芸
ただし
〜
旅
##デン
売
好
べ
アニメ
##シー
員
ロシア
起こ
")
収録
2018
室
田
党
佐
製造
といった
車両
列車
始め
常
##ンガ
##メント
全国
切
被
花
じ
公開
##リスト
停
頭
生産
システム
##エル
悪
選手権
火
目的
##as
階
使わ
##ルス
企業
教授
##ou
河
高校
植
全て
名称
機能
殺
部隊
大きな
野球
標
##ッシュ
##んど
除
海軍
入り
最大
満
補
注
##がっ
メンバー
早
##イク
国内
移籍
高い
##am
スポ
そこ
勝利
ゆ
搭
至
巻
品
富
豊
##日本
##タリア
色
調査
助
議員
違
初めて
省
挙げ
受賞
50
差
街
##ビー
普
アー
##テン
##ケット
("
##ol
管理
橋
皇
視
吉
2004
運動
砲
ふ
ウェ
##il
精
類
舞
拡
独立
d
##et
##コン
身
##ッパ
ほと
良
190
株式会社
来
対応
実施
重要
称
いっ
ぶ
ホーム
##たる
口
財
自由
続け
##ッツ
講
ブル
校
寺
構造
声
発見
ほとんど
活躍
降
製作
サッカー
スター
人物
延
道路
通常
由
同時
院
含む
治
##ザー
持ち
府
読
京都
モデル
突
少な
成功
~
江戸
センター
##ンジン
私
生活
##アル
##ンチ
能
持っ
走
##ートル
営
加え
ム
##ac
最高
イタリア
秋
リリー
屋
掲
漫
40
戦い
減
労
##ラクター
証
アイ
御
課
基本
求
##ビス
いわ
協会
##アー
以前
戦闘
週
執
ザ
九
ショ
振
副
##us
##ビア
祭
順
述
b
設定
並
適
科学
座
実際
出来
名前
デザ
ベル
丁
チェ
内容
年度
効
搭載
割
##わる
##ティー
##om
球
館
##出し
寄
岩
##ディア
様々
クラブ
設計
特別
程
占
弾
昇
藤
春
人間
ここ
指揮
段
星
##リオ
##イトル
リリース
出版
時期
評価
##付け
2003
飛行
指定
作曲
写
特徴
夏
国家
漫画
連合
幕
X
戻
ドラマ
料
沿
再び
##クション
##らか
##テル
編成
帝国
000
##いは
更
異なる
宣
述べ
彼女
##たり
経営
交通
徳
初期
兄
足
ヨーロ
甲
運営
遠
##ing
速
運行
オリ
客
韓
共和
ヨーロッパ
マル
対象
小学校
姿
指導
駆
##ショ
189
##ゅう
シャ
キャラクター
##リック
##海道
##of
予定
新た
ヴァ
に対し
記念
永
マン
団体
すべ
ローマ
爆
認め
スー
しまう
運転
大きく
##ギー
##タル
教会
背
ロー
撮
導入
'
廃止
混
積
あるいは
エンジン
歩
&
理由
2001
よる
事務
結婚
すべて
果たし
タイトル
労働
批
##イズ
1990
小説
扱
公式
提供
時点
夫
極
専門
##かり
会議
造
2002
インド
##チャ
休
多数
英語
紀
展開
環境
p
##ーカー
たい
##イヤ
##コー
興
188
完全
##ピック
兼
連続
固
方法
温
表記
全体
夜
##えば
非常
士
##ッグ
女子
巡
敵
人気
迎
警察
チャン
デザイン
訪
入っ
##統領
大統領
雑
##ニング
り
熱
ラジオ
捕
ヴィ
インター
規模
死去
支援
##入れ
難
オースト
クロ
コミ
連邦
はじ
国民
##リンピック
森
以来
周辺
裁
ソフト
門
##ch
同時に
##ヴェ
娘
含ま
競技
##チェ
仮
岡
大戦
完成
自動車
総合
探
救
のち
陸軍
格
薬
百
大正
彼ら
ひと
##ed
行い
族
Y
##ルフ
関連
##ter
沖
##サン
小さ
勢
カー
187
丁目
形式
絵
サービス
容
逆
項
##まる
自ら
ヶ
##マー
言わ
参照
1980
##けれ
支配
久
##ミー
もと
丸
トン
##ュージ
主張
##ディング
##ウム
##候補
いず
宇宙
備
留
脱
パー
形成
建築
データ
危
ジョン
_
逃
香
##and
共同
その他
貴
スペイン
結成
六
作戦
for
ほぼ
シュ
舞台
基づ
自治
##ヨーク
##バル
撮影
閉
由来
制度
整備
断
どう
##距離
操
オリンピック
北海道
変化
##ジャ
法人
ユニ
帯
軽
##クス
文学
##ig
トラ
輸送
付け
##プリ
途
え
ニューヨーク
いずれ
許
比較
マイ
友
程度
##ウィ
決勝
バンド
盛
対戦
##セン
ビル
まま
##ンダ
##ra
##モン
アナ
騎
ジャン
養
ハイ
##わら
引退
け
もっ
n
港
酸
妻
よく
育
自然
韓国
行政
試験
べき
激
禁
発展
186
JR
##ッジ
状況
##id
審
公園
of
企画
表現
伴い
学者
器
そう
億
##ボール
能力
弟
演奏
スポーツ
息
1999
字
俳
ライブ
営業
##ジー
##ダル
移動
枠
中学校
忠
根
##じる
期間
登録
##キング
圧
子供
組み
静
##タン
越
誌
ジュ
プレ
文字
発行
バー
絶
乗り
む
カル
複数
価
しまっ
侵
続い
レー
買
裁判
レース
フリー
##ow
供
居
幼
35
mm
余
##ation
勝ち
合併
マー
##なっ
60
オープ
新しい
##プト
既
遊
辞
奪
##ベント
値
人々
工場
ね
2019
##un
##ネット
選出
成立
##リエ
健
なけれ
脚
1970
為
紹
##ent
言葉
会長
h
革
##ウンド
源
南部
##os
圏
##スコ
表示
主要
打ち
相手
装置
プレイ
言語
仲
素
##ルド
仏
欧
報告
方面
##ルム
行動
以後
ボー
運用
部門
強い
種類
到
区間
神社
入れ
掲載
経験
宝
臨
魔
##ot
弁
ドル
ユー
依
角
支持
志
##込み
血
衛
はじめ
近く
ネット
美術
方式
拠
##シン
写真
産業
##古屋
市立
印
付近
##込ん
分類
慶
巨
##げる
##ギュ
バイ
名古屋
現代
よれ
批判
高速
合わせ
##ントン
議会
ワールド
しば
有名
##ER
##らし
紹介
復帰
男性
アク
招
1998
ょう
息子
32
撤
確認
##ワー
個人
”
王国
潜
##なわ
45
CD
地下
翌年
例えば
広島
正式
##ad
ダム
条件
七
保護
##mu
FC
平均
効果
グラ
傾
ぶり
##ジャー
##テレビ
イベント
境
入る
事故
トップ
司令
民主
進出
##込ま
憲
00
劇場
ミュージ
スーパー
イス
政策
##シャル
尾
鳥
モン
1996
犯
物語
プレー
アレ
聞
質
にと
朝鮮
##デュー
##ズム
反対
立ち
地元
求め
設け
1997
地球
同じく
編集
##od
病院
直接
にとって
迎え
##イア
通信
秀
連載
湖
St
製品
政権
アフ
学生
拡大
唯
いくつ
併
症
暗
##キシ
The
記述
模
電気
を通
動物
ブロ
波
後半
黄
ター
観光
##iv
カリ
NH
流れ
鹿
##ガー
受ける
ウォ
祖
##ur
幅
##トル
##曜日
やす
##学部
出し
ごと
率い
##AN
刑
密
漢
##ロス
>
め
秒
限定
詩
雑誌
##ンドン
ファン
1995
成績
抗
##mula
案
楽曲
プラ
##ブルク
##繰り
工事
候補
得点
貨
隣
##パン
作ら
使っ
かけ
formula
カード
取得
維
かか
将軍
空港
節
事実
王座
##なり
開業
装備
俳優
##ジュ
艦隊
裏
伯
含め
働
しよ
排
##ウェー
作家
スク
欠
社長
初代
市内
熊
the
追加
授
##ネス
概
過去
映像
紙
##ティング
##ラル
元年
協力
横浜
苦
##せる
増加
衆
##ストン
勤
cm
繰り
主人
大臣
詳
つつ
カナ
##ウト
各地
障
魚
便
頼
に関して
##ちら
福岡
申
国道
500
サイト
競馬
近い
近年
パリ
アジア
細胞
a
1994
抜
NHK
厳
略
唯一
方向
軍事
少年
林
仕事
燃
##放送
プロデュー
Z
“
土地
1960
テーマ
故
##イム
暴
新聞
選ば
住民
途中
示す
冷
従来
言う
焼
1993
敗れ
国立
損
##ジナル
##ゆる
阿
内閣
残し
1991
##がる
##んな
1992
塩
##ッセ
銃
ロック
片
ハー
##um
##した
##ルク
##im
キャン
界
押
撃
##議院
##まま
##BS
ロンドン
つけ
費
植物
メートル
免
特定
目指
ヴェ
系統
博士
##レーション
36
専用
層
大型
北部
##から
分野
隠
銀行
市民
##コード
統合
にわ
恐
明らか
軌
33
不明
定義
説明
ティ
天皇
家族
標準
規定
ゼ
池
クラス
##チュ
##ピー
一時
台湾
栄
襲
シェ
II
条約
なか
##掛け
貢
向か
承
駐
市場
1989
図書
##スタン
##ec
ギリ
陣
葉
##ヤー
オリジナル
亡
芸術
##IN
カン
+
代目
誕
核
革命
待
##ークス
誘
阪
ひとつ
スコ
配置
##ールズ
##替え
##em
遅
メーカー
仙
地上
にあ
挑
##こう
もう
至る
##ジェクト
戦後
そのまま
##ON
射
公演
勢力
呼び
##ッション
##がり
外国
指摘
羽
跡
系列
##クラ
誕生
日本語
本部
##デオ
拠点
業務
ゴール
障害
##ir
つい
離れ
80
太平
電子
決め
シン
示し
さん
安全
距離
刊
##AR
フロ
伝統
行為
普通
##イント
##らく
破壊
主人公
伸
発電
派遣
所有
残っ
配信
プログ
坂
女優
研究所
宿
独自
没
In
千葉
##セス
隻
被害
##クター
似
購
法律
描か
エン
##シェ
店舗
切り
盤
アラ
フレ
哲
それら
域
崩
##ゴン
龍
原因
記載
毛
井
##かし
理論
選択
乱
##リーン
抑
返
##なく
端
エル
酒
民族
オープン
谷
商品
中継
即
ベスト
九州
##メージ
48
建物
進め
少なく
戸
工業
困
創設
張
争
実験
すぐ
防衛
原作
津
続く
事務所
1988
録
務める
置か
クレ
スカ
所在
児
成長
要素
ベース
##st
##ia
恋
貢献
##ut
統一
あまり
##ルー
##ランダ
達成
同社
##ラリア
寛
板
##ウル
185
築
訴
建て
維持
##プロ
##ピュー
携
包
竹
くる
思い
##ーナ
比べ
集め
吸
##ブラ
70
<
生物
精神
反応
番号
封
1987
##BC
##トロ
定め
実現
譲
草
カナダ
投票
直後
敷
38
##ゲン
倒
ポー
加入
ピア
サイ
怪
アド
##ag
生き
##カップ
34
55
キリスト
##AS
幹
##ガン
作成
冬
秘
呼ぶ
##ピオン
望
訓
きっ
骨
ソ連
麻
バル
米国
本社
双
追い
##ウェア
競走
イング
海外
墓
##ブリ
##ーリー
告
電話
抱
主演
死亡
介
題
##FA
いい
宗教
セル
1986
紀元
作り
同盟
メイン
関東
避
広く
付き
集団
違い
練
改正
1984
→
移転
飲
アカ
樹
範
欧州
制御
空間
景
理事
##レット
倍
ツアー
君
描い
章
行き
ます
失敗
料理
##キュ
太平洋
##ランス
体制
毎年
##リティ
取締
バージ
書き
記事
住宅
護
##キャ
ニュース
##シング
##バイ
疑
購入
玉
##VD
男子
1985
商業
##ポート
責
自体
##oc
緑
##なる
作業
減少
##AT
刊行
医療
伝え
報道
思わ
機構
面積
埋
誤
収め
老
##リート
書か
ライン
##ガル
カップ
荒
幸
入学
午
##ネルギー
砂
原子
Ch
##OR
ステージ
##カン
オーストラリア
##ay
浮
##惑星
首都
高く
接続
顔
共通
継承
##合わせ
オランダ
予選
見せ
語っ
参戦
観測
##メラ
レギュ
300
奥
結ぶ
具
古代
速度
##スティ
歌手
##ファー
スタジオ
園
神戸
ユダ
##じて
##リアム
しばし
ジョージ
##返し
亜
資料
連盟
ざ
代わり
鎮
パイ
##ライン
相当
姉
昇格
図書館
厚
得る
##メン
ホール
中華
役割
奈
要求
』(
自治体
ガン
郵
段階
##ニュー
化学
フル
史上
電車
DVD
衝
新潟
軌道
形態
改革
大学院
##ミア
in
皇帝
制限
しばしば
37
浅
なさ
旗
エネルギー
1950
沖縄
ヒット
組合
##しくは
陽
処理
分か
終わっ
##ヴォ
踏
g
##合い
札
##ッケ
向上
基地
上げ
東北
##たって
ユダヤ
ハン
経由
ヶ月
指す
90
兄弟
##トゥ
牧
禁止
起き
あれ
弱
ゅう
改造
県立
洋
##ハン
服
税
##ul
タン
##ディー
1945
簡
名誉
基準
鈴
内部
レギュラー
幕府
停止
強化
メディア
##ュニ
限り
クリス
##出す
近代
スケ
ダイ
材
プロジェクト
##パス
提案
奉
1972
##エン
生まれる
無い
##塁打
判断
##フォル
博物
対立
##ワード
否
トレ
指名
w
##つけ
任務
憲法
日本人
拒
交換
陥
隆
投手
生徒
41
首相
アフリカ
イングランド
喜
ルー
太陽
紀元前
おら
縁
向かっ
始まっ
架
地震
立て
孫
希
命令
駆逐
仕様
復活
見る
チャンピオン
ブランド
測
分離
繁
リン
スピ
##ースト
折
安定
貴族
##ri
1983
タイプ
レコード
基礎
愛知
少ない
到着
メジャー
用いる
フラ
単位
責任
上記
前後
長い
グラン
1982
触
取締役
仁
レベル
防御
夢
展示
コンピュー
湾
注目
44
デジ
そこで
スタート
強く
詳細
訓練
1975
42
吹
##ダム
##ルコ
コース
1981
令
##ずか
##ers
現役
農業
困難
傾向
犬
ちな
更に
184
バラ
備え
継続
?
まと
もしくは
師団
ポーランド
v
まだ
トリ
機械
番目
機体
西部
純
通過
食べ
つく
著作
帰国
##ce
##ナム
グレ
不可
解散
沈
##ッサ
マーク
##ST
建造
フィリ
延長
##og
李
1973
CM
主催
セント
こうした
窓
分け
確保
領域
##太郎
書い
##ap
1979
##op
功
kg
パラ
Q
きっかけ
連絡
##トラ
ガス
南北
肉
発足
です
##ダン
本人
レイ
推進
堂
衆議院
父親
##らい
コーナー
使う
IC
つな
イメージ
保存
浜
交流
##ウォ
対策
脚本
##ジョン
関西
皮
属する
を通じて
##ッフ
供給
郷
鉱
有する
任命
クリ
落ち
起用
本塁打
桜
ポイント
39
ビデオ
富士
##バート
##奈川
##づけ
既に
博物館
##トリック
狭
いわゆる
動き
地名
i
華
特殊
置く
オール
1978
軸
止
183
ちゃ
##ov
##立て
##込む
おお
開幕
壁
自己
言い
小さな
43
味
みな
フジ
前年
1968
埼
治療
静岡
##ショナル
散
##アイ
挑戦
起こし
逮
郎
##オー
コンサ
##ard
逮捕
ぐ
照
言っ
##ルン
範囲
##続き
操作
週間
わずか
An
アップ
##ビン
冠
比較的
1971
網
本来
山口
車体
##グラ
登板
微
占領
判定
1976
##ンサー
ドライ
弘
##トン
##ドル
訪れ
ウィリアム
##AM
漁
入団
大陸
宣言
##ワーク
ルート
席
##ルツ
##フォルニア
1974
陸上
全く
全日本
機器
捜
貨物
刺
バック
マク
わけ
後継
天文
当選
読み
充
制定
##BA
交差
翻
後期
応じ
戦車
仙台
##ジル
オス
意見
##ニック
ユニット
e
討
東部
ライト
神奈川
改良
!』
改称
署
キー
周年
##IC
危険
プログラム
マイル
プロデューサー
##なわち
シーン
すなわち
すれ
r
輪
更新
号線
共産
##マス
現れ
耐
地位
計算
46
物質
##ライナ
ぎ
像
オーストリア
まず
演じ
180
福島
異なり
1969
思想
##ーフ
矢
47
執筆
度目
普及
後述
カリフォルニア
..
長官
埼玉
名乗
##ミン
演出
東日本
タイム
FI
長野
さま
概念
...
##ie
##タイ
訳
どの
モー
康
だが
柔
##ub
価格
解説
進学
ホテル
分布
インタ
区別
回転
1977
少女
因
炭
会員
小型
飾
連隊
互
大量
##レンジ
もた
デジタル
今日
##ak
負け
検討
部屋
意識
期待
置き
アト
性能
民間
##AC
奇
##ッカ
認定
アンド
鎌
##ツィ
%、
快
殺害
移行
哲学
歯
溶
茶
51
##ハー
ノー
売り
使い
学部
資金
取引
植民
##SS
##ノー
停車
400
l
!」
実行
ほう
牛
家庭
##ロット
##切り
ブリ
作用
再開
消費
庁
温泉
進ん
勧
54
一定
長崎
##ケーション
##50
統治
命名
##EC
中学
ギャ
戻っ
援
諸島
##メダル
##チン
交渉
立場
たら
塗
給
##イオ
##ミング
患
コンピュータ
周囲
本名
郵便
※
課程
勤務
恵
請
##アップ
向かう
ストーリー
アイド
筋
公立
加盟
通算
声優
岐
##ニス
##児島
ファイ
削
合計
鹿児島
想
なし
結局
目標
##th
罪
##ザン
件
尊
雄
振り
先発
機会
氷
##かい
隣接
暮
##ボン
市街
イスラ
習
大きい
1000
##ーニ
球団
52
##換え
之
##ッキ
開設
作っ
学会
方針
##キシコ
##EN
キロ
東海
結ん
コード
##ind
学科
ピアノ
##リーグ
##ティスト
スタイル
作詞
券
目指し
プロレス
通称
##ベルク
ブラジル
##ゼル
エレ
かなり
顕
撤退
始める
潜水
1965
施行
権利
杯
締
##グル
暦
感じ
##av
始まり
渋
##スカ
##バン
!!
呼称
インディ
ぬ
唐
理解
視聴
やすい
出来る
##レント
囲
布
本格
年生
スタッフ
雲
1964
露
市長
##ドリ
一覧
伝説
竜
顧
学園
裁判所
公共
除く
ゾ
適用
姫
設備
ゲスト
オペ
前述
スウェー
##でも
低い
幾
兵庫
分割
資格
貞
##さん
改善
ソロ
##メートル
スウェーデン
パン
出力
扱い
インターネット
児童
いち
準備
編入
剣
里
夕
トロ
物理
1940
抵
部長
##ルタ
執行
札幌
行く
1944
平和
液
##ジン
##共和
雪
衣
中止
在籍
引き継
地点
与える
##ist
あら
エド
##共和国
ミサ
ルイ
全員
納
トゥ
繋
ミュージック
##サス
and
押し
文書
論文
##AL
往
スパ
霊
か月
銅
##ンズ
背景
長期
1966
アイドル
輝
##鉄道
(「
##ミュ
合流
持た
練習
多かっ
信号
歴任
##ジアム
前作
盗
率いる
##est
##セル
残り
喫
##かる
##ill
主題
国鉄
届
鶴
##ビエ
バージョン
プレイヤー
##披露
ずつ
試み
議論
徐
de
とり
藩主
過ぎ
覚
##おり
取っ
果たす
ミニ
エリア
稲
審査
##20
濃
奈良
固定
生じ
1967
対抗
カメラ
##でに
世代
出会
##出さ
属し
典
アマ
仲間
定期
ロード
前半
許可
コミュニ
マイク
##ざま
##ine
好き
すでに
豪
##ビル
##ボー
分析
借
征
##がて
表す
##OM
劉
やがて
##ウンサー
油
ヴォ
作る
##シャン
良い
発言
集合
浦
直前
ランキング
##らす
##ーラ
収容
##フレ
回戦
結び
##OS
181
岡山
ダイヤ
1963
命じ
日間
武器
蔵
だろ
##デミー
燃料
結合
認識
保険
回復
大半
織
衛星
トラック
進行
##ラスト
アナウンサー
弁護
1930
拡張
始まる
診
誰
カール
ダウン
判決
無く
解決
##ッキー
上位
58
金属
徳川
蒸
丘
講師
乗車
長男
冒
##とう
伴う
ブレー
岐阜
迫
友人
管轄
象
緊
関数
##ーンズ
亡く
##NA
箱
検査
つまり
寿
提出
トンネル
53
空軍
阪神
エア
民主党
炎
##バス
海岸
##ゲーム
##フォン
TV
現象
亀
額
##ッピ
北西
我
湯
推定
1943
メキシコ
崩壊
TBS
単独
策
##ct
##ロール
堀
##igh
古い
セット
##ない
ワン
披露
恒
芸能
ポルト
否定
##シャー
摂
##新聞
増え
##ケル
必ず
##デス
##ナス
形状
戦略
##ab
マネ
高度
雨
スコット
善
##もの
(『
出る
原則
拒否
ヘン
AT
処分
熊本
記者
##ペン
1942
かかわら
聴
1941
積極
##チャー
##ラント
モード
1962
×
嘉
解放
##AP
侵攻
呼ん
支払
金融
##リコ
名義
表明
各国
南西
発射
大幅
本拠
鎌倉
フォー
カトリック
歩兵
ポール
沿い
県内
電力
どちら
組み合わせ
規制
剤
基づい
##クロ
PC
負傷
反乱
手法
遺伝
さまざま
不足
ワールドカップ
##ob
人民
有効
王者
##ジョ
旅行
ラテン
狙
翼
飯
##ゴル
低下
移住
パート
##eb
前身
証明
##FC
傘
会場
##衛隊
巨大
称し
至っ
リスト
##ピン
すぎ
犯罪
珍
依頼
闘
##人民
礼
ニコ
巻き
1948
##ik
ペン
開通
済
集落
##オブ
##ゼン
各種
承認
次第
75
区域
録音
リング
##ブン
56
開か
床
TO
ジャー
び
朝日
満た
特急
調整
ルール
アーティスト
##ess
))
古墳
コーチ
考える
ギリシャ
ー
覆
合成
残さ
相互
ケース
##やか
諸国
##チュー
65
価値
遺跡
貸
買収
伊勢
大使
エピ
ヒト
母親
キング
奴
健康
広告
現地
##シック
昌
祝
プリ
GP
コンビ
##ッテ
エジ
##サル
毎日
生息
179
ハンガ
x
Al
##ンタル
1920
殿
まし
ワシ
俊
注意
アカデミー
アリ
騒
確立
倉
中世
けん
##ーブル
ハード
基づく
答
##調査
河川
消滅
促
新人
翻訳
ボール
抵抗
フジテレビ
ぼ
洗
戦隊
br
せい
箇
64
入社
##ティン
表面
##ジション
1946
##IS
又
薄
とっ
ロボ
外交
投げ
秋田
##ティア
修道
あたる
61
性格
空気
1961
##ポン
##ーネ
にあたる
°
塔
##プラ
医師
コンサート
57
バン
元々
##ドゥ
かい
ナイ
擁
看
頻
ベルリン
協議
投資
鈴木
1947
雇
##オフ
オン
危機
レッド
##人民共和国
##HE
居住
カラー
フランク
ソフトウェア
柳
##ッハ
##ノン
リア
初め
東西
優れ
新設
150
尚
テキ
##イルランド
全米
##シュタ
敬
国勢
兵士
英国
##ウェイ
政党
達し
##ph
中間
有し
知っ
貿
兵器
平方
脳
融
ばかり
紅
過程
十分
侯
飼
北東
1956
ブラック
国勢調査
49
ごろ
従事
シンガ
筆
患者
生成
##ストラ
ミサイル
っ
泉
##くり
SP
置い
##ティブ
磁
陰
##いに
だい
投入
分子
去
古く
用意
貿易
アレク
スキ
起こっ
梅
##トリ
th
##ターン
##レート
1949
附
二つ
医学
求める
##ども
乾
世帯
にわたって
初頭
国王
香港
装甲
##ーリ
統計
階級
##シップ
62
ハンガリー
飛び
##ゼルス
ひろ
モスク
##キア
失っ
打率
記さ
##リアン
サラ
手が
画家
航空機
ネットワーク
エリ
多様
残る
変え
インタビュー
もつ
長く
##がっこう
勇
姓
趣
##ナイ
やや
超える
ブロック
]
–
##ーブ
##組み
硬
オブ
コント
知識
自転
見える
同士
見つ
送り
182
##ud
##ティック
綱
機動
##マーク
##ice
合格
##ビエト
トレー
贈
##シス
財団
食品
1954
1958
##プル
むら
st
神経
エジプト
グランプリ
嫌
工学
集中
1952
コマ
国会
駒
たと
まとめ
##ip
具体
1955
係
過ご
##サイ
もら
側面
強制
叙
##チュア
178
田中
杉
艇
##art
奏
##VE
画面
通っ
限ら
カバー
惑星
教え
青年
ちゃん
ソビエト
ワシントン
づ
孝
滅
輸出
##ok
##ell
国境
西側
ヘル
走行
##AD
発達
終わり
和歌
緩
再建
改名
閉鎖
ポルトガル
##ge
##レル
指示
##リュー
##ワイト
スペシャル
芝
に際
デュ
個体
宮城
シティ
財政
連れ
続ける
"(
信仰
旅客
流れる
瀬
灯
末期
死後
育成
規格
解釈
誇
保有
学ん
議長
輸入
##up
体育
呉
教師
グリーン
三菱
ショー
##たっ
##ニュ
分の
知事
送っ
名付け
ST
再生
毎週
留学
イオン
アシ
用語
終え
##イング
鬼
##せん
一族
一緒
地帯
遺産
ブルー
阻
##ピア
中部
臨時
衝突
##ET
軍人
に従
初回
##ブレ
##バンド
争い
希望
しまい
サポート
穴
カラ
保守
地下鉄
そのもの
栽
ダン
ビジ
収入
学習
左右
箇所
##リーム
筑
##ant
ろ
サイド
貫
##起こ
守備
小学
ころ
テン
イラスト
##if
規則
ページ
オル
上昇
境界
[
吸収
略称
##天皇
有力
##ながら
尽
滑
コレ
護衛
##ソード
チャート
悲
##フル
吉田
文庫
資本
子会社
1953
序
庭
貧
##ヌス
##all
IS
べく
渡り
話し
挟
##工業
あげ
##ヴァン
1959
傘下
同一
##戦争
あたり
茂
裕
ノル
年齢
Re
シー
愛称
捜査
業界
職員
おこ
区分
1937
〈
儀
放射
様子
現場
分かれ
努
徹
##ッコ
##民国
ギター
キャリア
丹
""
構想
ランド
〉
##モンド
##ッター
スイス
##レーター
##シル
出現
1939
滞
石川
災
##務省
昇進
##ワイ
悪化
##フォード
富山
常に
##スタント
ジュニア
性質
サイズ
アイルランド
ぜ
偽
中村
事態
海上
##ベルト
しん
コロ
義務
取り上げ
縦
業者
##トナム
ちょう
ロサン
共に
現実
重量
##ows
いえ
晩
眼
遂
下記
予備
同日
スペース
スマ
合意
要請
引き続き
募
##取り
デン
アプリ
オート
トルコ
美術館
ロサンゼルス
菊
携帯
タレント
グリ
容易
手段
およそ
卵
サブ
レス
交差点
武装
現存
ドラフト
邦
寺院
玄
話題
ダンス
1957
茨
那
##チス
北京
実業
あと
判明
数学
最多
##ッタ
交響
深夜
控
##ナン
協定
フィン
○
思っ
続き
いき
申し
59
シュー
受け入れ
汚
##動車
創業
##立つ
63
ダブル
寝
トラン
こそ
伸び
沿岸
藤原
Wind
##ive
南東
渡っ
ユーザー
ポジション
##幹線
仏教
実質
##マル
なん
600
エピソード
##チョ
著書
177
##our
クー
明確
無線
##リーナ
サウンド
共演
魔法
妹
##プス
免許
げ
荘
佐藤
落と
動作
数多
鑑
保持
出さ
知り
街道
##フラン
よい
一種
徐々
自転車
##たい
##テナ
いか
本線
繰り返し
テロ
メモ
急行
項目
##セント
る
##テム
##ウント
徐々に
弁護士
遭
著名
りつ
ヌ
De
かん
##qu
栽培
中華人民共和国
とど
毒
胸
願
ウク
弟子
複雑
##アンド
爆撃
自宅
週刊
青森
##もって
次第に
オーディ
出す
僧
軍団
マシン
もっとも
##エス
様式
ロケット
両方
稼
早く
爆発
興行
モスクワ
)』
チョ
活用
ギリシア
チャンネル
両者
主力
##ロード
参謀
新宿
1938
笑
創立
売却
駅舎
テスト
東京大学
鳴
大和
楽し
1951
改修
##コール
フライ
変換
将来
800
ファイル
歌詞
進む
次元
モンゴル
##けん
はず
マリ
類似
Ar
盛ん
超え
川崎
遠征
ドア
故障
ボク
翌日
票
スロ
戦死
戦艦
授与
上陸
正確
ビジネス
デイ
ラグ
感染
とう
半島
姉妹
消防
混乱
県道
ヤマ
腕
##キン
代理
学び
構築
##っと
予想
##ヴァー
当たり
文献
恩
泰
あい
ゆう
人類
天正
アクセス
ロボット
差し
をもって
岸
縮
陳
事情
大分
不可能
扉
賛
頂
シカ
古典
##ジット
扱う
彫
無料
割り
##ントリー
荷
雅
Sh
流行
##ともと
もともと
##ort
山本
描く
松本
武蔵
##プレイ
まつ
ウクライナ
##ワン
SS
やり
刑事
ヒュー
##ダクション
##震災
1936
を通して
腹
Un
享
柱
半ば
重ね
奴隷
補助
##クソン
身体
##ホール
勲
##フス
うえ
ウェブ
##ミニ
エイ
##クトル
##ran
ブレ
人員
逃げ
離脱
まさ
ソング
ディー
##RE
##io
半分
プレミア
乳
払
一番
##エスト
##ームズ
THE
怒
おか
不安
即位
短期
訪問
##ヘン
##立っ
上映
懸
文化財
予算
戦国
転換
極めて
Pro
##ーマン
徳島
測定
若い
Windows
債
休止
午後
考慮
紛
##デー
##ate
標高
##もなく
函
徴
鋼
異なっ
##ich
敗北
重視
イスラエル
働き
権力
赴
いつ
マリア
共産党
場面
晴
そんな
少し
山形
提携
資源
##ベット
:"
殺人
遅れ
ファミ
アメリカン
慣
##ログ
##入り
ハリ
掛け
##レッジ
術
ベトナム
よし
広場
72
re
締結
ズ
##マイ
パス
160
オーバー
しかしながら
季
かも
くれ
戦線
起源
ちなみ
西日本
アクション
噴
オフ
主体
単純
知る
Ne
大賞
放映
画像
##捨て
じゃ
発着
##ンスター
##IT
勃
76
敷地
次い
信頼
追放
Com
##チェンジ
機種
小さい
先行
襲撃
プリン
ジャパン
##弦楽
Mar
タウン
本拠地
##OL
冊
こちら
レーベル
傷
演劇
##タウン
所在地
FIFA
興味
ブレーキ
##やし
効率
変わっ
狩
動画
激しい
衰
FM
心理
桃
芳
葬
##ルズ
マラ
出走
模様
染
痛
療
称さ
ヘンリー
##ーナメント
三重
手紙
描写
##ID
智
棟
酵
斎
両親
##サンド
##フィア
☆
々
シナ
モノ
##ight
挿
疾
北朝
歴代
称号
除い
数多く
雷
神話
才
##帝国
包囲
絵画
#
脅
付属
幅広
)、『
温度
見え
シャー
生命
措
任意
伊藤
占め
オペラ
壊
体験
午前
コンク
ロバート
アウ
住ん
##ライト
##リウス
レコー
ホワイト
一致
生涯
##フォーマ
##優秀
姿勢
##ハウス
最優秀
##ss
淡
カタ
中期
山田
移り
人工
120
修正
小田
書籍
##ne
##バラ
##ity
"、
外部
コメ
公表
平安
取り入れ
印刷
改め
記憶
メル
措置
東側
##ミナル
1933
##カス
##ッズ
ナポ
##テイン
菌
Th
##取っ
守護
1934
##スペ
Le
単に
守る
格闘
清水
##サイト
紫
耳
預
活性
##センス
##レンス
斉
US
気候
依存
高橋
禄
PS
せん
警備
ガラス
プライ
1931
スコットランド
##RO
夫人
観客
とおり
BS
解体
羅
##イロ
たく
生み
秘密
コピー
日本テレビ
68
差別
関心
下り
##ord
取る
パーソ
評論
関与
##セプト
フォード
##チア
##プレ
##oun
マグ
茨城
##シティ
アニメーション
##ED
ビット
目指す
遺伝子
ジャンル
ぞ
甘
碑
フィリピン
需
公認
パワー
浴
コム
加工
帰還
料金
確定
##ry
66
養子
1932
婚
地理
大将
##ルトン
1928
テク
再度
経緯
電動
当て
意図
抑え
攻め
病気
##アジア
決まっ
干
##ニン
85
買い
交代
創刊
宮崎
辺
聖書
象徴
ノース
たとえば
天然
##バーグ
##ンチン
キュー
しょ
助け
数字
ヘッド
コミック
AA
コル
北側
##イルス
ロング
劣
98
双方
商店
##OC
枝
在学
総督
防止
一軍
修了
単行
司会
案内
突き
##フィー
出馬
召
換
四国
恐れ
改札
未来
暮らし
##システム
滝
肥
上海
弥
粒
劇団
費用
次いで
1935
##オス
##ian
ミュ
住む
##議会
した
利益
子孫
楽器
言及
イスラム
##ore
戦士
##リズム
クル
分解
自衛隊
88
拳
違反
##イヤー
スキー
市街地
打撃
福井
バスケット
##ソー
##ドラ
乗っ
暗殺
盛り
負担
##ージェ
生じる
##ルター
崇
99
援助
移民
蒸気
記し
コロン
プロデュース
あろ
##ポール
クライ
リーダー
##ベン
##チャン
滞在
##IM
随
得意
武田
訴訟
音声
##かさ
##ect
一連
トーナメント
後方
戦時
つき
コスト
シリア
パイロット
##コミ
##半島
86
南側
流通
選抜
議席
昼
##稲田
77
定着
局長
最近
相続
祖父
訴え
1929
フランス語
##KO
鏡
##かん
95
ダー
優先
短い
部品
##パート
176
Sp
太郎
降伏
フィルム
整理
発揮
開い
ベルギー
皆
踊
74
シル
不動
伴っ
操縦
材料
洞
功績
##フィック
偏
曹
##ドン
73
ビー
辞任
連携
驚
一切
停留
接触
タッグ
以内
インディアン
拘
誠
##ber
ペル
ポリ
家臣
次々
酸化
学ぶ
推薦
最低
職業
進み
領土
シカゴ
次男
トーク
ワイン
入手
##ウッド
##アス
##民党
下部
伯爵
失わ
沿っ
進化
献
マス
又は
大字
線路
早稲田
抽
貯
あき
ボス
近郊
##エティ
引き起こ
##ッス
##衛門
81
東洋
誘導
いえる
取材
連結
需要
##テッド
現れる
晋
湿
上部
分岐
災害
##te
添
郊
##モア
聞い
証拠
バレー
ビッグ
取り扱
幻
西武
加藤
同期
大手
書記
顧問
チェコ
に際して
傍
孤
78
どこ
出発
基づき
賢
広い
譲渡
垂
底
栃
パル
打点
##タイム
マイクロ
フィールド
トヨ
小林
症状
駅前
ゅ
##朝日
作者
完了
専攻
占める
レコーディング
ベン
ミス
人生
少将
絶対
##ロック
かかる
ポート
##end
」(
並び
全長
復興
暴力
順位
さい
にく
収集
問わ
安打
手術
アイテム
##次郎
##決勝
やっ
合同
しばらく
##ミネ
国外
騎士
準決勝
グランド
コメント
デンマーク
##ッピング
ファッション
##LE
軒
71
レオ
平日
振興
##しょ
##メル
酵素
##カード
マイナー
戻り
来日
東映
##シュー
ソウル
##ミス
家督
戦前
申請
許さ
立候補
もち
報じ
幹部
カット
小惑星
##US
吹き
後者
爆弾
斜
##ニャ
##ボル
司法
深い
チュー
過ごし
ドラゴン
##アフ
柔道
スケート
示さ
##ノス
フォン
子ども
テキサス
##se
揚
既存
メン
ロス
攻略
##ブス
脱出
郊外
スティー
ローカル
(,
例外
到達
自社
記号
通る
シート
コミュニティ
刻
アム
ウィーン
##本線
ムー
勃発
損害
新規
##ox
浸
まち
組ん
言え
インチ
手がけ
ちなみに
##分け
一環
北朝鮮
##テインメント
エク
強力
往復
転じ
配備
##UN
葛
戻る
継い
続編
リード
言える
ヒロ
捕虜
SF
テレ
兼ね
男女
脱退
250
代わっ
##フォーム
発掘
チャールズ
学術
通行
起こる
ジャック
国防
オープニング
伝承
渋谷
掛
砦
ほん
死刑
越え
170
房
##ツェ
##ハイ
屋根
当日
直線
##one
台車
競争
旨
体系
少数
##フェン
紋
##ばし
ポン
保障
アイス
1925
ジャンプ
##エフ
原題
士官
行なわ
##チル
##ベス
##lay
MS
ヤン
Am
教皇
見解
##ステル
緊急
##リット
1923
石油
せよ
##フィス
アウト
侍
共有
着用
福祉
解析
メール
##OW
提唱
ジェームズ
威
ケン
相撲
駆動
##ネシア
アルゼ
ハンド
態
En
のに
アス
バレ
上下
王子
長年
;
啓
宋
掘
キン
急速
連覇
1924
寒
##直し
83
うる
アミ
掲げ
エンディング
隔
##ゴス
喫し
イラン
##PG
握
栗
処刑
1927
婦
暫
沼
魏
付い
実績
成果
渡辺
スタジアム
刀
##らえ
死ん
クロス
)(
任じ
優秀
印象
固有
聖堂
##しも
UE
バスケットボール
働い
相次
雇用
##ストロ
煙
抗議
退団
グロー
##WA
##持ち
終戦
トヨタ
スポンサー
プロダクション
深く
158
通う
アルゼンチン
上演
修道院
##チャード
詰
##洋艦
ラー
一帯
山梨
直通
編曲
##ニスト
巡洋艦
##ガス
リス
当該
総称
都道
とる
独特
メッセ
ユース
肩
該
##なし
巨人
経路
自殺
キャラ
コンセプト
##民主
主導
宝塚
批評
推測
観察
##ズニー
1922
ドン
群馬
大隊
監視
1926
アマチュア
ライセンス
ょ
唱
射撃
戦っ
違う
ウルト
一家
想定
王朝
フィンランド
##クタ
##ドロ
##ang
魚雷
新幹線
朱
##教授
井上
立っ
良く
##ティス
ジャズ
洪
##ヴィル
行なっ
亡くなっ
##銀行
侵入
北条
診断
##イセン
##ージー
1918
マイケル
##ue
たび
証言
犠
載
##しろ
87
サル
扱わ
月末
ユーロ
庶
浩
再編
答え
##エア
試作
こうして
屈
祈
主流
相談
離婚
##テスト
フェル
キリスト教
尋
獣
シア
宣伝
次ぐ
ランク
原子力
浄
上回
授業
漢字
該当
走る
タンパ
旭
##ain
撤去
池田
近隣
ミュージシャン
91
ネタ
球場
伏
キャッチ
竣
八幡
国土
山脈
マレー
加わっ
トム
並行
代替
水素
700
挙げる
卿
##須賀
67
96
中山
今後
促進
日常
騎兵
和歌山
銘
##っき
##ブロ
ロゴ
区画
開拓
除き
マスコ
リンク
少なくとも
桁
浪
させ
学区
武将
助教授
マスター
スラ
圧力
特性
##レース
UEFA
取り付け
出席
圧倒
地形
船団
1914
クラシック
庄
釈
相対
to
戦力
栃木
用途
跡地
上野
基盤
方言
##ツァ
期限
根拠
空襲
##グループ
##学院
SC
al
並ん
指し
高級
##として
175
忍
滋
##エー
修理
簡単
##イラー
##ノール
牽
逸
##なう
##自動車
きょう
ジャケット
ML
OS
大佐
ところが
##まら
イー
敗退
5000
##ットボール
岩手
異常
##リダ
体重
パーク
ブラウン
分裂
及ぶ
未満
本土
流域
ポンド
##AG
Bl
本体
演技
複合
ウルトラ
仕え
資産
部族
黄色
159
Con
勅
桂
魅
おも
大名
やって
あらゆる
##フォーマンス
糸
##ide
ポル
移っ
クリア
終わる
3000
旋
謎
IB
市町
非難
ワイド
邸
##くま
##カロ
##ver
ジム
送ら
プラス
《
彦
牡
膨
##込め
女王
当主
附属
プラン
AC
ゃ
NE
折り
西洋
1919
入力
大西
実用
月刊
足利
軍隊
プロイセン
##やく
##ダイ
##ネマ
##ure
膜
上流
反発
アート
欲
虎
##ith
図る
密度
##レオン
ナショナル
虐
閣
慶長
決意
破り
金沢
##ージュ
110
ついに
トレード
ボル
竣工
要因
調べ
##ドイツ
参議院
当たる
自民党
早稲田大学
SH
殺し
繁殖
解消
間違
##シリーズ
質量
無かっ
打ち上げ
97
高知
##セット
》
##ハム
スイ
事例
##ライズ
派生
犠牲
空母
##ファン
アント
##リム
権限
殺さ
気象
端末
##リオン
したが
ホイ
不満
夜間
意思
##ウィン
猫
##イラ
めぐ
モチ
連勝
社名
161
世界中
デモ
成分
文明
旅団
正規
約束
銀河
高松
アレクサンド
##ib
妨
アッ
全面
前方
財産
小さく
クレジット
ミッション
##ろし
##ケン
触れ
ゴルフ
トライ
##oh
透
##越し
BO
一員
先端
森林
ブラン
沢
##man
GT
KO
再現
火災
秀吉
##アリー
##ナルド
ハウス
前期
短編
突破
##ストラン
サム
佐賀
有限
##イナー
ポスト
テレビ朝日
委託
私立
パーソナ
フィリップ
全域
同月
止め
苦し
読売
com
徒
梁
##ゲル
疾患
剛
クイ
三振
先頭
埋め
当局
損傷
選定
##シスコ
スピード
脇
##規模
『"
リチャード
##エルン
171
ボーカル
証券
降格
##パーク
関わっ
ディスク
84
パソ
フリ
存続
戦う
解除
セルビア
トランス
ざる
ガー
周波
怪我
##ウェル
胴
信じ
建立
経過
##ah
奨
##どり
さえ
詩人
出来事
1912
それでも
卓
つと
支部
艦長
課題
サウス
ハワイ
マッチ
##ルル
y
潮
AV
って
スプ
現行
趣味
ジョー
ウイルス
妖
昔
符
賃
セレ
題材
ドキュ
難しい
1917
##az
##フラ
##府県
82
座席
特許
請求
文学部
叔
師事
後任
1921
パートナー
―
商人
寄せ
自主
##クシー
コンパ
スクール
##ES
駿
ごく
てん
人種
マルチ
##マド
ハル
最新
終結
送信
スタン
冒険
提示
補給
##プター
かた
教室
数々
ディレ
偶
亡命
仮面
海洋
発音
育て
菅
FA
参考
支え
130
ン
柏
はる
応援
移し
ミッド
##アフリカ
にわたり
オスマン
NT
人形
接近
157
ファンタ
ラグビー
コレクション
##カラ
##ミル
反映
応用
突然
僕
陶
学院
敗戦
運航
陥落
駐車
関わる
##シュタイン
したがって
沙
##当て
168
エース
接する
##ゾン
化合
主題歌
##文字
##ION
審議
欧米
##ンジェ
文部
焼き
素材
##ウルス
ボタン
インターチェンジ
斬
92
会見
北米
退職
祐
GI
町名
聞き
美しい
パターン
オーディション
ホル
火山
ボード
食べる
##わし
モル
明る
来る
発明
社員
##ジュール
パソコン
屋敷
##ドリヒ
##バック
エンター
メッセージ
のり
コラ
紛争
飼育
##ベース
モーター
CP
上り
事前
史料
##ナイト
156
ボディ
ウル
取ら
幼少
鉱山
パフォーマンス
如
猛
##ast
もし
歌っ
悩
昆
おそ
すら
地図
気温
破っ
近鉄
選ん
##ージャー
##受け
マサ
人数
募集
楽団
避難
敏
##デイ
93
cc
学名
本編
評し
##ガジン
取り組
Go
別に
振る
海戦
ソニー
宅
アブ
一体
接し
頻繁
1910
売り上げ
SU
一貫
信長
割合
暫定
校舎
粒子
造船
ナチス
肺
ホー
一旦
教員
III
やすく
演じる
コス
ボン
向き
遺体
祀
創作
図っ
確率
署名
表し
落とし
ボストン
ヴァイオ
ドライバー
##ff
トー
ベイ
住居
国有
検出
満州
##ッティ
ないし
##ライダー
1900
ケーブル
僅
01
若手
フロリダ
太平洋戦争
たる
祭り
織田
174
克
薩
",
借り
投稿
管区
##ボード
##リード
You
受け継
##カイ
成り
終盤
航海
頭部
フロント
AS
ドゥ
売上
放棄
晩年
農民
あくま
ゴールデン
揃
##かす
低く
クイズ
アプリケーション
##テク
感情
要塞
)、「
キャンパス
##uc
##ネー
ピーター
オンライン
シンガポール
偵
嫡
##まれ
抜け
##ロジー
##iz
粘
鍵
君主
##ロディ
広がっ
レストラン
謝
##ies
後ろ
##ーマー
伝える
厳しい
市町村
コメディ
バイパス
##ニューアル
##ld
同名
評議
##メンタ
##ナショナル
勉
念
##なた
ソー
ミシ
作中
169
##ッケージ
ファースト
回数
教徒
タンパク
##EL
秩
##ゴー
89
けい
制し
国連
##ベニア
ヤード
周波数
還
##ack
##ire
表彰
かかっ
##ug
均
瞬
##らさ
##テス
##レム
##合っ
ゼロ
前提
向かい
アテ
初演
合唱
大韓
彫刻
##ジャン
フィギュ
ノルウェー
リニューアル
松平
講談
164
アラブ
小規模
ナンバー
モチーフ
##リル
1913
##ハウ
Be
故郷
架空
余儀
回避
甲板
養成
##クセン
ジェイ
##ase
夫婦
実装
寄り
##ッセル
ゲート
入れる
迷
須
アダ
防ぐ
##モデル
バラエティ
##UR
乙
##レオ
##一郎
寸
##はり
%)
削減
転向
ともに
ヤング
トラブル
プラット
##ジーランド
ニュージーランド
Co
出資
官僚
##エール
##ment
163
バイエルン
トレーニング
##IP
匹
狂
##ヨン
上院
イラク
コート
起こり
尼
##旅客
不詳
受信
埋葬
室町
若干
##ラビア
##旅客鉄道
位置づけ
##FL
勘
棋
北方
愛媛
示唆
##ナリスト
##立ち
IN
NP
探し
業績
##バンク
ちなん
やはり
いけ
おく
司馬
囲ま
疑問
エディ
1911
秦
エス
土曜
捨て
移管
行列
タンク
拓
ガリ
受験
総裁
装着
通じ
バンク
都道府県
ストリート
虫
##んじ
##止め
打者
騎手
上がっ
ライバル
准
##ING
79
94
AM
ふく
中将
出土
語り
余儀なく
宇都
日記
航路
##ールス
管弦楽
ラム
強調
恋愛
描き
認可
鳥取
##ens
搭乗
高齢
センチ
集まっ
併せ
##っきり
この間
エリザ
メトロ
罰
##』(
ノン
ブライ
帳
楊
渓
十字
滋賀
音源
101
手掛け
もたらし
シナリオ
峠
腰
栄養
電波
##バッハ
##ファイ
キャンプ
フィギュア
モンスター
対決
数値
決議
##入れる
MLB
1915
##oy
催
錦
##コル
別名
プロテ
スマート
##ッシ
たけ
三角
上杉
地中
正面
物資
王位
起点
つける
インドネシア
##GM
##クル
##バム
いま
大人
若者
香川
##コーチ
ラウンド
##ヒー
##程式
##age
He
Te
リュ
偵察
働く
抱え
##プション
に従って
パッケージ
##下げ
しれ
コア
千代
家康
法案
##ーマス
方程式
起こす
関わら
ディズニー
##もり
ませ
典型
前回
太田
飾っ
クリー
繊
69
立地
領主
出会い
蓄
先駆
大気
ブーム
ヒトラー
いた
とら
会計
引っ
##ンジャ
忘
棒
灰
絞
宮殿
浴び
英雄
##ショー
##ケストラ
ラテン語
哨
とく
制覇
奏者
落語
黒人
##菓子
こく
大公
役員
東方
横断
赤い
プロセス
必ずしも
瑞
##トー
166
173
むしろ
掃
ロン
勧め
含ん
糖
虚
岡田
逃れ
宇都宮
##ly
但
粉
蜂
号機
学位
##イクル
アトラン
懲
SM
がん
つか
公国
塗装
認知
論理
##アント
あわせ
らしい
##IL
炉
ゆき
ヨー
乗客
動員
##ッポン
##キスタン
バレーボール
堅
陵
##ial
増大
本当
東宝
近畿
コムーネ
タンパク質
臣
##ほど
態度
排除
有機
校長
琉
##たび
##リヒ
##合わ
メイ
才能
ゴールド
悟
##ッソ
ヒル
厚生
原理
工作
東大
甲子
積み
送る
テニス
ライフ
Play
にあたり
創造
##らかの
避ける
##pp
##sh
##ong
さく
修士
担っ
放出
縮小
衝撃
ブログ
金メダル
##IA
慎
硫
リオ
上京
動力
移植
避け
互いに
弓
笠
たま
トイ
失点
広域
直径
##イルド
ようやく
ジェット
##循環
Ex
カテ
併設
時計
無視
##ネーム
亭
履
肝
##々木
セミ
町村
読者
論争
その間
##フランシスコ
律
捉
桑
##ust
Ph
Se
毛利
白い
量産
##ハイム
##ルソン
考え方
フレーム
##メンタリー
ナポレオン
釣
鼻
##ock
前面
回り
回収
観点
豊か
##レイク
##ージャ
あなた
1908
コンテン
##モーション
加速
編纂
##アニア
バトル
メダル
##テーション
ファイナル
中日
容量
悪い
登山
運河
オーク
ベンチ
稀
##ベイ
周り
圧縮
快速
競輪
行事
##コース
##フォー
なくなっ
フリードリヒ
下院
保管
回路
研修
ルイス
レーダー
ミュージカル
ピン
白人
船舶
装飾
逆転
165
ターミナル
##ational
懐
拝
意向
考案
駆け
ナイト
満たす
ウェスト
エドワード
ファミリー
入賞
説得
##ターズ
##エラ
日曜
開館
不動産
##エンジン
##センター
おそらく
レンタル
なぜ
築い
課長
通貨
パーソナリティ
泥
瀬戸
結ば
黄金
##リウム
上げる
認める
?」
ゆえ
下し
内戦
庭園
濃度
牽引
食事
##TA
MC
予測
哨戒
室内
控え
##メイト
162
ポップ
停留所
鷹
レン
在住
支店
融合
適切
生放送
識
##つい
ラス
外観
数え
次に
退任
名乗っ
##EM
##切っ
うま
中野
努力
団地
種目
限界
述べる
中隊
変動
天保
松山
167
堤
##つき
修復
当地
混合
逃亡
##ペーン
##ラリー
ひとり
チャー
ディーゼル
##さい
Br
思う
牡馬
総務
##フリー
ボーナス
サンフランシスコ
芸人
豊富
Ad
EU
品種
水戸
衰退
軟
##ond
Sc
開放
サンタ
決める
j
歓
DS
メガ
ワー
電源
飛行場
ボクシング
慰
##ドウ
てる
循環
水域
につれ
迎える
熟
遷
大衆
施さ
質問
配属
喪
##まえ
##セイ
信用
助手
外側
最小
酸素
闘争
##ベリア
彩
##しゃ
勝負
勲章
実践
探偵
法的
第一
大震災
ローマ帝国
##IG
摩
AR
今回
兼任
気筒
独占
警戒
リアル
東海道
ステーション
##ジラ
まる
会館
奉行
挟ん
降り
スリー
達する
吾
魂
AN
山地
##イヤル
##フィールド
妙
##ニエ
##ロウ
EX
かね
不正
中断
墓地
天体
無人
見な
##ーバー
##ーシ
##ica
文章
運賃
##バイス
##tern
172
##フスキー
噂
##ish
液体
賞金
##民主党
リスク
辛
##返す
CS
MV
南海
宮廷
療法
軽量
1889
##グリ
ベネ
在位
武士
渡る
引き継い
ディレクター
堺
鎖
##メイ
うた
身長
見せる
焦
##たま
イリ
特典
生存
男爵
##付ける
講談社
1907
扇
##ナミ
でん
歌う
アラビア
偉
呂
巣
##ちゃ
ヒー
書く
海峡
ヴェル
置き換え
##コス
##取る
##書き
##ign
総会
配給
##チック
スカイ
共和党
##ナイテッド
##じめ
##オル
##シナ
##und
TR
ウラ
並ぶ
短縮
解雇
運輸
定める
アルファ
コロンビア
童
##セロ
##褐色
奪わ
平野
征服
応募
黒い
見つけ
脂
釜
##ろう
##程度
前者
南方
徹底
ある程度
##St
誓
シド
北陸
変身
多摩
学問
くらい
みんな
はっきり
算
##ary
に当
乾燥
半年
実力
配布
AAA
コンテンツ
##KA
俗
蒲
ミラ
将棋
待ち
従業
コール
ドライブ
##うち
就い
廃車
最古
開校
にくい
##都市
司教
着手
総理
陥っ
騒動
ハート
ショート
##ネン
##義塾
正教
親王
##トラック
何らかの
##ix
國
##グロ
AP
冒頭
戦術
救助
新田
琉球
落選
名乗る
甲子園
訪れる
##ポーター
チベット
中華民国
##pe
三井
刺激
医薬
国籍
構内
調達
メモリ
##ヴィッド
ヒロイン
ショッピング
CH
がっ
リト
修行
探検
看護
長編
Web
オールスター
畑
##are
トル
容疑
教科
155
倫
句
##合う
IP
La
UN
参入
師範
水上
125
ツール
圧倒的
##ビジョン
##ミネート
エレクト
コマンド
貝
##テイ
##ert
ゲル
交易
周期
後部
炭素
講演
##アウト
1905
##OT
##ux
墳
グロ
定理
怒り
恒星
日々
風景
##ットー
##リンズ
フィル
禅
ch
出撃
車内
大西洋
オーケストラ
ドキュメンタリー
##向き
キュ
ペア
メカ
相次い
大韓民国
##pt
柴
蘭
No
PR
余り
寄付
審判
改装
木村
死者
選ぶ
フィラ
趙
震
イエ
定数
就職
我々
抑制
甲斐
法学部
称する
銭
##ガイ
WW
しゃ
命中
品質
成人
比例
船体
マガジン
確実
結論
親し
峰
譜
##トレ
##ach
後退
時に
突入
衛生
視点
道具
##中学校
変わら
ノミネート
尺
##シオ
ケイ
上田
去っ
深刻
走り
##ークル
##OP
塾
##マラ
尽力
挿入
最中
河口
阪急
##フィン
シャン
##スポ
Sy
終点
衣装
##っくり
##バキア
ミュン
1916
チャレンジ
則
剥
於
##もん
##三郎
##ass
##ite
セイ
マニ
建国
従軍
立つ
身分
ドーム
ウェブサイト
零
02
事項
人権
入場
刑務
同人
夫妻
後に
皇后
間隔
オフィス
ユニバー
##int
##ンチェ
##ヴェル
ドラム
飛行機
洲
髪
##アム
##コロ
##ルカ
マジ
敷設
車線
cod
広がる
激しく
##かく
##リフ
引用
薬物
##ソング
バージニア
##どう
##デュ
##モス
##東京
##ory
じん
上級
不良
入植
感覚
支流
法則
活発
##ソフト
##ヘルム
カウン
繰り広
プレーオフ
膝
LI
on
伊達
保証
厳密
法学
##イアン
##セッツ
TKO
タクシー
坊
班
##リャ
保安
帰っ
砲撃
隠し
##ミュージ
フィート
マルクス
##チューセッツ
叩
益
##ノフ
:)
おい
ゲイ
中島
寛永
招待
時刻
理想
駐屯
コラボ
マサチューセッツ
縄
##ンバ
05
中核
悪魔
細菌
ボート
桐
東南
沈没
##ワール
長らく
幽
舟
三島
前田
空中
統制
配慮
##上げる
ガイド
トーマス
##太子
##ath
09
大橋
後年
Mus
シンガー
##スティバル
ラブ
クロア
バレエ
改めて
高校生
ニッポン
アルコール
亮
舎
雌
##デア
口径
民営
漁業
選考
キューバ
オプション
兆
孔
耕
##ニコ
##笑い
Ed
ゆく
イェ
昆虫
村上
臨床
開き
面し
154
横須賀
スロバキア
|
謙
##ile
隊員
##じょう
天文学
籠
##ゼフ
##ドー
##ペル
##時間
ヤク
慶應
文芸
有料
##ニズム
珍しい
##ッキング
慶應義塾
##BO
媒
蘇
##知事
同意
山陽
戦場
福音
贈ら
フォーク
##ディングス
南アフリカ
妃
寮
おき
会話
元禄
山岳
幼稚
張り
著者
行方
ブック
##..
##チナ
個々
実は
救援
阻止
##ツィア
讃
低迷
同等
相模
##ページ
##ical
スコア
##アルバム
##ポリ
デー
個別
抗争
無限
##ッパー
140
マリー
クロアチア
ジャクソン
##ノイ
##ick
あの
カス
両国
合戦
排気
推移
盗塁
ウェイ
土曜日
乗り入れ
ジャーナリスト
みち
忘れ
青山
DNA
Sch
幅広い
1906
チェーン
宏
霧
##ギス
DC
懸念
春日
残留
USS
ならび
タイヤ
取り戻
オリコン
クリスマス
乃
妊
疎
介入
小野
朝廷
検察
水平
スパイ
##われ
##iss
.)
僅か
恋人
魅力
ソース
ショップ
ファンタジー
ヴァイオリン
##AY
宛
##渡し
##貨店
-)
08
下流
主宰
入門
特集
秘書
階段
NBA
ヘビー
ベルト
##ライター
アンダー
厩
淳
蓮
##住民
##通り
ダニ
乗降
権威
踏み
近江
##ートン
ヴィル
ジョンソン
辰
##クレ
Me
出産
みなさ
刑務所
単行本
日曜日
スカウト
デザイナー
腐
##エム
Pr
人事
付与
オーナー
ダウンロード
α
溝
##ウロ
##カリ
変形
絶滅
閉じ
##ベリー
codice
##ve
遡
味方
固め
境内
旧制
ウッド
キャンペーン
将校
##ガース
##ence
長距離
1909
##IR
##VA
賠
##ier
技法
##ケード
コントロール
##")
犯人
部下
##ーニャ
ワーク
##クトリア
ブルース
カム
化石
プール
##ブランド
ストライ
にあたって
塚
弦
##ニオ
04
橋本
没年
配列
ヘリコ
マラソン
遮
比率
番線
車種
通勤
進歩
##サウルス
バランス
##DS
俺
##なか
丘陵
乗せ
南極
日産
民衆
水準
沿線
発し
900
キャスト
##カロライナ
ミュンヘン
慕
ゴー
任期
出入
性的
演説
血液
補佐
賠償
And
Wor
キック
ヴァン
要する
アレンジ
インスト
ヒーロー
エー
人材
先輩
着陸
要望
##ーマニア
間もなく
##ずる
スリ
パナ
主役
##ヴェン
UFC
バード
ペンシル
キロメートル
牝
##ニョ
DJ
曲線
滅亡
高め
##エット
致
冷却
削除
山頂
結晶
##ガリア
ミドル
##KY
##TC
鋳
##ーノ
##per
オレ
併合
模型
##グラム
スミス
ボックス
アシスタント
邪
##づい
分散
及ぼ
皮膚
警視
##パニー
しかも
佳
漏
累
Or
か所
やま
ミル
入口
内側
受容
同国
左翼
薩摩
討ち
New
くれる
ウィン
進める
1890
コンクール
束
"』
平面
広範
財務
顧客
伝わる
ならびに
ルーマニア
猿
##ろん
##回り
##ann
切れ
町内
緩和
走っ
##バース
##バーン
##ローズ
かける
イスラーム
##ace
Cl
SE
メス
失い
小倉
扱っ
王立
高架
##バイル
モンテ
ジョージア
了
##ラフ
AL
招い
条例
構え
金曜
##インズ
分かっ
##メディア
泊
##スパ
先生
冬季
幾つ
海兵
辞職
もっと
幼稚園
シャルル
ベクトル
揺
甥
##arl
CO
会談
市川
幼い
所持
所領
##クラブ
##ソリン
にわたる
##役所
振動
港湾
熱帯
語る
食料
##ニオン
プログラ
エリザベス
殆
肖
賭
なれ
カイ
スル
学年
学長
歌唱
##ッセン
##上がっ
115
変わる
##ッシャー
大宮
女神
重複
ネーム
##ンタテインメント
##ern
フー
五輪
原料
撃破
騎乗
一時期
合衆国
正教会
割り当て
呪
##モー
##ラブ
夕方
広げ
符号
航行
Lin
カテゴ
倶
掌
疲
羊
閲
##ちに
##女子
##act
ドロ
礼拝
考古
高山
##ポリス
お笑い
に従い
##TR
朗
絡
儀式
恐怖
水道
適し
シェア
金曜日
シドニー
筒
##公園
##諏訪
##oft
中川
公爵
函館
力士
大野
微分
成田
捕手
撃墜
衛門
解任
都合
スロー
留まっ
##フィール
ガソリン
##デルフィア
穂
篇
篠
三郎
不能
但し
傍ら
日立
河内
繊維
順次
1500
そのうち
醸
雰
##囲気
Tw
ミリ
勉強
実在
小山
担う
神学
##グラス
WBC
まった
雰囲気
つながっ
##ove
モハ
単語
実況
山崎
改編
教養
美濃
近衛
恵まれ
1904
ヘリコプター
戯
替
DE
ガル
ミネ
会津
鎮圧
顕著
首長
##モニー
手続き
フィラデルフィア
猪
##気に
並べ
宿泊
有利
松竹
発症
確か
移さ
ステップ
ジャイアン
ブルガリア
賀
他社
前日
契機
新型
殆ど
海水
重力
##ブール
まもなく
嵐
信濃
樹立
歌舞
評判
電鉄
首位
マネージャー
胡
叔父
##ッスル
携わっ
見つかっ
##MS
盆
眠
綴
##の子
##ame
IT
くん
互換
全線
心臓
流し
緑色
返還
##フェル
まったく
アナログ
キャスター
柄
##ザス
AK
みる
京阪
全般
勤め
当然
簡易
講義
##ヴィン
153
ロマン
1903
針
##イー
とて
一度
公益
幕末
##レード
変わり
大いに
経済学部
##之助
##九州
入院
島津
断念
石炭
リズム
ヴェネ
地中海
そうした
綾
貼
##ッヒ
##電鉄
MA
マツ
城下
対処
小川
至ら
##ベック
社会党
##ラト
いれ
対照
治安
発注
通し
Joh
引き継が
HD
壊滅
変数
外野
専念
幹線
広大
施工
汚染
##しかっ
##ビング
RPG
医薬品
リトアニア
予防
延伸
洪水
海賊
##カンド
励
暖
##ねる
##エイ
My
セン
初戦
博多
海域
消し
神聖
肖像
願い
エクス
ハイン
プロト
生かし
##ミュージック
発覚
##apan
スーパ
##ペラ
##兵衛
03
アポ
ムス
不振
行使
通路
集会
##かける
##セロナ
セーブ
トイレ
蹴
マド
ヨハ
保健
倒れ
総長
領地
##プレス
##ューン
タッチ
集める
##ンジニア
##奏曲
モニ
所蔵
##ンガー
大都市
"」
付加
休日
内蔵
焼失
狭い
環状
目撃
神宮
西方
負っ
長女
気持ち
##Station
寧
帽
響
##モリ
##rom
きれ
ふじ
オハ
ネイ
反射
台風
州立
早期
退社
Col
タワー
マンガ
ラスト
バルセロナ
創建
招集
##ハルト
カフェ
ターボ
テープ
ストック
巻き込ま
##久保
公務
公的
復元
新作
概ね
社団
紋章
野生
電圧
ビール
北九州
マスコミ
ロックバンド
##ke
ぷ
06
別れ
奪取
就役
支払い
##ニックス
##II
##リク
##ロニ
カ国
三男
告げ
唱え
放っ
調教
高田
118
イエス
ピンク
コンテスト
コミュニケーション
和田
短く
転用
##ーパー
NTT
アダム
アラン
キャプ
変える
##MA
ふる
テル
公社
季節
楽章
遊び
152
バイオ
不安定
##ースター
オレンジ
ダブルス
棄
汽
##ook
侵略
出生
消え
##タリスト
##リエーション
吐
咲
遼
標本
##aw
豆
闇
SD
サウ
三浦
傾斜
大尉
東急
法令
覆わ
観音
電化
わかる
小学生
勾
##やす
##ょく
##わけ
小松
山城
被災
調理
もたらす
ロイヤル
敦
是
輩
土佐
客車
度々
望遠
牧場
艦艇
除去
飲食
ペット
##アメリカ
##学院大学
磐
##せい
##ナウ
##高等
ra
バッ
伊豆
協同
大変
大蔵
表さ
見方
##ンドー
とても
ステークス
テレビ東京
胞
ミズ
併用
延期
抱い
##ヴィチ
歌舞伎
1901
##TS
腫
鳳
##コモ
##ュル
充実
暗号
検索
生態
貨幣
ディス
レンズ
佐々木
##ホー
##寄り
デル
ポケ
上述
番台
##セラー
##ワーズ
##de
播
緒
鮮
市営
誇る
高原
##バード
##マッチ
##リエイ
##科大学
レール
正しい
チャンピオンズ
本国
残す
話す
ウォー
ニック
あくまで
ジャイアンツ
##がし
##くし
##なら
##学園
商標
回答
安倍
定年
損失
長谷
閲覧
##ディス
##stem
涼
##ロフ
##amp
##ium
山下
成し
釣り
##ドール
捕らえ
##PS
据
矛
裂
伝達
地質
大島
平行
滑走
統括
違っ
Mac
ゾーン
PlayStation
潤
どれ
チン
ドー
下旬
同僚
用水
賛成
##モント
レスリング
ソフトバンク
##IX
z
汎
LO
アタ
予約
同行
抜擢
流出
流用
筆頭
とりわけ
アダルト
ライオン
ギタリスト
プロモーション
癌
萩
跨
アプ
広報
所得
現状
省略
芸名
虐殺
踊り
降下
##ゾート
##ボーン
もらう
1898
それから
プレート
ラッシュ
##NS
把
枢
殻
鍛
##わさ
##アミ
切っ
所長
斎藤
遂げ
遭遇
頂点
パネル
医学部
生き残
##アイランド
堆
##ガニ
作画
各社
妊娠
妨害
強度
本店
燃焼
窓口
繁栄
老朽
##カーン
##シェル
因ん
悪く
番地
看板
職人
諏訪
貴重
金額
##ダウン
##リアス
国民党
1902
取り組ん
マレーシア
##よう
カプ
ネオ
喪失
捉え
日光
木造
特異
馬場
JAP
Ser
フェア
短期間
1896
スポット
銅メダル
ハリウッド
マンション
囚
培
岳
涙
##ズミ
仮説
判事
弾薬
歌劇
浦和
熊野
著し
褐色
##タイプ
決して
グレート
サークル
ロケ
主任
介し
制約
外れ
庁舎
習慣
表紙
適応
##シウム
##レッド
ABC
アルゴ
ヨハン
凝
慈
##コフ
##大臣
兵衛
出店
函数
増し
大井
熱心
覚え
IBM
1871
主として
##tt
磯
##ズル
##チオ
##ina
交戦
代数
国軍
準々
立法
視覚
近世
退役
還元
##ヴィス
シミュ
ミュー
加わり
銀メダル
プロテスタント
##電力
債務
替え
牝馬
瞬間
稼働
降板
##らしい
111
151
EC
ON
吉野
投与
細川
野菜
開戦
パーセント
捧
いろ
問い
城主
毎回
競合
起訴
##リアル
##ヴァル
202
伸ばし
望遠鏡
見なさ
マックス
朝日新聞
プラットフォーム
墜
##エゴ
ねん
市域
正義
被告
農村
もちろん
湘
菩
酷
##ラド
かく
三つ
不定
島根
捜索
浜松
##プトン
Man
ティー
翔
##たし
##づく
##ime
MP
nd
岡崎
水中
育っ
詰め
113
すぎる
ボラン
テーブル
ユーゴス
切り替え
ペンシルベニア
##ムス
メタ
党員
反撃
感謝
最適
検定
要件
上回る
大使館
格闘技
高まっ
##ベーター
CL
なす
中盤
優位
庶民
後世
怪獣
技能
歩行
純粋
##キット
##ドルフ
市議会
##高等学校
庵
斑
蛇
##切ら
下位
使者
疑い
豊臣
農林
電池
##ミット
パイプ
加える
ダメージ
ライター
##ai
袋
##そう
##リュ
##ont
##orm
加賀
精度
胴体
造ら
野村
隊長
サーバ
仕組み
グレード
インターナショナル
兵力
役者
徒歩
景観
甲府
開局
たびたび
セントラル
##Hz
la
コネ
レジ
原型
外見
客員
敵対
登記
策定
##ナント
105
クーデ
パーツ
ラリー
##sp
呈
輔
##酸化
偶然
在任
天井
施し
監査
貧困
##揚げ
がち
乗員
安政
耐え
評さ
##キュー
##ベート
パック
ロッテ
シンボル
Japan
拍
##空港
ゴム
完結
正体
読む
講座
識別
鳥類
116
日本国
1880
スイッチ
フェリー
JAPAN
##OD
##yl
##ハラ
##ヤン
##old
07
収益
小笠
認証
##上がり
360
わかっ
##enter
ょうがっこう
フェスティバル
傑
辻
頑
##son
あん
メソ
情勢
撃沈
極端
浅草
立体
##えもん
厳しく
コンクリート
茎
談
##だい
##ユー
##EST
もん
オオ
ニン
右翼
垂直
総額
脅威
語ら
貫通
あたっ
クレイ
1899
ムスリム
組み込ま
督
##番号
エキ
代行
同型
明け
期生
検証
狙っ
神殿
見舞
135
350
テクノ
百貨店
ブロード
取り組み
インディア
爵
琴
綿
##セフ
アサ
陣営
鹿島
##ホテル
仕掛け
1897
ユナイテッド
##ソル
##テレ
%(
IV
やる
セガ
乗務
会合
内陸
坂本
墜落
宣教
満足
広がり
日本海
##ck
##しん
カロ
慶応
照明
込め
マップ
ライヴ
1870
##DP
ヵ
吊
庫
##ゥー
努め
史跡
土木
抜き
葬儀
##ナップ
アリス
カレッジ
##TV
搬
椎
##ton
BM
今度
拘束
死ぬ
気付
没し
発動
筑波
診療
クロー
スピン
バーン
出会っ
1884
イースト
西ドイツ
##エンタテインメント
三木
全部
同級
守り
水系
輩出
阻害
##サイド
##チーム
112
114
BGM
ローズ
関わり
##ブリッジ
##モーター
コーヒー
シングルス
##ヒル
個性
家老
市販
株主
民俗
違法
##ヴィヒ
##ヴィー
ほしい
皇太子
アトランタ
##au
##グレ
##バマ
##isc
Ge
ルネ
不要
天使
就航
幹事
序盤
推理
改訂
無事
誤り
謝罪
##ゼント
WBA
備える
協奏曲
遣
たか
はら
採択
東芝
果実
水雷
特撮
真珠
空手
食い
##ジウム
新しく
也
妥
##eth
技師
望ま
未だ
肉体
都心
##ザーズ
ヴァル
体育館
教科書
1600
##ax
玩
##楽部
##uct
OF
奪い
職務
隠居
##掛ける
はるか
ハーフ
外務省
呼びかけ
ユーゴスラビア
胃
謀
鞍
##ッペ
##ビュ
##ube
いし
夏季
年金
気圧
法廷
流入
石井
討伐
豊田
配下
##タール
##ベンチ
グレイ
ファー
倶楽部
ストーン
グラフィック
鋭
鍋
CR
天王
捕獲
支給
日野
浮上
番手
##olog
CPU
プレス
上がる
小田原
##itter
欄
##ーヌ
Wi
国務
死体
無効
道場
##カット
うまく
さくら
させる
上がり
著しく
キャプテン
##思議
住み
倒し
和解
実家
対空
排出
##ディン
##ヴィア
クルー
モバイル
##CA
餌
##裁判
##ark
CG
そば
ちょ
チリ
前線
売れ
少佐
打席
親衛隊
アーケード
憧
擬
烏
##ros
中東
歌い
演習
落下
##立大学
##ound
米ドル
##ジェリア
コミューン
ホームページ
隙
##諸島
久保
信者
早い
母音
津波
牧師
知名
電流
飲み
飾り
##メイン
133
##yn
β
うつ
先進
分間
同性
声明
対称
磁気
##裁判所
警察官
##リティー
Intern
データベース
##oo
缶
##いう
##マク
予告
小屋
##ンダイ
アイヌ
エンド
チップ
モント
名づけ
名乗り
比べる
1868
(=
トウ
ラウ
位相
号車
路面
量子
カート
ミステ
ヴェネツィア
凍
刈
把握
済み
づくり
とくに
ピーク
県知事
##サンダー
チェック
オートバイ
ブライアン
##oci
DD
モロ
一人
奨励
普段
経歴
藩士
##っかり
117
フロー
リレー
知名度
##ジャパン
オハイオ
繰り広げ
靖
##ヌー
##レア
Wh
リベ
ロマ
力学
州都
廃棄
最下
渡し
物体
誤っ
重大
隠れ
骨折
##ロイド
102
シード
当たっ
ショック
スタンド
クーデター
##ラミ
キル
ハム
水産
無理
神田
警告
革新
つとめ
先住民
ストレート
ダイヤモンド
##MI
代々
展望
治世
演算
種子
長岡
ランプ
ユニバーサル
##ギャ
ボリ
全身
取扱
角度
電磁
青春
ヴァイ
##ーリング
つながる
とどまっ
宰
保全
太子
寄与
海底
禁じ
農場
通学
##ナード
##ペット
##レスト
ストップ
ポケモン
フットボール
窒
スズ
単一
呼吸
土壌
救出
正当
源氏
発祥
盛岡
小笠原
アピ
リバ
中退
倉庫
文政
記す
##ナーズ
##リンク
108
109
つもり
単なる
広まっ
従って
##レコード
##アド
BL
Su
ぶん
出品
同志
多用
弱い
殿堂
軍勢
音響
きゅう
オイル
澤
##てる
##わい
ID
ビス
合理
塗り
##ディオ
もらっ
ダーク
モール
付ける
大日本
メアリー
コンパクト
東南アジア
菜
##しき
##ケイ
##パイ
定員
本質
良好
貸し
高野
ガール
起きる
1893
Comp
エンジニア
壮
##コム
寛政
木材
歌謡
赴任
##タミン
AFC
グラス
##ivers
槍
##リラ
##違い
)「
ワル
中立
南京
基金
メタル
ドラえもん
瓦
##ere
仮想
党首
増強
家系
尾張
払い
推奨
老人
運命
遠く
##ドニア
ガード
ペルー
公務員
1872
ライダー
##ML
】
嫁
泣
##ネイ
##att
##ost
債権
公募
同地
外科
月曜
格納
自国
親子
読ん
##セッサ
##ニウム
ノート
あまりに
##スタジアム
コンスタン
仰
##ニル
乗組
前進
同校
山中
工程
排水
染色
症候
福山
起動
野党
開く
陸地
##ラート
MVP
NAS
ローン
##AK
##IV
径
##ork
みや
ハロ
他人
教区
高層
##ダンス
##ネラル
128
カーブ
ルーム
John
さいたま
ブー
出口
姫路
役職
後藤
急激
懲役
栄え
焦点
田村
高崎
144
りゅう
シネマ
ヨーク
やってき
アドレス
楕
##取ら
げん
倫理
角川
##パール
Blu
千代田
背番号
....
レーザー
ワンマン
##シュタット
【
扶
##シエ
出荷
母体
浸透
白色
藤田
赤色
##シオン
##ッシー
パレス
市役所
珍しく
1886
##ステークス
巧
括
煮
穀
芦
跳
飢
##ョウ
一郎
勝っ
報酬
楕円
越後
開け
##ッピー
アルメ
京都大
サンディ
ラーメン
自由民主党
チャンピオンシップ
惨
##主義
##張り
上場
中佐
加熱
友好
得票
破産
親友
面白
##ゲット
##メイク
アテネ
ピット
マスク
幅広く
行なう
ゅうがっこう
##bo
篤
体内
勢い
台北
擁立
数少
砲塔
語源
逃し
野田
順序
121
いつも
2020
ブルック
スプリング
恭
斗
籍
##打ち
キハ
出港
掲示
砲兵
##ッセイ
Mic
分かる
天文台
World
スティーヴ
##ッポ
りん
及ん
多大
指令
支線
蜂起
補償
1888
##ンチェスター
塁
##タス
再会
天神
救済
正月
締め
##しょう
##land
ドリーム
ウェールズ
ジョーンズ
##DA
HP
ゴル
ワイ
攻勢
救急
突撃
銀座
ゲージ
申し出
見直し
殴
脊
##べる
##ear
住所
商工
招き
玩具
貨車
買っ
##モール
繋がっ
アキ
上空
免疫
再婚
初年
安価
政務
標的
爵位
赤字
##ライド
##ラスカ
##ワース
##ンドラ
Vol
一気に
ダニエル
ダービー
引き起こし
害
曽
穏
鐘
##えん
##ヒト
##ピュ
JC
不利
人組
学士
理念
過剰
重点
##フルト
ヤマト
中国人
詳しく
アルゴリズム
エレベーター
元素
探査
菓子
親交
Car
pro
ミラノ
朝鮮半島
地方裁判所
察
抹
##タゴ
JA
ぜん
上方
他方
地獄
大山
専属
幾何
真っ
賃金
##つける
##ビデオ
高める
LIVE
ポケット
##af
鶏
麓
##ank
きん
主砲
住友
大坂
旗艦
渓谷
##ケート
##ネシー
警視庁
レビュー
コミックス
##ps
廻
稽
顎
TD
mi
巡っ
必須
正常
表題
関節
##キャン
119
##HS
##たら
##渡さ
工夫
最年
決戦
踏襲
車庫
載せ
阿部
黒田
104
ロータ
1895
アシスト
テレビ局
数少ない
グローバル
##フットボール
倭
粗
蒋
##ree
##ung
NS
ハミ
マケ
下げ
作風
創始
南米
矛盾
頻度
##エンス
##ローチ
106
ビーム
##ッシング
##ージョン
大日本帝国
刃
坪
尖
##ホン
##ool
ギア
制服
刺史
妖怪
近藤
通商
頼朝
飲料
につき
セブン
ブドウ
不思議
##ージェント
叫
隷
##ヨー
kW
なき
一揆
化粧
太守
残存
知的
襲わ
釈放
閉店
非公
##ドラマ
##ハーン
149
スティ
ストロ
バス停
シアター
ペルシア
ニュージャ
SO
Tr
or
みつ
出張
出雲
利点
助言
天下
実態
年末
整数
ミラー
中でも
高まり
##ンスキー
##ムシ
##彗星
##ult
おう
一門
最強
福田
農地
Fran
リゾート
儒
岬
##まい
##セラ
"-
Op
ダル
中旬
交際
摂取
論じ
軽減
運搬
103
ずっと
フォル
左衛門
暮らす
##ミックス
1860
カップリング
##NN
曳
潰
盾
##椅子
くだ
エフ
エミ
中小
中等
冠し
切断
勾配
噴火
機材
欠場
立憲
食用
魔女
##ンガム
123
Ste
セカンド
生み出し
Music
スクリーン
ヴィルヘルム
プログラミング
##IO
笹
カウ
台頭
名目
回想
媒体
根本
欠点
満了
連動
##ホーム
148
まつり
トニー
中学生
出会う
1873
クリエイ
湧
狼
賜
##ail
##ron
Gr
ナン
上手
係数
国産
失う
据え
発信
見送
途上
過激
題し
1887
それほど
ピアニスト
##EO
豚
黙
##iel
同市
営利
混同
薬剤
辞退
門下
##リーガ
Rec
増やし
ピエール
インディアナ
チームメイト
墨
##はや
##ose
ぎょ
ぐち
サス
堆積
好ま
左側
改築
ベッド
加わる
##フォーク
ウォーター
グラウンド
ニュージャージー
ホールディングス
甚
覇
##いち
##落と
EP
GM
ヶ所
写像
外務
書店
有数
皇族
触媒
軍用
127
Cor
どんな
ケンタ
自由党
1894
シュート
チェンジ
引き上げ
パーティー
##EE
##ソウ
京王
受章
告白
復旧
支社
農家
邸宅
##ルイス
りょう
トマス
ペース
不定期
出入口
難しく
##ハウゼン
ボクサー
##ベンチャー
##WS
靴
##っぽ
##スピ
##ale
こだ
制圧
博し
厩舎
大津
引く
横綱
消化
破綻
脂肪
##ストア
##ープル
マリオ
##ワールド
with
アーサー
敢
郭
鄭
三河
人格
常務
緊張
誤解
退官
露出
食糧
##ッサー
ビーチ
リトル
マドリード
圭
棚
##ウイ
##oth
]]
告知
憧れ
無関
秩序
透明
週末
##ウンス
##マリア
##替える
パンチ
最下位
1800
サウンドトラック
##ee
嗣
##iki
えん
まい
再興
志願
旗本
書簡
書類
最長
歩道
着工
進展
遅く
もうけ
ホンダ
1892
プレミアム
System
##大陸
##ise
ベー
大田
孤立
実戦
川口
東武
水力
療養
造り
金銭
集積
リッチ
使える
自動的
##ハンマド
クイーン
コンテナ
引き起こす
昨
燕
##キル
##ケー
),
PV
くじ
グア
入居
小泉
投球
採掘
習得
耐久
グラフ
越える
1864
1869
なかなか
アップル
セッション
鉛
##ゾナ
とか
最上
火力
異例
聖職
西暦
##トリー
##トロン
##メット
##リッツ
めぐる
ウィル
テキスト
仮面ライダー
苗
##しみ
##ans
アベ
ウイ
倒産
官房
封じ
水路
聞く
活かし
1878
サイクル
ザクセン
チャンス
分かれる
裸
OP
キム
リク
因子
彗星
歯科
異動
砂漠
##ビッド
シフト
ハリー
ラップ
同級生
宇宙船
無関係
皮切り
集まり
リスナー
Linux
丈
祥
##ロド
##抜き
##KYO
BR
こん
任さ
偉大
地面
基幹
工芸
撃退
浮か
祖先
譲り
##ンスク
サイン
ヴォー
プロレスラー
尉
惜
##ビリ
##ake
ED
プル
告発
探索
用地
組ま
連敗
飯田
##ラーズ
##lect
アーム
エスト
##サービス
##ジメント
##シフィック
##</
枯
漂
##とか
##まさ
##ゅん
##ェン
##ロル
##ATO
ふた
タバ
世間
両側
光学
多発
強豪
手続
棋士
毎月
赤軍
重い
防災
##ブリン
##メタル
先駆け
直ちに
##コンピュー
ぱ
ぴ
尻
曰
詞
##ダス
##パラ
##パル
Mk
RE
マカ
依然
定住
小島
急遽
早朝
望ん
渋滞
測量
絵本
色彩
荒川
退学
##リッジ
ドレス
ポルノ
ループ
並びに
カンザス
プレゼント
コラボレーション
チュ
初日
半径
品川
小売
引い
許し
難民
##グアイ
##プール
122
コック
症候群
長谷川
##女子大学
YouT
ウィリアムズ
##ae
廉
薫
##ゥス
##外線
ジン
主席
伝道
売買
宇治
意志
氷河
背後
##オール
##チェン
##ドーム
放射線
##デリック
1882
奮
曾
##ッラ
##立た
##英社
Dr
PL
住人
右側
平等
思考
望む
特有
補強
##ブラン
147
アウグ
メニュー
*
凱
##あい
##がい
従う
無し
独裁
略奪
管制
艦船
薄い
領有
##ガンダ
ひろし
アーチ
インテ
ノベル
集英社
1862
6000
アリゾナ
ホイール
拾
臭
Ab
GO
ギル
体調
写本
好ん
有無
滅ぼ
狩猟
バルト
##リッシュ
1874
......
ボランティア
##UT
丞
列島
帯び
手伝
直轄
科目
青木
##レータ
クラン
##テイメント
##MP
洛
##日市
##itt
AD
おと
イル
全車
式典
後日
陸奥
題名
すると
もはや
ビュー
出入り
直接的
##ディアン
1891
4000
8000
テネシー
マジック
橘
##イコ
##用車
ぶつ
デス
ビン
ペイ
伝記
出典
大内
届け
差異
手前
自作
部位
鉱物
##ウォー
NFL
ジュー
セキュ
月曜日
##ジャース
Comm
##uk
##じん
##カナ
##詰め
MO
人文
打っ
松田
食堂
##ward
124
ターン
バイク
ボーイング
##HC
尿
樺
胎
##クリ
ha
そも
名人
寄贈
巡る
用品
)」「
ISO
みどり
カタル
支える
アンティ
ウルトラマン
##HO
朴
##そも
##電気
やめ
勧告
大谷
成る
本州
紙幣
蓄積
親善
進軍
107
ロビン
卒業生
##ition
そもそも
スケール
ノーベル
乏
痕
##デラ
##anc
##ott
内外
北上
和平
図ら
押さ
擁護
生前
生年
##ナンド
146
ドミニ
ホラー
交通省
敗れる
もたらさ
ダンサー
マーティン
アレクサンドル
="
El
主権
伊東
内野
好評
婦人
弦楽
慣習
招聘
日程
明石
町立
真実
計測
踏切
追求
COM
アンリ
ピッチ
集まる
フランツ
受け取っ
キーボード
シミュレーション
##gr
##yd
楼
猟
舌
##own
がく
実証
教団
郷土
醸造
##ベール
JST
サンド
ミシシ
伝わっ
日本一
気動車
##プリング
Love
ポスター
繰り返す
##ラクション
TOKYO
喧
易
隅
##ous
ろう
フッ
仮定
伏見
原稿
干渉
拳銃
決断
菊池
越前
##グラフ
##ogle
BOX
ドコモ
地上波
アピール
アフガニ
リメイク
アルメニア
アフガニスタン
##ブー
##ロイ
SA
メダ
吉本
名声
大王
導い
悲劇
楽天
橋梁
稽古
順調
高温
シリン
スキル
含める
抑える
生きる
ナレーション
センチメートル
躍
##グマ
##着い
ガイ
ネー
ボブ
師匠
帰り
馬力
##ネイロ
##ローラ
アルミ
1876
ちょうど
イリノイ
バンダイ
詠
##オリ
##五郎
##引き
か国
らい
下関
利根
婚約
守っ
左派
投下
援軍
有罪
流さ
特番
素晴
継ぐ
##ッタン
137
For
バット
内務省
##スポーツ
1881
1885
戒
遥
鳩
鴨
##互い
)-
be
任官
全集
内務
弾圧
愛好
湘南
狙い
王妃
起工
##ームス
お互い
アール
明るい
本当に
##リヤ
主教
京成
他国
動向
寿命
恐竜
捕食
掌握
斜面
有権
次郎
積分
芝居
解明
近接
##マール
##レージ
142
OVA
アンナ
マウス
ヴォル
高かっ
##ディーン
エッセイ
サンデー
シルバー
フォーマ
アプローチ
ヒューストン
澄
邑
鷲
RA
「(
くら
ケー
一角
不在
司祭
大塚
実務
抱き
曰く
淡路
砲弾
運ば
間接
145
音楽家
Will
ブリッジ
婿
##ley
DR
RC
介護
反論
家屋
広義
持続
歌わ
運び
重傷
ダート
有権者
過ごす
クラーク
オブジェクト
Twitter
戴
袁
##ヘル
バク
メロ
使え
兼務
家畜
府立
指標
田園
移る
英文
輝い
追跡
国内外
1875
ライナー
##ターミナル
アナウンス
マケドニア
楠
##えて
##iam
##ood
MT
SL
ぞう
コウ
シチ
デラ
バリ
生育
車輪
136
欲しい
踏まえ
おこなっ
アイデア
ワイルド
ハインリヒ
##pr
凶
暁
##よし
##電機
倒す
台地
新興
植え
気に
現職
##エンド
App
ナポリ
ニーズ
バッテ
1879
##ジャネイロ
叶
##ユニ
##寄せ
##物語
an
まん
付く
体操
川越
待っ
想像
法務
注文
硫黄
維新
背中
首席
##ブライ
##ames
126
バブル
カウント
マーケット
##ガメ
##PER
##enn
##ild
付随
侵害
保っ
好み
忠実
東山
降水
##ピング
All
Gro
カスタ
チェロ
武蔵野
目立つ
モジュール
Google
##hel
Pl
あて
ケル
世論
仲介
合う
対岸
投じ
水泳
盆地
連立
遺構
閣僚
階層
##イムズ
チョコ
結婚式
間違い
##ンジャー
ユニオン
ミシシッピ
##GA
##デザ
PK
VS
きり
ハド
ヘー
代謝
作動
単式
台詞
当事
産地
視察
調節
追わ
##ance
ウエスト
##テルブルク
##me
娯
腸
##ニカ
##世保
##ode
)"
ぐん
体力
名鉄
国分
大切
寄生
後輩
徴収
木曽
氏族
永久
自称
都内
首脳
よって
ロール
行える
につれて
セールス
ミシガン
ケンタッキー
ハードウェア
##ッダ
##王子
出家
和名
在来
大砲
安田
従っ
播磨
放置
政界
王室
生理
##ちゃん
##レール
Rob
に際し
##ショップ
##フェース
グラビア
トロント
ハンター
パーティ
東アジア
##HI
淀
##アラ
##書店
##ict
えい
めい
ウー
人質
出向
奪還
娯楽
尋常
指数
迎撃
造成
ギャグ
バーク
1861
ドメイン
スケジュール
帆
CF
Qu
与党
交付
側近
免除
名所
文法
永遠
育ち
追悼
青い
##ラーリ
##換える
Ver
代わる
佐世保
裁判官
アパート
カテゴリー
##ソングライター
##ェル
掘り
講和
Ass
デバイス
取り扱い
##LD
##ky
崖
慢
錯
##フロ
##マト
##切れ
[[
はん
まれ
アメ
ハウ
冷戦
動く
原始
各々
囲碁
復讐
意義
旅館
暴動
武力
箱根
花火
高麗
##ッテル
##バレー
)」、
シェル
ブリュ
ショット
タイミング
盟
聡
##とり
回っ
地盤
増設
就く
我が
松井
桃山
社内
聞こ
わから
バスク
マット
明かし
最寄り
1866
アリーナ
プリンス
##テンベルク
サンディエゴ
μ
抄
磨
##シカ
失業
括弧
標識
民事
真空
種別
筋肉
細長
聞か
高地
139
7000
Live
カルロス
アルバイト
マンチェスター
嘆
##まし
##ツォ
##ポー
.,
けど
入隊
再選
収穫
可決
変異
奪っ
従兄
慕容
抽選
県庁
行進
迫っ
##ゴール
##サンス
##ブリー
143
1867
Bill
メロディ
カタルーニャ
YouTube
泳
蓋
##ズマ
Gu
Is
is
円形
動機
大敗
太鼓
於い
旋律
日蓮
機銃
温暖
目覚
苦戦
見事
##キース
##ソース
##ネディ
##ワット
##ントス
LED
クール
フェリ
決定的
##トリウム
##フェルト
##マックス
シベリア
フェイス
##ペンション
索
As
rp
ばん
イチ
全土
戯曲
旋回
木製
横山
突如
辞典
進水
134
コイン
リオデ
ブッシュ
凌
懇
杜
舷
##ギン
##切る
##大阪
Ac
たた
勝手
容器
戻し
白河
膨大
襲名
譲っ
##バリー
##ower
132
クラウ
ハンス
バルブ
バート
親しま
1877
に当たる
エリック
ルーキー
位置付け
ヴィクトリア
リオデジャネイロ
忌
挨
汲
##塁手
リタ
中京
休養
必殺
挨拶
改組
本数
決着
現金
窒素
諸説
MBS
ウラン
デトロ
パロディ
マイアミ
芽
辿
##返さ
-』
便宜
叩き
執政
多少
常陸
特色
自立
コラム
分から
広範囲
携わる
ドクター
フェザー
引き分け
獅
##キノ
##マネ
##生物
さき
シロ
割引
南朝
威力
実体
実写
相違
道徳
鑑賞
!』(
レディ
ターゲット
デトロイト
バリエーション
梶
##ソワ
##ava
MF
先代
処置
合っ
天気
心配
控訴
木曜
水源
没収
監修
軍艦
NET
アミノ
キット
発する
##フェンス
チケット
組み立て
##EP
掴
汗
##所属
##gen
あさ
かぶ
カッ
一塁
名門
安芸
志向
検事
樹脂
水面
牧野
石原
考察
見学
遊撃
電撃
サクラ
ジェフ
ポンプ
考古学
見舞わ
##インター
##コースト
##ジュアル
##プライズ
##リオール
南北戦争
朝日放送
バッテリー
フランクフルト
蕭
CA
もり
主翼
冷房
南端
右手
大夫
樹木
浅野
石田
追撃
造営
##ボルン
Bar
ジョル
ファシ
小学館
楽しむ
オファー
ジョセフ
賑
##まつ
##わす
##ゲイ
##トス
##歌劇
NG
by
だり
ウエ
カジ
カメ
サト
ノイ
保育
婚姻
広東
慢性
拠れ
明日
線型
西口
遠藤
高木
##新幹線
##ords
##ount
AKB
らしく
メリー
感じる
無所属
コーラス
ヤクルト
宝塚歌劇
クリスチャン
##だん
##ほう
##むね
##irl
TS
たん
らん
ニュ
中西
主将
再発
出航
大国
天国
嫡男
弥生
激怒
特権
藤井
転写
鎮守
陣地
高額
入り口
八王子
振り返
決まり
##スクール
1200
オックス
ヘッセン
短期大学
パレスチナ
セキュリティ
##KE
##ソタ
##動物
##ons
八戸
国体
在日
客室
新生
特攻
王家
皇子
##わしい
Her
いった
サード
留まり
おおむね
マスコット
ディスプレイ
哺
惣
憂
粛
肯
##アク
##コク
##ッリ
##ラウ
DO
あや
おん
カザ
レク
互い
代官
供用
吉川
拒絶
日付
明記
聖母
親族
逸話
##ダーズ
##ナール
##メール
かかり
ボーイ
マニュ
分ける
正しく
ニコライ
##01
##CE
##十分
##ini
DF
RS
le
きわ
ふさ
ウズ
エウ
入会
参事
土器
寛文
救う
水野
洞窟
熊谷
特筆
等級
紀伊
逃走
阿波
##キテク
##ンダー
Res
不十分
瀬戸内
見出し
##ハッタン
1848
1863
クリスト
ジェリー
毎日放送
シンガーソングライター
胤
##サム
##国際
sp
かみ
アバ
エコ
僧侶
公布
商船
密接
日向
有人
湿地
砂糖
開店
now
もらい
バレン
大久保
つながり
##デンブルク
フラッシュ
ノースカロライナ
彰
珠
##早く
中型
優勢
半数
取れ
射程
減っ
積ん
第三
紅白
陰謀
##ラード
##ンタム
でしょ
トリノ
支払う
1850
1883
エントリー
オーディオ
プラスチック
蛍
飽
##ます
##ノコ
##親王
##ics
Fl
バグ
国旗
基部
属性
抽出
教官
産出
目黒
秩父
通知
遂行
選び
院長
Gen
セリエ
タバコ
真珠湾
手がける
##ys
却
歪
##アニ
きち
ニー
上限
同誌
川内
巡回
旭川
野外
ビリー
増える
##ジュニア
##タイトル
ブラッド
パキスタン
フォーラム
モーニング
パシフィック
##RC
##少年
##ART
(-
使節
先祖
哺乳
愛し
断層
笑い
築か
肯定
荷物
誇っ
都立
防空
除外
馬身
##グラン
##デント
Gre
ヤマハ
##ンダード
アンドレ
International
##GP
麺
##ash
ナチ
バナ
各駅
名詞
座標
形容
縄文
豊橋
##ータル
Par
キエフ
ボルト
##リントン
追い込ま
伐
唄
嘘
黎
##いん
ロイ
低減
元来
大江
平地
招か
##クロス
あらか
グッド
シニア
ブレイ
ユーザ
女の子
##フォース
フォーマット
ラインナップ
アドベンチャー
悠
拉
絹
腎
莫
##ロメ
ベア
上旬
放つ
本物
運送
郵政
##lass
141
県議会
頭文字
取り扱う
##ケティング
カントリー
ハミルトン
##ラリ
ne
くに
レシ
古来
大関
母艦
転送
長州
順番
##ブルー
##リーニ
##ンドウ
BBC
ray
たかっ
アーク
ムーン
##コンピュータ
イラストレーター
##導体
##ett
##out
##row
UC
合金
変遷
大河
小沢
系譜
西鉄
通告
適合
領内
リース
同性愛
コロラド
ランダム
スペクトル
プレーヤー
##ナタ
##ペイ
##払い
ぼう
丹波
乗る
五十
住吉
天明
挿絵
月頃
発現
祝日
舞踊
血管
迫る
遮断
##ミュラ
##ードン
"("
コーン
ティム
工学部
当事者
ミネソタ
取り戻し
刷
淵
溜
簿
詐
すけ
ばら
ヵ月
俳句
刻ま
宰相
幕下
探す
火星
発車
絶え
賞賛
進撃
飾る
骨格
##クール
スーツ
トルク
離れる
##ファレンス
ロードレース
##フー
##天堂
##red
ES
クハ
ソル
争っ
内装
動詞
合体
固体
奇妙
所要
書物
狩り
獅子
複製
造形
##ソール
##ッケー
##デール
##育大学
##ポイント
センサー
入れ替え
カンパニー
★
##さま
##ナラ
##以て
##性能
##抜け
##維新
##AND
Sm
世話
保つ
占拠
執り
多彩
川上
工廠
御所
正統
洗礼
爆破
自衛
複素
諸侯
豪華
鋳造
##パルト
##able
いとう
を以て
グッズ
高性能
##カレッジ
Open
アンテナ
明治維新
あらかじめ
アルファベット
庇
梨
##レク
##和田
中性
公会
布告
後援
後楽
成熟
煙突
直営
祖母
移設
管内
聖人
船橋
通い
馬車
魔術
##オニア
##ザード
##トリア
129
WOR
チェル
不可欠
非常勤
シンプル
后
惹
晃
沸
渦
託
##アナ
##産物
##INE
##ata
タキ
ミハ
一橋
三条
全曲
及ば
含み
回線
昼間
築き
荒廃
##ストリ
WWE
ファル
ルノー
半導体
抱える
振る舞
合わせる
少なかっ
##ハーモニー
ぽ
稚
##コア
##化学
##書紀
##道館
##馴染
##ute
FF
NO
iP
ツイ
三国
外来
左岸
所管
摂政
犯行
胞子
趣旨
麻雀
##アンス
##カーズ
Sup
小田急
NASA
いったん
日本書紀
オリックス
漆
迅
麦
##ual
Em
ボウ
ラバ
一行
多額
木星
無罪
精力
線形
誘い
遅い
高価
##ミック
##ject
Bla
こなし
カリブ
目立っ
乗り換え
ムハンマド
##フィールダー
プライベート
崎
##めぐ
##カム
##水道
##項式
##ari
タル
ピエ
伊予
免れ
内田
尊敬
本田
東亜
柴田
深め
王女
直流
総統
遡る
駅名
##ーラー
ゲリラ
ブロー
最年少
決まる
##ンジェル
シチリア
インディーズ
熙
窮
蒙
##まち
##オケ
バカ
予報
予言
以南
誘拐
##オーネ
##ズエラ
##新聞社
131
138
ノット
パラメ
プラハ
ボイス
取り除
後楽園
##ッチャー
スロット
ミズーリ
東ドイツ
##td
##けい
##榴弾
Mo
だし
伊賀
公民
強め
徴兵
採取
本書
東口
生え
##ショウ
大学生
長時間
##サイクル
NATO
シアトル
受け継い
明治大学
見つける
##ピオ
##ポル
##マリ
##orn
DM
FS
GS
のぼ
キス
先述
公安
府中
模索
武家
西南
過半
##ックル
JRA
ノード
ルネサンス
コンスタンティ
曖
灌
Ro
こい
イノ
リム
仮名
佐久
分泌
分配
収束
同局
土俵
幼児
曖昧
液晶
混雑
生体
真言
羽田
若年
集結
##チョウ
##ブック
##プライ
Per
をめぐ
オース
成し遂
繋がり
Java
インテル
ニコニコ
をめぐって
##ポレーション
サスペンション
##UB
傭
卸
哀
桓
縫
##TER
ラジ
刑法
崩れ
強盗
捧げ
断絶
水田
無償
稲荷
転落
##レクト
##上がる
デルタ
文部省
##クトリー
ビタミン
##コミックス
奔
獄
##ばす
##ニク
##ヶ原
##納言
井戸
元帥
危惧
原産
商用
多岐
少尉
役場
征伐
握っ
知れ
騒音
##ream
MUS
多項式
親会社
アルプス
カウンター
サーキット
nowiki
##ハル
##明け
##通し
##alk
HE
NA
がた
ぼく
キリ
セグ
別々
前橋
南下
安土
対話
山内
役人
水分
硬貨
系図
組む
西欧
要し
話者
駿河
450
こんな
ステン
バイト
レート
入れ替
時には
留学生
虹
##願寺
CC
オマ
ガラ
クモ
ゲー
中田
元和
屋外
文久
暴行
虐待
通報
駆使
駐在
##キンス
つくば
ウズベ
ダイア
ニンテ
##チャーズ
ケネディ
ステレオ
テイラー
アントニオ
##LA
諦
##ノキ
##共産
##ACK
Jr
Pe
UF
ex
一斉
一説
包括
営む
小銃
授け
採集
換装
正室
病死
石垣
称え
立川
調子
部員
鑑定
難易
##ンジュ
##共産党
通じる
##マーシャル
中国共産党
オックスフォード
儲
##つく
##作用
##osh
FR
くり
ゆめ
わが
クス
モナ
帰る
待機
改定
最速
民法
浄土
激減
生ん
適当
遺族
重臣
駐留
魚類
##クチン
##プソン
##ator
カレン
乗用車
さらなる
はじめて
アルフレ
SUPER
リンカーン
##ペテルブルク
セントルイス
袖
鱗
##ウザ
##ガラ
##ome
EN
中原
中枢
封鎖
岡本
左手
帽子
想い
戸田
点在
特技
玄関
累計
藤沢
課税
講習
連ね
##リップ
Air
カレー
細かい
##ブリッド
##ヴィッチ
ケンブリッジ
フォーミュラ
##CO
寅
睡
褒
隋
##ife
##ler
お前
下さ
任せ
会派
佐竹
双子
反し
国営
宛て
応答
日系
本堂
片側
異名
白石
神道
荘園
解剖
誘致
起因
##ザール
##ニウス
##右衛門
240
たとえ
宣教師
擁する
LOVE
ジョニー
スキャン
ダグラス
ドナルド
ネパール
シリンダー
ミッドフィールダー
憎
爪
臼
##アカ
##シミ
しき
せき
ピク
レバ
元気
公正
友達
向い
団長
国語
堤防
増殖
始発
待合
愛国
打た
指向
挑む
揃っ
暴走
樺太
民放
浮世
警報
負荷
##ヴィエ
Ltd
エチオ
オットー
ストレス
ビクター
一橋大学
ウィルソン
ヤンキース
ユニフォーム
コンピューター
眺
蒼
頓
##サラ
##航空
##ade
##ana
「"
三田
凍結
好調
小隊
届か
市電
改変
組成
運ぶ
道中
##ジアナ
"、"
意味合い
エチオピア
ベネズエラ
メダリスト
マンハッタン
##UE
##UM
迂
##キス
##ナギ
##モロ
##ERO
テオ
公使
博覧
失脚
撤回
星野
歓迎
汎用
那須
Inc
ピッツ
ブリー
ホスト
労働党
収める
取り消
オレゴン
フェラーリ
リアルタイム
##クトペテルブルク
##BN
##KI
舗
##文書
かえ
ネコ
ミン
佐野
信徒
円盤
喧嘩
子爵
居城
拡散
推し
教義
断っ
津軽
男優
町長
白山
秋葉
賭け
##ンドル
サロン
スラム
ビート
##コミュニ
##ミニウム
ファンク
ワーナー
プロセッサ
バスターミナル
モントリオール
##we
匿
廣
梱
##ラマ
##ald
GK
rd
sc
かな
まり
トス
侯爵
塩化
宣告
松下
準じ
知能
破棄
秋山
風俗
Mag
グレー
停車駅
太陽系
木曜日
芸能人
ガーデン
タービン
ドラマー
ナイター
バンタム
ストローク
フランソワ
ミステリー
Micros
脆
##れん
##ger
GR
しも
パブ
不調
余裕
全盛
公衆
加算
古巣
好む
小児
時折
歩い
激化
獲物
皇室
穀物
継ぎ
続行
聴取
那覇
重奏
間に
飛騨
麻薬
黒色
##オープ
##トラン
##リーブ
Dav
グレン
設ける
長期間
##スターズ
おこなわ
バッファ
ビジョン
折り返し
知り合い
フランシス
恥
枕
盲
萌
酢
TC
et
すす
てつ
オム
ピー
交え
借金
単体
召集
喜び
新曲
痛み
破損
背負
資材
連装
進路
食材
##ビアン
Med
アルト
コンゴ
ショウ
セルフ
副作用
カルタゴ
ナッシュ
マウント
アーキテク
エストニア
ギャラリー
ドラゴンズ
オークランド
ヘッドコーチ
##BI
棲
諮
##じっ
##chn
On
PP
YO
アグ
元老
奇跡
専修
工科
当社
御殿
急増
有馬
西郷
足り
近辺
鈴鹿
##きょう
##グナー
##マルク
##ーツァ
エスカ
ケルン
ゴジラ
ホット
ライプ
十字軍
選択肢
##ディスク
カラオケ
プロペラ
モロッコ
ワークス
ルートヴィヒ
マイクロソフト
倣
##ツー
##句麗
##回る
##ene
くま
でし
下野
分断
北端
好意
宮内
感動
背面
腫瘍
融資
読書
##ッケン
##ボジア
##マイカ
ROM
しゅう
たどり
キネマ
グレゴ
高句麗
1830
冥
晶
肌
##かせ
##ノム
##ボロ
Je
SR
ヘイ
今川
公明
公職
処女
単発
右岸
合法
型式
奪う
学派
射殺
幻想
成す
最盛
梅田
湾岸
立案
納入
途絶
##ダース
##rist
750
チーフ
ビルマ
きわめて
アドルフ
キャッシュ
クイーンズ
スターリン
ナトリウム
アンドリュー
マネジメント
亘
##っぱ
##なす
##que
sh
いと
しの
久留
休刊
区内
原田
可変
吊り
報復
墓所
曹操
本町
民兵
罰金
育つ
西村
##イクス
##サレム
##サーチ
##ヘッド
アイオ
カザフ
デッキ
レイン
レオン
青少年
##ology
1865
キャップ
作り上げ
源氏物語
align
レーシング
宝塚歌劇団
藍
##るみ
##vel
GH
LP
一等
交互
反転
嫌い
富田
封入
展覧
常設
応え
擁し
混ぜ
誇り
##ステン
##ニール
##ートー
あいだ
アレン
パナマ
手掛ける
カンボジア
Microsoft
##IE
’
瓶
貰
一新
以北
原爆
吾妻
喜劇
国々
基調
大地
密か
小麦
属す
年版
急性
摂津
新潮
本家
次官
民謡
発作
行か
視野
超人
退却
除け
面会
香り
満たし
現在地
##ートルズ
ゴシック
##リューション
クライアント
##LS
圓
牙
窯
MR
ヘリ
低地
儀礼
利便
反面
吹奏
器具
四つ
大友
尊重
戻さ
有用
柔軟
漫才
火薬
裕福
議事
遅延
郡山
##ニカル
##パクト
##重工業
スプリ
##ブルドン
オルガン
カタログ
スタメン
ソックス
大きかっ
楽しめる
アルバニア
##スキ
##名詞
うか
争う
代役
塩基
山麓
戦果
改題
消失
疑惑
種族
置換
西端
負う
赴い
釈迦
青色
領事
##ゲート
##チンコ
マネー
伸びる
減らし
##ATION
たくさん
ムービー
ルイジアナ
##ステーション
アルミニウム
ブルックリン
ウィンブルドン
塊
茅
##相撲
##美子
##lex
サハ
プエ
リヒ
古河
大石
市道
抹消
日活
未明
源流
着任
薬師
製鉄
規約
訪ね
Hot
NPO
ツイン
ムーア
マーシャル
平方メートル
Univers
##HT
蝶
##ごう
##自治
IR
Mi
しろ
ツァ
三好
助成
台数
専務
格子
築城
##デート
労働省
日本橋
標準時
##グラード
ゼネラル
パレード
エクスプレス
ノーフォーク
ブロードウェイ
或
畳
魯
##田谷
うけ
たろ
のび
アセ
ナビ
中尉
京浜
党派
参画
大神
大輔
専任
打つ
改宗
本尊
歌人
炭鉱
真理
真相
私鉄
突起
辞め
返し
送電
遺物
配分
酒井
##トラー
##マンド
##ライブ
##ラール
##左衛門
!!」
トリオ
ハリス
パンク
ブロン
マイン
マント
二酸化
及ぼし
女学校
繋がる
製作所
いかなる
セックス
デヴィッド
依然として
素晴らしい
東日本旅客鉄道
##GB
‐
ヲ
##ENT
HT
ずれ
中高
休暇
厳格
合い
延び
従属
急死
慎重
服装
条項
灰色
生殖
留置
県民
社殿
調和
関税
##ツィヒ
##ドッグ
まんが
増やす
過半数
イスラム教
スタンダード
ニンテンドー
坑
宴
箕
閏
##福寺
</
のぶ
よば
会っ
券売
地主
奨学
拉致
教諭
果て
法政
発想
発酵
要員
##ニアン
##ネスコ
##ラルド
しょう
ベルク
ルーツ
ロープ
尽くし
掲示板
非公式
クリミア
ソロモン
ファイト
メリット
リリーフ
受け継が
アクセント
ハンブルク
サンクトペテルブルク
猶
RO
アジ
メー
公示
周回
国政
大本
宮本
常磐
忠誠
怪物
灯台
直し
石灰
金子
駅伝
ref
いかに
アンソ
フロア
等しい
これから
クエスト
ケベック
ブレイク
トヨタ自動車
マーケティング
嚢
愚
詔
隼
SN
モデ
事典
信託
去る
安藤
対外
律令
新党
明示
特設
直面
給与
織り
##シート
##ッケル
##ムビア
##術大学
210
220
Tom
ヨハネ
初年度
悩まさ
最高裁
知らせ
ハンドル
マッカー
ジャマイカ
ベストセラー
クリーブランド
##AI
笛
鴻
##抜い
pr
ひら
ょく
ボヘ
会い
北極
奉納
工房
幸せ
特命
町田
留守
##フィル
Har
わたし
ウェア
ニコラ
徹底的
云
埴
諱
霞
##つか
##ばさ
##キロ
##バナ
##司教
##映画
##田川
##IDE
##lic
AG
ホセ
原発
四方
天平
天才
家具
摩擦
支所
放ち
有志
死に
気体
没後
痕跡
睡眠
腹部
装填
西海
遂に
集約
頂上
##プラー
##port
アシュ
大司教
アラスカ
クルーズ
##ステルダム
フィクション
##ka
##ma
紳
麗
##らっ
##サギ
##ドア
##box
BD
おの
やら
上層
公家
動い
参拝
基底
巡礼
建っ
待遇
派閥
結城
舗装
財閥
迂回
追う
麻痺
##バーズ
##roid
Met
つくる
シンク
マーガ
上回っ
世田谷
助ける
微生物
##スティング
カルチャー
アーキテクチャ
謳
頁
##っこ
##づき
つる
エロ
ヶ国
佐伯
全権
兵役
分化
医者
常任
意欲
浜田
王族
軽い
##ディビ
##ater
CEO
ヒンド
下ろし
気に入
第三者
##ement
トランプ
バンコク
レスラー
アレックス
デイヴィッド
アレクサンダー
己
摘
錬
##やま
##レフ
##回っ
すみ
ラト
中頃
今井
出血
初出
喫茶
始動
撤廃
朝倉
架け
母国
添加
総数
群れ
赤坂
##サック
##ダール
##ツキー
##当たり
Net
サマー
ソナタ
ディオ
ポリス
マスト
吹奏楽
哺乳類
大相撲
##カリスト
##クタール
##ミントン
タイアップ
##ザル
##ソス
##ane
##ins
##ric
CB
CV
MB
さか
ねじ
ひど
不法
傑作
収蔵
名残
喫煙
天津
導く
局所
山間
撃ち
断面
暗い
本文
母方
犯し
直列
高岡
##スキー
##ッテン
##ブリュ
##ホルム
##レーヌ
あげる
ケリー
ヒップ
停車場
Part
グローブ
ハドソン
エルサレム
ジェイムズ
ニュータウン
フィルハーモニー
垣
廊
究
##アベ
##ボウ
Fr
わか
公卿
出羽
剥奪
功労
回る
城壁
大勢
宝石
封印
平坦
抽象
採っ
搬送
断片
池袋
義勇
##ラーゼ
##illa
『""
おかげ
ウィキ
デュー
マニラ
浮世絵
詳しい
バルカン
ボスニア
レジスタ
打ち切り
##ベーション
ヘクタール
テレビジョン
William
エレクトリック
エンターテインメント
##ki
−
嶺
蝦
頸
##がれ
##たか
##チド
##チー
##並み
at
一見
公司
出陣
和泉
大崎
崇拝
広州
弾道
待つ
挟ま
本郷
楽譜
模倣
水深
狙撃
生地
臨ん
近似
進入
鶴見
##シャワ
##ベスト
##リッヒ
!!』
MHz
ゆかり
##レンツェ
##board
シャトル
ヨーゼフ
成し遂げ
##ーツァルト
スティーブ
フレデリック
堰
峡
租
肘
鼓
##アウ
##ホマ
##レナ
##ロワ
GN
っぽ
ひで
タラ
処罰
協調
原案
寄稿
整え
桜井
極東
田辺
能登
蔵書
調印
警官
辺境
##タリー
##リッド
Art
IBF
いた事
グラム
ハイド
フット
##スタジオ
イニング
グルジア
ミスター
ミックス
ユネスコ
##ストリート
アウグスト
ステンレス
アメリカ大陸
壺
##がく
##経済
##醍醐
##les
FW
モリ
事変
北欧
召喚
同居
土砂
太字
帰投
常時
恐慌
教職
景気
最悪
法制
狭義
疑わ
陥り
##ミュー
##レーン
NEC
イース
思い出
支払わ
立てる
触れる
##オープン
##セックス
Inst
ユリウス
亡くなる
##タイガース
##フィッシュ
クリントン
サントリー
##くる
##クサ
##スル
##ara
##por
AI
en
ざき
シグ
不況
在職
大森
弘前
忍者
情熱
本多
波長
皮肉
祭神
襲い
説い
通訳
長老
##ティエ
いじめ
書記官
##ミュエル
##ンジョン
査
纏
##でん
##キサ
##バリ
##any
##oll
##oph
Pa
おさ
やむ
コカ
一生
分校
園芸
地表
宗家
寝台
尼崎
島田
弾き
役目
投獄
春季
校区
知行
自家
込み
除籍
難波
風土
##ビット
##ブリア
JIS
ひがし
トミー
仕立て
柔らか
##ティウス
やって来
成り立つ
##ネーション
ハンドボール
##ey
畠
盧
##ola
##way
It
OB
vs
エビ
ジー
両端
中毒
中津
出兵
外し
本戦
石器
許容
録画
##テラン
##ンジー
NPB
フック
メイド
持ち主
Amer
Stud
どうして
吹き替え
ワルシャワ
藻
##ョー
##ワフ
##方形
##琵琶
##fer
."
クビ
充分
制式
卓球
含有
奥州
宅地
対馬
後続
枚数
河原
河野
満ち
理学
直結
西宮
親戚
詐欺
銃撃
震災
高雄
##ータイ
##ydro
550
GHQ
des
あえて
じゅう
グリー
フード
プラザ
動かす
減らす
##ワークス
しっかり
ウォール
モニター
ロジャー
##ーズベルト
プロトコル
受け入れる
##の丸
##イェ
##ype
タカ
交点
公転
分家
前部
剣道
同点
地裁
外伝
外相
寸前
平原
平定
幸福
政令
故に
補充
進言
長安
陥る
館長
##ボウル
Eng
Pre
みなし
オクラ
メイク
リバー
同志社
持ち帰
移り住
落ちる
##ジーミル
なくなり
ハワード
フォックス
center
ベースボール
##EG
##ケス
##ダラ
##レコ
##生活
Ma
ac
おじ
代議
受注
幾度
承諾
有害
殺す
津田
部落
隆盛
##ニティ
##ボーイ
##rans
つくり
にまつ
ジミー
スラヴ
取り壊
関ヶ原
##ティーナ
##ニッシュ
##フェリー
ガリシア
ライフル
##ファーソン
にまつわる
クリスタル
##XT
@
其
##いろ
##プー
みず
五郎
共用
四球
図り
打数
旧姓
本館
歌合
産卵
田舎
空き
自信
至り
観念
遠ざ
鎮座
##ちょう
Rad
にくく
エアロ
ベリー
終える
ゆっくり
アミノ酸
サポーター
フォワード
##ft
殉
##ぶん
##ラシ
あし
サヨ
上越
不適
収納
官職
尚書
極め
歩く
真田
磁場
築造
貯蔵
預け
##シーン
NWA
エリー
サント
ジェネ
リンゴ
告げる
ライアン
カルシウム
スロベニア
Records
溢
逝
##ホル
##ムー
##兵器
##ony
FL
au
づけ
イブ
クォ
地価
増刊
大洋
字幕
手順
祈り
脱落
複線
鳥居
##アート
##スタフ
320
チェス
デスク
ナイフ
メディ
リック
核兵器
##ディビシオン
インストール
樋
##ゥル
##ボク
##OCK
##VER
##ble
BB
BC
JS
下っ
不信
中古
公用
古川
探知
注ぐ
琵琶
精密
菩薩
足立
遺言
##ウアー
##ニバル
クラリ
マニア
ルパン
任天堂
教える
##オーバー
シールド
パチンコ
フルート
ラッセル
盛り込ま
ハイブリッド
アトラクション
アムステルダム
##MO
眞
釧
##さと
##押し
##ien
##ino
DT
GL
We
タケ
バビ
パウ
リハ
倉敷
党内
内藤
凱旋
切る
合わ
問う
器官
基質
担い
異性
祖国
遠隔
静か
##セデス
##ヴェー
まさに
ジェノ
リュー
掲げる
訴える
##アリング
1859
スーダン
埋め立て
アイスランド
伺
鐵
##ius
##let
##uro
たて
ネル
リモ
仕方
促す
即座
名物
売ら
崩御
幼虫
接収
未成
水曜
漏れ
王権
被っ
西岸
話さ
調停
迅速
##バータ
##ーニュ
NAD
いまだ
みなみ
メチル
利根川
##ジェット
##ニュース
1853
1854
タイガース
##YS
##co
棘
毅
脈
##っち
##らせ
##休み
##ato
いす
アビ
叙任
奉仕
採ら
暗黒
正解
治水
片方
物流
特例
経っ
絶望
豊島
賛同
酒造
釜山
##テール
##フマン
##ings
Wii
フレン
及ぼす
執り行
止める
カプセル
ボイラー
ヴェスト
オクラホマ
バレンシア
ビートルズ
于
癒
紐
衡
##より
##四郎
##its
KD
PA
とん
なに
タブ
八木
初等
寄進
対峙
御用
志摩
毒性
法定
濃い
火曜
疲労
移す
立方
竹内
臨海
計量
蹴り
##ルツェ
アゼル
コンポ
仕上げ
江戸川
サンプル
ドラッグ
ホームズ
##プスブルク
MUSIC
アルジェリア
##UC
仇
噛
賄
韻
##アリ
##ボリ
##AGE
##ink
##ven
わら
ベラ
ミー
並み
中堅
作物
名簿
問屋
大破
巧み
提起
普遍
格好
歌曲
添え
特記
解答
退い
##ッペン
つくら
ダイナ
最高峰
調べる
##ution
まとめる
法政大学
生み出す
サミュエル
リクエスト
Robert
棺
##クシ
##ura
Mc
うど
きら
てい
ラマ
動脈
原点
均衡
実に
導き
広瀬
招く
提督
格差
概要
海面
清朝
硬式
美容
見積
退け
阿蘇
##オンズ
##カール
##ネスト
##ボット
Val
ストラ
スープ
城下町
##ブルック
1840
ゴードン
フォント
ボヘミア
平方キロ
リバウンド
School
マーガレット
楚
##回し
##ism
ひこ
ゆる
ドミ
ハナ
ブエ
一大
上洛
別荘
去り
回し
宮中
密着
将兵
愛人
村田
武道
流動
父子
狙う
祀る
肺炎
補完
諦め
返り
青葉
高島
##デンス
##プロス
Day
WBO
ぐらい
三角形
代理人
短距離
落とす
著しい
表彰台
バーデン
ファーム
フレーズ
筑波大学
##ファーレン
##レンジャー
テクノロジー
ピッツバーグ
##EB
##ぱら
##コシ
##トム
##ヘイ
##少女
##延び
Bo
うん
アデ
タグ
タム
世俗
使徒
出動
出自
受託
子役
定か
巡り
意匠
戴冠
揃え
時空
流派
無名
異母
病理
蛍光
適正
部数
集配
離党
##エクス
##クリー
##テージ
フィー
切り離
美少女
##エンター
##ヴァルト
ヨハネス
ラバウル
日本ハム
メルセデス
巴
紡
##ばら
のぞ
カエ
ヨル
事象
人体
体格
化し
国人
墳丘
嫡子
守ら
弱く
持株
接合
次期
決済
淡水
目論
結核
給付
船長
読ま
速く
運ん
230
Ann
1858
オールド
リハビリ
持ち込ん
生き残っ
##オーリンズ
##バルディア
##ルティング
ローリング
ハプスブルク
クリエイティブ
〔
皿
##ごと
##りつ
##ベリ
##作所
ホロ
世襲
入部
多重
屈指
援護
斜め
狭く
献上
現し
確信
立た
苦労
蝦夷
遭い
##ガール
##ダード
##パウロ
##ated
##form
##ling
セリフ
##ソニック
##ルタント
("")
シャープ
スパルタ
ダイエー
##バイジャン
Super
バンクーバー
##ュルテンベルク
喉
祇
胆
##のぼ
##ゲー
##タリ
##mer
PD
いん
のう
まね
一宮
住職
傭兵
八重
切手
判例
区立
台本
対局
山手
掃海
支障
武術
物件
艦載
静止
##製作所
##ille
Tra
どおり
フロン
マツダ
リヴァ
レバー
見込み
いろいろ
アイオワ
インフラ
ウイング
バロック
ベテラン
ロータリー
エージェント
コマーシャル
Android
アゼルバイジャン
Billboard
寵
怖
萬
##だし
##グア
FO
わざ
ケア
匹敵
年俸
庇護
松原
機雷
自伝
葬ら
襲っ
訳さ
踊る
車輌
連行
防護
##ファミ
##ファル
##モンズ
##落とし
わかり
マクド
ロット
...」
High
レバノン
取り組む
WORLD
に当たって
ストライキ
フェルディ
ニューオーリンズ
叢
湊
##カレ
##テー
##越え
##ECT
##amb
Im
WA
まき
ハマ
伴奏
入選
大川
大映
推力
救命
月間
炭酸
番付
称賛
経費
艦橋
荷重
迫害
離陸
電灯
飛鳥
鳥羽
まけん
アンモ
リボン
交わし
保守党
書き下
水曜日
カセット
フォーム
ヘブライ
受け取る
差し替え
引き継ぎ
##カンパニー
##ブラザーズ
Black
National
u
廟
硝
菱
鰭
##ベラ
##ヶ谷
##産業
かき
ブン
伝送
史実
大同
太夫
容姿
巡航
強固
戻す
村山
松浦
機密
洋画
発進
祭祀
積載
絶賛
##グルス
Int
きょく
じゅん
ハノー
バリア
ミャン
見受け
貧しい
##テナンス
1857
もっぱら
マイナス
持ち込ま
早くから
間に合わ
##メーション
アクティブ
パトリック
アンダーソン
チョコレート
ニックネーム
サウスカロライナ
〕
怠
晒
##グゼ
##マニ
##高い
##ave
さす
すず
ホモ
伯父
備前
円筒
北大
回帰
国府
大社
定時
慰安
手塚
次長
潜在
破る
神秘
薄く
衣服
転移
Mod
Off
アイン
明かさ
##ボーイズ
TOUR
イエロー
引き受け
パイオニア
ミャンマー
アップデート
フィレンツェ
##UD
憤
扮
##おう
##が丘
##介石
##継ぎ
##通信
At
LT
だら
ノア
低温
劇的
天台
天満
実権
廃業
推計
極限
翌月
聴い
苦手
菩提
討論
通用
##サール
JCT
かたち
スノー
分かり
蒋介石
##スタイル
NEWS
乗り出し
ブレーブス
##ネットワーク
キリスト教徒
##AF
仔
?)
あか
くろ
すい
たつ
カ月
スワ
テュ
テー
一括
入ら
兵員
別府
尾崎
東端
由紀
発案
石橋
路上
軍令
鉱業
電荷
##ッスン
##ットル
One
うがっ
こども
アポロ
マクロ
ISBN
サウジア
テナント
ベートー
望ましい
ディフェン
カンファレンス
コンサルタント
##UL
##YA
宜
漸
荻
##たす
##ぶり
##オラ
##ゼー
##タク
##植物
##inc
かれ
ざわ
みせ
アロ
不当
大別
大村
挙兵
春秋
末端
草原
遠い
遥か
閉館
##ナート
Mot
コリン
パール
マディ
リンパ
中国語
##チカット
##ラミッド
アンディ
サヨナラ
ライブラリ
サウジアラビア
訂
##ラグ
##ita
イカ
ウマ
伝導
呈し
商会
外さ
完璧
崩し
年月
揚げ
放火
次回
永井
注釈
海老
留め
簡素
美女
諮問
豊後
速い
野戦
順に
飲ん
##ライス
##ランカ
##レブン
##大震災
##自治体
##ited
%)、
Ind
VHS
プリント
レポート
##イクスピア
あくまでも
アルバート
クリスティ
地方自治体
関東大震災
Associ
ウラジーミル
モーツァルト
##ner
なみ
ピカ
勇気
大差
強烈
急進
抗体
抜い
揺れ
教鞭
新築
新造
施策
旧来
百科
知人
美し
賃貸
転身
##ギニア
テリー
バッハ
ヒント
ヴェー
食べ物
1300
カリブ海
クラリネット
杭
畜
稿
##チネ
##ミナ
##ヴル
##神社
BE
あお
ラフ
代打
催さ
出世
反動
反抗
妥協
小樽
屋台
庄内
延喜
強硬
揚陸
朗読
栄誉
法華
田原
矢野
終焉
頼っ
飼い
##ウェン
##レーツ
ふたり
エヴァ
チャイ
ネズミ
ピース
##ホークス
ふるさと
リタイア
繰り返さ
コネチカット
トランペット
ハイビジョン
ブリュッセル
##yc
漬
烈
鯨
##ばん
##よそ
##ッホ
##レラ
##光寺
##ARD
##ERS
CT
Vo
me
まえ
れん
モス
上る
代用
会う
劣る
勝者
学級
安永
完封
常連
強大
未知
末裔
松江
歩き
混血
灌漑
燃え
生誕
緑地
観戦
貼り
赤道
近海
迫ら
釧路
長寿
長尾
預金
飛ぶ
##コンク
##チウム
DOS
Pol
エール
オンタ
マール
三国志
旅客機
旗揚げ
真言宗
##チャート
##フランス
##ボックス
ともない
ディープ
##ations
オールナイト
嗜
扁
緯
##ゃく
##クイ
##コタ
##使い
.」
:、
Li
ひき
コク
ラク
不自
中道
主戦
伊丹
共鳴
手動
文脈
曜日
汽船
海防
版画
総括
落成
表情
音色
##イオス
##ンシー
MAX
富士山
枠組み
起こさ
エリート
ギャング
ロベルト
中央大学
##フィシャル
##プレックス
##ルツブルク
サイエンス
パラメータ
プリンセス
メカニズム
##キャラクター
##レーティング
##ーマーケット
Christ
ウズベキスタン
シェイクスピア
ベートーヴェン
ディーゼルエンジン
##yo
〇
凄
咸
柵
榎
##ぎり
##コレ
##ペス
GU
TE
ばね
エマ
オセ
ザン
丸山
体長
光線
培養
実習
市制
帰郷
平田
待た
戦列
最期
松尾
米沢
脅迫
脆弱
莫大
藤本
衰え
躍進
開口
隠さ
飛躍
養殖
##ザース
##ital
ニール
ポテン
ラファ
何とか
大将軍
強かっ
明るく
暴力団
知らさ
逃れる
##ダービー
サーバー
ファイター
ヴュルテンベルク
##ya
柿
疫
鎧
##がけ
##タケ
##バオ
##記念
Cr
HO
ro
すご
ふみ
サテ
リマ
不二
合作
宝永
早々
時々
未遂
脱走
軍部
辺り
通達
過酷
青銅
##コーラ
##トゥス
##ヒドロ
##ードル
203
270
War
チーズ
プロパ
ヴィン
仕える
留まる
緩やか
##フレーズ
##電気鉄道
2500
Girl
グスタフ
シュトゥ
ソニック
メンテナンス
##だけ
##らん
##エリ
##ズス
##レチ
):
GB
あつ
ささ
なぞ
ゴミ
一流
上皇
人名
体積
反則
右派
啓蒙
変速
客観
山陰
欠陥
混在
炎上
点数
燃費
転属
隷下
頓挫
##ブロン
なんて
シンセ
ディア
パンタ
リビア
天王寺
逃げる
遊撃手
##ストリー
##ンドルフ
デイリー
ピストン
知り合っ
テクニック
ピラミッド
マニュアル
##こと
##ざし
##ベー
##lor
##ors
IM
mg
しげ
はく
ウン
ホウ
ログ
儲け
反省
叙せ
各所
学芸
対談
屋上
工法
換算
日比
明和
死傷
気分
浸水
消火
痛め
相応
私的
耐性
野口
陽子
##エント
##ストル
##ーマル
##eral
アース
マック
リフト
##フェクト
ヴォーカル
パナソニック
スーパーマーケット
瞳
葵
鈍
閑
##世代
##十字
##進党
##oss
カワ
一因
一躍
両社
久々
伝播
促し
充て
原画
反響
合弁
太政
支那
浅い
減速
準拠
照射
着目
稼動
納め
素子
豪雨
都営
金色
##イトン
##ップス
##ニーズ
##フライ
##duct
col
von
コナミ
サイク
デリー
ハット
公明党
四日市
行き来
##バイザー
##バイバル
##リンゲン
おおよそ
モーリス
ルドルフ
アカウント
ソーシャル
インターハイ
夷
欽
燈
碁
蜀
酔
髄
-」
AF
うし
くち
下級
付着
休憩
元首
再戦
包ま
友情
商号
城内
子音
工兵
往来
掘削
旧暦
書房
欠け
消耗
満点
白鳥
祀ら
細い
補正
近傍
進ま
開花
食物
##クラス
##ッラー
330
EMI
Pet
のび太
ルター
レイア
世界一
目覚め
高まる
Geor
キャロル
フォート
プエルト
ミシェル
ワクチン
生み出さ
ウルグアイ
サンパウロ
パーソナル
ファミコン
社会民主党
阪神タイガース
##PC
##ze
濱
窪
譚
##付い
##落ち
wh
かす
イヌ
下表
下降
供養
便利
催し
入国
冷凍
出題
埴輪
対面
岩石
後進
悩み
法科
解く
金山
##ベガス
Sec
そうい
ついで
どころ
インク
ケープ
トゥー
ドック
主たる
全盛期
次世代
歌合戦
近づく
##ウンテン
##ナリズム
##ブリエル
##メンタル
インド洋
グラミー
シャフト
ホルモン
義務付け
アンケート
ウォルター
ローレンス
フェニックス
メリーランド
樽
股
##ムル
##メス
##次官
##督教
われ
アパ
イソ
ゲオ
ココ
コパ
ジル
ママ
先制
共著
北野
大原
宮古
川島
帰属
手間
望み
渡さ
渡米
祈願
紀州
艦上
覆う
詩集
請け
##ケーン
##テック
##プラン
##ルトゥ
Can
Sou
シャル
デッド
バリー
ヒドロ
ポピュ
##フォール
レーニン
##ツィオーネ
ヒンドゥー
アルフレッド
カザフスタン
ライプツィヒ
キャッチフレーズ
伽
嶋
舵
醤
鉢
##ッロ
##リナ
##行き
AB
To
un
かし
イザ
コソ
サバ
供与
公営
前頭
北海
却下
収監
同値
囚人
安置
官吏
戦功
手数
抱く
斬り
日高
棄権
海運
演目
火器
血統
覚醒
誘わ
連想
雷撃
##ンガル
##bert
650
Bro
USA
この世
ウルフ
コンペ
ポニー
気づい
穏やか
見かけ
親しく
##タイムズ
##レーベル
##aster
Cont
アラバマ
サンダー
タイガー
ランナー
打ち出し
振る舞い
瀬戸内海
サブタイトル
クライマックス
侮
堪
捻
砕
聯
鞭
##コブ
##急行
##炭素
いこ
ヒン
一色
北口
執っ
富裕
敢行
母校
民家
総監
致命
請願
赴き
長門
顕彰
##サリン
##ダイス
##ハート
##ブレー
Gra
Mon
ケニア
プラグ
ホップ
悲しみ
火曜日
聞こえ
赤外線
1700
1820
トレイン
引き継ぐ
無くなっ
オンタリオ
トライアル
ニュートン
アメリカンフットボール
##OK
卑
只
煉
牌
筐
##じょ
##シマ
##ナビ
##好き
GE
Gl
カク
下総
不具
停泊
克服
劣化
原告
増幅
売春
妨げ
委任
導か
戦中
接着
新井
森田
法典
溶接
疎開
碑文
練馬
荒木
親方
負債
貯水
超過
転々
輝く
長調
集計
##アーノ
##チャル
##ディネ
##ラップ
##ロップ
##inal
Act
いくら
さらさ
つなぐ
シュタ
マリン
レアル
代名詞
裏切り
##ウォーズ
クリーム
Award
そういった
イースタン
キロワット
姪
尹
惟
耶
諭
鵜
##クー
##ゴラ
##ノミ
##メド
##sch
一周
割れ
割譲
可愛
大連
屋内
志望
憲章
打診
押す
権現
流す
流体
為替
王政
菅原
誌上
農園
遊園
飲む
##きょく
##シェン
##モード
FOR
ジャワ
ランカ
当ては
##ハーゲン
1855
1856
カップル
クラッシュ
ガイドライン
##AZ
{
崔
戊
挺
##ペー
##OCA
MM
ツェ
同書
噴射
奇襲
対比
山東
市区
幽霊
性別
挑ん
提言
斉藤
日刊
棄却
牛乳
突出
証人
金田
##ブレム
##work
POP
REC
フアン
フォト
メッツ
楽しみ
終わら
##ンバーグ
##民主主義
エフエム
##レーシング
スピンオフ
ペンネーム
中央アジア
スティーヴン
朝鮮民主主義
朝鮮民主主義人民共和国
\
遵
##ぱい
##スワ
##ツキ
##遅れ
##ese
HS
as
di
あわ
サマ
ツー
上司
二郎
交配
倒さ
受講
同義
基板
天候
女流
寿司
常用
後見
慣例
批准
支出
椅子
様相
洛陽
溶液
用法
相馬
秋季
著述
豊川
##サリー
##テープ
VTR
めぐり
アング
チュニ
チョウ
ベラル
架かる
##スティン
ちょっと
ドジャース
##コミュニケーション
エンターテイメント
拷
絆
芥
##ァー
##ウマ
##ギル
##金属
##ral
LS
Wr
びん
カニ
ピュ
亀山
勝つ
域内
宗派
実数
尽く
山名
平家
役所
拡充
木下
溶解
炎症
玉川
異議
負い
返済
開閉
馬主
##ゾーン
##テット
##ムント
インデ
カンタ
マザー
反する
満たさ
細長い
##キャップ
Tour
カーネル
グラント
##ウィリアム
アドバイス
チャーリー
二酸化炭素
霜
##ばこ
##ウリ
##亡人
Hi
he
そろ
まっ
ヒュ
三宅
仮称
始祖
尾根
尾翼
市原
希少
弱点
振付
有形
次女
溶け
硫酸
立花
赤穂
返上
通話
逝去
遊牧
##コンド
##ブレイ
##リアー
RNA
カイロ
一般人
富士見
未亡人
未成年
本願寺
止まり
##フォンソ
...。
またがる
カヴァー
東北大学
##ティーリャ
スピーカー
ダンジョン
フランチャ
ラスベガス
フラツィオーネ
##AB
罹
翁
隕
##じり
##の間
##ィー
##戻し
se
ふん
シリ
一線
休戦
偽装
合宿
国交
国宝
弱体
打倒
拷問
捕鯨
激突
異端
算出
粛清
美人
藩政
見れ
退場
飛ん
高騰
##スコン
##ダック
##レイン
CBS
うどん
スウィ
ピック
ワード
不具合
取り巻
果たせ
相模原
試みる
間違っ
Xbox
カリウム
プラズマ
ミハイル
取り戻す
##チェスター
Night
キャサリン
ニッポン放送
o
奄
宙
誉
陪
EL
Mr
OH
ar
しめ
ナル
ホリ
人的
信念
古賀
寸法
幕僚
廉価
戦法
沈ん
色素
覚悟
言動
転居
部会
門司
開港
##ンスト
##ions
ONE
やり方
ロビー
中性子
愛する
数える
近づい
途絶え
##工業大学
リベラル
レッスン
働きかけ
##ッティング
Techn
ジェイソン
トレーナー
シューティング
ストックホルム
オペレーティング
峯
##ボス
##ロア
##目的
##ena
)→
あふ
めん
セネ
ハチ
ブダ
ラヴ
万国
保留
別途
北斗
噴出
大事
大垣
失踪
幕内
弾丸
江東
神父
聖地
見習
貸切
転倒
軽く
頭取
エッジ
文化庁
見通し
過ぎる
重ねる
いっぱい
アッパー
イスタン
シンシナ
ルクセン
##スティック
フランクリン
##プロダクション
撫
鍾
##ガタ
##如来
##山脈
##本木
##楽器
Fe
みの
ゲン
テイ
ナノ
並列
人道
他者
例年
公団
勝敗
千秋
南口
古今
同調
圧勝
圧迫
声楽
奄美
孤児
宇部
形質
本殿
河合
環礁
発刊
終始
絞り
製薬
誤差
重く
閣議
麻生
##アーズ
##ジュー
##トゥー
##ポルト
##メンス
いたる
クロム
スズキ
投げる
西海岸
1400
Mark
いきなり
クリーン
コロニー
ネルソン
##ストロング
スローガン
ベラルーシ
リミックス
##チャンピオン
シンシナティ
##yr
塞
罷
##興業
MD
MG
かま
オア
サク
サリ
ヘア
ムラ
ロブ
万博
年寄
店頭
握り
文藝
服部
本丸
東岸
目録
議決
豪族
造語
金剛
難航
##ゴット
##ジング
Mor
NBC
うかが
ちなむ
カジノ
ハッチ
不適切
先立っ
##アイレス
##ペディア
##ative
オーダー
タンカー
取り扱っ
メルボルン
ナイジェリア
ルクセンブルク
嵯
縛
##がき
##カゲ
##バダ
##ラヴ
##ンビ
##強い
つま
はい
みん
イマ
不幸
体型
制裁
名跡
味噌
地蔵
大火
届い
嵯峨
御家
怒っ
愛宕
洗練
派手
潜入
火事
特産
発令
総領
編制
胸部
脊椎
興奮
走者
車掌
辞書
高圧
##アーツ
##グレイ
")、
ATP
わたっ
オリン
コイル
ピュー
ホルン
苦しみ
##デザイン
##ーシスト
ますます
エーカー
クランク
チンギス
ポルシェ
ユニーク
東海大学
##キャニオン
##ッディーン
##デスリーガ
東京ドーム
マッカーサー
タイトルマッチ
佑
##ある
##がん
##ジム
##マツ
##角形
LE
MI
am
しら
れい
久米
停滞
効力
動か
四季
壁画
大小
広め
暴露
書院
本島
榴弾
浮き
湖南
無形
物価
素数
細部
聖歌
西川
規範
部署
隙間
預言
驚き
##ットン
##ニクス
##ラシア
##ロニア
##ンドロ
WWF
シーク
パズル
勘違い
従兄弟
海水浴
答える
苦しん
##ウィック
1832
チャネル
プラント
ロマンス
##ンジャーズ
##ージェンシー
ポテンシャル
##コースティック
スタンフォード
ヴェストファーレン
跋
齢
##ウキ
##オロ
##ジロ
##app
Er
うじ
うら
さだ
すり
ナム
一層
一派
中流
仮に
信玄
加古
可動
営ん
四郎
多種
奔走
宿主
平衡
微妙
成虫
所沢
松岡
浪人
激戦
発光
着け
納得
結社
舞鶴
色々
軍政
遭っ
電信
飲酒
驚く
##カメラ
##シュト
##スラー
##ランプ
##over
Ter
たけし
アンチ
クレア
コンピ
フェイ
マキノ
良かっ
EURO
Port
クローン
セミナー
##ルンベルク
Group
キャンセル
プロフィール
カスティーリャ
ジェファーソン
##ha
△
恨
斯
逢
##まか
##仮名
##der
##ike
Ag
JT
ちの
やく
ジブ
乗じ
乙女
争わ
休業
列挙
初心
初版
厚く
喜多
大物
妖精
妥当
志し
早川
理工
畠山
粘土
若く
視界
進駐
鉄筋
閉塞
顕微
##ガルト
##プリン
##記念物
##unes
トール
ノック
リール
替わり
細かく
##コミック
##シュヴァ
##シュート
##ホッケー
##レックス
さかのぼ
イエズス
クロック
チャージ
ブエノス
##フォーマー
ジャーナル
リポーター
天然記念物
オフィシャル
ポートランド
マスメディア
平方キロメートル
冨
凹
央
裾
襄
##かれ
##ゲス
##ヒド
##処理
##焼き
##AST
##ren
##urn
ダウ
デハ
ネク
余剰
停戦
優等
充電
出願
動揺
取水
因む
容認
寺社
移送
腐敗
語彙
請負
追及
金星
陽性
隔て
隕石
響き
##ちゅう
##アット
##ents
.")
ATM
それで
ダラス
下げる
理学部
重なっ
##サイザー
サイモン
チャップ
パケット
ブリティ
レーサー
引っ越し
キーワード
ブリティッシュ
ブランデンブルク
オペレーティングシステム
##BF
##be
罠
##かつ
##ケア
##テラ
##UND
##ael
:/
Fi
Jo
WH
オカ
ホン
メド
ヨシ
レア
両立
入党
刷新
加増
勝て
古事
愛情
担保
掃除
操業
敗走
本山
水質
注い
洗浄
混成
清掃
焼け
猶予
用紙
真似
競う
給油
落合
説教
転校
速力
遊歩
配達
陣屋
養育
黒海
##ドライ
##メリー
##メンテ
)」(
たった
オウム
グアム
モダン
乏しい
顕微鏡
##教育大学
1849
Disc
Star
from
ガールズ
クラフト
引き換え
駆けつけ
レイアウト
フェルナンド
イスタンブール
エンタープライズ
巫
悦
濁
玲
諜
##もと
##タナ
##ムナ
##短期
##返り
te
カモ
ヌー
ハブ
パパ
双葉
売店
攻防
東欧
正則
正徳
永田
沼津
溶媒
特務
発端
讃岐
追っ
連鎖
配し
重用
銃身
陰陽
陸海
##アプリ
##ナルス
##ナーゼ
##モンテ
##リスタ
##ータス
##ript
280
301
ひかり
スカー
レーン
広げる
##ウェスト
##ゴーニュ
##短期大学
アンジェ
スクエア
セメント
ダイナミ
ドミニカ
リーマン
申し立て
ベーシスト
関西テレビ
串
冗
凡
唇
糞
苻
##えき
##た目
##グモ
##ピク
##場所
##張っ
##影響
##渡す
##ama
EF
Il
SK
バド
主婦
児玉
厚い
原動
吸い
失格
届く
川端
東名
東経
波動
熱狂
甲州
祇園
補う
門人
隔離
鳩山
##イッチ
##シアム
ゲノム
マルク
レンガ
大好き
大蔵省
後押し
抜ける
見た目
##デビュー
1100
クリーク
サイバー
結びつい
ジョーダン
マルクス主義
ブエノスアイレス
壬
汁
藝
##こく
##もっ
##ギア
##セー
##瀬川
##関東
##ety
NC
べし
イナ
ハッ
マナ
健全
全勝
到来
受付
同窓
奪回
委ね
寒冷
工藤
戦績
政友
架橋
氏名
水害
点検
破片
米子
縁起
若松
軍務
転生
騒ぎ
##チレン
##ューズ
##ローグ
##ージン
あり方
作用素
Soft
ください
ソマリア
チャール
プライム
毎日新聞
魔法使い
##チネンタル
Inter
スリランカ
ナレーター
ホームラン
嘱
桟
泡
碧
##スケ
##スン
##バチ
##ull
">
タコ
以西
借用
内包
別当
加茂
匿名
国教
尋ね
支局
景勝
晴れ
水銀
没落
演歌
白血
県警
石室
砲台
職場
自発
解読
赤松
限っ
雲南
##ナック
##マイン
UTC
いわば
とある
クック
シール
セダン
テンポ
マルコ
モナコ
ラオス
動かし
多目的
気付い
見出さ
##ブレッド
##マスター
1851
BEST
Club
フライト
大阪大学
RECOR
モータースポーツ
$
溺
粟
臓
董
鞘
餅
##サキ
##チカ
##半身
##天王
##urg
DX
MX
Sw
バネ
マヤ
メリ
不全
全滅
出仕
単身
宣戦
帝政
折れ
授賞
泣き
深海
演芸
直下
精製
葛飾
蒸留
返す
配偶
##コック
you
まるで
ウェル
オーガ
リーチ
上手く
十字架
構える
##ポリタン
##ision
Mich
アリスト
アワード
ハッピー
ペーパー
ホークス
亡くなり
勝ち越し
少なから
團
狐
込
郁
##コウ
##メト
##線橋
SW
TH
あま
いよ
お金
ひめ
ドリ
ナス
リエ
三原
倣っ
圏内
悪役
慈善
果物
桐生
物品
税金
練り
織物
罷免
製法
見直
諜報
軍需
近所
退去
##キュア
##シャツ
##テリア
##プレー
204
htt
いすゞ
アクア
キノコ
ノイズ
ハロー
マカオ
ロッキ
久保田
太陽光
見なし
跨線橋
##シーズン
プロフェ
マクロス
読売新聞
David
エルンスト
スーパーボウル
ローテーション
アコースティック
コンサルティング
##99
壱
糾
険
##ろす
##ワシ
##ワナ
##牟田
くす
こま
はた
ふり
ベオ
係る
制動
北緯
史家
増援
変革
大抵
字体
官位
実子
家電
布教
平ら
幼年
張っ
慣れ
敬意
書状
本庄
松島
発砲
直撃
絡み
自害
茶色
訂正
##づける
##アール
##タニア
##ヌエル
##フスキ
##ワンダ
##ouse
BAS
CON
PAS
Rev
ベルン
##ティーノ
Time
ノルマン
##ティックス
Apple
コンコース
サイレント
ヘルメット
ブルゴーニュ
##コミュニケーションズ
Association
##しゅ
##カミ
##ビナ
##葉樹
##las
LC
カブ
カ所
サタ
マフ
ユタ
全編
別冊
前衛
帰化
帰宅
復刻
必然
快適
意気
拍子
有り
無駄
産む
相関
膨張
解像
語学
赤城
進級
鶴岡
##イルズ
##ネグロ
##ノイド
##リエン
##ルドー
##ship
://
FIA
Win
さんま
ひょう
コソボ
スクリ
ホーク
ボビー
マルタ
出かけ
初心者
四天王
見送ら
##キャット
1852
ウィーク
エステル
クリップ
デビッド
Charl
Enter
エニックス
ポピュラー
##ニングラード
ディフェンス
ハノーファー
ニュルンベルク
##QU
暑
><
あだ
アオ
クン
丹後
二分
備中
内地
処方
助演
手配
抑圧
採り
断り
早世
欠い
決算
焼い
番外
登用
福知
端子
自覚
貸出
越し
高台
##シンキ
##チェル
##ビッチ
##ユーズ
##ンガン
##ヴォー
こなす
パルス
公民館
取り囲
推し進
支払っ
滑らか
##ガールズ
##チュード
おこなう
とどまり
オリーブ
キプロス
スカート
パーカー
マスターズ
University
##10
##FE
##TO
喚
杖
桶
窺
諫
##てい
##テロ
##ホイ
##小路
IF
iT
」)
くし
たど
なべ
クマ
並木
修業
尼子
山川
岡村
民政
消息
照準
興業
船員
芳香
要衝
買う
身近
醤油
開会
開山
飾ら
養老
##いてい
##コーン
##サイン
##ツィオ
##パード
##ビーチ
##ャーズ
##ローン
##iver
Aut
CBC
con
デニス
大通り
悪影響
日比谷
議事堂
費やし
##クラテス
Life
トゥール
文化放送
##ボクシング
Suica
サテライト
ジャッキー
リヴァプール
クリストファー
吟
悔
挫
UP
ふれ
カツ
ジオ
主軸
伝来
公言
出展
判別
口座
告示
大道
安保
廃校
引か
指輪
有明
片山
片岡
発効
祭壇
竹田
解き
載っ
辞し
風刺
##じゅう
##クリス
##チモア
##ナイン
##バット
##マック
310
Don
Mat
おもに
ましょ
アスト
コンタ
ベビー
ミクロ
下がっ
役立つ
最小限
神学校
美しく
##ヴィッツ
1844
アタック
イヴァン
フェロー
作り出し
モノレール
バックアップ
ミュージアム
シンセサイザー
クレジットカード
コンスタンティノ
駄
##やり
##ドス
##フカ
##津川
##深い
##ano
##ris
おば
よら
オト
ユリ
両面
使命
反復
吸気
城跡
孤独
挟み
新宮
昨年
枢機
株価
独奏
病原
結末
船首
誓い
貯金
起業
遷移
静脈
養父
##インタ
##クライ
##コート
##ナーレ
##プラザ
##azon
Des
ジョナ
ワゴン
呼び名
国分寺
当てる
福知山
解像度
追って
レパート
##フィックス
##ージナルス
フライング
ボルチモア
スターリング
パンタグラフ
ボーカリスト
幣
瀧
##ニシ
##ATE
##uch
)/
WD
fe
お茶
ゆり
フン
マダ
レフ
上っ
割っ
半減
夜行
大胆
宿場
密集
救い
明言
最短
杉並
水溶
略し
終身
綴り
群島
聴く
行え
転戦
退位
銘柄
飛来
驚い
##重なる
PRO
みたい
ウォル
エルフ
キッド
ケルト
サファ
スピー
トロン
ドナウ
バナナ
レシピ
レモン
亡くし
前年度
勤める
古事記
工学科
或いは
未だに
請け負
面白い
##irect
)」、「
バックス
バラード
10000
Power
北海道大学
置き換える
レパートリー
ぃ
帖
##じみ
##ゆき
##メア
##ヤマ
##一度
##金庫
##osa
pl
いり
ちん
プー
ロウ
入札
共存
出番
勝率
千里
土浦
実効
思え
方位
杉山
機首
歩み
油圧
消極
渡す
社交
祭礼
童話
翌朝
諸語
賭博
踏ん
通例
部局
金利
隠す
##ダスト
##ネーヴ
##マリー
vol
アルマ
カエル
マグニ
多摩川
東海岸
##ターニュ
##ファルツ
##フィルム
もう一度
ゲオルク
シュヴァ
スケッチ
ペルシャ
文字通り
##ersion
スクウェア
アドバイザー
インタフェース
慧
馮
##さか
##期的
##殺し
##ole
##rag
!?
ER
RT
ad
では
はし
クワ
タマ
充当
共生
参議
回顧
地層
大木
大軍
容積
小名
小牧
島内
平塚
年上
強要
応永
憲兵
戦役
日経
祈祷
神楽
究極
薬品
虚偽
西尾
計上
酢酸
##グロー
##シナ海
##ソシエ
##ビウス
##ビール
)、(
API
Fac
ウサギ
カント
御家人
日テレ
画期的
短時間
秋葉原
育てる
間違え
##イタリア
1818
1839
Rock
SHOW
アトリエ
アマゾン
ソフィア
日本航空
申し入れ
Champ
アイディア
ストリーム
スプリント
フィルター
スポーツカー
##aj
##lo
ぺ
弔
##ずみ
##づか
##とめ
##ヒム
さし
わし
イニ
ギュ
バチ
ミツ
各局
合致
地頭
太刀
定番
小池
強引
手当
村落
気球
決心
海抜
源泉
着く
紅葉
細く
若き
銃器
阿弥
##サウス
##ッシブ
##ティヴ
##ワート
205
あだ名
アレル
クジラ
ドバイ
バター
パトロ
マッカ
三塁手
便宜上
##マイオス
飛び出し
##アベニュー
ジャングル
プエルトリコ
ラテンアメリカ
##ホールディングス
ミュージックビデオ
##cy
叱
堕
屯
然
##」(
##たく
##ドキ
##半球
##曽根
##ces
##yth
!)
ox
ph
ちく
どん
ほっ
スム
一応
中身
交替
企図
侍従
参詣
商売
大麻
完走
実父
強行
怪人
椎名
毛皮
漁港
立教
肝臓
被爆
謀反
貝塚
配線
降車
音節
##ジック
##ッチェ
##ラクル
##ican
Nor
キャピ
ギャン
グルメ
ゴート
シュル
夏休み
恐らく
生理学
##ジャック
##リーマン
Thom
ニッケル
ブラウザ
持ち込み
ライオンズ
##フィクション
スティーブン
ライブハウス
ブンデスリーガ
コンピレーション
##sc
·
喰
幌
廠
淑
##ICE
##rad
##rop
##ush
JP
ME
きみ
イヤ
ハヤ
モト
佐渡
内科
協賛
外装
大作
岩崎
島々
戸籍
泊地
王冠
知性
空挺
自生
舞踏
行先
選曲
郷里
雑貨
頭角
黎明
##バンス
##プティ
##REAM
##ific
Exp
およぶ
つくっ
イデオ
ストア
枢機卿
精神病
##フレット
Best
エアバス
スライド
ダッシュ
メソッド
振り返っ
##スコンシン
インパクト
ベンチャー
Instit
iTunes
ベオグラード
アイスホッケー
ディフェンダー
フランチャイズ
アレクサンドロス
俯
##たん
##のう
##中央
##前線
##製造
TA
UH
WC
たっ
なぎ
なつ
ねる
伝染
低速
保ち
信州
共感
反逆
彼等
患っ
柔術
比叡
浅井
添付
短歌
石碑
私有
精霊
糖尿
鉄砲
陶器
風味
風習
##キスト
##ジスタ
##ペスト
##ミール
##メディ
##itch
260
BMW
Sol
ウォン
サスペ
ジーン
テック
ホーン
ラック
ヴァー
総領事
##トラウス
##ホワイト
オスカー
ジュリア
プラチナ
マシュー
##ポジション
##ライオンズ
コンポーネ
ジュネーヴ
パブリック
サイドバック
ウィスコンシン
##DI
勒
撰
杏
潔
##ぶし
##めき
##ホフ
##半期
##海峡
##hem
LD
Na
パワ
ヨウ
下層
光景
入試
公害
南岸
呼応
喜ん
国司
国文
変貌
本校
松永
検知
汽車
短調
硬化
祝福
筑後
終着
結党
解か
野手
魔王
##チョフ
##チール
##フュー
##ラック
##raph
Min
rpm
オムニ
ガンダ
センス
手数料
##ジャンプ
Stre
クーパー
ソユーズ
テロップ
度重なる
追い詰め
##ゼーション
アルベルト
エンジェル
カメラマン
パーキング
##コンクリート
Amazon
フロンティア
ブルターニュ
妄
爾
##ばり
##erv
Lu
Po
イサ
ネス
上告
不審
主君
乃木
乗合
健一
元号
前任
北岸
土岐
均一
奥羽
委嘱
安心
官庁
平井
握る
教習
本番
林業
死因
殺到
生後
白井
砲身
祀っ
肥後
覆い
語尾
邦題
銘打
長江
飢饉
黒川
##ッショ
##テレス
##ロース
##受ける
##erry
!!!
イルカ
コスタ
ヒール
下がる
付け加
検察官
止まっ
警察庁
##スタイン
##ージニア
9000
イベリア
カテゴリ
フェミニ
プロット
マフィア
建て替え
東京電力
##デルラント
ハリケーン
プロトタイプ
##IB
巌
渤
騙
##むら
##ハマ
##ヶ丘
##乗り
##強く
##書房
##沢東
Do
ナウ
ノウ
ラオ
一段
両手
了承
信任
公判
具合
出所
占い
即ち
同位
四川
国名
土着
安い
巡業
幅員
成形
日数
構図
決闘
河南
渡航
無数
熟練
産経
発起
監禁
草案
課さ
造園
##マート
##ロギー
##ival
211
アクセ
カラス
スタイ
テュー
##レビュー
1836
Soci
クロード
サーカス
ヨルダン
ジョルジュ
メロディー
レフェリー
書き下ろし
##gh
學
紺
##ゆみ
##カワ
##キナ
##プタ
##完全
##平洋
##神宮
##RNA
('
SV
nm
はや
上原
乱入
伐採
信条
全額
列強
哲也
大腸
天野
失速
学説
宇野
客船
射影
常識
弾頭
改易
放浪
映し
東郷
沼田
減り
渤海
生駒
眼鏡
空白
経典
経理
華族
見守
議院
難い
馴染
##ガード
##クトン
##プラノ
##ンタナ
##肉マン
##mann
Red
Reg
かわり
アブラ
アルカ
ネック
レンジ
代々木
唱える
基督教
毛沢東
##フォルト
##ランドル
1789
Spec
エディン
ジャガー
ジョゼフ
ファンド
ボリビア
乗り越え
落ち着い
##ウォーキー
キン肉マン
ハイウェイ
乗り入れる
イデオロギー
ルーズベルト
ミルウォーキー
ディズニーランド
##ye
##za
寂
氾
葺
##カタ
##ニェ
##付き
OR
SB
かぜ
しり
ふう
一目
人力
北村
告訴
団結
塩素
増す
子女
学業
察知
惹か
散乱
曲面
武官
点火
白川
祭典
筆記
線維
芥川
血縁
訳語
農耕
遊ぶ
酷似
随時
顔面
##サーン
##デシュ
##リオス
##リータ
##太平洋
##hone
みずほ
インス
エラー
エント
サザン
ビザン
マッサ
リヨン
不完全
加速度
大本営
車椅子
遊歩道
##イアント
##ディーズ
##ヴィング
##earch
1814
1841
1843
たまたま
アルカリ
ウォルト
ジェーン
セルゲイ
チェンバ
ヘルシンキ
##ファクトリー
アニメーター
西日本旅客鉄道
##30
##ym
孟
煽
罵
翅
賦
鄧
##ぼう
##ブズ
##ボイ
##メー
##ヶ岳
##産省
オズ
グー
ゼミ
何者
余地
勇者
千歳
史学
周防
図形
図鑑
土屋
嫌っ
尋問
恩恵
新車
染め
桑田
検閲
水没
注射
無意
着い
神輿
絵柄
走ら
車軸
退治
里見
重心
鋭い
頼ん
##エンヌ
##プチド
##ense
Arm
KBS
Pal
der
だから
みなす
カンヌ
ケーキ
ジェン
テント
待合室
支配人
##ダーソン
Rich
やり取り
クレーン
サイパン
ファイブ
フラッグ
セクション
ブダペスト
ユーラシア
レインボー
ロビンソン
日産自動車
##ユナイテッド
##ヴィルヘルム
RECORDS
##UP
##ii
祠
##、『
##そく
##air
GC
SG
いや
くみ
みこ
テラ
ピョ
万葉
亜鉛
入港
入線
兵隊
出征
劣勢
原油
安く
幽閉
所定
手形
有田
河北
浄化
海中
淀川
深川
甘い
画策
県境
笑っ
義理
翌週
藤子
農作
電位
##カナル
##ガイモ
##ドリー
##パイア
##ピット
##ブラー
##ahoo
##ural
480
Fri
いわき
こうじ
たかし
コナン
サンゴ
シルク
ハイチ
ベータ
出張所
取りや
富士通
手伝い
捉える
重なる
##ブラウン
##リアーズ
##obile
1806
1846
ウェイン
クラウン
トリプル
取り壊さ
呼び出し
引き渡さ
##ディション
##ヴィジョン
マディソン
##イングランド
iPhone
ロンバルディア
叛
埠
椿
檀
矯
礎
雀
##ずら
##たえ
##エロ
##庁舎
##文社
##生命
##ero
##ets
FK
TT
』)
さよ
たき
ゴン
三味
付録
内定
収支
園内
居留
島民
救難
月面
架線
栄光
油田
現時
移入
立派
絶縁
草津
酸性
鉄鋼
離反
香取
驚異
高倉
##ザック
##ビート
##IGHT
##berg
##tain
FBI
GDP
ISU
Sil
ありが
ローラ
八幡宮
浮かぶ
落とさ
見込ま
重なり
##ヴァンス
1837
そういう
ノーザン
ヴォルフ
打ち切ら
生き残り
##レチックス
ウェルター
ジョナサン
ダーウィン
引き起こさ
エディンバラ
スキャンダル
}
匂
紗
苫
##モフ
##ロラ
##ーザ
##人者
おし
かさ
つう
つて
カミ
ゲッ
コバ
コモ
デカ
一式
下士
健在
偶数
刺し
回廊
回送
堀川
実弟
少量
島原
弁当
強姦
心地
志賀
有線
本能
氾濫
江南
深度
満期
煉瓦
真剣
破れ
筑紫
美味
羽根
自力
茶屋
西田
院内
雇わ
頼り
飽和
##ーツク
850
Sal
アルビ
レイテ
##イスキー
##クティブ
##ドックス
##メキシコ
1831
1842
クローズ
メモリー
第一人者
言い渡さ
##ットガルト
ふさわしい
トロフィー
名古屋大学
フィリップス
コーポレーション
##GE
##ep
##ko
##xy
瀕
稜
蔡
薔
輌
##アブ
##ガリ
##決め
##然と
##瑠璃
##ASH
##IME
##ham
##rol
VI
du
~」
キラ
ムル
一言
下る
入浴
召し
嗜好
天理
奮闘
年々
惨敗
推挙
是非
書道
板橋
桑名
法規
終日
肥前
谷口
邪魔
長き
震度
##々しい
##ライフ
##ヴォル
##ield
Cap
San
USB
タール
ハイム
ペリー
ミルク
三味線
名高い
和歌集
返り咲
##ルツェゴ
City
Paul
ケプラー
コミカル
ベンガル
リットル
James
スクロール
スライダー
フランチェ
フランドル
同志社大学
##KS
q
償
哉
##アレ
##タム
##ヶ崎
##itz
##ney
TM
UR
イタ
エカ
ゾウ
ハラ
一転
乗馬
事柄
伊集
内訳
収縮
呪い
増築
士気
大東
女児
小数
従前
復員
拡幅
撮っ
文人
文科
斬新
新橋
明白
望月
津山
清算
省庁
神様
花崗
若狭
西山
農薬
辿り
選任
鉄路
風呂
##んどう
##サイズ
##ワイン
SNS
SON
とうき
フレイ
ラベル
レシー
六本木
木曽川
##ディウス
##ブリテン
1801
1838
取り込ん
若しくは
送り出し
ウィンター
キャンベル
ジェームス
プラットホーム
##BL
孵
殷
炊
苛
##リブ
##時計
##着陸
##馬場
Pi
QB
VF
いさ
がら
イグ
クオ
サビ
バタ
下落
交友
付さ
傾倒
分担
刈谷
勧誘
同種
和睦
国定
宇多
官邸
小柄
尾道
建つ
打線
新制
暖房
機長
欠席
正平
水軍
皆無
目前
管領
繁華
蒲田
補修
規程
解禁
言論
身柄
長大
高官
##ゴロド
##ジョー
##ason
")。
340
Adv
Dan
JFL
MON
アリア
コンテ
ゾイド
テール
ボギー
マグネ
山口組
押さえ
日蓮宗
江戸城
滅ぼし
現時点
##ジェスト
##トゥール
##フォート
##モロコシ
1845
ZERO
アイアン
サックス
マルティ
明治天皇
Count
サスペンス
ドレスデン
リッチモンド
Michael
ネーデルラント
ノルマンディー
ポニーキャニオン
##HA
##xt
—
候
屏
旬
雛
)『
IA
Si
UD
jp
――
オイ
シラ
セラ
仮設
僅差
内政
名作
吸血
天狗
封建
居る
平壌
念願
指針
撮り
来場
火葬
着想
稼ぎ
突っ
自決
藤村
要職
軍備
連帯
長者
飲ま
##まって
##エンザ
##キウス
##グラー
##サイユ
##ングラ
Fla
Lou
がたい
カルロ
カーン
クロウ
ソルト
ツリー
バーミ
ホース
連なる
##ニエンス
##バスティ
##リニスト
##医科大学
1804
1847
Alex
Cent
ゴースト
ショーン
タイムズ
フラワー
ミリオン
リスボン
話し合い
グレゴリオ
デラウェア
全国ネット
繰り広げる
Center
コンポーネント
##IF
坐
壇
櫻
牢
荊
##ざい
##ナダ
##二郎
##oot
##rit
Ev
GA
UK
もも
上段
両用
人造
付か
企て
即興
台東
困窮
埠頭
売っ
大成
履歴
快挙
感度
採算
敦賀
旧称
星雲
枢密
汚れ
溶岩
理科
百姓
築く
納税
細分
臓器
臨む
薔薇
警部
類型
飼料
##ディナ
##ヒュー
##プラス
##レンズ
##止める
Bas
Hen
LAN
つなぎ
ケント
ジャム
ティン
マーチ
命じる
形容詞
立ち向
試験場
##キャスト
##マウント
##ional
Phil
Serv
UNIX
カーター
ギャップ
トリック
ロータス
九州大学
作り出す
##ッソリーニ
ウォーカー
クレーター
トウモロコシ
ファンクラブ
American
ノンフィクション
鉄筋コンクリート
シュトゥットガルト
##LL
##na
嬉
朔
櫛
煩
##あげ
##監督
(#
(→
なろ
らく
ウシ
ナー
パッ
ルカ
体質
入城
内乱
内紛
円錐
剣術
医科
受領
同定
国造
大師
天竜
天草
失望
学期
寛容
平山
操る
新居
曳航
有る
松戸
構文
機甲
歯車
甚大
申告
直行
義経
裏面
謙信
速報
電極
麻酔
##ドゥル
##マニア
##ヴァイ
Tok
そちら
クイン
ダニー
パウロ
フォア
ペナル
先立ち
助監督
向こう
格付け
素早く
##サンブル
1812
that
カクテル
セクター
ベネディ
マリアナ
リソース
最寄り駅
##スプリング
ウィンドウ
テクニカル
バークレー
ヒドロキシ
サラブレッド
ニューイングランド
##60
##GS
##to
寡
怨
机
癖
逐
##のり
##ミド
##寄っ
##離れ
##gel
EM
アヤ
タウ
ポロ
上総
下賜
人為
伊那
入閣
勘定
占有
君臨
商法
坂井
孵化
寄港
平凡
故意
新鮮
旧式
末尾
点灯
石見
硝酸
稲葉
続出
網羅
脊髄
自慢
致死
萩原
行け
試料
贈り
頻発
##ザンヌ
##ツアー
##ドレス
##ヘビー
XML
それに
たばこ
とどめ
もらえ
コモン
トリー
ネバダ
伊集院
原子核
室内楽
風土記
黄色い
##キュラム
##シェヴィ
##ティティ
1790
1835
カスタム
吉本興業
抜け出し
気に入っ
ガブリエル
テロリスト
ピョートル
コンビニエンス
ニューメキシコ
乞
揖
搾
汐
蔓
薨
麹
##ぐり
##ベロ
##リケ
##伏せ
##出る
##弟子
##連れ
ども
なが
ウド
エム
カビ
ビュ
ミク
不快
公平
分譲
吐き
多々
大平
帯広
年次
戦災
打球
接種
曾孫
疲れ
登り
直訳
石狩
笑顔
編み
緯度
羽毛
肉食
跳ね
軌間
遊戯
遭難
開場
関白
離島
音速
願っ
##コント
##ッガー
##ノルド
##ローナ
##起こし
235
Wil
ぐるみ
みなと
ガダル
クウェ
クレー
ドット
バッド
ピート
プトレ
マッキ
ロッド
二塁手
楽しん
浴びる
花崗岩
行ない
##シアター
##ラクシー
##ience
1810
なんとか
もとより
インスタ
カタール
ジャンヌ
ジョアン
ディック
ハードル
フレンチ
ポップス
マクラー
レジャー
成り立っ
Store
ジャガイモ
ビスマルク
プファルツ
取り上げる
日立製作所
ステアリング
揶
##んと
##ビオ
##成績
##調べ
##ipp
BP
CN
LA
NM
うさ
やつ
リガ
ワト
仁川
公理
別人
吉原
因果
垂れ
嫌悪
幕張
従え
御前
揶揄
本流
桜花
渡河
漁師
漁獲
潜航
猪木
理性
築地
給水
老中
聴衆
街路
補欠
観衆
譲る
鍛冶
養護
高槻
##ちらん
##カウン
##コロン
##ッグス
##ッツォ
##ナムコ
##バッグ
##武天皇
ISS
MAN
かわい
ゆえに
ナイン
ヌード
フェデ
プリメ
レイク
夜明け
赤十字
速やか
##イスター
##エティー
##チューム
##ittle
1815
1826
Jose
With
イレブン
カエサル
デパート
ハイデル
マクシミ
引き渡し
運動公園
##ンジャミン
Yahoo
キログラム
ガダルカナル
コスチューム
ダイナミック
モンテネグロ
コロンビア大学
パラリンピック
##LC
揮
睦
逓
##ボエ
##不全
##向け
##族館
##ior
##uss
PM
Up
あう
けれ
はな
もろ
アガ
ゴロ
バシ
三塁
乗船
乱れ
俳人
個展
光年
八代
吉祥
同線
同館
城郭
増田
壁面
多量
安堵
家業
干拓
座っ
復古
恒例
戦況
手首
提訴
救っ
有理
残骸
治め
注入
準急
独身
王宮
石巻
競艇
竹中
給料
航続
薬学
許す
赴く
透過
那珂
開園
降っ
離散
霧島
骨髄
高砂
##コング
##放送局
OEM
UFO
Wal
なれる
シクロ
ペトロ
ルマン
女子高
琵琶湖
由紀夫
聞かさ
苦しめ
親しみ
##ゲームス
##ナンデス
1821
ROCK
まとまっ
ディスカ
マネージ
情報処理
閉じ込め
##ッショナル
##プログラム
ステッカー
メモリアル
サラリーマン
マクドナルド
Project
アリストテレス
プトレマイオス
アレクサンドリア
アームストロング
##WF
##ny
凸
吏
濠
窃
苑
蛋
謹
醜
##ニヤ
##ヴン
##春秋
##降り
##...
##ody
DA
Ul
いざ
ざい
イデ
トキ
中途
何故
入所
創価
単線
参与
岩波
慰霊
戦記
政変
新鋭
栗原
汚職
流布
漁船
無敗
発熱
直属
空位
筒井
紀行
繋ぐ
西北
試行
鍵盤
##カーナ
##ジスト
##セイユ
##ージョ
Max
とらえ
タカラ
ディン
ラード
中継ぎ
好成績
掛かる
教え子
気象庁
立ち並
装甲車
##リオット
1833
さよなら
ないしは
アラゴン
アーカイ
タックル
ハンマー
三菱電機
付き合い
相まって
##ティション
##ヘルツェゴ
Dream
やってくる
シャッター
取り付ける
##プロジェクト
##olution
ドキュメント
瞑
稔
諡
##の内
##グー
##タカ
##プシ
##命館
##III
##ico
##iew
"。
アユ
イオ
主観
亜紀
刑罰
勤労
壊れ
寄席
山林
廃墟
延べ
房総
材質
村人
検挙
沈黙
滑り
狩野
直交
相場
矯正
積雪
組長
育児
過度
都会
配合
鉱石
降る
養女
##デヒド
##データ
##ルドバ
##ters
WEB
うつ病
ほんの
わたる
エドゥ
テイク
トゥル
トーン
バント
ブース
ヘヴィ
ランス
ヴィー
太政官
東大寺
立命館
裏付け
飛ばし
もらえる
インフル
トータル
フィード
フランコ
マーベル
リプレイ
##ファローズ
Radio
パスポート
ビクトリア
ファシズム
##メンテーター
Corpor
チューリッヒ
西武ライオンズ
##hr
庸
榊
甫
皐
錠
隈
##がみ
##ベト
##伝え
##去っ
##研究
##ARA
EV
NN
VR
im
qu
かご
かじ
さわ
シマ
テム
ユン
一夜
下着
今年
共闘
前輪
卓越
同族
呪文
図柄
売る
完備
室長
家政
教材
散歩
敷か
服用
松前
河岸
渡来
田口
税率
筑前
綱領
表れ
転覆
闘い
電報
##ベンツ
CIA
Mil
やっと
ゴッド
デュオ
フュー
リュウ
加古川
国際線
最大限
苦しむ
##ウィング
##ガーデン
##ゲームズ
##ファーム
Sing
なおかつ
なくなる
オアシス
デュアル
受け取り
追いかけ
##ディズニー
アミューズ
ウォーレン
エンブレム
パラグアイ
フレッシュ
メンフィス
コードネーム
チャップリン
フリーランス
プリンストン
ウィキペディア
メトロポリタン
##YP
γ
●
濡
眉
胚
##ギリ
##助け
##ISC
##uck
Sn
ぼん
わい
スネ
スミ
ドニ
ネブ
ペレ
レプ
不便
五島
切腹
加害
卸売
参列
反感
吉備
子宮
富岡
就き
届出
徳間
心身
応力
描画
文京
新町
晒さ
暮れ
村長
水位
水槽
熱海
田畑
畜産
砂浜
福建
移築
素人
紳士
荒れ
覇権
観覧
貸与
農学
野心
駅員
##カラー
##シアン
##ッチャ
##ンチャ
##分ける
##変わり
##atch
JBC
Out
オルタ
ガイア
スカル
ヒスパ
ワープ
乗り場
振るわ
水族館
環境省
相談役
##アリーナ
##ウィッチ
##ッカーズ
##ローラー
1792
Euro
Fire
アトラス
カーテン
グリッド
メーター
執り行わ
書き換え
組み込ん
##シェヴィキ
##マドリード
フットサル
##イコフスキー
##ファイターズ
コメンテーター
升
憑
爬
腺
襟
酪
釘
鵬
##アト
##シム
##セグ
##メリ
##ラジ
##ワル
##去ら
##ILE
##ude
Ca
DB
PT
ほし
アザ
エナ
不服
修飾
叔母
受理
名字
唐津
啓発
奇数
存命
客席
室蘭
当面
従わ
志村
念頭
感銘
日の
書体
本稿
業種
江川
池上
洗濯
球体
紙面
花園
花嫁
落城
要約
誤認
護国
配当
長子
間近
間際
震源
黒字
##キシン
##スペル
##ニッツ
##ヒェン
007
Str
めぐみ
ダライ
##ゴールド
##スコット
##ebook
WAVE
そっくり
とどまる
パニック
推し進め
文藝春秋
角川書店
譲り受け
##ウォーター
##lement
PRIDE
アレルギー
オムニバス
オーシャン
コンタクト
問い合わせ
Direct
インフルエンザ
エスカレーター
マクシミリアン
ケンブリッジ大学
##40
##70
##ij
Ζ
冪
剃
此
蜜
##じゅ
##マム
##メガ
##温泉
##ACE
##erc
##uel
HC
Ju
Kn
TP
ざん
もて
オデ
デリ
一変
元祖
同化
変種
天龍
太く
実物
対等
専業
小西
川西
年貢
床下
待避
急逝
愛さ
戊辰
教訓
散見
整合
旧約
明神
機内
殴り
母子
沈め
益田
神事
聴覚
薬局
要領
連発
馬鹿
駆除
##テクノ
##リッチ
##span
tra
いずみ
いつか
タスク
ナビゲ
ノルト
ヘレン
ライス
呈する
有名人
相次ぎ
##サッカー
##シャイン
##ディオン
##ブラック
##ental
Ever
comp
インフレ
チャット
バルト海
リチウム
ローマ字
戊辰戦争
##イーグルス
インドシナ
スティック
マルセイユ
ミニゲーム
アルフォンソ
カリキュラム
ニューギニア
レニングラード
##mb
娼
幡
彭
捏
斡
矮
肢
##デジ
##ノル
##マグ
##出そ
##後円
##持つ
##理石
##ote
##ram
はめ
ひし
へん
カネ
コリ
セク
セブ
ブタ
ボイ
レズ
仰角
休み
偽造
全力
写し
叫び
同郷
国歌
失策
学制
富ん
必死
応急
捕え
敷い
時速
有能
杉浦
流星
浅間
潜伏
窃盗
級数
結集
網走
英名
茨木
被疑
説く
軍機
軍縮
返答
連日
阿武
面倒
##INAL
Mem
RAM
Sun
Tri
mph
シャイ
ヤクザ
ラット
下士官
兼ねる
取り締
大まか
大理石
滅ぼさ
紫外線
財務省
鮮やか
##ッフェン
##プレート
##リックス
1795
1825
SMAP
かたわら
ただちに
とどまら
ふたたび
シリアル
シリコン
ヘルマン
使い分け
前方後円
生き延び
リサイクル
フィッシャー
##ヘルツェゴビナ
ハイデルベルク
バンダイナムコ
ホームスタジアム
卯
喋
塵
按
馳
##くう
##くら
##すぐ
##王星
##enz
OK
Of
あず
すば
らし
カド
一瞬
三陸
五月
亡き
側室
備後
優遇
八尾
円谷
別個
叶わ
囲む
土井
坂口
堀江
天地
天守
太い
寺田
岩国
態勢
投降
挑発
疫病
症例
税務
膨ら
裁定
見下
視力
親密
説話
財源
軍医
込ん
通す
限度
隠岐
非合
館内
高位
##どころ
##ティコ
##ball
Cal
NEW
アディ
グラブ
ゲオル
サリー
ドール
中西部
内親王
宮内庁
阿弥陀
##シャトル
##ルドルフ
DeNA
アイデン
ウォーク
シグナル
ノウハウ
ファイア
付け加え
##チュワート
##バージョン
アンコール
デラックス
パトロール
立命館大学
バリアフリー
パンフレット
ドミニカ共和国
##by
堯
嫉
朋
遍
酋
鹵
##やさ
##エク
##ダニ
##ノワ
##モラ
##ani
ミト
佐倉
儒学
公方
副官
包み
吉岡
坂上
家中
寄宿
市政
帰順
常備
悪性
断ら
木戸
欠番
温帯
湖畔
湿度
独断
登っ
直系
真ん
破ら
祝う
苦痛
行こ
西大
輝き
運休
開墾
防備
随筆
黒澤
##ぎょう
##ウルフ
##サント
##ware
GNU
TOP
カブス
サヴォ
ゾンビ
ナショ
パット
パース
楽しい
##シングル
##ストーン
##芸術大学
##ublic
1834
King
Oper
アストロ
セーラー
フォール
ホイッグ
取り込み
知らせる
##イスターズ
##コロムビア
##ナンシャル
インテリア
クウェート
ソクラテス
##ソフトウェア
ベネディクト
コンプレックス
インディアナポリス
徽
擲
榛
采
##ザメ
##屋敷
##建設
##梗塞
##高原
##asc
++
XP
bl
it
tr
とれ
ウリ
シス
パト
ヘビ
ホノ
以東
伽藍
側線
充填
出せ
叙事
吹田
変調
多年
奉公
宮川
時事
残せ
水車
穏健
竜王
耕作
警護
門前
陸戦
##きゅう
##シュア
##トップ
##ハード
##ペース
##マンス
##aint
")」
256
Pat
del
ver
コスモ
下がり
公文書
教職員
最前線
第一線
菩提寺
##シアード
##ローニャ
##ンドラー
1828
エドガー
サミット
ロッキー
取り巻く
取り消し
カレンダー
パラダイス
プリキュア
ランニング
Thomas
ディビジョン
ミッドウェー
組み合わせる
ジャンクション
##uz
囃
弧
殊
矩
雁
##てん
##ツク
##ツジ
##ヌイ
##ハリ
##着く
##aka
##uby
##yle
NI
Ob
PH
おは
スモ
バウ
ミカ
争奪
入省
冷蔵
切ら
南洋
厚木
吉村
命題
宇佐
崇敬
平城
役に
懐疑
手腕
持参
新約
武藤
直ぐ
秋元
絶大
脚色
英字
蛋白
買わ
足ら
送付
##っぽん
##チュエ
##ナリー
##ビック
##メロン
206
Roy
キラー
シャツ
トマト
パルマ
ラルフ
下回る
佐久間
使い方
取り外
大気圏
打ち破
改める
見立て
騎兵隊
##ガスカル
##レコーズ
##cript
1780
アンゴラ
カタカナ
ダブリン
プレゼン
ラトビア
伊勢神宮
取り決め
##ウェールズ
チュニジア
バーチャル
ボウリング
##バスティアン
マダガスカル
第一高等学校
キックボクシング
ッ
浙
灘
煎
鬱
##シク
##ナリ
##育て
##eng
##erg
##olf
##str
Hz
ちか
カト
ポツ
乱闘
信奉
入間
全廃
円滑
冊子
動的
右舷
司る
大沢
妄想
山々
強風
微小
戦犯
手作
承継
標榜
欠か
注力
牽制
生む
簡略
綴っ
花序
近親
迫撃
長良
靖国
騎馬
##ッチン
##ハール
##ーナー
##映画祭
##ista
Mal
ばやし
イアン
ガンマ
ハーン
バッジ
ヒート
万国博
子育て
心不全
没する
真ん中
財政難
##ファンド
1803
いち早く
かえって
こだわり
クラッチ
サンスク
スチール
ドロップ
フェリペ
ブリスト
果たして
##国際映画祭
Class
アベニュー
マウンテン
ロースター
チャリティー
ランカスター
ヴァイオリニスト
プロフェッショナル
マスコットキャラクター
##12
##80
膠
錫
##げん
##道具
##ema
##ora
IW
MY
RK
XX
あけ
あす
はっ
まじ
みえ
みき
クア
ハス
一向
一座
上智
保た
修験
分隊
多賀
嫉妬
実名
専ら
専売
小路
帝位
帯域
幸運
捕ら
整っ
文言
本隊
条文
湖北
漬け
無断
産ん
皇女
着色
老舗
谷川
超越
踏む
電機
風力
首領
鹵獲
麻布
##しくも
##ウィル
##チスロ
##ツィン
##テマラ
##ャルト
##ーナス
##語大学
ATS
FNN
GPS
さとう
シスコ
バラク
モニタ
ルース
備わっ
農学部
離着陸
##県立大学
1776
フリート
ローラー
取りやめ
##ブリュック
##ムナジウム
ウエスタン
切り替える
##アイルランド
George
マグニチュード
日本コロムビア
チャイコフスキー
ポールポジション
俵
某
楯
檜
渉
縞
##わう
##グン
##年始
##振り
##電池
##arm
##era
##lin
##och
##ret
NK
RD
Ze
っ子
タク
分社
受給
噛み
多角
如何
学力
宇和
山上
役柄
恒久
戦没
撃た
擲弾
本誌
欠く
気味
満塁
炭化
生計
腐食
解離
起草
遠江
酋長
隆起
雌雄
頭蓋
##んどん
##ケース
##ッサン
##レッタ
##掛かり
##cess
)」。
225
802
WOW
iOS
net
ベット
ホープ
ボウル
ラーマ
取れる
広まり
思想家
手助け
携わり
検察庁
私生活
聖なる
華やか
薬剤師
##クリーム
##ステッド
##タノール
1793
Carl
アイゼン
デンバー
年末年始
読み切り
オセアニア
ステータス
チャーター
パスワード
ビジュアル
ヴェルディ
##ペンハーゲン
Street
ベンジャミン
マクラーレン
Research
ユニバーシアード
Corporation
##TH
##va
##án
廷
撒
櫓
鋸
鮎
##々的
##ツネ
##パニ
##ビィ
##平野
##新田
##ALL
##AMA
Gi
きよ
ひさ
イケ
クィ
ソン
上面
世に
京橋
公然
再演
利害
勧請
北川
合祀
否決
埋立
執る
増減
審理
左舷
店員
庶子
怪談
戸塚
捕縛
採決
断続
有望
本紀
流量
熟成
爬虫
牛肉
産物
甲賀
疲弊
瞑想
終末
絵図
肥料
至近
英訳
蒸発
製紙
覆っ
遺骨
鍛え
陶磁
鳴き
##アドル
##ゲルス
##ッツィ
##テルン
##ates
##irst
Jul
に関し
インフ
オルガ
キース
ギャル
ケビン
シャム
ジオン
ジャコ
テッド
ボトル
ポーズ
リーガ
一人物
先立つ
叙事詩
喫茶店
大々的
大納言
捧げる
積み重
面する
##ウィーク
##キンソン
##マガジン
##erson
##press
なかよし
アフター
アングル
ジュース
ニコラス
ニーダー
ノーマル
フラット
ミッキー
##アントニオ
ICOCA
アーノルド
デュエット
##ベースボール
Little
Company
コペンハーゲン
Institute
ファッションモデル
##ón
畿
##ウオ
##コイ
##ゴリ
##セク
##ミオ
##井沢
##面目
##amm
##aut
##gan
##ima
Rh
える
おま
かり
とこ
ひま
カサ
ガム
コイ
ピレ
件数
修繕
光度
光源
北見
可視
各部
合間
坂田
増発
宗像
対し
小石
山西
左京
平戸
年下
恨み
意外
愛用
感想
投影
抗原
捏造
斡旋
星座
曲げ
欠如
武者
水量
無機
破裂
終止
自律
薨去
裏側
規律
購買
贈っ
逆襲
醍醐
長井
隣国
面接
音波
頼ま
黒星
##カルド
##ティカ
##ボルト
##ンクス
##rich
)』(
212
Alb
Dig
Dis
Fre
づらい
カルボ
キリン
ジェル
低かっ
千秋楽
原住民
商学部
天台宗
最低限
白血病
##こうとう
##ウイルス
##キャンプ
1781
1808
3500
name
シンフォ
ティーン
引き出し
繰り上げ
見つかり
##アメリカン
##プロセッサ
##ージェイズ
アイランド
アンソニー
グアテマラ
セグメント
アムトラック
アンサンブル
フィニッシュ
General
キャスティング
亨
蘆
##ざん
##エナ
##ニム
##外国
##惚れ
##河内
##ACT
##gin
Sk
TW
かお
くう
ひだ
スエ
セビ
セリ
享年
人達
傷害
募金
参院
多忙
太宰
妻子
定式
岡部
島嶼
年数
序列
彦根
拘置
服役
朝夕
果樹
榎本
正史
溢れ
潤滑
熱中
献呈
甲状
発布
直人
秋月
種々
答申
紫色
組曲
舞い
苗字
苦情
講じ
贈呈
転任
転職
青梅
願う
##カルロ
##スパー
##デッド
##パニョ
##ラジオ
##リーフ
##レーナ
Sky
エキス
オバマ
チョン
マラー
ミゲル
ミール
ムード
下水道
冷たい
農産物
##いちらん
##ッチェル
##ハーサル
1819
おもちゃ
たいてい
アクセル
オンエア
オークス
コンビニ
スパイク
スレッド
テンソル
ディスコ
ナンシー
ポツダム
産経新聞
##外国語大学
インバータ
ギャンブル
コーディネ
取り入れる
カートリッジ
バーミンガム
Society
Special
サンスクリット
北アイルランド
##インターナショナル
##""
##IZ
彷
赦
閃
雍
##粒子
##西洋
##音楽
##IVE
##ugh
BA
Kh
NR
うめ
つぶ
ねこ
エラ
サザ
ペリ
ホス
ボロ
下方
下田
両院
代金
仲良
併記
供述
前漢
創出
厳重
城山
大泉
大黒
小中
山の
市議
府県
彩色
戦わ
抗生
救わ
水利
汲む
洋楽
熱い
登る
皐月
神仏
腎臓
行軍
託し
誘発
転出
追贈
鍋島
長浜
開示
降雪
高値
##バシー
##マーン
##レンツ
##武道館
701
JNN
Vis
エグゼ
ゼウス
パッチ
パラオ
ボイコ
弦楽器
応える
脂肪酸
##ユニット
1794
1805
feat
にっぽん
クリック
ケータイ
コサック
ターナー
ディーン
ハングル
ルーカス
北大西洋
##アカデミー
アンモニア
エレクトロ
コンパイラ
リハーサル
日本武道館
##コレクション
コントローラ
パワーアップ
プロパガンダ
少年ジャンプ
フランチェスコ
Champion
オックスフォード大学
##vi
覗
輿
##遣い
##ONE
##bps
Af
Ke
下車
予科
元服
兵科
同情
商社
場外
宿舎
密教
巨額
市外
形作
悩ん
手足
払っ
探求
東邦
法皇
泥棒
注ぎ
測度
爆笑
物事
登頂
皮質
盗ん
盗賊
直立
知多
知覚
稲垣
脂質
花粉
落札
蒲生
豊岡
貼ら
越冬
迷惑
通販
##ふそう
##ジェン
##ダコタ
##バイン
##ブソン
##ヴェイ
##ヴォン
##ideo
Gal
MAR
und
ケイト
サハラ
ジーク
タイル
テトラ
ニース
ハープ
ブーツ
ロスト
代議員
伸ばす
埋める
大文字
幼馴染
根拠地
格納庫
買い物
##ウェーブ
##ステージ
##ルスキー
##ander
1802
Land
Miss
ウェイト
オーボエ
トラスト
書き込み
##ection
Tokyo
ステファン
ディーラー
ブリストル
プリメーラ
ラファエル
三菱ふそう
オースティン
パイプライン
##コーポレーション
アトランティック
匈
旺
曜
##かう
##つう
##ムラ
##製薬
##酒屋
##ars
##elf
##hed
##ird
Ap
co
my
スン
セー
ダメ
パロ
ベリ
二度
代償
分光
化物
四肢
外壁
大船
実録
寵愛
岩田
店主
新庄
施す
更生
林道
校内
校歌
民生
沈み
縦断
見い
触発
課し
車輛
過失
閉校
闘士
雇い
青島
##セイン
##タワー
##パルス
##ベルグ
##マシン
##レリア
##ンドゥ
##idge
mac
さほど
ケーニ
バース
久留米
関東軍
##ゴメリー
##リサーチ
1791
1807
1829
Game
どんどん
なぜなら
はじまり
はじめる
アントン
オーロラ
バチカン
ファイン
フォース
##ラクティブ
ファシスト
ボイコット
ボローニャ
Charles
エージェンシー
クロスオーバー
パーソナリティー
コンビニエンスストア
##ci
允
淮
渾
滴
陝
##せつ
##らぎ
##シド
##ズィ
##テア
##ボラ
##リド
##倒し
##文化
.(
:「
RB
げき
オロ
サボ
ラボ
ルナ
亀井
付し
兄妹
児島
八郎
分水
即時
台場
和声
和音
咲く
土手
地雷
大乗
局員
店内
引数
明朝
東国
松阪
植生
正午
活字
済む
男児
眺め
知恵
秒間
窮地
菌糸
課金
讃え
賀茂
賜っ
車道
逓信
重症
銀貨
銃弾
随所
領国
顔料
##バトル
##レイズ
Ant
のぼる
アリー
カッコ
ション
テラス
中距離
二度と
建設省
当たら
民進党
親しい
非公開
##プシャー
##ンタイム
##急行電鉄
Free
たちまち
なかでも
アダムズ
カーボン
クラウス
セグンダ
プライス
ボディー
リターン
移り住ん
##intosh
DREAM
Sound
ストライク
タブレット
チェルシー
朝日新聞社
ジョンストン
パラシュート
##プロモーション
フェルディナント
メディアミックス
##li
▲
會
梵
轟
##べく
##まん
##コラ
##モト
##晦日
##条件
##組合
##ada
##ida
##oto
FD
つね
つば
のせ
はつ
やし
カヤ
セオ
モラ
久喜
元治
刺さ
加担
加水
匈奴
各務
嘱託
埋蔵
執事
好投
完投
弾劾
手帳
抑留
文官
有楽
極度
極秘
浩二
潮流
直樹
租税
算術
続々
習い
聴き
西園
退化
阻ま
##き出し
##ったり
##ティル
##ニョン
##ホーフ
##ラング
##レック
##込める
##ella
##ular
)。「
May
man
new
エステ
ガーナ
スライ
ティル
テッサ
乗り物
優しい
市庁舎
挙がっ
長方形
##アングル
##イヤルズ
##メーカー
##リエット
##ensis
Blue
Brit
LINE
Park
おはよう
なるべく
やむなく
ハイパー
バングラ
フィルタ
ヴォルガ
上智大学
負け越し
迎え入れ
逃げ出し
ネブラスカ
モーメント
エレクトロニ
バラエティー
ヴェルサイユ
Facebook
トランスフォーマー
##JI
##PA
##ks
♪
噺
攘
毀
餓
##ぜん
##セミ
##ナガ
##バク
##商事
##続け
##陛下
##erm
##rew
Cy
Du
LG
pH
かげ
ほり
オシ
ビザ
ホッ
ボケ
ムン
三沢
不変
了解
会期
侮辱
侵食
八百
冷静
前哨
外傷
家柄
密輸
戦乱
払う
放流
星団
栗田
歌川
毎秒
比定
洋上
消す
減衰
瑞穂
疾病
監察
石山
襲う
違和
阿賀
霊場
首謀
鳴門
##ろしい
##ウィー
##ヤーズ
CAS
Hol
Sam
アワー
グリル
ジョイ
ブリス
マキシ
ミラン
メロン
ラング
リニア
一般に
岸和田
準ずる
題する
##ショット
##ハウンド
1775
きちんと
アーカン
クラウド
スタニス
ヒューズ
Wrest
ステロイド
ハーバート
バビロニア
##ピクチャーズ
ワークショップ
コンペティション
Macintosh
##MM
##TP
丼
嵩
殲
糧
芯
誅
##ずり
##ゆう
##テリ
##ラノ
##レロ
##天候
##帰り
##残し
##覧会
##討ち
##AME
##obe
KC
だれ
ちり
ふし
カバ
ピル
仏像
初旬
勇敢
受諾
回航
城代
堂々
安房
実兄
巫女
救世
柳田
業態
正直
残党
清国
由良
破滅
脱線
講堂
返事
述懐
逸脱
長け
除名
陪審
隠蔽
鳴り
##ザイク
##ディレ
##ビーク
##ータン
##合わさ
-』(
Def
Sur
おさめ
ひばり
アセン
エコー
キッズ
キティ
クルド
サイコ
スレイ
レッズ
起こら
運輸省
##ウィウス
##ファイル
##ワーゲン
1783
1798
Mart
http
すぐさま
どころか
アンカー
イェール
シティー
シンクロ
ブルボン
受け止め
言い伝え
##じょうせん
アーカイブ
チャーチル
フォルクス
万国博覧会
##レンジャーズ
ダイジェスト
レクリエーション
##go
且
呑
宍
寇
竪
蟹
謁
豫
頬
##サリ
##バニ
##ピエ
##ポタ
##多摩
##学会
##off
op
うり
かず
きし
さと
わん
アエ
オウ
キク
上人
不倫
光子
内省
出塁
前夜
十勝
原生
反戦
国史
大仏
如く
客数
家事
履行
川村
幼名
攘夷
敗者
文句
断定
新種
日置
板垣
案件
桟橋
歳月
水島
無力
異教
盗み
篠原
絵巻
自軍
華麗
譲ら
足跡
通年
郡上
魔物
##スミス
##レベル
RAD
いとこ
だらけ
アサヒ
ギネス
コーポ
ズボン
ダイオ
トレン
ナイル
ニトロ
ヨット
ロート
動植物
向ける
社民党
見習い
1763
1797
1817
1824
CLUB
Good
HTML
やりとり
エヴァン
キャリー
ソプラノ
テュルク
ノーマン
取り出し
書き上げ
柔らかい
追い込ん
##ディッシュ
##ニュメント
##レンブルク
Sport
どうしても
インデックス
ザルツブルク
ジャイアント
ピックアップ
ムッソリーニ
リーディング
イングリッシュ
π
丙
杵
綺
髭
##きん
##ぐる
##そり
##オパ
##ミズ
##ICA
IG
ひな
れれ
パノ
丸い
人柄
仲裁
公約
共済
内海
名手
喚起
夕刊
射出
局面
常駐
廃刊
掃討
操舵
放水
放牧
旧名
明瞭
横田
欠乏
海浜
海里
清和
犬山
目玉
相性
着実
神崎
聖霊
脇役
芦屋
花弁
華北
視線
診察
試し
金貨
開削
関脇
飯塚
高射
##オキシ
##カルタ
##サート
##シタン
##トール
##ボート
##メート
##リーヌ
##ルトル
##ague
##ange
214
370
FOX
mod
きれい
アンプ
カリフ
ペスト
ユーク
ワイヤ
相次ぐ
細長く
見なす
軽井沢
##チューン
##フレンド
##ランジェ
1590
Hist
インテリ
ガンダム
ギミック
ジャンボ
ジュール
スタック
ニューカ
ホールド
ワイヤー
立ち入り
立教大学
脊椎動物
##イスクール
##チュアート
##ティンゲン
##バラエティ
##ュージョン
Colle
アナトリア
シューマン
ドーピング
ヒューマン
前方後円墳
Office
##tainment
姚
擦
##わざ
##ゾー
##ボナ
##メニ
##神経
##置県
##規則
##oon
!(
Ec
HR
JO
LR
ft
ww
やき
よみ
エヌ
オタ
オラ
コブ
ジロ
マヨ
モビ
不祥
亀田
二宮
体裁
便所
保養
勝山
北山
原宿
口腔
図案
大帝
大豆
奉天
屈折
平民
廃藩
拒ん
挙動
枚方
水着
沖合
浴場
爆雷
狭間
皇居
省令
着せ
神明
経口
臣下
興し
被弾
襲来
観賞
通説
連作
長所
風速
鶴田
##たかも
##ウンズ
##カープ
##シャス
##シーズ
##チェス
##チョン
ANN
Pla
per
おおい
おかし
おこし
できれ
カノン
カルト
ギルド
クレタ
シモン
フェス
ブレン
ペンタ
マハー
信じる
参事官
放射能
等しく
違和感
非合法
##サウンド
##ファイト
##ヴァール
##ヴゴロド
Type
あたかも
こうえん
ふれあい
グレッグ
ジブラル
トラップ
ハッシュ
乗り込ん
廃藩置県
思い出し
持ちかけ
Elect
hydro
ありがとう
さかのぼる
エクアドル
トルーマン
トレーラー
トンプソン
ワーグナー
##ゥルメンタル
コンスタンティノープル
##YO
##ta
禎
葦
蹄
##がわ
##たち
##っ子
##チク
##テュ
##ペア
##ロジ
##売り
##持っ
##行為
##iko
Ha
うみ
おろ
タナ
ツィ
ナミ
ノリ
マキ
ラド
一撃
井伊
伏せ
伴わ
傾き
儒教
全日
切符
十二
博文
品目
夕張
子息
専制
就業
序文
廃れ
応仁
恵比
日吉
材木
権益
母語
気流
王様
異説
畿内
病床
着物
粉末
美学
航法
萌え
葛西
血圧
討死
豆腐
赤羽
遠方
龍造
##キュラ
##ダイヤ
##edia
(""
Bra
www
お気に
アカデ
スワン
タイト
タップ
ファウ
プロレ
リップ
ワット
ワルツ
万葉集
不規則
替わっ
甲状腺
西園寺
講道館
遊牧民
##スティー
##ドリゲス
1816
1822
Song
アウェー
ゴールデ
プログレ
ヘリウム
西武鉄道
##インディア
##ブラザース
##ミンスター
お気に入り
アイザック
クォーター
ハイキング
リヒャルト
アンソロジー
アーカンソー
ソフトボール
ロングシート
ワイドショー
##こうとうがっこう
カンヌ国際映画祭
##CH
φ
漕
萼
##くじ
##こし
##チコ
##ッレ
##リョ
##広島
##本松
##OLD
##iro
##ope
.、
fl
おび
つぎ
クエ
サメ
ヒメ
ヘレ
ミキ
レギ
亀裂
先導
再起
動乱
化け
千島
右肩
囃子
四股
城塞
堀内
士族
外出
大隅
宮田
小室
小豆
岩倉
巻い
店長
懲戒
換え
日成
日食
毎時
済州
滝川
父方
画素
白く
磁性
磐田
糾弾
細工
縦貫
耐震
胎児
自在
自著
西条
課せ
遠山
部材
酵母
飛翔
飛車
##テーヌ
##リース
##水産省
365
Bay
Leg
ひどく
サルデ
デート
リーフ
レキシ
外れる
大牟田
度合い
爬虫類
男の子
美術家
遠距離
##コーダー
##ジャーズ
##ランブル
##ンタイン
1770
1809
かかわる
すっかり
スイング
フィット
ホノルル
モノクロ
引き下げ
盛り込ん
##デイヴィス
キリシタン
グルコース
ジョヴァン
農林水産省
##ンバーランド
ビルディング
プライバシー
##フェスティバル
Richard
コンチネンタル
ニューカッスル
マネージメント
##QL
喬
寓
慌
炸
穿
螺
##しか
##びれ
##ウラ
##ノア
##バタ
##不足
##先端
##抜か
##着き
##艦隊
##ANG
##OME
##ats
##ova
##uth
.』
EB
OG
ぶら
イヴ
オク
コト
シネ
リカ
一様
中略
丸亀
二男
京極
会戦
例え
倒壊
元就
冗談
前座
叫ん
名取
在外
塩田
大明
屋号
峡谷
年中
弾性
思惑
惚れ
扇状
摘発
擬似
支隊
敷き
文体
早速
未完
本庁
柳川
柳生
比重
狭隘
知見
確執
福原
秀樹
竹島
絵師
総局
若葉
苦悩
菊花
藤岡
行幸
覚書
賢治
防い
阿久
随行
音質
須賀
##しゅう
##コット
##ロート
223
231
Ben
GEN
STS
Tim
アクロ
パウル
中曽根
伊勢崎
深める
石灰岩
##ショック
##ヴェント
1813
1827
インフォ
チューブ
デューク
フェンス
ブルジョ
プラトン
ルワンダ
信用金庫
待ち伏せ
払い下げ
持ち帰っ
落ち込ん
##ジョーンズ
##ストーリー
Light
WOWOW
トラクター
レオナルド
コックピット
サルデーニャ
トランジスタ
バルカン半島
フランシスコ
モニュメント
Edition
バングラデシュ
アインシュタイン
斧
毘
焚
韋
##ぐれ
##っか
##の中
##ヤシ
##ヴナ
##交通
##早川
##時代
##更津
##東洋
Os
くわ
わき
オホ
サガ
セロ
パク
ペロ
マタ
マテ
一意
丁寧
中絶
伸長
原典
収拾
右腕
夢見
奮戦
客演
宣誓
小国
小浜
廊下
微細
技巧
数量
浙江
混入
狂気
生家
甲殻
範疇
統率
見物
身代
軍服
退避
野望
長兄
随伴
露天
頼み
高低
黒く
##サーズ
##セナル
##デック
##マイズ
##メッセ
##ally
##ross
440
Bel
Boy
GII
Pan
あらた
カオス
パルチ
ヒマラ
上がら
不祥事
冠する
切り替
区役所
原動力
将軍家
木更津
正方形
目立た
真面目
見直さ
龍造寺
##クリーク
##ナイダー
##velop
Jean
スピーチ
スリップ
スルタン
チェリー
バーゼル
プロトン
モットー
ユーモア
ランディ
ワースト
結びつけ
FINAL
Grand
North
Trans
カーニバル
ギルバート
コロムビア
ディストリ
ブースター
ペナルティ
フィーチャー
##13
僚
兜
匡
峻
忙
槽
##こん
##さつ
##エビ
##ザイ
##保険
##言葉
##OKA
ぐる
すき
ゼル
ソチ
ネガ
ハガ
一節
下向
中之
主眼
信越
偏見
先鋒
全幅
全豪
内臓
北原
双対
土日
字形
宇文
宴会
履修
山村
山王
広西
弾倉
懇願
抑止
故事
斑紋
於け
旧道
旭日
明智
樋口
権勢
殲滅
水兵
漂流
発送
監獄
童謡
繊細
署長
羽柴
臨済
見本
視認
議定
負わ
貫い
返却
進攻
遼寧
配さ
重き
長島
長嶋
防犯
魔界
黒部
##チュウ
##ヒルズ
##ラーフ
##レアン
##burg
!」(
222
FNS
Luc
まずは
エイト
チェン
トロイ
パルプ
パンツ
ベック
並べる
丸の内
持ち味
消防署
発起人
追いや
高野山
##ッパーズ
##ポタミア
##リエール
##azine
West
『""』
つとめる
アドリア
ストラス
スペック
フレッド
モンロー
リサーチ
創価学会
取り込ま
取り除く
小中学校
引き取ら
引き揚げ
神戸大学
見つから
買い取り
##グラフィー
##コンドリア
##ograph
Intel
ジェノヴァ
スクリプト
マッサージ
サンプリング
バドミントン
メソポタミア
全豪オープン
Network
ミトコンドリア
エンジニアリング
スペースシャトル
インストゥルメンタル
##CD
壽
拿
炒
芋
薦
賈
距
這
鍼
##なみ
##ねん
##ひろ
##ツカ
##ヨウ
##送り
##err
##vex
FE
KR
VV
bj
no
がる
しみ
でる
はさ
ふと
やろ
ギー
ミレ
ヤー
ラビ
一味
今治
個数
全通
兵站
内面
則っ
包装
叢書
吉井
四谷
大隈
安達
実情
宮司
富豪
後身
心筋
性交
手本
抵当
推さ
掴ん
換気
放電
数理
文様
文治
新編
方角
暗く
曹洞
模範
比し
水晶
済ま
版権
発せ
真正
細か
豊前
踊っ
除隊
##アレス
##ネスク
##パック
##ボーグ
##ンダル
##ours
380
Bus
Ult
mus
ひどい
カリス
カーネ
セーフ
バレル
ボリス
マッド
中納言
古文書
向かわ
悪かっ
手伝っ
気づか
法務省
誘導体
##たいかい
##グリーン
##スタンド
##ティアゴ
##フェイス
##フェスト
##ブレヒト
##ベックス
##リングス
Arch
Batt
Core
SPOR
Unic
おおさか
それなり
アーロン
グリップ
スーザン
トレント
パチスロ
聞こえる
Great
グライダー
チャイルド
アイスダンス
ジブラルタル
ユークリッド
##ストレーション
アイデンティティ
##FS
厨
弐
挽
橙
膳
鰓
##めい
##ろさ
##エド
##ノ島
##ハト
##ポス
##中島
##動脈
##小牧
##綬章
##ady
##omo
-"
?』
AE
JU
KE
SI
いせ
一夫
一掃
便器
値段
傾い
光沢
入江
国庫
土星
壮大
大邱
小平
山野
常盤
幸い
強襲
弾い
恩師
戦勝
手軽
挫折
新春
期日
本船
枢軸
根岸
欠損
歌声
武雄
残高
民話
水谷
決行
海南
清原
片手
球面
病没
発給
短命
精鋭
良質
要人
貫く
追討
連座
遺し
配送
開基
電線
##かしい
##エイジ
##ザーブ
##ジェル
##ニアム
##ヒット
##フロー
305
430
978
Jon
NCA
PSP
SIM
are
かねて
けんじ
こころ
なくし
みゆき
アクシ
カンパ
クーペ
スズメ
ナムコ
ブルズ
ヘルム
ルソン
小麦粉
後醍醐
水溶液
苫小牧
閉じる
陶磁器
##工科大学
##other
1788
1796
カルデラ
コントラ
セクシー
ニクソン
ヒマラヤ
ロックン
取り立て
持ち出し
遠ざかっ
##デザイナー
##ーブメント
EXILE
Girls
アーネスト
コンソール
ファゴット
大河ドラマ
持ち合わせ
スチュアート
ヒスパニック
チャールストン
Championship
##Pa
##br
##fl
狸
緻
肋
蛮
﨑
##にか
##べり
##ジエ
##ズラ
##ノウ
##ベア
##マタ
##ミヤ
##之介
##GBT
##OLL
##ula
HM
cl
ed
えり
かる
こめ
しな
エプ
ベニ
ホメ
ボツ
レベ
予め
信夫
倍率
別所
動態
受動
口頭
同業
和彦
商事
因み
図面
在庫
大宝
媒介
嫁い
宝物
恩赦
慶尚
抗日
振っ
採る
揖斐
握手
暗示
服従
本気
本陣
柏原
橋脚
漢文
濃縮
眠り
空海
絞首
羽生
舷側
船尾
親指
調味
赤く
軍曹
退き
遊ん
邪悪
鋼板
長身
頭骨
##がかり
##ゼット
##ゾール
##ピース
##ラヴァ
Del
Let
NNN
あさひ
ノズル
ムガル
ルシア
ロイド
伸び悩
住まい
傷つけ
地球人
売り場
浴びせ
立ち会
読み方
##ストップ
##学園大学
Rail
Sant
したがっ
アッシュ
ウイグル
ダイアナ
バラバラ
ホイット
広島東洋
聞き入れ
##アクション
##ウェスタン
##ドライバー
##ユニバース
クリニック
クルーザー
ツイッター
フィアット
ブレーメン
クリエイター
##アスレチックス
ボリシェヴィキ
広島東洋カープ
##ür
逗
##がす
##フン
##ホス
##車輌
##返っ
##電器
##ORE
##vin
Ve
ごみ
ツル
ポト
ワラ
下北
下宿
世子
丞相
但馬
入道
参政
受精
同心
大雨
家光
対数
憲政
拿捕
排他
接点
東横
梶原
次数
歪み
気管
津島
渋川
減る
港町
白紙
直す
稼ぐ
空洞
空爆
立証
答弁
給食
緻密
考証
芝生
若林
蔵人
西国
速射
遷都
集権
電装
##キック
##テュー
##ラーラ
##レルモ
##ures
747
Big
INS
JAL
NGC
Top
bit
よかっ
アヘン
チタン
ドロー
バッグ
ペダル
メタン
リーズ
不二雄
吹き飛
建てる
覚える
開ける
願い出
##キーパー
##ティクス
##ビュート
##ocket
Gold
KDDI
STAR
いちろう
コールド
引き連れ
打ち立て
送り込ん
##スワローズ
Child
ウイスキー
ネイティブ
マリナーズ
レディース
ロッキード
Engine
Island
サンシャイン
College
ホワイトハウス
ガソリンエンジン
フォルクスワーゲン
##11
##66
##ja
夭
渥
牟
范
薪
銚
##ぐん
##のく
##ん坊
##キラ
##バウ
##メタ
##モノ
##ヤル
##保安
##開き
##IAL
##ios
(+
ps
きた
ぎん
こし
なだ
ぬい
はね
はま
やさ
シダ
ジグ
スギ
ハク
ミケ
メラ
ヤギ
下段
中井
乱用
他界
代え
刻印
剛性
副題
回す
地殻
大勝
対向
弁論
強奪
慶喜
成体
成年
排泄
掛川
教派
散布
文教
最良
未定
極力
残虐
滅び
漢方
潰し
献金
用具
登校
白黒
競い
等価
臭い
荒野
菅野
鋼鉄
関口
陝西
雇っ
食肉
鴨川
##ごとく
##らせる
##シュケ
##ドンナ
##ニャン
##パワー
##パーズ
##rown
208
ALL
HMS
YOU
ごとく
びょう
わざと
センサ
ハント
モーリ
レター
不自然
五十嵐
値する
小早川
有楽町
消える
行進曲
近距離
##ソックス
##体育大学
##朝日放送
1786
1787
キルギス
ショパン
ポーター
Video
ことごとく
インディー
ダイレクト
ツーリング
ギムナジウム
プロヴァンス
マグネシウム
レキシントン
イノベーション
ホルシュタイン
ゴールデンタイム
プレイステーション
傅
艤
##ネオ
##ヒン
##プン
##一致
##ORY
##ule
ab
かわ
つり
はり
ケロ
ミヤ
ワニ
俗称
公主
参道
回生
国共
国税
尾上
川田
快楽
戸惑
抜群
新館
有意
村井
村立
来訪
林家
水木
演義
災い
父母
田島
異色
盗ま
目安
破門
神官
竹下
累積
線区
船内
艤装
荊州
証書
転入
遵守
都城
酷評
銅像
長政
長田
離さ
願望
高裁
髪型
##なじみ
##ソンズ
##ディル
##トレー
##マリン
##リスク
##udio
302
720
Mel
MiG
WHO
すずき
エンタ
シュテ
ソード
ダルマ
ヒルズ
マッハ
代わら
伝わり
前向き
引き金
曹洞宗
無人島
見積も
##ジェント
##トランス
##ハイマー
##ートニー
##車輌製造
##ating
1811
avex
てんとう
ともなう
ひまわり
アーベル
スムーズ
バトラー
フィッツ
マインツ
モザイク
押し出し
海上保安
組み込み
##ミッション
リアリティ
Europe
Mobile
エディション
フェリックス
プロレタリア
Science
サンアントニオ
グレートブリテン
姜
曼
朽
梓
渚
痩
蔑
錐
##きり
##しめ
##の川
##ぷり
##ガム
##シシ
##ナド
##戻さ
##抜く
##新星
##une
Bu
ml
かち
こっ
ゅん
シオ
ルシ
三越
低音
光秀
全会
公子
利き
助力
匂い
叙爵
国債
堪能
奥田
巡査
平時
忠臣
悟り
支柱
新道
旅順
既知
日大
曲名
本宮
東宮
枯渇
模擬
汲み
火砲
無実
田代
略さ
番頭
神谷
税関
総武
美作
聖徳
行程
訴追
誓っ
誠実
調布
譜代
軟式
速球
銚子
鋭く
青函
音韻
頑丈
飢餓
##クロー
##タース
##チオン
##ッソー
##ッツァ
##テムル
##ナンス
##ノート
##ルーム
##iter
207
501
Nat
Vir
WCW
かから
つづけ
つどう
なさい
まこと
まとも
まわり
カメル
グルー
ジュピ
ナンバ
ハンデ
ホビー
ポーツ
レット
下回っ
世の中
同窓会
教会堂
最先端
概して
赤ん坊
超新星
##カライズ
##サイタル
##デジタル
##ハンター
##ブレイク
##ベリウス
##マチック
##美術大学
いたずら
カプコン
キングス
コスモス
シェーン
シャシー
シリアス
ノルディ
フレンド
マントル
リモコン
ロワール
ローター
ワンダー
振り付け
見つかる
近畿日本
##ザンビーク
オホーツク
コンラート
ティムール
デフォルト
ドッキング
バーモント
フェンダー
三菱重工業
##エージェント
##lection
カスタマイズ
トップクラス
ブックレット
レジスタンス
日本車輌製造
ビクターエンタテインメント
##)、
##RA
##ga
亥
伍
瓜
魁
##いす
##こち
##ざす
##トバ
##ネリ
##ブエ
##マコ
##ロボ
##留め
##ANA
##ANT
##ELL
##els
##lad
NY
Ol
いじ
お客
そん
なめ
ぶっ
よろ
ガロ
ドレ
ブナ
メト
ユル
レガ
下山
下手
今村
全焼
共催
処遇
出国
叩く
史書
名神
吹替
大工
大日
大祭
対地
小金
岩井
帝王
座り
庶流
彫像
徳山
徴税
急い
拍車
接尾
死球
毀損
沢田
治虫
温室
火炎
生還
石造
空い
空冷
空調
競り
節約
絡ん
縁組
脅し
蔓延
要所
計器
謁見
貯蓄
足首
迫り
遠心
高揚
鳥栖
##イット
##カート
##ソーム
##ティナ
##デット
##バーク
##ロイス
##百貨店
##競馬場
##ouch
209
221
AND
Che
Pri
Sim
UFJ
res
すすめ
はさん
アブー
ウェン
エリス
クロン
シエラ
セーヌ
ティモ
バトン
バルバ
パトリ
ミック
大晦日
引き続
強まっ
御殿場
応じる
恵比寿
欠ける
止まる
背負っ
迎え撃
鳴らし
##ジューク
##スケープ
##チュラル
##otten
1773
1774
1782
Real
Road
ほどなく
ウィング
ジョーク
ハリソン
ハロルド
国務大臣
成田空港
社会学部
##パイレーツ
##ランキング
score
ウェスタン
エセックス
ゴルファー
ジョイント
ハンプトン
入れ替わる
##シュヴァイク
##ization
League
United
スカイライン
トロンボーン
モザンビーク
ラジオドラマ
Station
Unicode
アシスタントコーチ
ヤクルトスワローズ
Technology
##51
##ba
##yp
叡
嘲
択
曙
渇
詮
##では
##グス
##リミ
##出せ
-(
HI
JF
PO
UA
さる
サカ
タジ
ブス
一元
一同
乗換
伝授
刻ん
千種
単勝
和風
土台
増進
太極
失効
宗主
定型
宮島
屏風
山車
御堂
怪奇
感知
手記
抗戦
抜か
担任
拠出
数列
斬首
新城
日時
昇段
昇級
枯れ
楽園
横穴
橋上
正門
殉教
段丘
浪曲
渥美
熱田
狭山
猛烈
球形
由緒
画風
異論
病変
的中
直近
眠る
筑摩
継が
若宮
衆院
覆面
詠ん
遺さ
部類
関門
防火
随一
隼人
頼む
題さ
風潮
##エース
##オート
##ガング
##ッコロ
##マイト
##メネス
""(
))。
Bre
Ext
Jan
Lim
Sum
inc
sup
いただ
きっぷ
カシオ
ギニア
ソープ
ノルム
ヘラク
ベール
ペドロ
乏しく
公益社
各務原
新潮社
東京都
耐える
肩書き
##アポリス
##ystem
1582
1777
NEXT
Prof
なぞらえ
われわれ
セレクト
バーンズ
ペイント
マンガン
日本経済
軽自動車
できるだけ
カメルーン
グラスゴー
サバイバル
マルティン
リサイタル
ワーキング
##オリンピック
##メタルバンド
Master
ヴァージョン
東海道新幹線
オペレーション
スマートフォン
フィードバック
汝
腔
贅
轄
##ぽう
##ろく
##カウ
##ガウ
##コネ
##対称
##崩れ
##発田
##iff
##ira
##oud
##ste
FG
PI
TN
da
po
シム
ナラ
ビラ
リボ
一条
三和
不平
不時
兼用
加納
千鳥
呉服
四条
大金
威嚇
宅配
宮沢
小坂
小姓
尻尾
左腕
延岡
張ら
当り
懲罰
捕捉
排斥
整形
断熱
日報
本間
松村
殺菌
江蘇
没頭
沿革
濡れ
無色
焼く
現す
球技
砂丘
砲術
祝い
筆名
簡潔
結束
絶版
綿花
義兄
耕地
職種
蒸し
触手
記入
購読
違憲
遺品
重慶
銀色
長屋
集客
高尾
##ライヒ
##レスコ
##fect
##roup
420
GIR
RAW
あゆみ
だって
アステ
クルス
シェフ
シンポ
ジュラ
ニャン
バーツ
ファラ
フェン
モリス
ワンダ
保育園
吸血鬼
喫する
国文学
条件下
比叡山
照らし
生き方
考えれ
際立っ
非対称
飛行船
##ルスーツ
1648
1823
Camp
こうとう
オリバー
スタンプ
タタール
ハザード
バーバラ
ビジター
ブレード
Green
うかがえる
アンティオ
エイリアン
エタノール
デイヴィス
バーレーン
パルチザン
プラモデル
レオポルト
海上保安庁
盛り上がり
西アフリカ
Studio
ガーディアン
サクラメント
ライトヘビー
ラインハルト
##エンターテインメント
冀
婆
熾
##たた
##びと
##へい
##らめ
##シノ
##ズー
##タヤ
##トフ
##ネフ
##ミラ
##信越
##反対
##合成
##嗣子
##大橋
##敷き
##残さ
##舞台
##製紙
##野川
##rib
(※
AU
FU
OL
tw
up
もみ
イロ
セナ
上奏
中傷
作製
元町
分館
列伝
別表
国学
在地
堀田
変電
夏目
大口
始末
嫌気
安城
小作
後悔
念仏
悲惨
憎悪
打開
掘っ
探る
明代
時効
更迭
本所
極楽
水辺
江原
漢語
独り
生業
皇位
眠っ
秀忠
精通
納付
紛失
紡績
続投
緒方
臨界
許諾
誓う
談話
足し
転勤
軽便
酒場
野郎
釜石
面体
音頭
##りょう
##アース
##グレブ
##ッキリ
##ツェル
##バイト
##リバー
##兵学校
##院大学
##amil
##gram
##isch
##lish
ART
CAT
all
あふれ
アロン
オード
スペル
トリニ
ボーン
ルーク
上回り
交わる
切り札
初舞台
取扱い
吉祥寺
居酒屋
捕まえ
浄土宗
混じっ
電磁波
養嗣子
##ウェルス
##ファイア
##国際空港
Book
ともなっ
ステート
パラレル
フリッツ
マウンド
事務次官
天武天皇
引き返し
恐ろしい
##ライアンス
trans
アスリート
クリケット
チェロキー
ポーツマス
海軍兵学校
##エクスプレス
##ミネーション
ギャラクシー
サンティアゴ
ミュンスター
青山学院大学
静岡県立大学
カンザスシティ
トライアングル
##86
##ih
##kt
嬢
實
巳
憶
掩
濾
莉
鼠
##へん
##らう
##カビ
##モル
##リィ
##張る
##深く
##透明
##集編
##res
VT
pp
かっ
つぐ
エト
デメ
ヘロ
ボア
ヨア
三日
主計
修め
利子
励起
嘆願
困っ
園田
在り
増税
変態
多田
大町
安楽
定額
小原
小節
尺度
帝京
年長
廃位
強打
戦史
払わ
抜粋
拝殿
拾っ
撤収
断崖
松坂
格段
楠木
正成
毒殺
沿う
流刑
混ざ
湯浅
源義
独創
生母
町人
画質
白金
相棒
県営
真に
着る
積む
立山
素直
罹患
義貞
能代
脱却
藩校
蘇生
追随
造詣
重役
銃剣
銃殺
面々
麻衣
##モスク
##ラクタ
##ロピー
##endo
##ette
303
312
Nav
SPE
Tre
kHz
しんじ
じょう
シンデ
トレイ
ビック
ピンチ
フレー
ミシュ
リフレ
不透明
宇和島
正反対
総集編
贈り物
##キュリー
##フェラー
News
pres
ならでは
ウェルズ
ジェシー
ボルドー
ミステリ
取り下げ
相応しい
##ティッシュ
Stand
アンドレア
スティール
ピエモンテ
Joseph
コメディアン
コーポレート
ジョヴァンニ
ソルトレイク
ソロアルバム
コミュニティー
ゴールキーパー
インターフェース
ハムファイターズ
ロードアイランド
##AX
##TE
±
傳
勿
娶
掻
爽
鋏
齋
##ぞう
##どか
##はし
##南端
##太后
##消し
##盆地
##願い
IL
つづ
は種
むつ
ゃく
ウミ
ヤス
リラ
レコ
不備
今や
佐々
何ら
作法
健闘
先天
光明
入籍
列記
取組
右京
右足
名家
因縁
均等
塗料
変性
大倉
山県
成っ
推論
文武
斯波
昇降
朝方
本業
死別
残酷
法曹
無期
特派
獄中
盟友
砂岩
移譲
節足
経る
罰則
自重
色濃
藤枝
記法
論説
護送
起伏
連戦
過大
降雨
難色
馬券
驚か
魚介
##クトゥ
##シオス
##ッダー
##ドゥー
##ハンデ
##ホーン
##ster
290
Fil
Ger
MIT
SPD
Tor
was
お願い
さかい
ふたつ
らしき
アトレ
アニー
イブン
キープ
ザック
シオン
ジュゼ
ディナ
パッド
ポッド
マスカ
下さい
不自由
性行為
新発田
最南端
東大阪
目立ち
締めく
義勇軍
農作物
遂げる
##フレーム
1760
Show
WHIP
ゅうけい
アスキー
イデアル
サムライ
スマトラ
チャイナ
バンパー
巻き込ん
節足動物
貸し出し
##グラウンド
##プロデュー
Angel
Louis
入れ替わり
##チャージャー
アクセサリー
セレクション
バッティング
ホームタウン
##iversary
##HD
##VC
##ca
嘴
暇
肛
萎
蝋
躊
##だち
##ばっ
##ケ谷
##シロ
##ネク
##プア
##因坊
##差し
##払っ
##県立
##祖父
##重工
##ray
##ury
LM
WS
ぎり
ひみ
タフ
バプ
パド
ベジ
マウ
リサ
ロザ
丈夫
三成
中庭
主幹
乗艦
何れ
公道
六甲
共役
初動
削り
十郎
反共
吉良
同母
四角
国策
坂東
培地
塩谷
子弟
工具
後裔
心情
抜く
振幅
新川
早大
暫く
栗東
根室
決裂
浮遊
煙草
留意
県議
真偽
硫化
禁酒
税制
等々
義昭
訳し
語族
貞享
貞治
躊躇
身元
軍楽
配管
金庫
鑑み
風船
##キッド
##ビエル
##マッハ
##マーレ
##ANCE
##adem
##ored
233
Gar
God
Lab
MSX
Way
おまけ
オスロ
オリエ
シャク
トリエ
トリス
ベンゾ
モータ
レジェ
下敷き
仕切り
妨げる
尽くす
悪天候
掛かっ
本因坊
渡り歩
生き物
程なく
銘打っ
降りる
##グラフィ
2100
2200
DEEP
NCAA
アンデス
オルタナ
クロスカ
ゲイリー
スコープ
ストーム
セネガル
チョーク
パウンド
ブレスト
ルイーズ
レーガン
ロナルド
受け付け
興味深い
##クスブルク
##コロンビア
Fight
Found
Games
アーセナル
オーランド
カーネギー
コンシュー
コンバート
ジェフリー
ハンニバル
バットマン
小笠原諸島
アウトバーン
ミーティング
モビルスーツ
......。
スーパーファミ
マルチメディア
エレクトロニクス
Entertainment
##BM
##PO
##ng
咎
喘
殖
陀
##かえ
##くみ
##けし
##スイ
##タウ
##分子
##去り
##放し
##熱帯
##ift
##use
--
AW
KS
KT
Kr
YU
いぶ
がり
ひん
わく
イネ
シボ
三鷹
上皮
処さ
凶悪
刻み
南道
厚み
原文
同大
同所
同胞
大中
嫌う
尽き
屈辱
岸田
帰依
幻覚
桑原
歳入
水運
治癒
波及
浮気
疑似
相生
相鉄
禁煙
粉砕
純一
絶頂
群衆
義弘
肥満
自民
葛城
製剤
西新
西野
親和
角田
達人
金銀
鉄製
開城
陸路
館山
##ましい
##ディエ
##プシー
##ラーオ
##ロイト
##atus
##ough
215
315
Cre
Div
Jud
Tur
car
いかん
うさぎ
しゅん
アトム
アロー
カステ
サック
フラグ
ブレス
マグマ
ライム
ルビー
亜熱帯
原産地
味付け
女子大
生える
留まら
縄張り
高分子
##シオナル
##リーンズ
##ージング
##ender
##ister
1585
1750
1799
アルティ
スタンス
ソーラー
デザート
トラベル
トーキー
ニューズ
ペーター
ホフマン
レプリカ
勝ち抜き
広島大学
政務次官
日本銀行
羽田空港
##フィリーズ
コレクター
コンパイル
スクリュー
レポーター
引き受ける
後醍醐天皇
##ヴァージョン
ゃじょうせん
カンタベリー
シンポジウム
シーズンオフ
東京工業大学
Develop
カンバーランド
クリスティアン
ハットトリック
Internet
パーソナルコンピュータ
揉
曇
礫
穆
葡
靭
##えい
##すけ
##ぶれ
##まじ
##キヤ
##デム
##付く
##十郎
##千代
##直す
##END
##for
##ump
"|
CI
MW
ぎふ
つめ
まみ
よっ
キタ
一端
二塁
位階
入局
入校
典礼
創り
創世
単数
厳島
各州
同然
命ぜ
和尚
執権
多元
大政
大竹
女房
孫娘
宿禰
少子
座礁
征討
後発
復権
恵那
患い
成城
振ら
普請
杉本
東野
棋戦
機運
沙汰
湖沼
濃厚
爆薬
田川
町民
神武
衣類
財界
赤塚
足柄
農協
迷い
退陣
邦楽
酒田
重度
開祖
電解
##ケッツ
##フェア
##ient
##ring
##uman
Arc
GUI
Les
MID
WIN
かわし
なおも
アイダ
ウナギ
エアー
カフカ
ギャラ
タミル
会計士
割り振
劇映画
区切り
守護神
手書き
芳しく
苦しい
複素数
転じる
隅田川
##ジェール
##ブリック
##ヴィエト
##市立大学
##iness
2600
Mill
Mont
PART
York
oxid
ウガンダ
スマイル
ハーレム
ピストル
フーリエ
ホッケー
メドレー
リッター
ヴィオラ
切り離し
専修大学
当たり前
東武鉄道
申し込み
裏付ける
##ベンション
##リオールズ
Henry
Media
South
たどり着い
オリエント
クローバー
ジェット機
メソジスト
レコーダー
テーマパーク
パラマウント
プロモーター
ミリメートル
##チュエーション
グリーンランド
Wrestling
スーパーファミコン
ブラウンシュヴァイク
##PN
ぇ
塹
宦
掠
昏
疏
般
芹
蔚
賊
##々と
##ゴヤ
##トウ
##バサ
##不動
##乃花
##小屋
##若松
##詫び
##ILL
##ery
NV
おっ
イズ
一挙
上官
下面
中書
交尾
入幕
再任
別称
北島
叩い
台所
地味
変則
夢中
孔子
定量
家紋
川辺
巻末
帝室
年鑑
徴用
志す
忠清
斑点
方形
朝貢
札所
海部
物産
狂言
甘味
発火
相良
神格
葛藤
蓄え
見当
観世
貸付
造っ
都度
障壁
雨天
面影
須磨
##あさん
##かかっ
##アルド
##クロウ
##ツール
##ハイン
##ブルグ
##ラーン
##ンチュ
##ourn
001
304
911
Hal
KAD
NHL
ind
やむを
イント
キャロ
ゲーテ
サニー
タブー
ハーグ
マンス
三日月
中山道
兼ね備
寄生虫
延びる
手榴弾
気づき
生化学
町議会
確かめ
秘書官
絶えず
臨済宗
見出す
足らず
##ガンダム
##スペクト
##チェンコ
##ビリティ
##プレミア
##メイソン
##ラスター
##リューム
1778
Dist
NADP
ゅうおう
ダイヤル
ハロゲン
フレディ
ポータル
マヌエル
マラリア
ロールス
乗り出す
塗り替え
積み重ね
突き出し
House
Stage
コスタリカ
シンデレラ
トスカーナ
メイキング
SPORTS
ホロコースト
ミネアポリス
アウクスブルク
オーバーホール
セルティックス
トレーディング
インタラクティブ
クロスカントリー
ブリティッシュコロンビア
##NO
悼
捷
摺
珊
盃
芭
讒
##ウド
##ノ宮
##ヒス
##ベク
##志野
##林寺
##ITY
##azz
##eck
##lam
##unt
:〒
CE
do
うき
おれ
ねえ
アケ
クセ
シノ
ニシ
ブカ
マメ
モダ
ラピ
不評
乳酸
事案
京畿
低木
光る
公称
内裏
執拗
大家
大腿
大門
守山
家格
希薄
年表
幼生
忌避
惜敗
慣性
所内
所収
携行
新年
欠き
歌集
水温
水生
水陸
消去
溝口
火口
熱意
独学
百済
硬い
税法
箕面
緩行
群集
自白
荒井
西経
覇者
討た
走査
軽視
退く
過熱
遺書
那賀
酪農
陳情
領民
頭痛
飼っ
魅了
##かかる
##ぐるみ
##エリー
##チェフ
##ベルス
##メチル
##リーノ
##ロング
##ローブ
##掛かっ
##ique
##raft
737
BIG
CoA
Ear
GRE
JUN
RKB
UHF
pol
sub
そごう
またも
アスレ
アルテ
コーカ
シェー
チャド
ハーブ
パーマ
ヒース
マグロ
乃木坂
予告編
仲良く
伺える
合わさ
掛ける
最年長
興福寺
行政府
青銅器
##ウェイン
##ゲナーゼ
##OKAWA
CDMA
またがっ
エーテル
カリスマ
カロリー
グラハム
ダンカン
バースト
ベネット
ホーエン
マーカー
リザーブ
ワトソン
言い換え
##ウォーカー
##サーキット
Heart
キャピタル
サンライズ
シルエット
スクラップ
スペンサー
バーナード
ロジャース
ヴァージン
Server
Service
プランテーション
Anniversary
##21
〒
堡
旦
阮
##には
##シリ
##ゾフ
##届け
##石油
##蒸気
##造船
##食品
##ARE
BN
Ba
いら
きく
すえ
アワ
カシ
チー
ララ
ラル
三宮
丹羽
交番
停電
劉邦
包含
北道
可算
同和
営ま
城南
塩分
多面
奏法
市警
干潟
庄屋
得よ
心霊
拝謁
挙行
教化
断ち
旅人
月額
本件
板倉
水冷
永野
特製
県連
真一
確固
稼い
空力
童子
競泳
自我
自明
自給
落葉
藻類
被り
試薬
賛否
赤旗
趣向
軌跡
輪郭
送還
達也
遺児
醸し
重油
金賞
錯体
降着
陛下
駅長
##アーン
##グノー
##ニーク
##フティ
##ホーク
##ポルド
##ランズ
##ーロフ
##ford
##ness
##urus
"")
"』(
227
264
530
Cry
Dem
IEC
PAR
SAS
Sar
min
おしゃ
ぶどう
ガロン
セール
バール
ポータ
ルック
予備校
事故死
人びと
国務省
日の出
枢密院
気づく
水蒸気
##ションズ
##ility
1592
Prot
ガレージ
ゲットー
シャドウ
シャワー
ライデン
ラウンジ
会津若松
立て直し
立て続け
##ディーゼル
##genase
Frank
フォーカス
Rotten
クライスラー
Product
インターセプト
エグゼクティブ
KADOKAWA
##DE
##ua
##yt
■
偲
兎
咽
壕
禰
謂
閘
閻
##でる
##やき
##ゼス
##ゾル
##大學
##屋川
##技研
##置き
##ATA
##gar
##omb
##ume
)”
DP
UM
xx
きか
こじ
なご
びわ
ぶち
みか
ニセ
中宮
乳児
争議
人身
健二
先手
円柱
刀剣
初音
利権
古参
吹雪
嗣子
国技
塹壕
増資
壊し
壱岐
変容
夏期
安東
宗谷
容れ
岩本
急襲
情景
戦局
手話
技量
招致
掲揚
搬入
新入
日出
是正
月光
植木
植樹
欲望
欲求
武徳
母港
毒素
水流
水色
無双
特捜
球界
発声
的確
目の
石材
礼儀
純正
終端
絶た
能勢
艦内
論議
豊中
貧乏
輝元
関根
隣り
類別
馬術
馳せ
高座
##たすら
##サイク
##ザベト
##セージ
##ニエル
##ヌール
##ヨーム
##ンゲン
##ateg
##atic
401
640
Ber
DFA
IOC
IPv
MOD
PHS
day
お菓子
ひとみ
ジュビ
セバス
デモン
フーガ
ヘキサ
マナー
ヤコブ
ヴィラ
一体化
北関東
味わい
尋ねる
捨てる
攻める
春日井
行き詰
##イアール
##イベント
##エレクト
##シャール
##経済大学
##音楽大学
Band
かけ離れ
ひたすら
エックス
コリンズ
コンスト
サハリン
スカラー
スランプ
マーラー
ミラクル
モンタナ
ロベール
取り消さ
張り出し
気に入ら
組み入れ
赤ちゃん
ジュリアン
ノヴゴロド
プログラマ
ミッチェル
レイカーズ
ヴェーザー
巻き起こし
##ference
プレッシャー
レンジャーズ
##ソシエーション
フィナンシャル
アミューズメント
シチュエーション
##ME
厄
嗅
應
撲
珪
脩
賓
靱
##ソム
##ピロ
##ヘム
##ベツ
##メロ
##ロマ
##見川
##語り
##隆寺
##AMP
##IPS
##awa
##oid
##unk
Bi
HK
まか
ハレ
ヒム
ヒラ
ビア
プチ
リヤ
下す
且つ
中南
丸み
休場
伯耆
副葬
加勢
化身
古田
吸着
和子
墓碑
失調
害虫
属さ
山門
式内
張る
慌て
持て
改元
敬虔
映っ
横行
残念
気が
渡船
生田
瞬く
石棺
祝祭
精子
絡む
総計
義隆
臣従
自爆
討つ
遊泳
那智
重み
野沢
鉄鉱
阿佐
額面
##アーム
##ストク
##ダイン
##デルス
##ネード
##ハワー
##パンク
##ミーユ
##line
##osph
##side
##unic
213
217
950
DAY
Kar
She
WRC
ser
かぶっ
しげる
アグリ
エキシ
オーブ
ギニー
シアン
ジンバ
スルー
ズーム
ソナー
デビル
トラス
ニカラ
ハロン
リンダ
レック
上水道
国内線
届け出
引き離
手持ち
教習所
鳴き声
##スーパー
1784
Bank
Jack
アウディ
イーグル
クレイグ
スナック
スモール
チャック
フルーツ
ルーシー
取り調べ
呼び出さ
生まれ変
##キャスター
##ロイヤルズ
macOS
システムズ
ジェネラル
ジェラルド
ダイビング
##ウィリアムズ
##スプリングス
ナビゲーター
ニューサウス
立方メートル
近畿日本鉄道
##ちゅうがっこう
ストラスブール
##チャンピオンシップ
##90
##FT
##gg
##iy
ا
漱
畏
豹
##さり
##すい
##そか
##のめ
##ほん
##オオ
##サノ
##ジボ
##セレ
##ルイ
##喜多
##総省
##覚寺
##過ぎ
##養子
##OMA
##bor
##day
##ona
Lo
Tu
WR
hp
いづ
おだ
かや
がい
とに
エッ
ゼン
ソノ
ロク
万能
上梓
中年
主管
住ま
体温
併結
六角
切除
制止
双発
口語
口論
噴水
囲ん
在京
外資
学内
安部
小諸
巨匠
帰し
忍び
扶養
抵触
拘ら
新旧
日生
書面
杉田
染料
根元
正日
洗い
浄水
浪士
珊瑚
直角
空想
突厥
精算
終生
総勢
缶詰
義満
義父
芭蕉
街頭
被曝
補任
貨客
隔週
魔神
##アウグ
##クルー
##クレオ
##クロン
##サード
##ストー
##ズレー
##チュン
##ドゥス
##ニーニ
##ノース
##パネル
##取れる
##詰める
##angu
##ello
##onic
##onom
##ther
226
410
CRO
End
MAG
Rem
つない
なんと
アヴェ
エスペ
オルド
クルト
クロロ
コンス
コンド
サモア
スキン
ダマス
トッド
ヘイズ
ホルム
レフト
ヴォイ
上半身
不時着
交響曲
厚生省
多年草
婿養子
律令制
敢えて
浮かび
無条件
終止符
絞首刑
総じて
表向き
見込ん
車いす
銀河系
##ザクセン
##マラソン
##atoes
##umber
BLUE
Team
Year
あきらめ
とにかく
ともども
アングロ
ドラムス
ペプチド
リビング
ローラン
勝ち取っ
取り残さ
国防総省
本田技研
立ち寄っ
通行止め
##サンプトン
##ファイナル
First
Saint
class
オリンピア
カーティス
シュミット
ジェイミー
ジュゼッペ
レイモンド
立ち向かう
組み合わさ
##カージナルス
ストライカー
ジャーナリズム
ソリューション
マッカートニー
リーダーシップ
プリンストン大学
ソフトバンクホークス
##27
##SU
弊
拮
汪
瀋
疆
鉤
鉾
##ふく
##イチ
##ヘビ
##分裂
##暮れ
##潜艇
##真宗
##ORA
##irc
RF
Sa
Sl
TG
Vi
いの
ゴリ
シケ
ダビ
ノブ
ホラ
ヴュ
一級
一途
一関
七つ
下町
不死
争点
仕官
作ろ
修学
個室
利得
励ん
区長
即日
合図
品番
因幡
囲い
国力
外貨
大体
官能
宦官
寝室
将官
弁天
従弟
復刊
慣用
憤慨
拮抗
故人
敵国
新書
時半
村民
松崎
死神
沢山
河村
沸騰
洋子
淡い
漏洩
球状
疑念
病弱
盗難
直方
相方
稚内
稲作
節度
肥沃
苦境
落馬
親日
誅殺
誓約
誘惑
貰っ
資質
賞品
過疎
陰性
頭頂
風邪
高井
黄海
##われる
##アルト
##ウキビ
##ガリー
##スリー
##ッサウ
##ヒート
##ボディ
##立てる
##落とさ
238
999
AWA
Hor
Pop
Ray
おとな
ことば
すごい
なんば
ょうと
オタク
オーラ
カブト
ガウス
シュト
モジュ
久美子
京セラ
京阪神
定まっ
打上げ
曲がり
溢れる
行ける
遅れる
##ウォール
##バスター
##パドレス
##フェルド
##ライザー
##arden
1650
1755
Fest
SPEC
エアコン
エミリー
カールス
シックス
シボレー
シュガー
スタント
トランク
トレンド
トロイア
バビロン
ヘーゲル
ボーイズ
ローソン
浄土真宗
理工学部
見積もら
難しかっ
##ハーフェン
##バージニア
Franc
White
エンゼルス
サトウキビ
チャリティ
ニカラグア
東北新幹線
エイベックス
スカーレット
スノーボード
フュージョン
ロケーション
##ハンデキャップ
Version
カウントダウン
トレードマーク
ハードディスク
モデルチェンジ
ウェストミンスター
##ji
σ
塀
瘤
##にち
##イリ
##ジノ
##ソフ
##ポネ
##婦人
##読み
##金術
##ICK
##umb
Ep
おや
せつ
みれ
ギヤ
ゼー
タス
チア
ピオ
ペー
ポジ
レナ
一律
中嶋
休息
内国
内燃
包ん
可逆
吉林
国士
地誌
外す
大介
大岡
学界
官公
対人
就学
常緑
建ち
従者
悲願
慶安
挟む
接戦
政庁
日替
日田
昇任
昇圧
春樹
服属
木の
柏崎
江口
沿道
法師
波形
滅多
片道
病状
矮星
砂利
稲田
突い
能楽
葉山
薄れ
薬莢
設営
謹慎
谷間
農夫
退院
送迎
選別
遺作
量販
関取
陶芸
頸部
高円
##々しく
##じゅつ
##シウス
##ッルス
##ベルタ
##ヤング
##リカン
##elle
##less
##orld
##part
241
254
Cat
HOT
おろし
おんな
きよし
じろう
もしも
アレキ
スラブ
ダヴィ
ナゴヤ
ヘルス
ボンド
ラージ
出せる
小型車
小数点
扇状地
異母弟
菊花賞
錬金術
飛び地
駆潜艇
##イヤーズ
##シルヴァ
##ステイン
##ターンズ
##ホステル
##ロンドン
1570
1615
1701
1702
Pres
cont
キッチン
サイコロ
スプリン
トレイル
ネッカー
ハンセン
兼ね備え
南シナ海
呼び寄せ
引き続い
弾き語り
日替わり
##ファミリー
##ホーフェン
ぬいぐるみ
オルレアン
コロンブス
ジンバブエ
スラッシュ
ソヴィエト
ヒンディー
ブラームス
プレイオフ
持ち上がっ
##eration
フレッチャー
プログレッシブ
Tomatoes
匠
嶽
槇
欣
舜
艶
藪
裴
遙
鼎
##こみ
##さえ
##ジカ
##ミノ
##山地
##河原
##観音
##IDS
BT
PE
PU
rt
あそ
しだ
つの
エゾ
トク
ブイ
三洋
三輪
上山
健太
光州
兵糧
写っ
刺客
前記
加治
叙位
台座
合議
名勝
土産
大館
完売
宮津
山道
左足
帆船
府内
往年
微量
成就
戻ら
扶桑
振舞
旧領
明星
景色
有識
朝食
柳沢
榊原
横領
比喩
毛色
漂着
産み
由利
甲冑
白星
短波
神職
純度
緒戦
習っ
肛門
肥大
脱し
脱水
興隆
花茎
苦難
菌類
衰弱
複写
賄賂
身延
転機
酒類
銀山
防具
防水
青空
靭帯
鮮明
##いては
##りゅう
##ウォン
##ゲージ
##シード
##タンク
##ナッツ
##バンナ
##ファク
##不動産
##aker
##ress
##uter
##vent
251
460
777
Aug
Bal
GHz
HIV
MAS
MGM
RED
『』(
あがっ
オゾン
シャア
スエズ
ナント
ハンナ
ボトム
ポット
値上げ
勝ち星
十和田
収まっ
自由形
見捨て
貯水池
重工業
##ジョージ
##ターソン
##ピーター
##ブレター
##ベトナム
##hydro
1660
2400
Happ
まっすぐ
ガルシア
ビルバオ
取り扱わ
取り込む
受け継ぎ
引き取っ
手がかり
読み上げ
請け負っ
##ッショナー
##Script
シュタイン
ジュピター
マラーター
レズビアン
エントロピー
チューリング
パラドックス
ブリーダーズ
ナショナリズム
ニューサウスウェールズ
##OG
##uf
ゐ
欺
蓬
鷺
##さく
##アッ
##クワ
##シラ
##タマ
##ヌム
##ヒャ
##レツ
##八幡
##南道
##少し
##織物
##西線
##運転
##ACH
##ATT
##STR
##ied
##ori
>。
っと
づか
ガザ
ゾロ
ドク
レゲ
レム
ロド
一対
上顎
下痢
丸太
二子
仙人
任用
依拠
備蓄
優良
分派
前例
劣悪
勅許
半球
吉宗
和也
団員
固く
報知
墓石
大樹
天童
奉じ
季刊
安井
定例
容赦
山号
川原
工費
平穏
廻り
彷彿
懸賞
所見
担ぎ
敬遠
文理
木版
来航
東上
根幹
森本
水原
湾曲
玄武
生長
町制
白地
直義
直進
矢部
祝賀
秘匿
粘着
綱吉
総体
自費
荷役
藩邸
蘇我
裏腹
見地
見聞
託さ
豚肉
贅沢
長慶
陰茎
電球
飢え
鳥海
##ウェブ
##ザクラ
##バルド
)。『
218
243
252
ABS
Bab
Bur
Cla
Cur
GPU
Hel
MAD
Ret
Run
not
なんか
まさし
エクリ
カーク
ケイン
ケット
ザール
シンジ
プロポ
ヘンド
ムアン
メッカ
ローブ
ワタナ
不信任
動かさ
印象派
危惧し
打楽器
治める
片仮名
終着駅
試運転
賑わい
門下生
預かり
鬼太郎
##ッペリン
##フランク
##フリート
##プレイス
##ource
GOLD
Line
This
はじまる
もう少し
アスター
コウモリ
ゴダール
ジャッジ
ディエゴ
ディナモ
デーモン
ボールド
ユーティ
レシーブ
レナード
乗り込み
見かける
追い出さ
##コンテスト
##スペシャル
##チャイルド
BASIC
Royal
ニュアンス
モデリング
出来上がっ
南ベトナム
当てはまる
立ち上がり
##ハンプシャー
シューマッハ
スチュワート
スーパーマン
Digital
ブラックホール
ユースホステル
ロックンロール
ガソリンスタンド
##FF
##In
ぢ
剰
厭
咬
掟
橿
舘
荏
蕎
訊
軋
鯉
##、「
##いよ
##ごく
##オイ
##シタ
##シブ
##ネラ
##バエ
##バト
##パリ
##ミサ
##光星
##星術
##水素
##組ん
##血球
##通っ
##emp
##leg
##rie
RP
えび
とお
むす
オゴ
ヤコ
人脈
仙石
伊佐
佐川
信憑
修得
偉業
全羅
劣っ
勝頼
反日
召還
合奏
向島
和夫
和紙
和議
喜ば
塗っ
実感
小杉
尖閣
岩城
岩瀬
帝都
年内
座長
怒ら
憂慮
拝領
捻出
携え
昇叙
易い
松任
森山
武功
気性
沈下
河畔
洋服
海路
済ん
焼却
物議
県域
着地
磁石
神体
義政
翻弄
翼賛
菊地
薫陶
藤堂
評定
譲歩
贈る
込む
鉄骨
長生
阪和
青海
音域
飽き
##サンズ
##シズム
##シュコ
##ジェネ
##ダクト
##ネック
##メルン
##omen
216
767
Are
Dou
MTV
OPS
Sat
コンボ
ジェニ
セラミ
ブラウ
ライカ
優れる
占星術
変光星
海老名
生ずる
立たさ
見張り
赤血球
途切れ
都知事
馴染み
##ウエスト
##クリエイ
##ベルガー
##ムルーク
1688
1759
Bell
Over
オクター
ザグレブ
スパイス
ハイテク
パノラマ
プライド
モルガン
埋め込ま
##ジボワール
Fried
Maria
セレモニー
ダイエット
チェチェン
プリンター
メカニック
ローランド
太平洋艦隊
##ディビジョン
##フリードリヒ
アイリッシュ
シャーロック
ジェイアール
セバスチャン
チューニング
フェミニズム
ロチェスター
グラフィックス
ゲッティンゲン
インストラクター
コートジボワール
ジェネレーション
ローカルニュース
ウェストバージニア
##ZA
∞
吻
曝
潟
茹
##まず
##カオ
##ザム
##バレ
##學院
##OND
)<
Km
あめ
おけ
そく
みよ
カキ
ガウ
ケガ
デフ
ハト
下地
下請
予期
亘っ
京大
人前
信管
克也
兵部
再三
分流
分科
加重
吹く
外洋
奏し
学歴
安徽
崩落
巡視
序曲
我慢
戦火
投射
摂関
政敵
日銀
旺盛
書け
有償
木工
未熟
杭州
東都
根源
梗塞
正保
永住
江田
江藤
江西
湿原
満載
漱石
疑っ
真夏
短絡
磐梯
篠山
精錬
結節
翻し
翻案
藤山
行お
衝動
装束
褒め
西安
語句
通ら
遊亭
重厚
附近
降し
齋藤
##かせる
##キシー
##ジカル
##タイヤ
##ッサム
##ニツァ
##ネズミ
##ピード
##ミアン
##ミンゴ
##モドキ
##ユース
##ールー
##ーロス
232
321
520
Inf
MEN
Mad
TNA
rec
どうし
エミー
カヌー
クリン
コレラ
サンバ
ストレ
ドッグ
パント
ブラス
プルト
下半身
二塁打
任せる
南関東
合併症
國學院
富士川
曲がっ
燃やし
電話機
##カルチョ
##キシング
##チャーチ
##ディスト
##ブッシュ
##ンドール
1762
Cast
Cons
あらわす
おじさん
こういう
ちゃんと
アダムス
ガイウス
ギヨーム
ケヴィン
ステファ
テノール
ノートル
ピッコロ
フェルト
ロッテマ
南西諸島
明け渡し
阪急電鉄
River
エフェクト
オーガスタ
ジョッキー
ストリップ
ダマスカス
ニジェール
フォスター
ポリネシア
ヴィクトル
國學院大學
##アーティスト
##ッセルドルフ
##レースヴィヒ
##ヴィンスキー
County
Edward
アルブレヒト
シューベルト
ダイナマイト
トゥールーズ
ノックアウト
ライブラリー
##シューティング
アイゼンハワー
アウグストゥス
ゴールデンイーグルス
嘔
藁
##だす
##ばい
##オク
##オレ
##バブ
##ビキ
##ビラ
##リグ
##ロビ
##成分
##皇子
##石器
##蜘蛛
##ANS
##EEE
##ids
##mbH
DH
Di
RX
おち
こぼ
そり
エグ
カマ
シク
バト
ヒゲ
ベス
ヨン
ルン
一望
不運
中級
乗法
九郎
事物
享受
傾け
別種
加筆
南大
危う
口実
史記
否認
吸引
回遊
固辞
守口
実技
山科
岩屋
左遷
弘法
御影
心中
性器
感受
懸け
成都
抜本
採点
敬愛
新報
旧型
明徳
朝刊
末梢
本科
桓武
正明
死な
殺傷
法名
海事
渦巻
湿潤
無敵
生贄
白書
白馬
直感
神保
粘り
緊密
美貌
羽目
聖子
蔵王
蕎麦
複葉
見逃
討っ
訪日
詳述
讒言
責め
辿っ
造る
遊女
部活
重宝
野々
頼ら
駒澤
黄河
##オバマ
##クトリ
##シュテ
##デリア
##ニッジ
##バニア
##フェス
##フット
##ロメオ
307
325
540
AMD
JAS
JFA
NGO
Sub
UCI
VII
VOL
』("
しめる
たどっ
っぽい
アヴィ
ウイン
キツネ
キール
クレム
ケネス
サラダ
シーア
スバル
ツッコ
ナイア
ノヴァ
プリー
リンチ
ルピー
ロッジ
主成分
交わさ
勝ち進
囚われ
新居浜
旧石器
最大手
東西線
気付か
気付き
法隆寺
燃える
習志野
色濃く
##ダーマン
##ヴァーン
##anced
Aust
Fred
Hall
KING
OPBF
イチロー
ウィリー
ウィレム
エンリケ
キューブ
グラナダ
コバルト
ステルス
タイラー
ブルネイ
プッシュ
ポンペイ
マドンナ
ラッキー
レシプロ
ワタナベ
切り離さ
引き出す
総領事館
言い渡し
関連付け
飛び降り
##ウェルター
##システムズ
##フォールズ
##ヴェントス
Album
SPEED
Vista
タンパベイ
ネーミング
ハーモニー
旧石器時代
ミッドナイト
九州旅客鉄道
本田技研工業
colspan
コンベンション
ロッテマリーンズ
##BE
##VF
##my
柚
楔
浚
湛
繭
釉
麟
##しり
##すり
##アシ
##アマ
##オウ
##スー
##ムト
##ワラ
##構え
##盛り
##道路
##開発
##風呂
##麻呂
##pha
##una
##ves
BI
DL
KI
So
go
きの
くず
くせ
ばい
ゆか
ゆず
アノ
イト
ソラ
モモ
ユキ
一団
中興
亀岡
事後
交雑
人骨
債券
八丈
共学
写実
冷え
初級
別物
剰余
北畠
南山
叛乱
名護
型番
売場
変装
天空
好機
嫌疑
履い
山荘
帯同
廃寺
愛着
成さ
扇動
控除
改選
景品
有事
木綿
未婚
末寺
楽屋
歩む
気質
永続
決選
沿海
湧き
焼か
画し
相反
真岡
矢先
破格
祝っ
神風
粘膜
絞っ
縦横
華僑
行商
裁量
誘っ
財宝
貧弱
足場
軍閥
追従
配役
野中
金森
長打
防ぎ
阿南
霊的
頼る
騒乱
高見
鬼怒
魔力
##ギング
##シネマ
##スカイ
##ティマ
##バーラ
##プリー
##ベンス
##マンズ
##ロニキ
##ロペス
##寄せる
##rome
228
246
275
390
Fel
Rod
Ros
par
syn
おやま
じゃん
ちゃっ
アルタ
イット
エスタ
オスト
ガメラ
サトシ
一人称
中南米
光合成
八重山
冷蔵庫
副葬品
努める
大江戸
小文字
東京湾
消防庁
町並み
販売元
##ッカース
##ティーヌ
##ハーバー
##バートン
##ville
1598
FOMA
IWGP
LGBT
いよいよ
みちのく
アンデル
エミール
サイゴン
ストリー
バーニー
ヒラリー
フィジー
マリオン
ロレーヌ
仕掛ける
繰り出す
##エネルギー
##ファイター
##プレイング
Manag
Peter
アレクセイ
ファックス
ミニチュア
呼びかける
ウェリントン
エリーザベト
ユヴェントス
Express
クイーンズランド
レギュレーション
ニューハンプシャー
フリーエージェント
##31
##RI
冤
淘
璋
畝
翠
薛
蚕
##さき
##ガマ
##ネタ
##ピカ
##フリ
##伊那
##力学
##労働
##参加
##技術
##高速
##AMI
##eek
##led
##net
).
AX
DI
FP
Ka
ご飯
すく
せっ
そら
りく
エベ
ナツ
ヨコ
ルビ
不発
与野
人吉
係留
先史
兵法
兵舎
凝固
出迎
労務
労組
取次
咲き
夕刻
大脳
嫌わ
定評
寒い
寺山
小谷
少々
布施
往還
懸命
成瀬
拘留
提灯
操車
擬人
暴れ
束縛
格安
格式
検地
模写
殺そ
氷川
泣い
浦上
潮汐
焼酎
献身
球菌
異形
瞬時
石鹸
神託
福澤
筑豊
結実
習性
芸者
茂木
被る
西成
解け
謳わ
走破
越中
足元
軋轢
輪島
辰巳
退屈
配色
金本
長久
開講
限る
露見
首班
高名
高津
鹿屋
黒木
##アレク
##イール
##シュナ
##タント
##OWER
##ines
##urch
##weet
##ynam
224
293
512
601
870
ATC
How
OFF
こだま
すぐれ
ため池
のぼり
ふつう
エーリ
ガンバ
グリコ
コルト
コロナ
シェイ
スカン
テオド
バクー
ホウ素
乗せる
二の丸
優しく
八千代
公会堂
出向い
勧める
大動脈
寄せる
居場所
延長線
捕まっ
損なわ
核分裂
法華経
無意識
用水路
言い方
長良川
防衛庁
降ろし
##フロント
##ブラハム
##ブレイン
1710
1767
1772
BOYS
Char
Home
Mult
Nint
あらわれ
いちばん
アイダホ
オリオン
カーディ
グラフィ
コカイン
ストラト
スロープ
ツイート
リュック
ロリータ
居合わせ
持ち込む
追い出し
量子力学
##アルデヒド
##クラシック
##デーション
##ournal
バグダード
ベルナール
リバイバル
三菱自動車
取り締まり
##シュトラウス
カナディアン
プランクトン
ベストナイン
東京外国語大学
##formation
Japanese
シュレースヴィヒ
ε
乖
傀
弩
捨
斤
桿
梯
溥
瑠
訃
##らわ
##るし
##キリ
##ゴケ
##ズナ
##ナエ
##之内
##之江
##北道
##日報
##ala
##rac
##uit
BW
Hy
KL
PF
Ts
Us
gl
づき
なで
ふら
コケ
スィ
テコ
トモ
ピサ
上川
下水
似る
体外
保釈
俳諧
偏っ
偏り
募っ
半蔵
南国
南陽
原本
名実
困惑
城門
大根
大通
学修
家名
尊厳
岩村
応戦
悪人
惜し
扁平
折衝
掴み
揃い
教導
更改
極点
橿原
決壊
河東
海流
海辺
深谷
清盛
渡部
測る
漢学
濾過
特長
発芽
直観
社外
祈る
神通
素朴
組立
綺麗
腰痛
自粛
舎人
良き
茶道
西本
親類
轄区
遮蔽
配電
開封
関所
青龍
高次
高角
##ガート
##ダーク
##デリー
##パンダ
##ホップ
##リスム
##披露目
##aven
")』
265
331
801
Ast
Old
Que
mon
いたっ
いちご
ござい
ていし
もじっ
アンヌ
カリー
スカラ
スピル
ダルム
トカゲ
バルク
ベティ
メガネ
レゲエ
ヴェン
不参加
交わす
倒れる
嫌がら
寝屋川
小石川
後見人
掛け声
格上げ
標準軌
脅かす
領事館
##クルート
##ティーニ
##ニャック
##メラルド
##ランジュ
##ンタール
CONC
Moto
Work
Your
お披露目
どういう
アフマド
ウラジオ
オカルト
コロコロ
ジョシュ
テンプル
バートン
ビザンツ
ホリプロ
ホーリー
ミニマム
リベリア
リモート
乗り継ぎ
無くなり
##チャレンジ
##ラクチャー
アフリカン
アルベール
エドワーズ
ソーセージ
トリニティ
立ち上がっ
ナンバリング
ヘッドライト
東京教育大学
##ブルージェイズ
メジャーリーグ
Magazine
Nintendo
エンタテインメント
Foundation
λ
做
卜
楓
穢
虞
鯖
##イエ
##コプ
##ジマ
##ヶ島
##ーア
##慣れ
##我部
##村山
##生代
##積み
##菩薩
##ICS
##ISE
##eto
##get
##kin
##ots
'-
DV
EG
Ga
Ta
Ur
us
こみ
むね
ゆい
よん
アペ
ゴア
サケ
ザク
ザー
スレ
テア
バニ
マゼ
マッ
リグ
リャ
主審
乖離
乳母
事由
井口
代入
傀儡
元弘
冤罪
助役
医院
南市
印旛
原形
叙勲
叫ぶ
同棲
名標
営み
嘆き
図式
土方
在留
奥村
好奇
娼婦
対価
小字
山岡
巨星
平岡
年少
底面
弱め
快勝
承知
投棄
拠っ
搾取
放課
散在
文中
早め
昼夜
暴徒
朝臣
森下
棲息
榛名
樹皮
武漢
水門
沈む
波多
派出
渡邊
狙わ
独唱
盟主
直さ
眼球
社屋
禁忌
笠原
筋力
絞め
美穂
脱獄
自筆
舟艇
良心
芝浦
表層
裕子
補足
製材
訃報
説き
誰か
軌条
軽快
辛う
連名
進捗
道筋
適さ
酔っ
野原
開成
静的
音量
養蚕
##キャラ
##デイズ
##トゥル
##バイダ
##ポップ
##マース
##レアル
##ンタン
##amin
470
510
770
AIM
Fed
IMP
LTD
PRE
Rac
Squ
くさい
みよし
らせん
アスタ
アッシ
オクタ
カザン
ガルフ
コーダ
サティ
ジェレ
トレド
トンガ
ハノイ
ピエロ
マトリ
マンド
ユーリ
一部分
出遅れ
天皇杯
役立っ
彼女ら
振るっ
根強い
止まら
浄瑠璃
納める
荒らし
見返り
金田一
阿武隈
##けんどう
##スタッド
##ドリーム
##ブラウザ
##リゾート
##ルドレン
##ンチャン
1761
Coun
GmbH
Muse
Pent
Vict
あふれる
オオカミ
カイザー
カービィ
コーネル
サントス
シューズ
デュラン
ドロシー
パレルモ
フリース
ブロンズ
法務大臣
軽便鉄道
辛うじて
##ステロール
##ソーシアム
##テレビ放送
##レスリング
##ECTION
Flash
Space
State
inter
カタパルト
サーサーン
サーフィン
スタンリー
ハイランド
ブリスベン
ブルジョワ
プロテニス
##カードゲーム
Explor
オリエンタル
シュトラウス
オープンソース
コミッショナー
ランドスケープ
ロックフェラー
##ui
Δ
苞
蒔
頚
##えず
##カヤ
##ナハ
##パウ
##ビジ
##ブカ
##付か
##司令
##茶屋
##製品
##越す
##饅頭
##ape
##iga
##occ
ET
いそ
しゅ
つや
シキ
セス
ババ
ピコ
レノ
丹生
交ぜ
体勢
佳作
優越
優雅
内山
刺繍
古城
同姓
吸入
商館
堕落
場内
壬生
天山
学的
山寺
巻頭
常温
廃絶
式部
性愛
悟っ
情緒
手元
損壊
敏感
散文
散発
敵艦
新選
晩餐
暴風
月山
末日
根絶
桜田
極性
正宗
水沢
浩一
混沌
湯川
漢書
現像
用心
直子
砲火
私塾
税収
立会
笠岡
精油
縛り
背鰭
藤波
衣料
誇張
読め
謳っ
身の
道内
道真
遷座
遺骸
重鎮
野上
開国
閘門
院政
難解
雨林
領海
食器
香料
駿府
##まとめ
##ザニア
##ジャヤ
##ゼピン
##デッキ
##ナイツ
##ハイド
##ライツ
##ルムス
##ワーヌ
##ンタイ
##徳天皇
##IVAL
253
333
ASC
Bon
DEC
Die
Jac
Lee
Mid
OEC
Yak
わけん
キリル
コンプ
ジュネ
スコー
セガサ
タオル
タング
タンゴ
デイヴ
デフレ
ニホン
マング
ユリア
仕入れ
固める
広める
授かっ
新進党
有識者
水酸化
江ノ島
皆殺し
目論ん
裏切っ
見舞い
鳴らす
##だいがく
##ウォッチ
##パーニャ
##マイヤー
##ather
1584
1591
1601
1779
FEST
IEEE
Long
Side
それとも
まとまり
やむを得
わざわざ
アルザス
カミーユ
キャノン
キャビン
ジェシカ
ジャスコ
タイムス
ダイバー
ディラン
トロリー
ブルーム
マンモス
モルダー
ヤンキー
リカルド
ローバー
引きずり
持ち上げ
Marie
イブニング
エキストラ
オフェンス
キャメロン
クリストフ
クルアーン
クレメンス
ジェンダー
デメリット
ナチュラル
バイロイト
マムルーク
レイチェル
##マネジメント
Battle
シークレット
パーフェクト
プルトニウム
##インディアンス
ディヴィジョン
デュッセルドルフ
バージョンアップ
プレゼンテーション
##CS
##ts
É
妾
柑
栓
槌
甕
痙
箸
頒
##ぐら
##じゃ
##ウー
##ジニ
##スラ
##マロ
##モナ
##ヶ浦
##ーキ
##大成
##方面
##進法
##魚川
##INT
##ely
##ful
MK
Ra
Ry
VO
ひび
エニ
キシ
キヤ
万延
上訴
下村
不和
主神
久慈
乱歩
乱獲
代走
伊吹
低圧
体感
偽り
催眠
入出
出頭
分立
刈り
前川
半生
受刑
哲郎
嘲笑
地平
夕食
宝島
寺内
届き
幕臣
幼体
座敷
弘治
忠告
悪意
悪質
戸数
抱か
接地
接頭
推察
摩耶
放り
散ら
整流
方策
核酸
横た
段差
民権
点滅
無声
球速
田宮
発券
磁器
私設
素質
総本
編隊
美和
美智
聴か
脚光
船上
英二
草稿
血清
製糸
西原
赦免
迷宮
連射
鉄工
長引
雅子
集い
音程
須藤
頭脳
額田
食道
飯能
香辛
##がたり
##アイス
##グリー
##セイド
##プラタ
##マイル
##ルスキ
##ンスタ
##alth
##unct
##well
255
Doc
LTE
Mov
NEO
SUG
TAK
ZIP
one
pre
rad
web
ひろみ
ふしぎ
イワン
カイル
カメオ
ケージ
ゲール
コブラ
コミン
サプリ
ステイ
セシル
ハガキ
マクレ
ミイラ
ミンダ
メジロ
レンタ
一酸化
使用人
区切ら
届ける
平仮名
強める
扱える
日帰り
糸魚川
致命傷
観音寺
集大成
##ディール
##プキンス
##ローター
1560
1580
1699
1720
1724
1764
Foot
Sony
ruby
おもしろ
かかわっ
とらわれ
アグネス
アナスタ
アントワ
カナリア
ケッペン
シェリー
スパーク
トムソン
ドリンク
ノーラン
パーマー
ビニール
ブランク
マインド
モンキー
ユグノー
ローリー
振り返る
捕らえる
東洋大学
築き上げ
組み込む
駒澤大学
##グランプリ
##パニョーラ
##uctase
アッバース
インスリン
オマージュ
キャンディ
グリニッジ
シュメール
ストレージ
フランケン
ミラージュ
リクルート
レオポルド
引き上げる
##ディレクター
Academ
アトレティコ
インスタント
カージナルス
サイクリング
ジャスティン
テンプレート
東京都立大学
チャレンジャー
ヴォルフガング
Festival
oxidored
ダルムシュタット
ロングアイランド
レーシングドライバー
##61
##zy
ぁ
凛
楢
畔
絨
腱
芙
茜
袴
鮫
##はん
##るま
##ガナ
##ソト
##ソリ
##タラ
##テト
##ハツ
##ビタ
##レノ
##ヴャ
##孫子
##旬報
##漬け
##都合
##ITE
CU
EZ
Oh
あち
てれ
のけ
オニ
サロ
ミロ
ムサ
不純
中団
交信
作れ
信義
先着
凌駕
分遣
初恋
半田
協和
南南
号館
各自
周知
城東
外周
夭折
女装
学研
家長
帰納
後遺
恒常
憶測
手袋
押収
拓殖
接待
揮発
散々
文民
料亭
日没
朱印
林檎
桃園
検車
標記
武庫
殺陣
気仙
水彩
永楽
潜り
生い
真宗
矢作
石高
磨き
端役
米原
細野
縫い
纏め
羊毛
耐熱
耶律
肉眼
茂雄
荒尾
萎縮
蛇行
螺旋
読切
貝類
賛美
述語
道教
鋼管
雄大
集成
雑音
霊園
駒場
##エリア
##ガーズ
##テクト
##テップ
##ブルン
##ミカル
##ミラー
##リカル
##iana
##ning
##oney
485
610
AIR
FRE
GPL
Key
MBA
SKY
SUN
Som
org
おもり
おろか
さなか
そろっ
エカテ
エレキ
オイラ
クラゲ
ジョチ
マルグ
放課後
比べれ
称える
身代金
金持ち
##ティーボ
##ワンダー
##ージャン
##imate
##prise
1614
1730
Conc
OECD
acid
comm
あっさり
かかわり
けれども
アユタヤ
インカレ
コロンボ
サバンナ
スイート
ブレンド
ボランチ
リムジン
取り外し
振り分け
東シナ海
読み書き
送り込ま
関西大学
靖国神社
##エンジニア
##シュミット
##ッテルダム
Abema
group
キネマ旬報
デイビッド
ボンネット
##ルーズベルト
オークション
トリニダード
モンテカルロ
ヴィジュアル
British
コーディネーター
oxidoreductase
′
佛
匁
怯
昂
漠
紆
耀
肇
臥
鯛
麒
麾
##いる
##アタ
##アダ
##クフ
##ピラ
##去る
##奈子
##暦寺
##洒落
##荷物
##込も
##emb
Da
KA
MH
OC
こむ
のべ
やけ
イシ
イワ
エポ
ジア
ミノ
上村
上腕
不仲
両生
二条
余生
作出
俊足
保線
借入
兆し
兆候
光速
共犯
刑部
前駆
募ら
勧進
双極
同音
名曲
商務
営団
大い
大雪
官報
定価
居士
平沼
店名
府警
当人
折衷
拍手
支庁
敬称
断行
時報
時雨
柏木
栄一
校訂
武芸
死闘
民社
油絵
洋一
淘汰
清浄
滝沢
無縁
眺望
秘め
立役
策略
簡便
紛れ
素早
肝炎
腕前
菊川
血糖
角形
試練

##の
##、
##に
##た
##。
##る
##は
##ー
##と
##を
##し
##で
##て
##い
##が
##ン
##1
##れ
##な
##年
##0
##2
##ス
##ル
##っ
##ら
##か
##(
##・
##)
##あ
##さ
##ト
##り
##イ
##リ
##も
##9
##こ
##ア
##す
##ラ
##日
##ッ
##ク
##う
##3
##ま
##よ
##ド
##シ
##月
##「
##」
##5
##4
##大
##8
##タ
##フ
##く
##ロ
##め
##レ
##6
##7
##ジ
##e
##き
##カ
##人
##本
##そ
##け
##国
##学
##ィ
##a
##テ
##マ
##ム
##お
##プ
##中
##や
##行
##グ
##バ
##つ
##一
##デ
##i
##ど
##後
##o
##コ
##出
##オ
##メ
##地
##わ
##時
##会
##え
##r
##ウ
##n
##部
##合
##ニ
##ュ
##チ
##上
##サ
##発
##作
##用
##ブ
##戦
##ャ
##ナ
##だ
##t
##エ
##『
##』
##場
##代
##同
##-
##的
##ん
##生
##A
##ビ
##者
##キ
##名
##ズ
##S
##間
##成
##ち
##事
##パ
##s
##市
##定
##ェ
##分
##ダ
##l
##長
##開
##C
##ミ
##m
##子
##入
##高
##業
##動
##自
##立
##手
##社
##内
##前
##現
##東
##み
##第
##せ
##方
##主
##"
##ば
##下
##道
##対
##以
##体
##ョ
##家
##通
##当
##在
##設
##所
##ベ
##セ
##じ
##軍
##世
##ハ
##機
##化
##初
##T
##最
##車
##I
##山
##へ
##全
##モ
##新
##.
##物
##目
##M
##多
##関
##表
##c
##ツ
##ネ
##線
##数
##u
##選
##性
##E
##画
##ガ
##記
##び
##法
##D
##ソ
##見
##田
##県
##力
##公
##ヴ
##R
##教
##P
##d
##連
##小
##位
##B
##ポ
##ボ
##実
##度
##期
##和
##O
##h
##文
##N
##川
##回
##ず
##ァ
##校
##語
##明
##理
##北
##式
##ピ
##政
##ノ
##海
##ワ
##平
##民
##組
##使
##加
##F
##ケ
##送
##島
##員
##置
##勝
##受
##外
##放
##品
##特
##制
##務
##結
##ギ
##形
##区
##元
##野
##水
##点
##活
##経
##能
##L
##要
##女
##取
##西
##,
##治
##京
##持
##書
##州
##ペ
##神
##町
##原
##番
##三
##演
##ほ
##正
##共
##げ
##言
##駅
##続
##面
##南
##G
##運
##王
##指
##ホ
##来
##界
##議
##身
##ザ
##際
##気
##g
##電
##号
##ォ
##団
##都
##ゲ
##有
##金
##進
##任
##得
##売
##次
##ゴ
##付
##知
##近
##利
##変
##約
##始
##意
##H
##決
##k
##空
##重
##隊
##:
##向
##p
##不
##権
##等
##集
##二
##流
##建
##産
##計
##曲
##楽
##y
##造
##々
##ろ
##優
##録
##参
##終
##音
##映
##保
##信
##基
##V
##域
##移
##存
##ヤ
##心
##べ
##義
##呼
##K
##製
##天
##他
##路
##工
##台
##交
##改
##彼
##様
##ヒ
##解
##型
##院
##種
##属
##称
##W
##系
##U
##鉄
##口
##む
##相
##村
##再
##果
##広
##両
##別
##役
##統
##無
##賞
##直
##撃
##収
##転
##可
##士
##引
##支
##f
##J
##少
##備
##側
##古
##b
##安
##科
##試
##説
##登
##構
##死
##強
##昭
##木
##編
##報
##状
##総
##命
##術
##調
##配
##格
##営
##常
##研
##起
##ユ
##府
##石
##降
##馬
##伝
##官
##題
##城
##兵
##門
##領
##郡
##ぶ
##由
##局
##反
##着
##装
##党
##判
##球
##究
##版
##退
##半
##各
##先
##館
##認
##技
##艦
##示
##ヨ
##万
##問
##朝
##止
##男
##族
##/
##考
##ヘ
##論
##住
##土
##歌
##太
##話
##類
##応
##屋
##打
##施
##乗
##載
##史
##紀
##育
##武
##料
##規
##争
##挙
##陸
##v
##量
##師
##光
##予
##管
##限
##派
##達
##異
##含
##店
##字
##列
##宮
##残
##離
##例
##戸
##投
##継
##級
##ゼ
##条
##与
##接
##件
##色
##園
##独
##過
##影
##観
##ょ
##率
##親
##導
##攻
##器
##込
##資
##美
##船
##頭
##味
##更
##協
##岡
##及
##井
##催
##述
##査
##提
##敗
##質
##周
##切
##監
##確
##競
##防
##米
##英
##復
##容
##係
##情
##速
##督
##展
##害
##単
##真
##衆
##態
##必
##星
##松
##食
##ひ
##ご
##航
##!
##橋
##歳
##落
##素
##増
##父
##寺
##商
##衛
##w
##完
##職
##準
##郎
##氏
##福
##験
##帝
##白
##江
##供
##藤
##修
##葉
##走
##良
##=
##勢
##般
##将
##阪
##座
##旧
##愛
##急
##従
##ぐ
##皇
##思
##失
##担
##去
##図
##司
##護
##程
##十
##専
##帰
##張
##比
##価
##告
##風
##%
##ね
##響
##評
##港
##歴
##母
##追
##ぎ
##個
##河
##委
##断
##念
##末
##籍
##非
##室
##X
##帯
##円
##足
##済
##谷
##企
##御
##洋
##首
##就
##象
##破
##省
##殺
##助
##仕
##感
##補
##守
##創
##採
##授
##客
##佐
##劇
##境
##令
##視
##今
##四
##低
##渡
##崎
##頃
##細
##飛
##了
##ゆ
##翌
##消
##Y
##廃
##病
##積
##ヌ
##獲
##づ
##ぞ
##想
##除
##検
##千
##割
##差
##ゥ
##吉
##難
##火
##求
##標
##卒
##芸
##横
##医
##模
##警
##築
##波
##央
##像
##闘
##換
##好
##源
##階
##然
##宗
##夫
##推
##津
##青
##段
##案
##描
##織
##株
##満
##博
##環
##声
##働
##整
##興
##察
##右
##販
##負
##遺
##諸
##銀
##著
##聞
##極
##ぼ
##根
##援
##左
##農
##伊
##功
##花
##証
##留
##辺
##久
##聖
##複
##黒
##五
##策
##街
##幕
##算
##囲
##輸
##材
##植
##弾
##介
##効
##誌
##板
##八
##圧
##減
##刊
##拠
##何
##藩
##違
##舞
##射
##居
##処
##赤
##毎
##清
##伴
##端
##突
##薬
##越
##婚
##深
##x
##悪
##群
##岸
##弟
##宇
##写
##奏
##砲
##契
##略
##巻
##旅
##徴
##未
##財
##裁
##徳
##席
##振
##林
##富
##浜
##短
##習
##尾
##注
##週
##養
##照
##盟
##臣
##若
##永
##蔵
##沢
##併
##ふ
##亡
##歩
##春
##返
##跡
##為
##夜
##寄
##停
##甲
##盤
##望
##ゅ
##早
##測
##乱
##延
##曜
##労
##故
##角
##超
##森
##抗
##児
##堂
##ゃ
##識
##温
##枚
##章
##〜
##湾
##給
##値
##岩
##捕
##躍
##績
##因
##陽
##候
##読
##承
##祭
##昇
##密
##革
##z
##友
##息
##秋
##豊
##志
##酸
##許
##ざ
##精
##熱
##遠
##典
##被
##揮
##雑
##適
##紙
##布
##療
##丸
##壊
##賀
##順
##扱
##戻
##頼
##替
##至
##邦
##並
##講
##便
##九
##費
##搭
##待
##秀
##占
##節
##ゾ
##普
##刑
##兄
##ヶ
##拡
##~
##抜
##景
##宅
##倉
##駆
##韓
##課
##途
##散
##華
##爆
##幅
##項
##層
##脱
##庫
##私
##丁
##盛
##障
##貨
##執
##具
##激
##則
##血
##漫
##宝
##雄
##掲
##詞
##絶
##妻
##敵
##庁
##絵
##夏
##休
##副
##泉
##固
##練
##玉
##輪
##襲
##撮
##訪
##香
##傷
##徒
##況
##宣
##姿
##'
##鮮
##奈
##宿
##滅
##郷
##服
##坂
##沿
##Z
##池
##罪
##之
##迎
##似
##易
##印
##献
##背
##覚
##操
##症
##鳥
##軽
##携
##掛
##奪
##険
##&
##混
##筆
##舎
##審
##百
##塁
##草
##批
##閉
##兼
##逆
##訳
##災
##請
##貴
##魔
##幹
##倒
##娘
##律
##巡
##仮
##禁
##祖
##締
##健
##勤
##票
##羽
##額
##欧
##康
##宙
##討
##樹
##六
##震
##弁
##閣
##湖
##買
##忠
##敷
##遊
##探
##救
##逃
##善
##仏
##沖
##脚
##老
##訴
##維
##静
##憲
##浦
##範
##距
##里
##_
##均
##騎
##危
##札
##殿
##焼
##隣
##否
##骨
##辞
##没
##銃
##較
##互
##慶
##陣
##余
##鹿
##栄
##核
##談
##犯
##税
##毛
##圏
##仲
##岐
##詳
##露
##枠
##油
##億
##俳
##臨
##漢
##黄
##侵
##孫
##竹
##幼
##到
##胞
##魚
##片
##庭
##避
##肉
##折
##依
##塚
##紹
##納
##既
##欠
##詩
##聴
##”
##損
##刻
##爵
##瀬
##疑
##幸
##七
##遣
##裏
##潜
##唱
##巨
##>
##染
##覧
##伯
##願
##<
##房
##酒
##純
##Q
##冷
##招
##免
##触
##撤
##伸
##惑
##傾
##払
##押
##縮
##益
##翼
##厳
##暗
##申
##還
##塩
##季
##秒
##喜
##礼
##択
##縁
##熊
##+
##苦
##暴
##唯
##繰
##駐
##燃
##飾
##雷
##譲
##概
##儀
##舗
##征
##融
##軌
##仙
##架
##雲
##ぜ
##券
##困
##壁
##貢
##排
##却
##誕
##砂
##“
##龍
##旗
##阿
##倍
##摘
##麻
##縄
##弱
##吸
##繁
##液
##遅
##牧
##包
##濃
##隠
##怪
##封
##霊
##誘
##奥
##秘
##仁
##君
##我
##崩
##答
##丘
##底
##→
##茶
##炭
##隆
##恐
##冬
##訓
##釈
##皮
##亜
##須
##致
##荷
##稲
##恵
##恋
##絡
##患
##責
##j
##妹
##挑
##厚
##冠
##顔
##弘
##筋
##誉
##軸
##針
##虫
##哲
##鉱
##沈
##童
##簡
##摩
##隻
##雪
##彦
##購
##即
##暦
##墓
##双
##析
##寛
##衝
##束
##床
##抑
##緑
##午
##潟
##伏
##抱
##ぬ
##竜
##齢
##雨
##鎖
##誤
##犬
##奉
##荒
##柄
##飲
##踏
##吹
##脈
##鎮
##?
##姉
##己
##貫
##埋
##署
##豪
##杉
##浅
##覇
##希
##陥
##充
##募
##剤
##衣
##葬
##掘
##序
##浮
##謀
##矢
##快
##刺
##渉
##逐
##迫
##菌
##郵
##鈴
##塔
##炎
##窓
##墳
##艇
##礎
##賛
##径
##綱
##縦
##剣
##沼
##婦
##夢
##削
##微
##狭
##棄
##緒
##尊
##頂
##奇
##姓
##脳
##威
##笑
##索
##託
##盗
##轄
##寿
##殊
##那
##歯
##網
##拒
##械
##鏡
##磁
##鶴
##暮
##雇
##堀
##桜
##裂
##埼
##敬
##稿
##慮
##李
##乳
##灯
##牛
##溶
##芝
##杯
##銅
##郊
##干
##捜
##茂
##貞
##智
##姫
##漁
##廷
##幌
##氷
##柳
##診
##僚
##滞
##※
##輝
##逮
##]
##[
##柔
##戒
##贈
##湯
##飯
##抵
##夕
##眼
##毒
##俗
##揚
##耐
##顧
##裕
##借
##翻
##腹
##陰
##羅
##仰
##才
##殖
##隔
##遂
##腕
##鎌
##届
##×
##拝
##侯
##唐
##刀
##句
##塗
##該
##禄
##勧
##拓
##岳
##謝
##滑
##亀
##弦
##尚
##晴
##顕
##勇
##渋
##貸
##彩
##償
##握
##丹
##穴
##奴
##慣
##痛
##往
##括
##箱
##卵
##荘
##培
##詰
##覆
##柱
##潮
##披
##俊
##蒸
##幾
##孝
##昌
##鳴
##也
##鑑
##梅
##繋
##喫
##筒
##獣
##徐
##薄
##陵
##q
##債
##枝
##洗
##硬
##怒
##駒
##旬
##嘉
##鬼
##如
##劉
##阜
##泊
##摂
##菱
##誰
##賃
##尉
##冒
##棋
##恒
##隷
##緊
##祝
##紅
##偽
##傘
##緯
##珍
##又
##促
##嫌
##玄
##鋼
##騒
##弥
##澤
##僧
##飼
##煙
##斜
##叙
##浴
##旨
##尽
##随
##狙
##塞
##箇
##輩
##附
##刷
###
##○
##偵
##豆
##擁
##ぱ
##勲
##斎
##碑
##梨
##糸
##遇
##斉
##°
##看
##笠
##塾
##頻
##趣
##徹
##洞
##迷
##晩
##貿
##穂
##酵
##譜
##緩
##乾
##欲
##透
##妙
##悲
##畑
##筑
##貧
##幡
##–
##梁
##冊
##邸
##寝
##踊
##巣
##獄
##旋
##罰
##垣
##峰
##添
##誠
##紋
##奨
##浪
##庄
##栽
##卿
##呉
##滝
##膜
##衰
##狩
##誇
##撲
##菊
##需
##阻
##é
##彰
##晶
##雅
##糖
##曹
##紛
##粒
##挟
##呂
##〈
##紫
##麗
##函
##彫
##〉
##粉
##泰
##恩
##努
##菜
##稼
##媒
##茨
##臓
##享
##捨
##控
##ぽ
##髪
##汚
##耳
##懸
##宰
##胸
##芳
##憶
##脇
##傍
##浄
##肥
##棟
##峡
##遭
##熟
##眠
##磨
##幣
##肩
##陳
##拳
##桃
##劣
##扉
##銭
##寒
##祥
##祀
##棒
##袋
##淡
##灰
##符
##銘
##薦
##召
##赴
##薩
##賢
##垂
##勃
##伐
##脂
##涯
##☆
##噴
##屈
##堅
##洲
##;
##墜
##后
##軒
##帳
##悩
##疾
##遷
##湿
##栗
##励
##挿
##措
##昼
##脅
##坊
##預
##崇
##侍
##剛
##峠
##妃
##蓮
##沙
##虜
##甘
##ぷ
##偏
##狂
##葛
##虐
##虎
##曽
##逸
##浩
##敏
##訟
##亭
##偶
##掃
##幻
##貯
##皆
##吾
##―
##輔
##卓
##驚
##泳
##晋
##拘
##悟
##蘇
##浸
##珠
##抽
##孤
##栃
##旦
##祉
##尋
##啓
##忍
##軟
##稚
##准
##烈
##旭
##畿
##砦
##乃
##桁
##暖
##蓄
##魏
##洪
##桂
##掌
##宋
##謡
##朱
##匠
##暫
##陶
##勅
##朗
##猫
##賊
##酷
##祈
##堤
##瞬
##搬
##舟
##祐
##鷹
##殻
##犠
##庶
##呈
##》
##滋
##蘭
##《
##郭
##昔
##竣
##魂
##磐
##菅
##腰
##魅
##嶋
##叔
##牽
##渓
##溝
##哨
##僕
##辛
##菓
##炉
##牡
##猛
##壇
##懐
##謎
##咲
##宏
##膨
##貝
##斐
##椎
##捉
##桑
##寧
##盾
##慎
##牲
##倫
##妨
##屯
##駿
##胴
##揃
##丈
##怖
##柏
##肺
##媛
##弓
##禅
##斬
##麦
##克
##嫡
##耕
##衡
##妖
##勉
##尼
##秩
##茎
##鼻
##乙
##腸
##猟
##枢
##秦
##鋭
##|
##辰
##虚
##寸
##腐
##唆
##戯
##鍵
##昆
##瑞
##訂
##蒲
##柴
##履
##篇
##孔
##匹
##誓
##腫
##國
##夷
##忘
##釜
##蜂
##閲
##僅
##疫
##麓
##揺
##肢
##邪
##尻
##播
##寮
##硫
##粘
##慢
##勘
##泥
##錦
##畜
##釣
##楊
##繊
##斗
##尺
##絞
##嵐
##懲
##蓋
##扇
##尿
##桐
##盆
##循
##纂
##但
##喪
##霧
##粋
##班
##籠
##舶
##剰
##肝
##妊
##凍
##慰
##琉
##兆
##應
##癌
##践
##閥
##賜
##疎
##朽
##稀
##綿
##佳
##宜
##篠
##潤
##褐
##讃
##歓
##涼
##嗣
##鼓
##羊
##焦
##嫁
##堺
##偉
##隅
##帽
##礁
##雀
##黙
##噂
##燥
##於
##瓦
##琴
##猿
##α
##洛
##亮
##乏
##磯
##叩
##趙
##剥
##巧
##翔
##糧
##芽
##鉛
##舷
##鳳
##庵
##蛇
##慈
##慕
##零
##吐
##髄
##簿
##闇
##膝
##壌
##謙
##胡
##幽
##惨
##穏
##跳
##奮
##雌
##澄
##淳
##鋳
##厩
##淵
##敢
##漏
##諾
##賠
##是
##蹴
##宛
##苗
##碁
##遡
##遮
##累
##膚
##*
##菩
##据
##醸
##俺
##拍
##擬
##廊
##甥
##粛
##牝
##汽
##蒙
##穀
##倶
##鍋
##綴
##臭
##肖
##殆
##棚
##呪
##諏
##刈
##疲
##賭
##岬
##猪
##綾
##萩
##囚
##倣
##鐘
##嶺
##雰
##涙
##刃
##把
##漠
##貼
##ぴ
##伎
##砕
##辻
##楼
##胆
##隙
##傑
##稽
##忌
##弧
##敦
##遼
##廠
##汎
##錯
##鶏
##泣
##輌
##矛
##篤
##斑
##勾
##鍛
##鞍
##á
##帥
##拾
##諭
##隈
##壮
##棲
##擢
##顎
##缶
##窮
##酔
##玩
##堆
##娠
##跨
##填
##墨
##烏
##胎
##曾
##湘
##凝
##吊
##坪
##悼
##槍
##廻
##鴨
##淀
##貌
##叫
##欄
##裸
##哉
##捧
##餌
##朴
##縛
##股
##崖
##汁
##潰
##駄
##骸
##ü
##鞭
##頑
##靴
##臼
##煮
##舌
##ヵ
##嘆
##酬
##窟
##廉
##橘
##燕
##靖
##妥
##瓶
##樽
##狼
##胃
##鷲
##曳
##塊
##胤
##β
##【
##憧
##戴
##藍
##喚
##恭
##鯨
##】
##俵
##帆
##挫
##芦
##宴
##戚
##錬
##窒
##粗
##豚
##暇
##潔
##畳
##痕
##逝
##儒
##腺
##扶
##鳩
##楕
##笹
##學
##飢
##抹
##匿
##殴
##倭
##畠
##粧
##蒋
##尖
##韻
##笛
##脊
##唄
##瘍
##辱
##袖
##頓
##凶
##婿
##湧
##甚
##遍
##椅
##昨
##樺
##揆
##楠
##彗
##槻
##赦
##圭
##綻
##肪
##吏
##藝
##ヲ
##惜
##泌
##擦
##睦
##牙
##丞
##詣
##枯
##窪
##鄭
##詠
##薫
##凡
##挺
##曰
##睡
##姻
##湊
##癒
##聘
##邑
##晃
##а
##坑
##奔
##慌
##抄
##耗
##騰
##漂
##藻
##遥
##遽
##陀
##凱
##暁
##ā
##喧
##裔
##哀
##麺
##о
##侶
##汗
##汲
##昧
##牟
##棺
##嘱
##槽
##鰭
##耶
##嚢
##條
##袁
##鐵
##縫
##飽
##μ
##溜
##爪
##憂
##叶
##腎
##舵
##馴
##鱗
##榴
##讐
##娯
##欺
##\
##畔
##杜
##肌
##懇
##灌
##穫
##聡
##卑
##獅
##皿
##萌
##迅
##凌
##枕
##腔
##塵
##梶
##灘
##苑
##輿
##悔
##拶
##挨
##褒
##辿
##撰
##儲
##掴
##賄
##ä
##俣
##祇
##絹
##賑
##í
##沸
##蕭
##惣
##肯
##哺
##暑
##★
##霞
##叡
##廟
##恥
##歪
##漬
##拉
##莫
##伽
##蛍
##黎
##渕
##熙
##迦
##俸
##嘘
##悠
##憎
##姦
##泡
##漆
##盲
##−
##詐
##庇
##拐
##渦
##ö
##惹
##諦
##и
##峯
##栖
##蒼
##錐
##寅
##ヂ
##卸
##毅
##租
##蝶
##鉢
##魯
##紡
##惧
##桓
##虹
##傭
##廣
##曖
##酢
##忙
##剖
##@
##嘩
##巳
##‐
##’
##愚
##牌
##茅
##ó
##窯
##箕
##隋
##ぺ
##恨
##憩
##撫
##眺
##迂
##痺
##脆
##梱
##纏
##騨
##圓
##巴
##冥
##諮
##閑
##坦
##堰
##盧
##亘
##濁
##諱
##貰
##閏
##溢
##鴻
##埴
##癖
##{
##冶
##杵
##璧
##云
##或
##隼
##其
##爾
##寵
##猶
##紳
##詔
##餅
##汰
##斯
##喉
##肘
##蝦
##н
##悦
##謳
##頁
##頸
##}
##于
##壺
##蔽
##蜜
##楚
##葺
##逢
##帖
##怠
##醐
##婆
##紐
##蛮
##醍
##樋
##伺
##憤
##琵
##硝
##琶
##瑠
##翅
##朋
##眞
##弊
##憑
##汐
##糾
##ا
##仇
##焉
##峙
##殉
##荻
##ぃ
##綬
##喰
##濫
##р
##〔
##勒
##柿
##釧
##餓
##е
##峨
##棘
##譚
##醒
##徽
##霜
##〕
##噛
##董
##唇
##稜
##牢
##〇
##叢
##杭
##翁
##萬
##仔
##凄
##柵
##舘
##晒
##濱
##壕
##捻
##葵
##嶽
##扮
##欽
##鈍
##庸
##桶
##漸
##狗
##祷
##謁
##襄
##è
##渇
##杖
##榎
##膳
##乞
##寂
##燈
##△
##串
##漑
##諜
##賦
##ぁ
##佑
##聯
##醤
##咸
##嗜
##惟
##扁
##滴
##瞭
##粟
##嬢
##鎧
##堪
##曇
##瞳
##蜀
##賓
##只
##宕
##蔑
##凸
##尹
##侮
##噌
##淑
##芥
##鍾
##$
##紗
##縞
##跋
##ゞ
##姪
##崔
##杏
##筐
##糞
##梓
##煉
##矩
##禰
##麟
##絆
##鵜
##凹
##戊
##裾
##狐
##鬱
##鵬
##〒
##擲
##炊
##遵
##梯
##瀧
##采
##拷
##鞘
##叉
##彙
##碧
##隕
##к
##玲
##罹
##錠
##奄
##慧
##罷
##輛
##陪
##—
##踪
##蹄
##團
##妄
##檀
##璃
##紺
##嵯
##冨
##溺
##吟
##娼
##巫
##珂
##繕
##鋒
##喩
##崗
##桟
##梗
##с
##礫
##罠
##壱
##襟
##ぇ
##冗
##渠
##苻
##壬
##巌
##曝
##毀
##峻
##郁
##堕
##濠
##祠
##匂
##叛
##墾
##靭
##寡
##ī
##ヅ
##款
##諫
##窺
##斥
##妬
##搾
##煎
##●
##弔
##栓
##逓
##·
##坐
##罵
##蚕
##馮
##叱
##呑
##喝
##甫
##馳
##謹
##机
##眉
##矯
##薇
##駕
##俯
##墟
##孟
##腱
##騙
##毘
##錫
##饉
##渤
##埠
##堵
##椿
##氾
##鄧
##в
##嶼
##怨
##煽
##窃
##朔
##此
##煩
##雛
##γ
##允
##站
##緻
##苫
##詮
##惚
##蔡
##醜
##屏
##瀕
##薔
##妓
##彭
##苛
##蔓
##髭
##孵
##殷
##誅
##升
##嵩
##櫛
##濡
##鉾
##麿
##ū
##嬉
##櫻
##胚
##荊
##釘
##л
##厨
##囃
##斧
##伍
##樫
##蕃
##薨
##雁
##拭
##揖
##楯
##濯
##腿
##蛋
##麹
##弄
##揄
##揶
##雍
##蔭
##酪
##喋
##會
##榜
##爽
##瞑
##稔
##諡
##轟
##榊
##皐
##厄
##攘
##昂
##昏
##爬
##鹵
##Ζ
##т
##冪
##剃
##按
##斡
##瓜
##莉
##螺
##♪
##亨
##寇
##捏
##晦
##矮
##薙
##鋸
##閃
##卯
##堡
##堯
##疆
##酋
##嫉
##檜
##噺
##某
##榛
##疹
##禍
##隘
##鼠
##撒
##櫓
##浙
##莢
##捷
##芯
##鮎
##淮
##膠
##蟹
##衙
##魁
##ل
##丼
##侠
##槌
##邊
##兜
##匡
##寓
##蘆
##豫
##劾
##芋
##轢
##▲
##姜
##漕
##煕
##痘
##苔
##訛
##π
##吻
##彷
##這
##邱
##餐
##喬
##挽
##摺
##旺
##痴
##窩
##覗
##陛
##做
##匈
##沃
##渾
##篭
##梵
##綺
##而
##陝
##φ
##弐
##丙
##殲
##狸
##虔
##頬
##鷺
##且
##宍
##疇
##禎
##竪
##痢
##拗
##葦
##蹟
##壽
##姚
##掻
##穿
##ç
##咽
##渚
##翠
##傅
##兎
##嘲
##耆
##萼
##藪
##■
##炸
##蝋
##賈
##冑
##妾
##巾
##焚
##迭
##鍼
##韋
##±
##拿
##畝
##詫
##慨
##橙
##泄
##洩
##炒
##熾
##遙
##λ
##า
##蕉
##諧
##鰓
##ú
##嘴
##址
##暢
##渥
##盃
##肋
##艶
##薪
##﨑
##š
##梢
##爺
##縣
##范
##逗
##σ
##夭
##弼
##曼
##汝
##痩
##衷
##銚
##齋
##ε
##亥
##嘗
##弩
##曙
##灸
##艤
##ن
##塀
##靱
##à
##嚇
##掠
##揉
##贄
##傳
##冀
##厥
##疏
##繍
##荼
##و
##ぢ
##僑
##芹
##贅
##勿
##實
##聚
##膏
##鋏
##​
##掩
##濾
##耀
##ร
##娶
##怯
##戎
##砥
##穆
##肛
##萎
##遜
##佛
##奢
##珊
##瑚
##璽
##綜
##蔚
##躇
##躊
##č
##д
##咎
##喘
##欣
##濤
##脩
##臥
##芭
##豹
##у
##∞
##柑
##葡
##藁
##ي
##塹
##宦
##汪
##淫
##竿
##鉤
##É
##ر
##′
##卜
##婁
##愁
##讒
##湛
##箸
##虞
##阮
##鼎
##偲
##呆
##彌
##漱
##珪
##粕
##舜
##謂
##遁
##閘
##閻
##鯉
##鹸
##嗅
##愉
##洒
##畏
##荏
##槇
##箔
##繭
##厭
##拮
##瀋
##瘤
##蕎
##蝕
##釉
##ñ
##й
##紘
##م
##ゐ
##塑
##愕
##柚
##煌
##璋
##袴
##裴
##賂
##ο
##凪
##彿
##捗
##攣
##斤
##橿
##琢
##茹
##蒔
##蓬
##蛛
##咬
##掟
##甕
##蜘
##訊
##軋
##酎
##錨
##嘔
##沌
##ν
##桿
##浚
##溥
##穢
##薛
##裳
##鑽
##冤
##屑
##旛
##楔
##痙
##翰
##苞
##頚
##ß
##丕
##凰
##宵
##拙
##淘
##篆
##น
##乖
##傀
##楓
##絨
##訃
##飴
##饅
##饗
##Δ
##ρ
##儡
##牒
##祓
##穣
##筈
##肇
##錘
##鯖
##鸞
##廓
##羌
##衍
##閔
##頒
##鮫
##鯛
##凛
##懿
##檎
##碩
##茜
##‘
##匁
##擾
##楢
##涌
##碓
##碗
##糠
##紆
##芙
##馨
##ω
##•
##嵌
##并
##彬
##憐
##犀
##糊
##羨
##膿
##莱
##麒
##麾
##庚
##臀
##萄
##諌
##錆
##г
##枡
##榮
##玖
##臆
##贋
##趾
##鄴
##Ω
##เ
##─
##傲
##兗
##卦
##爛
##秤
##萱
##迄
##酉
##靡
##δ
##唾
##圀
##甑
##簒
##荀
##裟
##逼
##邇
##鍬
##鴎
##ō
##ा
##□
##吠
##塘
##嬰
##琳
##禽
##箏
##耽
##膵
##邵
##髙
##^
##套
##廿
##戮
##掾
##漿
##砺
##緋
##閤
##顆
##θ
##м
##垢
##壷
##姑
##弛
##椒
##鉉
##鞆
##頌
##κ
##∈
##亢
##僭
##宥
##槃
##潭
##舒
##蕩
##蹊
##姶
##屠
##瑛
##祚
##蒐
##蚊
##蟻
##諒
##躯
##â
##ب
##惠
##游
##稙
##絢
##艘
##η
##撥
##燭
##瓊
##膣
##蛭
##ι
##佩
##毯
##涅
##綏
##袂
##貪
##驤
##嚆
##囁
##幇
##瑜
##禹
##脛
##苅
##蕨
##辣
##邉
##韮
##鮭
##»
##倹
##哈
##屍
##捲
##疼
##筏
##蛹
##輻
##隧
##霖
##佃
##來
##咳
##捌
##漣
##睨
##穎
##聾
##腋
##蕊
##魃
##Σ
##τ
##ゝ
##岑
##櫃
##潘
##煤
##狛
##獨
##蓉
##蕪
##藏
##袈
##謬
##鍮
##閩
##«
##ć
##د
##ก
##刹
##抒
##旱
##猥
##畷
##賤
##я
##什
##冴
##咋
##楷
##槙
##樊
##簾
##菖
##註
##餃
##餡
##ς
##埔
##憾
##檻
##猷
##磔
##箋
##茉
##蓑
##鏃
##्
##俘
##恣
##樟
##雫
##Ö
##ч
##些
##圃
##埃
##崑
##恪
##毫
##渭
##焙
##燻
##誹
##邁
##酌
##韶
##ม
##巷
##彅
##椋
##煥
##禿
##竄
##竇
##蜷
##誼
##饒
##ô
##ø
##ı
##♥
##咄
##棍
##謗
##鰐
##п
##凧
##媚
##尤
##廬
##槿
##滸
##琥
##瓢
##疋
##與
##芒
##證
##霍
##鞄
##駁
##С
##र
##圳
##墺
##戌
##柊
##胱
##膀
##菟
##裡
##ь
##厘
##吃
##朧
##氣
##煬
##當
##邯
##錮
##靺
##อ
##†
##≒
##◎
##ぅ
##兪
##姥
##悉
##祗
##祟
##羲
##薗
##輜
##鞨
##髷
##鬘
##鵠
##Š
##ˈ
##ヱ
##丑
##唖
##娩
##彪
##忽
##托
##桧
##楡
##珀
##祢
##稷
##竈
##粥
##臧
##蟄
##訣
##賽
##銑
##鯱
##ē
##ł
##з
##侃
##嬪
##崋
##巽
