{
  "version": "1.0",
  "truncation": null,
  "padding": null,
  "added_tokens": [
    {
      "id": 0,
      "content": "<unk|LLM-jp>",
      "single_word": false,
      "lstrip": false,
      "rstrip": false,
      "normalized": false,
      "special": true
    },
    {
      "id": 1,
      "content": "<s|LLM-jp>",
      "single_word": false,
      "lstrip": false,
      "rstrip": false,
      "normalized": false,
      "special": true
    },
    {
      "id": 2,
      "content": "</s|LLM-jp>",
      "single_word": false,
      "lstrip": false,
      "rstrip": false,
      "normalized": false,
      "special": true
    },
    {
      "id": 3,
      "content": "<mask|LLM-jp>",
      "single_word": false,
      "lstrip": false,
      "rstrip": false,
      "normalized": false,
      "special": true
    },
    {
      "id": 4,
      "content": "<pad|LLM-jp>",
      "single_word": false,
      "lstrip": false,
      "rstrip": false,
      "normalized": false,
      "special": true
    },
    {
      "id": 5,
      "content": "<CLS|LLM-jp>",
      "single_word": false,
      "lstrip": false,
      "rstrip": false,
      "normalized": false,
      "special": true
    },
    {
      "id": 6,
      "content": "<SEP|LLM-jp>",
      "single_word": false,
      "lstrip": false,
      "rstrip": false,
      "normalized": false,
      "special": true
    },
    {
      "id": 7,
      "content": "<EOD|LLM-jp>",
      "single_word": false,
      "lstrip": false,
      "rstrip": false,
      "normalized": false,
      "special": true
    }
  ],
  "normalizer": {
    "type": "Sequence",
    "normalizers": [
      {
        "type": "Replace",
        "pattern": {
          "Regex": "(?<!\\n)^"
        },
        "content": "▁"
      },
      {
        "type": "Replace",
        "pattern": {
          "Regex": " "
        },
        "content": "▁"
      }
    ]
  },
  "pre_tokenizer": null,
  "post_processor": {
    "type": "TemplateProcessing",
    "single": [
      {
        "Sequence": {
          "id": "A",
          "type_id": 0
        }
      },
      {
        "SpecialToken": {
          "id": "<EOD|LLM-jp>",
          "type_id": 0
        }
      }
    ],
    "pair": [
      {
        "Sequence": {
          "id": "A",
          "type_id": 0
        }
      },
      {
        "SpecialToken": {
          "id": "<EOD|LLM-jp>",
          "type_id": 0
        }
      },
      {
        "Sequence": {
          "id": "B",
          "type_id": 1
        }
      },
      {
        "SpecialToken": {
          "id": "<EOD|LLM-jp>",
          "type_id": 1
        }
      }
    ],
    "special_tokens": {
      "<EOD|LLM-jp>": {
        "id": "<EOD|LLM-jp>",
        "ids": [
          7
        ],
        "tokens": [
          "<EOD|LLM-jp>"
        ]
      }
    }
  },
  "decoder": {
    "type": "Sequence",
    "decoders": [
      {
        "type": "ByteFallback"
      },
      {
        "type": "Replace",
        "pattern": {
          "Regex": "▁"
        },
        "content": " "
      },
      {
        "type": "Fuse"
      },
      {
        "type": "Replace",
        "pattern": {
          "Regex": "(?<!\\n)^ "
        },
        "content": ""
      }
    ]
  },
  "model": {
    "type": "Unigram",
    "unk_id": 0,
    "vocab": [
      [
        "<unk|LLM-jp>",
        0.0
      ],
      [
        "<s|LLM-jp>",
        0.0
      ],
      [
        "</s|LLM-jp>",
        0.0
      ],
      [
        "<mask|LLM-jp>",
        0.0
      ],
      [
        "<pad|LLM-jp>",
        0.0
      ],
      [
        "<CLS|LLM-jp>",
        0.0
      ],
      [
        "<SEP|LLM-jp>",
        0.0
      ],
      [
        "<EOD|LLM-jp>",
        0.0
      ],
      [
        "▁▁▁▁▁▁▁▁▁▁▁▁▁▁▁▁▁▁▁▁▁▁▁▁",
        -1.0
      ],
      [
        "▁▁▁▁▁▁▁▁▁▁▁▁▁▁▁▁▁▁▁▁▁▁▁",
        -1.0
      ],
      [
        "▁▁▁▁▁▁▁▁▁▁▁▁▁▁▁▁▁▁▁▁▁▁",
        -1.0
      ],
      [
        "▁▁▁▁▁▁▁▁▁▁▁▁▁▁▁▁▁▁▁▁▁",
        -1.0
      ],
      [
        "▁▁▁▁▁▁▁▁▁▁▁▁▁▁▁▁▁▁▁▁",
        -1.0
      ],
      [
        "▁▁▁▁▁▁▁▁▁▁▁▁▁▁▁▁▁▁▁",
        -1.0
      ],
      [
        "▁▁▁▁▁▁▁▁▁▁▁▁▁▁▁▁▁▁",
        -1.0
      ],
      [
        "▁▁▁▁▁▁▁▁▁▁▁▁▁▁▁▁▁",
        -1.0
      ],
      [
        "▁▁▁▁▁▁▁▁▁▁▁▁▁▁▁▁",
        -1.0
      ],
      [
        "▁▁▁▁▁▁▁▁▁▁▁▁▁▁▁",
        -1.0
      ],
      [
        "▁▁▁▁▁▁▁▁▁▁▁▁▁▁",
        -1.0
      ],
      [
        "▁▁▁▁▁▁▁▁▁▁▁▁▁",
        -1.0
      ],
      [
        "▁▁▁▁▁▁▁▁▁▁▁▁",
        -1.0
      ],
      [
        "▁▁▁▁▁▁▁▁▁▁▁",
        -1.0
      ],
      [
        "▁▁▁▁▁▁▁▁▁▁",
        -1.0
      ],
      [
        "▁▁▁▁▁▁▁▁▁",
        -1.0
      ],
      [
        "▁▁▁▁▁▁▁▁",
        -1.0
      ],
      [
        "▁▁▁▁▁▁▁",
        -1.0
      ],
      [
        "▁▁▁▁▁▁",
        -1.0
      ],
      [
        "▁▁▁▁▁",
        -1.0
      ],
      [
        "▁▁▁▁",
        -1.0
      ],
      [
        "▁▁▁",
        -1.0
      ],
      [
        "▁▁",
        -1.0
      ],
      [
        "▁",
        -1.0
      ],
      [
        "\n",
        0.0
      ],
      [
        "<0x00>",
        0.0
      ],
      [
        "<0x01>",
        0.0
      ],
      [
        "<0x02>",
        0.0
      ],
      [
        "<0x03>",
        0.0
      ],
      [
        "<0x04>",
        0.0
      ],
      [
        "<0x05>",
        0.0
      ],
      [
        "<0x06>",
        0.0
      ],
      [
        "<0x07>",
        0.0
      ],
      [
        "<0x08>",
        0.0
      ],
      [
        "<0x09>",
        0.0
      ],
      [
        "<0x0A>",
        0.0
      ],
      [
        "<0x0B>",
        0.0
      ],
      [
        "<0x0C>",
        0.0
      ],
      [
        "<0x0D>",
        0.0
      ],
      [
        "<0x0E>",
        0.0
      ],
      [
        "<0x0F>",
        0.0
      ],
      [
        "<0x10>",
        0.0
      ],
      [
        "<0x11>",
        0.0
      ],
      [
        "<0x12>",
        0.0
      ],
      [
        "<0x13>",
        0.0
      ],
      [
        "<0x14>",
        0.0
      ],
      [
        "<0x15>",
        0.0
      ],
      [
        "<0x16>",
        0.0
      ],
      [
        "<0x17>",
        0.0
      ],
      [
        "<0x18>",
        0.0
      ],
      [
        "<0x19>",
        0.0
      ],
      [
        "<0x1A>",
        0.0
      ],
      [
        "<0x1B>",
        0.0
      ],
      [
        "<0x1C>",
        0.0
      ],
      [
        "<0x1D>",
        0.0
      ],
      [
        "<0x1E>",
        0.0
      ],
      [
        "<0x1F>",
        0.0
      ],
      [
        "<0x20>",
        0.0
      ],
      [
        "<0x21>",
        0.0
      ],
      [
        "<0x22>",
        0.0
      ],
      [
        "<0x23>",
        0.0
      ],
      [
        "<0x24>",
        0.0
      ],
      [
        "<0x25>",
        0.0
      ],
      [
        "<0x26>",
        0.0
      ],
      [
        "<0x27>",
        0.0
      ],
      [
        "<0x28>",
        0.0
      ],
      [
        "<0x29>",
        0.0
      ],
      [
        "<0x2A>",
        0.0
      ],
      [
        "<0x2B>",
        0.0
      ],
      [
        "<0x2C>",
        0.0
      ],
      [
        "<0x2D>",
        0.0
      ],
      [
        "<0x2E>",
        0.0
      ],
      [
        "<0x2F>",
        0.0
      ],
      [
        "<0x30>",
        0.0
      ],
      [
        "<0x31>",
        0.0
      ],
      [
        "<0x32>",
        0.0
      ],
      [
        "<0x33>",
        0.0
      ],
      [
        "<0x34>",
        0.0
      ],
      [
        "<0x35>",
        0.0
      ],
      [
        "<0x36>",
        0.0
      ],
      [
        "<0x37>",
        0.0
      ],
      [
        "<0x38>",
        0.0
      ],
      [
        "<0x39>",
        0.0
      ],
      [
        "<0x3A>",
        0.0
      ],
      [
        "<0x3B>",
        0.0
      ],
      [
        "<0x3C>",
        0.0
      ],
      [
        "<0x3D>",
        0.0
      ],
      [
        "<0x3E>",
        0.0
      ],
      [
        "<0x3F>",
        0.0
      ],
      [
        "<0x40>",
        0.0
      ],
      [
        "<0x41>",
        0.0
      ],
      [
        "<0x42>",
        0.0
      ],
      [
        "<0x43>",
        0.0
      ],
      [
        "<0x44>",
        0.0
      ],
      [
        "<0x45>",
        0.0
      ],
      [
        "<0x46>",
        0.0
      ],
      [
        "<0x47>",
        0.0
      ],
      [
        "<0x48>",
        0.0
      ],
      [
        "<0x49>",
        0.0
      ],
      [
        "<0x4A>",
        0.0
      ],
      [
        "<0x4B>",
        0.0
      ],
      [
        "<0x4C>",
        0.0
      ],
      [
        "<0x4D>",
        0.0
      ],
      [
        "<0x4E>",
        0.0
      ],
      [
        "<0x4F>",
        0.0
      ],
      [
        "<0x50>",
        0.0
      ],
      [
        "<0x51>",
        0.0
      ],
      [
        "<0x52>",
        0.0
      ],
      [
        "<0x53>",
        0.0
      ],
      [
        "<0x54>",
        0.0
      ],
      [
        "<0x55>",
        0.0
      ],
      [
        "<0x56>",
        0.0
      ],
      [
        "<0x57>",
        0.0
      ],
      [
        "<0x58>",
        0.0
      ],
      [
        "<0x59>",
        0.0
      ],
      [
        "<0x5A>",
        0.0
      ],
      [
        "<0x5B>",
        0.0
      ],
      [
        "<0x5C>",
        0.0
      ],
      [
        "<0x5D>",
        0.0
      ],
      [
        "<0x5E>",
        0.0
      ],
      [
        "<0x5F>",
        0.0
      ],
      [
        "<0x60>",
        0.0
      ],
      [
        "<0x61>",
        0.0
      ],
      [
        "<0x62>",
        0.0
      ],
      [
        "<0x63>",
        0.0
      ],
      [
        "<0x64>",
        0.0
      ],
      [
        "<0x65>",
        0.0
      ],
      [
        "<0x66>",
        0.0
      ],
      [
        "<0x67>",
        0.0
      ],
      [
        "<0x68>",
        0.0
      ],
      [
        "<0x69>",
        0.0
      ],
      [
        "<0x6A>",
        0.0
      ],
      [
        "<0x6B>",
        0.0
      ],
      [
        "<0x6C>",
        0.0
      ],
      [
        "<0x6D>",
        0.0
      ],
      [
        "<0x6E>",
        0.0
      ],
      [
        "<0x6F>",
        0.0
      ],
      [
        "<0x70>",
        0.0
      ],
      [
        "<0x71>",
        0.0
      ],
      [
        "<0x72>",
        0.0
      ],
      [
        "<0x73>",
        0.0
      ],
      [
        "<0x74>",
        0.0
      ],
      [
        "<0x75>",
        0.0
      ],
      [
        "<0x76>",
        0.0
      ],
      [
        "<0x77>",
        0.0
      ],
      [
        "<0x78>",
        0.0
      ],
      [
        "<0x79>",
        0.0
      ],
      [
        "<0x7A>",
        0.0
      ],
      [
        "<0x7B>",
        0.0
      ],
      [
        "<0x7C>",
        0.0
      ],
      [
        "<0x7D>",
        0.0
      ],
      [
        "<0x7E>",
        0.0
      ],
      [
        "<0x7F>",
        0.0
      ],
      [
        "<0x80>",
        0.0
      ],
      [
        "<0x81>",
        0.0
      ],
      [
        "<0x82>",
        0.0
      ],
      [
        "<0x83>",
        0.0
      ],
      [
        "<0x84>",
        0.0
      ],
      [
        "<0x85>",
        0.0
      ],
      [
        "<0x86>",
        0.0
      ],
      [
        "<0x87>",
        0.0
      ],
      [
        "<0x88>",
        0.0
      ],
      [
        "<0x89>",
        0.0
      ],
      [
        "<0x8A>",
        0.0
      ],
      [
        "<0x8B>",
        0.0
      ],
      [
        "<0x8C>",
        0.0
      ],
      [
        "<0x8D>",
        0.0
      ],
      [
        "<0x8E>",
        0.0
      ],
      [
        "<0x8F>",
        0.0
      ],
      [
        "<0x90>",
        0.0
      ],
      [
        "<0x91>",
        0.0
      ],
      [
        "<0x92>",
        0.0
      ],
      [
        "<0x93>",
        0.0
      ],
      [
        "<0x94>",
        0.0
      ],
      [
        "<0x95>",
        0.0
      ],
      [
        "<0x96>",
        0.0
      ],
      [
        "<0x97>",
        0.0
      ],
      [
        "<0x98>",
        0.0
      ],
      [
        "<0x99>",
        0.0
      ],
      [
        "<0x9A>",
        0.0
      ],
      [
        "<0x9B>",
        0.0
      ],
      [
        "<0x9C>",
        0.0
      ],
      [
        "<0x9D>",
        0.0
      ],
      [
        "<0x9E>",
        0.0
      ],
      [
        "<0x9F>",
        0.0
      ],
      [
        "<0xA0>",
        0.0
      ],
      [
        "<0xA1>",
        0.0
      ],
      [
        "<0xA2>",
        0.0
      ],
      [
        "<0xA3>",
        0.0
      ],
      [
        "<0xA4>",
        0.0
      ],
      [
        "<0xA5>",
        0.0
      ],
      [
        "<0xA6>",
        0.0
      ],
      [
        "<0xA7>",
        0.0
      ],
      [
        "<0xA8>",
        0.0
      ],
      [
        "<0xA9>",
        0.0
      ],
      [
        "<0xAA>",
        0.0
      ],
      [
        "<0xAB>",
        0.0
      ],
      [
        "<0xAC>",
        0.0
      ],
      [
        "<0xAD>",
        0.0
      ],
      [
        "<0xAE>",
        0.0
      ],
      [
        "<0xAF>",
        0.0
      ],
      [
        "<0xB0>",
        0.0
      ],
      [
        "<0xB1>",
        0.0
      ],
      [
        "<0xB2>",
        0.0
      ],
      [
        "<0xB3>",
        0.0
      ],
      [
        "<0xB4>",
        0.0
      ],
      [
        "<0xB5>",
        0.0
      ],
      [
        "<0xB6>",
        0.0
      ],
      [
        "<0xB7>",
        0.0
      ],
      [
        "<0xB8>",
        0.0
      ],
      [
        "<0xB9>",
        0.0
      ],
      [
        "<0xBA>",
        0.0
      ],
      [
        "<0xBB>",
        0.0
      ],
      [
        "<0xBC>",
        0.0
      ],
      [
        "<0xBD>",
        0.0
      ],
      [
        "<0xBE>",
        0.0
      ],
      [
        "<0xBF>",
        0.0
      ],
      [
        "<0xC0>",
        0.0
      ],
      [
        "<0xC1>",
        0.0
      ],
      [
        "<0xC2>",
        0.0
      ],
      [
        "<0xC3>",
        0.0
      ],
      [
        "<0xC4>",
        0.0
      ],
      [
        "<0xC5>",
        0.0
      ],
      [
        "<0xC6>",
        0.0
      ],
      [
        "<0xC7>",
        0.0
      ],
      [
        "<0xC8>",
        0.0
      ],
      [
        "<0xC9>",
        0.0
      ],
      [
        "<0xCA>",
        0.0
      ],
      [
        "<0xCB>",
        0.0
      ],
      [
        "<0xCC>",
        0.0
      ],
      [
        "<0xCD>",
        0.0
      ],
      [
        "<0xCE>",
        0.0
      ],
      [
        "<0xCF>",
        0.0
      ],
      [
        "<0xD0>",
        0.0
      ],
      [
        "<0xD1>",
        0.0
      ],
      [
        "<0xD2>",
        0.0
      ],
      [
        "<0xD3>",
        0.0
      ],
      [
        "<0xD4>",
        0.0
      ],
      [
        "<0xD5>",
        0.0
      ],
      [
        "<0xD6>",
        0.0
      ],
      [
        "<0xD7>",
        0.0
      ],
      [
        "<0xD8>",
        0.0
      ],
      [
        "<0xD9>",
        0.0
      ],
      [
        "<0xDA>",
        0.0
      ],
      [
        "<0xDB>",
        0.0
      ],
      [
        "<0xDC>",
        0.0
      ],
      [
        "<0xDD>",
        0.0
      ],
      [
        "<0xDE>",
        0.0
      ],
      [
        "<0xDF>",
        0.0
      ],
      [
        "<0xE0>",
        0.0
      ],
      [
        "<0xE1>",
        0.0
      ],
      [
        "<0xE2>",
        0.0
      ],
      [
        "<0xE3>",
        0.0
      ],
      [
        "<0xE4>",
        0.0
      ],
      [
        "<0xE5>",
        0.0
      ],
      [
        "<0xE6>",
        0.0
      ],
      [
        "<0xE7>",
        0.0
      ],
      [
        "<0xE8>",
        0.0
      ],
      [
        "<0xE9>",
        0.0
      ],
      [
        "<0xEA>",
        0.0
      ],
      [
        "<0xEB>",
        0.0
      ],
      [
        "<0xEC>",
        0.0
      ],
      [
        "<0xED>",
        0.0
      ],
      [
        "<0xEE>",
        0.0
      ],
      [
        "<0xEF>",
        0.0
      ],
      [
        "<0xF0>",
        0.0
      ],
      [
        "<0xF1>",
        0.0
      ],
      [
        "<0xF2>",
        0.0
      ],
      [
        "<0xF3>",
        0.0
      ],
      [
        "<0xF4>",
        0.0
      ],
      [
        "<0xF5>",
        0.0
      ],
      [
        "<0xF6>",
        0.0
      ],
      [
        "<0xF7>",
        0.0
      ],
      [
        "<0xF8>",
        0.0
      ],
      [
        "<0xF9>",
        0.0
      ],
      [
        "<0xFA>",
        0.0
      ],
      [
        "<0xFB>",
        0.0
      ],
      [
        "<0xFC>",
        0.0
      ],
      [
        "<0xFD>",
        0.0
      ],
      [
        "<0xFE>",
        0.0
      ],
      [
        "<0xFF>",
        0.0
      ],
      [
        "0",
        -5.829801082611084
      ],
      [
        "1",
        -5.6714019775390625
      ],
      [
        "2",
        -5.953049182891846
      ],
      [
        "▁x",
        -9.62012004852295
      ],
      [
        "3",
        -6.488257884979248
      ],
      [
        "4",
        -6.6716508865356445
      ],
      [
        "6",
        -6.75773286819458
      ],
      [
        "s",
        -6.612061023712158
      ],
      [
        "8",
        -6.727199077606201
      ],
      [
        "5",
        -6.833341121673584
      ],
      [
        "7",
        -7.0120930671691895
      ],
      [
        "▁the",
        -6.521553039550781
      ],
      [
        "9",
        -6.593361854553223
      ],
      [
        "▁if",
        -8.482170104980469
      ],
      [
        "▁t",
        -10.48675537109375
      ],
      [
        "▁define",
        -10.636502265930176
      ],
      [
        "▁int",
        -7.89709997177124
      ],
      [
        "▁const",
        -8.41849136352539
      ],
      [
        "▁return",
        -8.274373054504395
      ],
      [
        "d",
        -7.934922218322754
      ],
      [
        "▁void",
        -7.668100833892822
      ],
      [
        "▁to",
        -7.21466588973999
      ],
      [
        "▁a",
        -7.813776016235352
      ],
      [
        "C",
        -8.461088180541992
      ],
      [
        "S",
        -8.30494213104248
      ],
      [
        "▁i",
        -9.17473316192627
      ],
      [
        "▁for",
        -7.709922790527344
      ],
      [
        "▁is",
        -7.646448135375977
      ],
      [
        "▁of",
        -6.728272914886475
      ],
      [
        "e",
        -8.487861633300781
      ],
      [
        "D",
        -8.538198471069336
      ],
      [
        "r",
        -8.72530746459961
      ],
      [
        "▁struct",
        -8.779870986938477
      ],
      [
        "A",
        -8.713545799255371
      ],
      [
        "T",
        -8.872804641723633
      ],
      [
        "▁p",
        -9.456049919128418
      ],
      [
        "F",
        -8.84889030456543
      ],
      [
        "▁h",
        -11.248992919921877
      ],
      [
        "▁in",
        -7.098783016204834
      ],
      [
        "p",
        -8.166937828063965
      ],
      [
        "▁c",
        -9.798699378967283
      ],
      [
        "▁static",
        -8.022005081176758
      ],
      [
        "▁f",
        -10.06295108795166
      ],
      [
        "▁NULL",
        -8.461545944213867
      ],
      [
        "E",
        -8.871333122253418
      ],
      [
        "▁uint",
        -9.504010200500488
      ],
      [
        "▁n",
        -9.961152076721191
      ],
      [
        "B",
        -8.822219848632812
      ],
      [
        "n",
        -8.081457138061523
      ],
      [
        "P",
        -8.736284255981445
      ],
      [
        "▁char",
        -8.962642669677734
      ],
      [
        "I",
        -9.116313934326172
      ],
      [
        "X",
        -9.156390190124512
      ],
      [
        "id",
        -8.44565200805664
      ],
      [
        "or",
        -9.411128997802734
      ],
      [
        "▁include",
        -10.843218803405762
      ],
      [
        "▁and",
        -7.115620136260986
      ],
      [
        "t",
        -7.834062099456787
      ],
      [
        "▁get",
        -9.763773918151855
      ],
      [
        "U",
        -9.122762680053713
      ],
      [
        "i",
        -8.325968742370605
      ],
      [
        "R",
        -9.234795570373535
      ],
      [
        "L",
        -9.038674354553224
      ],
      [
        "H",
        -8.850726127624512
      ],
      [
        "l",
        -8.802511215209961
      ],
      [
        "▁else",
        -8.145339965820312
      ],
      [
        "x",
        -7.156620025634766
      ],
      [
        "M",
        -9.162900924682615
      ],
      [
        "▁b",
        -9.921977043151855
      ],
      [
        "▁data",
        -9.652889251708984
      ],
      [
        "▁value",
        -9.470370292663574
      ],
      [
        "ed",
        -8.145588874816895
      ],
      [
        "y",
        -8.520519256591797
      ],
      [
        "▁size",
        -9.786127090454102
      ],
      [
        "▁this",
        -8.502837181091309
      ],
      [
        "▁m",
        -9.432567596435549
      ],
      [
        "▁case",
        -9.73423671722412
      ],
      [
        "▁endif",
        -10.779844284057615
      ],
      [
        "c",
        -8.537946701049805
      ],
      [
        "▁set",
        -9.77959442138672
      ],
      [
        "f",
        -8.669739723205566
      ],
      [
        "ing",
        -8.41793441772461
      ],
      [
        "a",
        -8.850638389587402
      ],
      [
        "▁unsigned",
        -9.37327766418457
      ],
      [
        "G",
        -9.439901351928713
      ],
      [
        "len",
        -9.07522678375244
      ],
      [
        "▁be",
        -8.530637741088867
      ],
      [
        "v",
        -8.647930145263672
      ],
      [
        "▁type",
        -10.188444137573242
      ],
      [
        "▁bool",
        -9.299025535583496
      ],
      [
        "▁std",
        -9.603460311889648
      ],
      [
        "▁lean",
        -9.34350299835205
      ],
      [
        "▁v",
        -10.010350227355955
      ],
      [
        "▁u",
        -10.636487007141112
      ],
      [
        "Type",
        -9.151333808898926
      ],
      [
        "N",
        -9.509076118469238
      ],
      [
        "u",
        -8.67819595336914
      ],
      [
        "w",
        -9.498615264892578
      ],
      [
        "V",
        -9.527887344360352
      ],
      [
        "Get",
        -9.502482414245604
      ],
      [
        "buf",
        -9.311009407043455
      ],
      [
        "list",
        -9.425337791442873
      ],
      [
        "er",
        -8.926566123962402
      ],
      [
        "ID",
        -9.351946830749512
      ],
      [
        "▁object",
        -10.617926597595217
      ],
      [
        "▁break",
        -9.734978675842283
      ],
      [
        "▁The",
        -7.995941162109375
      ],
      [
        "o",
        -9.541394233703612
      ],
      [
        "m",
        -8.820425987243652
      ],
      [
        "name",
        -8.683947563171387
      ],
      [
        "▁not",
        -8.752796173095703
      ],
      [
        "▁that",
        -8.2601957321167
      ],
      [
        "▁param",
        -13.93837070465088
      ],
      [
        "b",
        -8.7999906539917
      ],
      [
        "W",
        -9.663870811462402
      ],
      [
        "val",
        -9.213138580322266
      ],
      [
        "▁error",
        -9.912108421325684
      ],
      [
        "▁This",
        -9.261232376098633
      ],
      [
        "▁with",
        -8.353297233581543
      ],
      [
        "▁pyx",
        -18.962329864501953
      ],
      [
        "q",
        -9.765761375427246
      ],
      [
        "▁string",
        -10.867562294006348
      ],
      [
        "Set",
        -9.422139167785645
      ],
      [
        "▁from",
        -8.148611068725586
      ],
      [
        "▁class",
        -8.958210945129395
      ],
      [
        "size",
        -8.723334312438965
      ],
      [
        "z",
        -9.238137245178224
      ],
      [
        "▁sizeof",
        -9.990063667297363
      ],
      [
        "K",
        -9.805143356323242
      ],
      [
        "▁by",
        -8.263592720031738
      ],
      [
        "in",
        -8.476119995117188
      ],
      [
        "k",
        -9.18960666656494
      ],
      [
        "▁new",
        -9.676691055297852
      ],
      [
        "str",
        -9.382979393005373
      ],
      [
        "g",
        -9.216463088989258
      ],
      [
        "type",
        -8.670082092285156
      ],
      [
        "no",
        -9.29672908782959
      ],
      [
        "Data",
        -9.529480934143066
      ],
      [
        "▁ret",
        -9.88732624053955
      ],
      [
        "TYPE",
        -9.721390724182127
      ],
      [
        "on",
        -9.674296379089355
      ],
      [
        "▁long",
        -9.794952392578123
      ],
      [
        "▁name",
        -10.25412940979004
      ],
      [
        "▁arg",
        -12.027713775634766
      ],
      [
        "info",
        -9.367098808288574
      ],
      [
        "Q",
        -9.9133939743042
      ],
      [
        "▁xff",
        -19.99174690246582
      ],
      [
        "data",
        -8.769227981567383
      ],
      [
        "▁k",
        -10.323030471801758
      ],
      [
        "▁file",
        -9.776250839233398
      ],
      [
        "▁index",
        -10.633883476257324
      ],
      [
        "▁typedef",
        -9.126823425292969
      ],
      [
        "map",
        -9.984604835510254
      ],
      [
        "▁state",
        -10.405268669128418
      ],
      [
        "O",
        -9.856978416442873
      ],
      [
        "▁buffer",
        -10.510944366455078
      ],
      [
        "set",
        -8.72590446472168
      ],
      [
        "Y",
        -9.967117309570312
      ],
      [
        "port",
        -9.467889785766602
      ],
      [
        "h",
        -7.904181003570557
      ],
      [
        "▁we",
        -9.38616943359375
      ],
      [
        "▁it",
        -8.7337064743042
      ],
      [
        "line",
        -9.602720260620115
      ],
      [
        "▁result",
        -10.117180824279783
      ],
      [
        "▁g",
        -10.57698917388916
      ],
      [
        "▁j",
        -10.681507110595703
      ],
      [
        "▁double",
        -10.449108123779297
      ],
      [
        "▁float",
        -10.720166206359863
      ],
      [
        "▁function",
        -9.755270957946776
      ],
      [
        "▁inline",
        -9.74776554107666
      ],
      [
        "▁dev",
        -12.482328414916992
      ],
      [
        "Z",
        -9.939935684204102
      ],
      [
        "▁out",
        -9.594517707824709
      ],
      [
        "▁key",
        -10.63093376159668
      ],
      [
        "code",
        -9.553894996643066
      ],
      [
        "ptr",
        -9.465984344482422
      ],
      [
        "▁device",
        -10.832844734191896
      ],
      [
        "▁xFF",
        -22.59598731994629
      ],
      [
        "▁free",
        -10.843406677246094
      ],
      [
        "ip",
        -10.120772361755373
      ],
      [
        "Info",
        -9.890765190124512
      ],
      [
        "▁status",
        -10.51596736907959
      ],
      [
        "String",
        -9.644265174865724
      ],
      [
        "▁defined",
        -10.157949447631836
      ],
      [
        "▁goto",
        -9.859909057617188
      ],
      [
        "In",
        -9.858838081359863
      ],
      [
        "Name",
        -9.752588272094728
      ],
      [
        "file",
        -9.53758144378662
      ],
      [
        "▁true",
        -9.63577938079834
      ],
      [
        "Value",
        -9.853121757507324
      ],
      [
        "▁read",
        -10.842280387878418
      ],
      [
        "▁flags",
        -11.064762115478516
      ],
      [
        "▁err",
        -10.22726345062256
      ],
      [
        "▁public",
        -8.572320938110352
      ],
      [
        "un",
        -8.783811569213867
      ],
      [
        "▁as",
        -8.435701370239258
      ],
      [
        "Size",
        -9.993000030517578
      ],
      [
        "▁use",
        -9.807098388671877
      ],
      [
        "▁can",
        -9.321184158325195
      ],
      [
        "▁false",
        -9.620575904846191
      ],
      [
        "io",
        -9.914031982421877
      ],
      [
        "▁GL",
        -10.300536155700684
      ],
      [
        "▁start",
        -10.889610290527344
      ],
      [
        "▁virtual",
        -10.137995719909668
      ],
      [
        "▁extern",
        -9.769550323486328
      ],
      [
        "▁ifndef",
        -13.299463272094728
      ],
      [
        "▁mode",
        -10.698147773742676
      ],
      [
        "▁on",
        -8.384814262390137
      ],
      [
        "Id",
        -9.997167587280272
      ],
      [
        "▁ifdef",
        -12.584346771240234
      ],
      [
        "▁are",
        -8.774701118469238
      ],
      [
        "up",
        -9.515151977539062
      ],
      [
        "CH",
        -10.68564510345459
      ],
      [
        "▁offset",
        -11.039769172668455
      ],
      [
        "out",
        -9.291220664978027
      ],
      [
        "en",
        -8.617664337158203
      ],
      [
        "▁MAX",
        -12.338326454162598
      ],
      [
        "j",
        -9.556517601013184
      ],
      [
        "▁default",
        -10.449213027954102
      ],
      [
        "▁add",
        -11.047767639160156
      ],
      [
        "de",
        -7.8261518478393555
      ],
      [
        "▁init",
        -12.19402313232422
      ],
      [
        "▁next",
        -10.813397407531738
      ],
      [
        "▁OF",
        -10.086023330688477
      ],
      [
        "▁will",
        -9.468541145324709
      ],
      [
        "▁end",
        -10.875256538391112
      ],
      [
        "▁an",
        -9.222474098205566
      ],
      [
        "List",
        -9.820619583129885
      ],
      [
        "ref",
        -10.104043006896973
      ],
      [
        "▁ctx",
        -12.211669921875
      ],
      [
        "▁node",
        -11.03818416595459
      ],
      [
        "▁has",
        -9.36971378326416
      ],
      [
        "API",
        -9.84648323059082
      ],
      [
        "▁info",
        -11.887852668762209
      ],
      [
        "ent",
        -9.880914688110352
      ],
      [
        "Object",
        -9.8678560256958
      ],
      [
        "ch",
        -9.993612289428713
      ],
      [
        "EN",
        -10.43927764892578
      ],
      [
        "▁License",
        -9.841290473937988
      ],
      [
        "▁CONFIG",
        -11.014473915100098
      ],
      [
        "le",
        -9.893147468566896
      ],
      [
        "ERR",
        -10.237568855285645
      ],
      [
        "▁used",
        -9.802513122558594
      ],
      [
        "▁base",
        -11.06658172607422
      ],
      [
        "▁num",
        -11.259334564208984
      ],
      [
        "▁GPIO",
        -11.194313049316406
      ],
      [
        "▁typename",
        -10.896000862121582
      ],
      [
        "log",
        -10.258769989013672
      ],
      [
        "▁write",
        -11.220257759094238
      ],
      [
        "▁bit",
        -10.840258598327637
      ],
      [
        "▁ERROR",
        -13.389512062072754
      ],
      [
        "▁input",
        -10.722583770751951
      ],
      [
        "st",
        -9.11768627166748
      ],
      [
        "CTRL",
        -10.974738121032717
      ],
      [
        "▁context",
        -11.116754531860352
      ],
      [
        "▁number",
        -10.012151718139648
      ],
      [
        "▁brief",
        -13.06100845336914
      ],
      [
        "al",
        -9.193547248840332
      ],
      [
        "▁length",
        -10.88727855682373
      ],
      [
        "To",
        -10.019486427307127
      ],
      [
        "▁src",
        -11.304291725158691
      ],
      [
        "State",
        -10.035432815551758
      ],
      [
        "it",
        -10.200925827026367
      ],
      [
        "DATA",
        -10.37999153137207
      ],
      [
        "▁DEFAULT",
        -11.893162727355955
      ],
      [
        "▁template",
        -9.790094375610352
      ],
      [
        "ly",
        -9.36349105834961
      ],
      [
        "▁current",
        -10.337142944335938
      ],
      [
        "IO",
        -10.010892868041992
      ],
      [
        "to",
        -8.966109275817871
      ],
      [
        "OUT",
        -10.396549224853516
      ],
      [
        "▁ptr",
        -12.791135787963867
      ],
      [
        "pos",
        -10.176807403564451
      ],
      [
        "ion",
        -9.946834564208984
      ],
      [
        "▁code",
        -10.282995223999023
      ],
      [
        "J",
        -10.192612648010254
      ],
      [
        "SET",
        -10.37721061706543
      ],
      [
        "Error",
        -10.053956985473633
      ],
      [
        "▁at",
        -8.661738395690918
      ],
      [
        "▁count",
        -11.093233108520508
      ],
      [
        "Buffer",
        -10.23735809326172
      ],
      [
        "▁output",
        -10.786189079284668
      ],
      [
        "▁IN",
        -10.687433242797852
      ],
      [
        "ex",
        -9.979260444641112
      ],
      [
        "OP",
        -10.200308799743652
      ],
      [
        "ED",
        -9.94028091430664
      ],
      [
        "▁test",
        -10.73698616027832
      ],
      [
        "re",
        -9.185091018676758
      ],
      [
        "count",
        -9.72975730895996
      ],
      [
        "▁tmp",
        -11.272427558898926
      ],
      [
        "▁while",
        -9.98187255859375
      ],
      [
        "▁entry",
        -11.279651641845703
      ],
      [
        "lock",
        -9.935858726501465
      ],
      [
        "IN",
        -9.665637969970703
      ],
      [
        "▁copy",
        -10.542048454284668
      ],
      [
        "▁vector",
        -11.84189224243164
      ],
      [
        "▁property",
        -11.452610969543455
      ],
      [
        "▁max",
        -11.131023406982422
      ],
      [
        "int",
        -7.994378089904785
      ],
      [
        "▁handle",
        -11.17189598083496
      ],
      [
        "Ptr",
        -10.368021965026855
      ],
      [
        "fd",
        -10.289241790771484
      ],
      [
        "num",
        -9.673895835876465
      ],
      [
        "able",
        -9.408434867858888
      ],
      [
        "Mode",
        -10.545280456542969
      ],
      [
        "Index",
        -10.272958755493164
      ],
      [
        "is",
        -9.178595542907717
      ],
      [
        "of",
        -9.83115291595459
      ],
      [
        "an",
        -9.990966796875
      ],
      [
        "end",
        -7.521265029907227
      ],
      [
        "OR",
        -10.630250930786133
      ],
      [
        "time",
        -9.65632438659668
      ],
      [
        "addr",
        -10.046735763549805
      ],
      [
        "es",
        -9.46013069152832
      ],
      [
        "sp",
        -10.36120319366455
      ],
      [
        "if",
        -6.741722106933594
      ],
      [
        "LOG",
        -10.362100601196287
      ],
      [
        "op",
        -9.829870223999023
      ],
      [
        "Node",
        -10.327980041503906
      ],
      [
        "▁event",
        -11.005603790283203
      ],
      [
        "▁Py",
        -10.548922538757324
      ],
      [
        "▁array",
        -11.120441436767578
      ],
      [
        "▁all",
        -9.489826202392578
      ],
      [
        "state",
        -9.474806785583496
      ],
      [
        "▁namespace",
        -9.325812339782717
      ],
      [
        "IF",
        -10.504135131835938
      ],
      [
        "dev",
        -9.539345741271973
      ],
      [
        "▁block",
        -10.797916412353516
      ],
      [
        "Status",
        -10.202404975891112
      ],
      [
        "min",
        -10.227974891662598
      ],
      [
        "▁If",
        -10.029361724853516
      ],
      [
        "Pos",
        -10.835604667663574
      ],
      [
        "▁have",
        -9.196514129638672
      ],
      [
        "key",
        -9.685747146606444
      ],
      [
        "▁check",
        -10.832239151000977
      ],
      [
        "▁first",
        -9.807744026184082
      ],
      [
        "cb",
        -10.647431373596191
      ],
      [
        "▁op",
        -11.769250869750977
      ],
      [
        "are",
        -11.035080909729004
      ],
      [
        "▁address",
        -10.798662185668944
      ],
      [
        "▁user",
        -10.979515075683594
      ],
      [
        "▁IS",
        -11.06824779510498
      ],
      [
        "▁THE",
        -10.11021327972412
      ],
      [
        "File",
        -10.268701553344728
      ],
      [
        "net",
        -10.108299255371094
      ],
      [
        "Context",
        -10.34450340270996
      ],
      [
        "ro",
        -10.71725845336914
      ],
      [
        "comp",
        -10.67351245880127
      ],
      [
        "▁source",
        -10.589741706848145
      ],
      [
        "▁re",
        -10.890973091125488
      ],
      [
        "db",
        -10.552433967590332
      ],
      [
        "▁must",
        -10.111138343811035
      ],
      [
        "▁PyObject",
        -10.517943382263184
      ],
      [
        "Key",
        -10.283731460571287
      ],
      [
        "▁OR",
        -10.29953384399414
      ],
      [
        "CC",
        -10.16480827331543
      ],
      [
        "▁memory",
        -10.64712142944336
      ],
      [
        "var",
        -10.243226051330566
      ],
      [
        "▁using",
        -9.90259075164795
      ],
      [
        "▁addr",
        -12.32316780090332
      ],
      [
        "MODE",
        -10.717706680297852
      ],
      [
        "▁may",
        -9.717032432556152
      ],
      [
        "▁UL",
        -16.503759384155273
      ],
      [
        "▁self",
        -11.272279739379885
      ],
      [
        "▁ANY",
        -10.452905654907228
      ],
      [
        "▁any",
        -9.916467666625977
      ],
      [
        "EXT",
        -10.411920547485352
      ],
      [
        "▁request",
        -11.089651107788086
      ],
      [
        "RE",
        -10.430597305297852
      ],
      [
        "▁Copyright",
        -10.43868923187256
      ],
      [
        "▁when",
        -9.718161582946776
      ],
      [
        "parse",
        -10.573028564453123
      ],
      [
        "at",
        -10.211551666259766
      ],
      [
        "▁dst",
        -11.337748527526855
      ],
      [
        "sc",
        -10.53034496307373
      ],
      [
        "▁register",
        -10.87602710723877
      ],
      [
        "▁NO",
        -11.730734825134276
      ],
      [
        "▁only",
        -9.923906326293944
      ],
      [
        "IP",
        -10.483518600463867
      ],
      [
        "▁MASK",
        -13.940131187438965
      ],
      [
        "▁config",
        -12.091407775878906
      ],
      [
        "▁enum",
        -9.977269172668455
      ],
      [
        "▁private",
        -9.320815086364746
      ],
      [
        "Array",
        -10.451465606689451
      ],
      [
        "point",
        -10.545900344848633
      ],
      [
        "▁last",
        -10.63844108581543
      ],
      [
        "ic",
        -10.036808967590332
      ],
      [
        "CR",
        -10.873607635498049
      ],
      [
        "load",
        -10.366340637207031
      ],
      [
        "▁which",
        -9.388429641723633
      ],
      [
        "▁do",
        -9.841501235961914
      ],
      [
        "▁xf",
        -16.693891525268555
      ],
      [
        "ER",
        -10.632518768310549
      ],
      [
        "SIZE",
        -10.101629257202148
      ],
      [
        "opt",
        -10.701218605041504
      ],
      [
        "TX",
        -10.797685623168944
      ],
      [
        "▁assert",
        -11.475908279418944
      ],
      [
        "Is",
        -10.553616523742676
      ],
      [
        "cl",
        -9.423873901367188
      ],
      [
        "lib",
        -10.347389221191406
      ],
      [
        "▁mask",
        -11.594114303588867
      ],
      [
        "err",
        -9.44086742401123
      ],
      [
        "OK",
        -10.212088584899902
      ],
      [
        "▁create",
        -11.115232467651367
      ],
      [
        "INFO",
        -10.523716926574709
      ],
      [
        "LL",
        -10.777156829833984
      ],
      [
        "as",
        -9.857255935668944
      ],
      [
        "▁msg",
        -12.161757469177246
      ],
      [
        "▁should",
        -10.06610870361328
      ],
      [
        "▁UINT",
        -10.925252914428713
      ],
      [
        "For",
        -10.746700286865234
      ],
      [
        "link",
        -10.588433265686035
      ],
      [
        "tag",
        -10.592606544494627
      ],
      [
        "mp",
        -10.660472869873049
      ],
      [
        "▁reg",
        -11.884405136108398
      ],
      [
        "▁bytes",
        -11.116801261901855
      ],
      [
        "▁pointer",
        -10.704047203063965
      ],
      [
        "▁INT",
        -11.867886543273926
      ],
      [
        "cache",
        -10.563871383666992
      ],
      [
        "▁target",
        -11.203668594360352
      ],
      [
        "▁message",
        -10.977656364440918
      ],
      [
        "▁func",
        -11.833330154418944
      ],
      [
        "▁obj",
        -12.148477554321287
      ],
      [
        "Image",
        -10.49681282043457
      ],
      [
        "▁hash",
        -11.528371810913086
      ],
      [
        "init",
        -9.70071792602539
      ],
      [
        "ps",
        -10.41759967803955
      ],
      [
        "▁time",
        -10.00819969177246
      ],
      [
        "▁cmd",
        -12.165645599365234
      ],
      [
        "res",
        -9.875288963317873
      ],
      [
        "req",
        -10.714346885681152
      ],
      [
        "Time",
        -10.589987754821776
      ],
      [
        "Event",
        -10.528721809387209
      ],
      [
        "per",
        -10.471747398376465
      ],
      [
        "def",
        -7.721882820129395
      ],
      [
        "IC",
        -10.366397857666016
      ],
      [
        "▁other",
        -9.830124855041504
      ],
      [
        "Create",
        -10.541922569274902
      ],
      [
        "ext",
        -10.696441650390623
      ],
      [
        "▁Pyx",
        -17.955759048461914
      ],
      [
        "Count",
        -10.448259353637695
      ],
      [
        "alloc",
        -10.490966796875
      ],
      [
        "table",
        -10.079390525817873
      ],
      [
        "▁version",
        -10.607267379760742
      ],
      [
        "flag",
        -10.56649398803711
      ],
      [
        "Int",
        -10.623827934265137
      ],
      [
        "▁update",
        -11.146615028381348
      ],
      [
        "LINE",
        -10.69201374053955
      ],
      [
        "▁you",
        -9.351107597351074
      ],
      [
        "INT",
        -10.08281707763672
      ],
      [
        "el",
        -9.013336181640623
      ],
      [
        "▁tx",
        -12.4090576171875
      ],
      [
        "sk",
        -10.497065544128418
      ],
      [
        "UI",
        -10.535954475402832
      ],
      [
        "▁glad",
        -10.546893119812012
      ],
      [
        "▁lock",
        -12.165327072143556
      ],
      [
        "reg",
        -10.22234058380127
      ],
      [
        "max",
        -10.142346382141112
      ],
      [
        "▁header",
        -11.373483657836914
      ],
      [
        "▁field",
        -10.98792552947998
      ],
      [
        "Base",
        -10.49525547027588
      ],
      [
        "ation",
        -9.873833656311035
      ],
      [
        "PORT",
        -10.469504356384276
      ],
      [
        "host",
        -10.878807067871094
      ],
      [
        "KEY",
        -10.640942573547363
      ],
      [
        "os",
        -10.09184741973877
      ],
      [
        "▁image",
        -11.297893524169922
      ],
      [
        "MP",
        -10.898898124694824
      ],
      [
        "Handle",
        -10.512880325317385
      ],
      [
        "▁gl",
        -11.84588623046875
      ],
      [
        "node",
        -9.935111045837402
      ],
      [
        "▁sub",
        -11.106122970581056
      ],
      [
        "Check",
        -10.44130802154541
      ],
      [
        "row",
        -10.45736598968506
      ],
      [
        "off",
        -10.52863311767578
      ],
      [
        "▁table",
        -10.893412590026855
      ],
      [
        "tree",
        -10.9495210647583
      ],
      [
        "▁under",
        -9.89503002166748
      ],
      [
        "ev",
        -10.90842056274414
      ],
      [
        "▁operator",
        -10.817082405090332
      ],
      [
        "▁xc",
        -16.302961349487305
      ],
      [
        "hi",
        -11.133435249328612
      ],
      [
        "dir",
        -10.53370475769043
      ],
      [
        "me",
        -10.584100723266602
      ],
      [
        "ac",
        -10.560455322265623
      ],
      [
        "▁values",
        -10.672343254089355
      ],
      [
        "▁Lean",
        -14.695918083190918
      ],
      [
        "▁pre",
        -11.5015287399292
      ],
      [
        "END",
        -10.144820213317873
      ],
      [
        "▁interface",
        -10.999799728393556
      ],
      [
        "desc",
        -10.868804931640623
      ],
      [
        "pc",
        -10.783735275268556
      ],
      [
        "Register",
        -11.38632869720459
      ],
      [
        "Vector",
        -10.77793312072754
      ],
      [
        "SPI",
        -10.973730087280272
      ],
      [
        "▁ctor",
        -17.630800247192383
      ],
      [
        "range",
        -11.06943130493164
      ],
      [
        "ctx",
        -9.94224739074707
      ],
      [
        "▁client",
        -11.707181930541992
      ],
      [
        "be",
        -10.32814121246338
      ],
      [
        "▁override",
        -10.5446138381958
      ],
      [
        "▁format",
        -11.233418464660645
      ],
      [
        "mac",
        -11.034672737121582
      ],
      [
        "▁xa",
        -17.497234344482422
      ],
      [
        "▁DMA",
        -11.606947898864746
      ],
      [
        "cast",
        -10.841532707214355
      ],
      [
        "DB",
        -10.75251579284668
      ],
      [
        "Bit",
        -10.964831352233888
      ],
      [
        "stack",
        -11.083754539489746
      ],
      [
        "▁xe",
        -16.670366287231445
      ],
      [
        "Request",
        -10.71485710144043
      ],
      [
        "▁switch",
        -11.505471229553224
      ],
      [
        "▁NOT",
        -11.2435302734375
      ],
      [
        "▁send",
        -11.274349212646484
      ],
      [
        "open",
        -10.750713348388672
      ],
      [
        "mode",
        -10.233602523803713
      ],
      [
        "▁but",
        -9.56488037109375
      ],
      [
        "▁printf",
        -12.21036434173584
      ],
      [
        "path",
        -10.259861946105955
      ],
      [
        "rt",
        -10.546122550964355
      ],
      [
        "ON",
        -10.774740219116213
      ],
      [
        "attr",
        -10.886187553405762
      ],
      [
        "▁ADC",
        -11.71794319152832
      ],
      [
        "NAME",
        -10.565191268920898
      ],
      [
        "OS",
        -10.68101406097412
      ],
      [
        "▁xF",
        -18.467884063720703
      ],
      [
        "fe",
        -10.882187843322754
      ],
      [
        "BASE",
        -10.992477416992188
      ],
      [
        "rec",
        -11.43814182281494
      ],
      [
        "Block",
        -10.712385177612305
      ],
      [
        "▁module",
        -11.317387580871582
      ],
      [
        "FILE",
        -10.652749061584473
      ],
      [
        "▁dest",
        -12.03547191619873
      ],
      [
        "ra",
        -10.699552536010742
      ],
      [
        "arg",
        -9.49046516418457
      ],
      [
        "Device",
        -10.729372024536133
      ],
      [
        "▁one",
        -9.63614559173584
      ],
      [
        "▁FALSE",
        -10.666421890258787
      ],
      [
        "▁iVar",
        -12.08657455444336
      ],
      [
        "fs",
        -10.629343032836914
      ],
      [
        "▁following",
        -9.941350936889648
      ],
      [
        "View",
        -10.485535621643066
      ],
      [
        "▁Windows",
        -11.775273323059082
      ],
      [
        "▁internal",
        -11.293638229370115
      ],
      [
        "AS",
        -10.511289596557615
      ],
      [
        "▁thread",
        -11.493197441101074
      ],
      [
        "ING",
        -10.30819606781006
      ],
      [
        "▁item",
        -11.87445831298828
      ],
      [
        "▁DEBUG",
        -12.369426727294922
      ],
      [
        "cp",
        -10.830732345581056
      ],
      [
        "▁USB",
        -11.469267845153809
      ],
      [
        "Read",
        -10.63565444946289
      ],
      [
        "ok",
        -10.63672924041748
      ],
      [
        "▁local",
        -11.146842956542969
      ],
      [
        "STATE",
        -10.793295860290527
      ],
      [
        "AL",
        -10.455164909362791
      ],
      [
        "ap",
        -10.340664863586426
      ],
      [
        "▁frame",
        -11.594565391540527
      ],
      [
        "string",
        -9.215182304382324
      ],
      [
        "back",
        -10.04530906677246
      ],
      [
        "Add",
        -10.999350547790527
      ],
      [
        "▁CMU",
        -12.321917533874512
      ],
      [
        "▁so",
        -9.963886260986328
      ],
      [
        "All",
        -11.253093719482422
      ],
      [
        "▁HAL",
        -11.240530014038086
      ],
      [
        "▁FOR",
        -10.830865859985352
      ],
      [
        "▁path",
        -11.424188613891602
      ],
      [
        "▁PIN",
        -13.645657539367676
      ],
      [
        "▁SIZE",
        -15.246639251708984
      ],
      [
        "Function",
        -10.55691146850586
      ],
      [
        "REG",
        -10.540176391601562
      ],
      [
        "vert",
        -11.207822799682615
      ],
      [
        "fp",
        -10.86418914794922
      ],
      [
        "Map",
        -10.638522148132324
      ],
      [
        "sys",
        -10.574776649475098
      ],
      [
        "▁callback",
        -11.253982543945312
      ],
      [
        "us",
        -9.729947090148926
      ],
      [
        "com",
        -9.870098114013672
      ],
      [
        "▁GET",
        -13.107240676879885
      ],
      [
        "▁res",
        -11.292922019958496
      ],
      [
        "space",
        -10.75462818145752
      ],
      [
        "▁channel",
        -11.522790908813477
      ],
      [
        "SR",
        -11.46325969696045
      ],
      [
        "ST",
        -10.813714027404783
      ],
      [
        "buffer",
        -9.89944076538086
      ],
      [
        "TEST",
        -10.73480987548828
      ],
      [
        "▁yy",
        -11.038979530334473
      ],
      [
        "vec",
        -11.04384994506836
      ],
      [
        "▁BIT",
        -12.793004035949709
      ],
      [
        "IS",
        -10.26779556274414
      ],
      [
        "value",
        -9.278715133666992
      ],
      [
        "▁software",
        -10.412846565246582
      ],
      [
        "obj",
        -10.22374439239502
      ],
      [
        "zero",
        -11.346195220947266
      ],
      [
        "Init",
        -10.725854873657228
      ],
      [
        "▁CHECK",
        -11.876505851745604
      ],
      [
        "CMD",
        -11.031207084655762
      ],
      [
        "ment",
        -10.343050956726074
      ],
      [
        "▁enable",
        -11.53229522705078
      ],
      [
        "▁auto",
        -11.046820640563965
      ],
      [
        "UART",
        -11.14555835723877
      ],
      [
        "▁server",
        -11.5278902053833
      ],
      [
        "▁rc",
        -11.171448707580566
      ],
      [
        "▁page",
        -11.07904815673828
      ],
      [
        "System",
        -11.275732040405272
      ],
      [
        "Result",
        -10.70115089416504
      ],
      [
        "get",
        -8.899210929870605
      ],
      [
        "▁USE",
        -11.32199001312256
      ],
      [
        "con",
        -10.63882827758789
      ],
      [
        "Input",
        -10.851016998291016
      ],
      [
        "core",
        -10.90638542175293
      ],
      [
        "si",
        -10.607502937316896
      ],
      [
        "BE",
        -10.670519828796388
      ],
      [
        "Table",
        -10.724360466003418
      ],
      [
        "▁mm",
        -13.450643539428713
      ],
      [
        "Message",
        -10.717489242553713
      ],
      [
        "AF",
        -11.160085678100586
      ],
      [
        "▁byte",
        -11.51109504699707
      ],
      [
        "mask",
        -10.458457946777344
      ],
      [
        "▁idx",
        -12.39893627166748
      ],
      [
        "▁mem",
        -12.904786109924316
      ],
      [
        "▁BOOL",
        -11.889421463012695
      ],
      [
        "▁width",
        -11.643295288085938
      ],
      [
        "No",
        -10.66400146484375
      ],
      [
        "▁volatile",
        -11.772761344909668
      ],
      [
        "▁command",
        -11.136236190795898
      ],
      [
        "▁xb",
        -17.89108657836914
      ],
      [
        "▁call",
        -10.983269691467283
      ],
      [
        "col",
        -10.576996803283691
      ],
      [
        "filter",
        -11.2537260055542
      ],
      [
        "Stream",
        -10.86495304107666
      ],
      [
        "tp",
        -10.870596885681152
      ],
      [
        "tion",
        -11.10499095916748
      ],
      [
        "Write",
        -10.815329551696776
      ],
      [
        "and",
        -10.390707015991213
      ],
      [
        "mem",
        -10.056977272033691
      ],
      [
        "▁hw",
        -13.46761703491211
      ],
      [
        "AR",
        -11.164642333984377
      ],
      [
        "▁without",
        -10.277820587158203
      ],
      [
        "Var",
        -10.042280197143556
      ],
      [
        "Class",
        -10.593741416931152
      ],
      [
        "▁params",
        -12.559081077575684
      ],
      [
        "▁SHIFT",
        -17.106536865234375
      ],
      [
        "cc",
        -10.701358795166016
      ],
      [
        "▁cpu",
        -12.400370597839355
      ],
      [
        "Address",
        -10.91016960144043
      ],
      [
        "STR",
        -10.81617832183838
      ],
      [
        "MS",
        -10.990524291992188
      ],
      [
        "▁level",
        -11.194587707519531
      ],
      [
        "▁attribute",
        -11.853879928588867
      ],
      [
        "sec",
        -10.726783752441406
      ],
      [
        "TIM",
        -11.36755657196045
      ],
      [
        "▁dec",
        -14.128064155578612
      ],
      [
        "ARG",
        -10.941324234008787
      ],
      [
        "msg",
        -10.231003761291504
      ],
      [
        "put",
        -10.854196548461914
      ],
      [
        "CLK",
        -11.390392303466797
      ],
      [
        "index",
        -9.84018898010254
      ],
      [
        "script",
        -11.075830459594728
      ],
      [
        "▁TRUE",
        -10.924814224243164
      ],
      [
        "li",
        -10.520655632019045
      ],
      [
        "▁instance",
        -11.1597318649292
      ],
      [
        "▁REG",
        -12.845108032226562
      ],
      [
        "Code",
        -10.673030853271484
      ],
      [
        "Re",
        -10.930365562438965
      ],
      [
        "ld",
        -10.922024726867676
      ],
      [
        "hr",
        -11.036384582519531
      ],
      [
        "▁xd",
        -14.376581192016602
      ],
      [
        "sh",
        -10.467713356018066
      ],
      [
        "▁method",
        -11.063817024230955
      ],
      [
        "root",
        -11.186037063598633
      ],
      [
        "UL",
        -10.585658073425291
      ],
      [
        "PROC",
        -10.893450736999512
      ],
      [
        "pg",
        -11.124412536621094
      ],
      [
        "cs",
        -10.759843826293944
      ],
      [
        "▁null",
        -11.601919174194336
      ],
      [
        "part",
        -11.32857608795166
      ],
      [
        "NS",
        -10.306123733520508
      ],
      [
        "▁xE",
        -17.00139808654785
      ],
      [
        "hdr",
        -11.124167442321776
      ],
      [
        "▁was",
        -8.658978462219238
      ],
      [
        "ui",
        -10.821139335632324
      ],
      [
        "▁PFNGL",
        -11.11416721343994
      ],
      [
        "cfg",
        -11.155621528625488
      ],
      [
        "▁cur",
        -12.26919937133789
      ],
      [
        "▁http",
        -11.533015251159668
      ],
      [
        "pool",
        -10.985058784484863
      ],
      [
        "debug",
        -11.02358627319336
      ],
      [
        "RTC",
        -11.411940574645996
      ],
      [
        "RT",
        -10.638108253479004
      ],
      [
        "▁stream",
        -11.787785530090332
      ],
      [
        "match",
        -11.093340873718262
      ],
      [
        "SEL",
        -11.479763984680176
      ],
      [
        "Mask",
        -11.209358215332031
      ],
      [
        "Free",
        -10.895124435424805
      ],
      [
        "sa",
        -10.447186470031738
      ],
      [
        "▁mutex",
        -12.624293327331545
      ],
      [
        "▁queue",
        -12.06671905517578
      ],
      [
        "timer",
        -11.018895149230955
      ],
      [
        "view",
        -10.988027572631836
      ],
      [
        "On",
        -11.176986694335938
      ],
      [
        "DMA",
        -11.166723251342772
      ],
      [
        "▁args",
        -12.065463066101074
      ],
      [
        "main",
        -11.213258743286133
      ],
      [
        "▁find",
        -10.960644721984863
      ],
      [
        "form",
        -10.596564292907717
      ],
      [
        "▁rx",
        -13.100961685180664
      ],
      [
        "Number",
        -10.712392807006836
      ],
      [
        "▁packet",
        -11.818161010742188
      ],
      [
        "ADDR",
        -11.219285011291504
      ],
      [
        "base",
        -9.91883659362793
      ],
      [
        "Item",
        -10.92277717590332
      ],
      [
        "stream",
        -10.335115432739258
      ],
      [
        "ar",
        -10.246153831481934
      ],
      [
        "Enable",
        -11.06511688232422
      ],
      [
        "mm",
        -10.384343147277832
      ],
      [
        "Not",
        -11.450204849243164
      ],
      [
        "CS",
        -11.041316986083984
      ],
      [
        "FLAG",
        -11.265663146972656
      ],
      [
        "SC",
        -10.79527759552002
      ],
      [
        "IT",
        -10.979015350341797
      ],
      [
        "right",
        -10.41020679473877
      ],
      [
        "▁left",
        -11.310953140258787
      ],
      [
        "▁failed",
        -11.02297306060791
      ],
      [
        "▁retval",
        -11.919758796691896
      ],
      [
        "▁clear",
        -11.54692840576172
      ],
      [
        "▁conn",
        -12.938990592956545
      ],
      [
        "ob",
        -10.947097778320312
      ],
      [
        "LOC",
        -12.129149436950684
      ],
      [
        "▁need",
        -10.516048431396484
      ],
      [
        "VAL",
        -10.588146209716797
      ],
      [
        "GL",
        -10.256280899047852
      ],
      [
        "position",
        -11.405123710632324
      ],
      [
        "▁Software",
        -10.80698013305664
      ],
      [
        "ins",
        -10.703901290893556
      ],
      [
        "NV",
        -11.06904125213623
      ],
      [
        "▁parent",
        -11.85761260986328
      ],
      [
        "Offset",
        -11.086529731750488
      ],
      [
        "With",
        -10.855117797851562
      ],
      [
        "head",
        -10.64238739013672
      ],
      [
        "control",
        -11.066170692443848
      ],
      [
        "loop",
        -10.911762237548828
      ],
      [
        "block",
        -10.45844268798828
      ],
      [
        "Test",
        -10.557320594787598
      ],
      [
        "gp",
        -11.236841201782228
      ],
      [
        "char",
        -9.316129684448242
      ],
      [
        "te",
        -10.8337984085083
      ],
      [
        "▁priv",
        -14.05927562713623
      ],
      [
        "gen",
        -10.688342094421388
      ],
      [
        "am",
        -9.984308242797852
      ],
      [
        "env",
        -11.113118171691896
      ],
      [
        "Control",
        -10.921859741210938
      ],
      [
        "▁window",
        -11.508182525634766
      ],
      [
        "pp",
        -10.662841796875
      ],
      [
        "▁make",
        -10.612785339355469
      ],
      [
        "Return",
        -10.619512557983398
      ],
      [
        "mb",
        -11.059735298156738
      ],
      [
        "▁old",
        -11.205100059509276
      ],
      [
        "▁reset",
        -11.47837734222412
      ],
      [
        "MIN",
        -10.976183891296388
      ],
      [
        "▁text",
        -11.510577201843262
      ],
      [
        "Pointer",
        -11.013182640075684
      ],
      [
        "im",
        -10.066116333007812
      ],
      [
        "AT",
        -11.186408996582031
      ],
      [
        "ep",
        -10.96963596343994
      ],
      [
        "▁short",
        -10.69129753112793
      ],
      [
        "From",
        -10.876583099365234
      ],
      [
        "▁RX",
        -13.023131370544434
      ],
      [
        "PS",
        -10.967578887939451
      ],
      [
        "cm",
        -10.955810546875
      ],
      [
        "EVENT",
        -11.011712074279783
      ],
      [
        "inc",
        -8.400453567504883
      ],
      [
        "▁print",
        -11.665820121765137
      ],
      [
        "close",
        -10.571409225463867
      ],
      [
        "ms",
        -10.60196590423584
      ],
      [
        "▁SSL",
        -11.952768325805664
      ],
      [
        "Config",
        -11.050189018249512
      ],
      [
        "Color",
        -10.883727073669434
      ],
      [
        "rel",
        -10.799880981445312
      ],
      [
        "Start",
        -10.880485534667969
      ],
      [
        "STRING",
        -11.05378532409668
      ],
      [
        "MAC",
        -11.241334915161133
      ],
      [
        "ab",
        -10.864374160766602
      ],
      [
        "args",
        -10.562636375427246
      ],
      [
        "▁into",
        -9.936196327209473
      ],
      [
        "ci",
        -11.000765800476074
      ],
      [
        "Instance",
        -11.05744743347168
      ],
      [
        "Text",
        -10.743903160095217
      ],
      [
        "Callback",
        -11.148613929748535
      ],
      [
        "vm",
        -11.002232551574709
      ],
      [
        "ice",
        -10.799816131591797
      ],
      [
        "access",
        -11.658541679382324
      ],
      [
        "VALUE",
        -11.016268730163574
      ],
      [
        "UN",
        -10.311962127685549
      ],
      [
        "▁see",
        -10.789365768432615
      ],
      [
        "▁Msk",
        -22.535043716430664
      ],
      [
        "ul",
        -10.519371032714844
      ],
      [
        "▁exit",
        -11.057875633239746
      ],
      [
        "▁session",
        -11.76788330078125
      ],
      [
        "NUM",
        -11.212268829345703
      ],
      [
        "LEN",
        -11.207215309143066
      ],
      [
        "▁TO",
        -11.191761016845703
      ],
      [
        "▁ASSERT",
        -13.234882354736328
      ],
      [
        "Source",
        -10.739425659179688
      ],
      [
        "process",
        -11.434547424316406
      ],
      [
        "mod",
        -10.937994956970217
      ],
      [
        "▁bits",
        -11.666387557983398
      ],
      [
        "box",
        -10.7642183303833
      ],
      [
        "ns",
        -10.750943183898926
      ],
      [
        "run",
        -10.870782852172852
      ],
      [
        "▁work",
        -10.521964073181152
      ],
      [
        "DC",
        -11.045536994934082
      ],
      [
        "▁options",
        -11.688121795654297
      ],
      [
        "spec",
        -10.931977272033691
      ],
      [
        "Command",
        -10.888138771057127
      ],
      [
        "▁AND",
        -10.832634925842283
      ],
      [
        "word",
        -11.009323120117188
      ],
      [
        "▁non",
        -10.83340835571289
      ],
      [
        "win",
        -10.853263854980469
      ],
      [
        "gl",
        -9.866933822631836
      ],
      [
        "Out",
        -10.90812873840332
      ],
      [
        "mark",
        -10.787261962890623
      ],
      [
        "Window",
        -11.052775382995604
      ],
      [
        "New",
        -10.799704551696776
      ],
      [
        "ts",
        -10.236183166503906
      ],
      [
        "MEM",
        -10.87927532196045
      ],
      [
        "all",
        -10.751105308532717
      ],
      [
        "▁color",
        -11.645257949829102
      ],
      [
        "▁STATUS",
        -13.582763671875
      ],
      [
        "ff",
        -10.564031600952148
      ],
      [
        "wait",
        -11.290509223937988
      ],
      [
        "order",
        -11.299671173095703
      ],
      [
        "bit",
        -10.314164161682127
      ],
      [
        "PC",
        -10.845782279968262
      ],
      [
        "types",
        -11.184887886047363
      ],
      [
        "pt",
        -10.905890464782717
      ],
      [
        "th",
        -9.417136192321776
      ],
      [
        "▁group",
        -11.14144515991211
      ],
      [
        "Path",
        -10.908392906188965
      ],
      [
        "▁nonatomic",
        -13.070286750793455
      ],
      [
        "▁argv",
        -12.05710506439209
      ],
      [
        "proc",
        -11.17353057861328
      ],
      [
        "▁reserved",
        -10.82293701171875
      ],
      [
        "token",
        -11.382534980773926
      ],
      [
        "Default",
        -10.897476196289062
      ],
      [
        "▁driver",
        -11.446615219116213
      ],
      [
        "▁task",
        -11.803335189819336
      ],
      [
        "stat",
        -11.073174476623535
      ],
      [
        "CFG",
        -11.437877655029297
      ],
      [
        "NO",
        -9.917486190795898
      ],
      [
        "▁more",
        -9.875091552734377
      ],
      [
        "▁EXPORT",
        -12.344443321228027
      ],
      [
        "▁XFF",
        -19.75901985168457
      ],
      [
        "AV",
        -11.081244468688965
      ],
      [
        "▁SUCCESS",
        -12.779824256896973
      ],
      [
        "MSG",
        -11.204232215881348
      ],
      [
        "trans",
        -10.709554672241213
      ],
      [
        "LP",
        -11.121014595031738
      ],
      [
        "▁xC",
        -18.0692081451416
      ],
      [
        "▁element",
        -11.27024745941162
      ],
      [
        "▁Returns",
        -10.810819625854492
      ],
      [
        "socket",
        -11.097554206848145
      ],
      [
        "clock",
        -11.870845794677734
      ],
      [
        "▁handler",
        -12.174457550048828
      ],
      [
        "PA",
        -11.266186714172363
      ],
      [
        "rate",
        -11.185251235961914
      ],
      [
        "dma",
        -11.247884750366213
      ],
      [
        "store",
        -11.232248306274414
      ],
      [
        "empty",
        -11.468358993530272
      ],
      [
        "▁height",
        -11.788554191589355
      ],
      [
        "rs",
        -10.293155670166016
      ],
      [
        "▁temp",
        -11.923194885253906
      ],
      [
        "READ",
        -11.137231826782228
      ],
      [
        "▁USART",
        -12.239409446716309
      ],
      [
        "Version",
        -10.848590850830078
      ],
      [
        "Client",
        -10.982526779174805
      ],
      [
        "TIMER",
        -11.58489990234375
      ],
      [
        "Length",
        -11.028815269470217
      ],
      [
        "sz",
        -11.007927894592283
      ],
      [
        "pr",
        -10.638708114624023
      ],
      [
        "▁found",
        -10.544655799865724
      ],
      [
        "unit",
        -11.482247352600098
      ],
      [
        "▁GLenum",
        -12.315817832946776
      ],
      [
        "DEF",
        -11.214083671569824
      ],
      [
        "seq",
        -11.445968627929688
      ],
      [
        "▁ENABLED",
        -14.055188179016112
      ],
      [
        "query",
        -11.338190078735352
      ],
      [
        "fc",
        -11.22646141052246
      ],
      [
        "bits",
        -10.892812728881836
      ],
      [
        "lp",
        -10.86542797088623
      ],
      [
        "cnt",
        -11.099982261657717
      ],
      [
        "PRE",
        -11.338859558105469
      ],
      [
        "Op",
        -10.985939025878906
      ],
      [
        "Output",
        -11.05289077758789
      ],
      [
        "▁shared",
        -11.97874927520752
      ],
      [
        "move",
        -10.89993667602539
      ],
      [
        "free",
        -9.433300018310549
      ],
      [
        "▁after",
        -10.11368465423584
      ],
      [
        "printf",
        -10.275782585144045
      ],
      [
        "CAN",
        -11.591431617736816
      ],
      [
        "ce",
        -10.658773422241213
      ],
      [
        "CODE",
        -10.885568618774414
      ],
      [
        "▁each",
        -10.64711856842041
      ],
      [
        "Frame",
        -11.118370056152344
      ],
      [
        "face",
        -10.682104110717772
      ],
      [
        "phy",
        -11.495878219604492
      ],
      [
        "▁then",
        -10.1862211227417
      ],
      [
        "irq",
        -11.194042205810549
      ],
      [
        "▁fprintf",
        -11.77311897277832
      ],
      [
        "▁import",
        -10.886651992797852
      ],
      [
        "ert",
        -10.78261947631836
      ],
      [
        "▁zend",
        -12.62941074371338
      ],
      [
        "dp",
        -11.196871757507324
      ],
      [
        "▁VERSION",
        -15.617539405822754
      ],
      [
        "▁SOFTWARE",
        -10.954893112182615
      ],
      [
        "do",
        -10.042359352111816
      ],
      [
        "av",
        -11.124052047729492
      ],
      [
        "sub",
        -10.323079109191896
      ],
      [
        "PTR",
        -11.2755765914917
      ],
      [
        "top",
        -11.034732818603516
      ],
      [
        "WRITE",
        -11.164390563964844
      ],
      [
        "allocate",
        -11.635235786437988
      ],
      [
        "call",
        -10.287633895874023
      ],
      [
        "End",
        -11.07752513885498
      ],
      [
        "Format",
        -11.01376247406006
      ],
      [
        "INIT",
        -11.125085830688477
      ],
      [
        "MASK",
        -10.554458618164062
      ],
      [
        "▁given",
        -10.60732078552246
      ],
      [
        "▁specific",
        -10.86581325531006
      ],
      [
        "▁push",
        -12.09565258026123
      ],
      [
        "▁See",
        -8.526233673095703
      ],
      [
        "ot",
        -11.497800827026367
      ],
      [
        "Memory",
        -10.957377433776855
      ],
      [
        "lo",
        -10.877416610717772
      ],
      [
        "▁interrupt",
        -11.396207809448242
      ],
      [
        "CTL",
        -11.473615646362305
      ],
      [
        "Flags",
        -11.169095993041992
      ],
      [
        "Ref",
        -10.772183418273926
      ],
      [
        "ker",
        -11.149023056030272
      ],
      [
        "Point",
        -10.95853328704834
      ],
      [
        "▁RCC",
        -12.763558387756348
      ],
      [
        "serv",
        -11.30435276031494
      ],
      [
        "▁parameter",
        -11.196592330932615
      ],
      [
        "array",
        -10.25534725189209
      ],
      [
        "Update",
        -10.992076873779297
      ],
      [
        "CPU",
        -11.713359832763672
      ],
      [
        "dw",
        -11.176291465759276
      ],
      [
        "▁NSString",
        -11.597530364990234
      ],
      [
        "Interrupt",
        -11.47148609161377
      ],
      [
        "AC",
        -11.055678367614746
      ],
      [
        "ops",
        -11.21812915802002
      ],
      [
        "co",
        -10.662165641784668
      ],
      [
        "idx",
        -10.651859283447266
      ],
      [
        "real",
        -11.537795066833496
      ],
      [
        "DIS",
        -11.17698097229004
      ],
      [
        "rc",
        -10.392708778381348
      ],
      [
        "FS",
        -11.129064559936523
      ],
      [
        "▁continue",
        -10.698824882507324
      ],
      [
        "iv",
        -11.266456604003906
      ],
      [
        "LIB",
        -11.086766242980955
      ],
      [
        "sig",
        -10.712324142456056
      ],
      [
        "▁above",
        -10.677979469299316
      ],
      [
        "mi",
        -10.974161148071287
      ],
      [
        "Num",
        -11.204540252685549
      ],
      [
        "▁child",
        -11.713783264160156
      ],
      [
        "sym",
        -10.98655605316162
      ],
      [
        "▁its",
        -10.041226387023926
      ],
      [
        "func",
        -10.389623641967772
      ],
      [
        "bl",
        -11.546989440917969
      ],
      [
        "action",
        -11.07041072845459
      ],
      [
        "Matrix",
        -11.227951049804688
      ],
      [
        "Call",
        -11.07053279876709
      ],
      [
        "▁system",
        -10.77036476135254
      ],
      [
        "▁We",
        -10.231494903564451
      ],
      [
        "ll",
        -10.530282974243164
      ],
      [
        "▁done",
        -10.602384567260742
      ],
      [
        "sign",
        -9.689894676208496
      ],
      [
        "SYS",
        -11.011964797973633
      ],
      [
        "DEVICE",
        -11.3275728225708
      ],
      [
        "scan",
        -11.424480438232422
      ],
      [
        "matrix",
        -11.79017162322998
      ],
      [
        "conf",
        -11.325451850891112
      ],
      [
        "app",
        -10.695843696594238
      ],
      [
        "LE",
        -11.01803493499756
      ],
      [
        "malloc",
        -11.325640678405762
      ],
      [
        "Entry",
        -11.097583770751951
      ],
      [
        "PR",
        -11.18958568572998
      ],
      [
        "DE",
        -10.577750205993652
      ],
      [
        "pin",
        -10.866395950317385
      ],
      [
        "▁called",
        -10.654240608215332
      ],
      [
        "Global",
        -11.537888526916504
      ],
      [
        "begin",
        -10.816858291625977
      ],
      [
        "down",
        -11.19193172454834
      ],
      [
        "MAP",
        -11.187524795532228
      ],
      [
        "stats",
        -11.405866622924805
      ],
      [
        "ring",
        -10.943244934082031
      ],
      [
        "▁INVALID",
        -12.921075820922852
      ],
      [
        "FUNC",
        -11.2183837890625
      ],
      [
        "Max",
        -11.085335731506348
      ],
      [
        "TO",
        -10.770553588867188
      ],
      [
        "CALL",
        -11.179441452026367
      ],
      [
        "▁timeout",
        -11.818633079528809
      ],
      [
        "seg",
        -11.662198066711426
      ],
      [
        "go",
        -9.976102828979492
      ],
      [
        "▁GLuint",
        -12.324580192565918
      ],
      [
        "▁ZEND",
        -11.67629337310791
      ],
      [
        "la",
        -10.791508674621582
      ],
      [
        "rd",
        -10.78749942779541
      ],
      [
        "pi",
        -10.958725929260254
      ],
      [
        "▁connection",
        -11.438804626464844
      ],
      [
        "label",
        -10.905350685119627
      ],
      [
        "not",
        -10.738448143005373
      ],
      [
        "▁functions",
        -10.94003963470459
      ],
      [
        "EX",
        -10.608680725097656
      ],
      [
        "cap",
        -11.07115077972412
      ],
      [
        "ENABLE",
        -10.463129997253418
      ],
      [
        "ma",
        -9.837223052978516
      ],
      [
        "▁same",
        -10.51719093322754
      ],
      [
        "CF",
        -11.303178787231444
      ],
      [
        "ES",
        -10.8965425491333
      ],
      [
        "class",
        -9.733193397521973
      ],
      [
        "md",
        -11.307979583740234
      ],
      [
        "FT",
        -11.237874031066896
      ],
      [
        "Log",
        -11.105599403381348
      ],
      [
        "Field",
        -11.120877265930176
      ],
      [
        "CB",
        -11.468827247619627
      ],
      [
        "▁HAVE",
        -11.105894088745115
      ],
      [
        "low",
        -11.263163566589355
      ],
      [
        "dc",
        -11.372770309448242
      ],
      [
        "iter",
        -10.78926944732666
      ],
      [
        "offset",
        -10.188074111938477
      ],
      [
        "ull",
        -11.986687660217283
      ],
      [
        "tab",
        -11.220890998840332
      ],
      [
        "▁iterator",
        -12.169580459594728
      ],
      [
        "▁WARRANTIES",
        -11.015663146972656
      ],
      [
        "▁remove",
        -11.611190795898438
      ],
      [
        "fn",
        -11.047531127929688
      ],
      [
        "bo",
        -11.165228843688965
      ],
      [
        "dy",
        -10.92927360534668
      ],
      [
        "▁conditions",
        -10.723885536193848
      ],
      [
        "ARRAY",
        -11.364701271057127
      ],
      [
        "pow",
        -13.09361171722412
      ],
      [
        "over",
        -10.66798973083496
      ],
      [
        "active",
        -11.296880722045898
      ],
      [
        "va",
        -10.865605354309082
      ],
      [
        "prop",
        -10.388916015625
      ],
      [
        "ca",
        -10.732081413269045
      ],
      [
        "hash",
        -10.61534309387207
      ],
      [
        "Reg",
        -11.178503036499023
      ],
      [
        "Channel",
        -11.29463005065918
      ],
      [
        "▁before",
        -10.40379810333252
      ],
      [
        "ad",
        -10.637028694152832
      ],
      [
        "▁information",
        -10.448382377624512
      ],
      [
        "SM",
        -11.22633934020996
      ],
      [
        "Filter",
        -11.286367416381836
      ],
      [
        "Handler",
        -11.226600646972656
      ],
      [
        "Model",
        -10.890159606933594
      ],
      [
        "sock",
        -11.263198852539062
      ],
      [
        "AD",
        -10.953642845153809
      ],
      [
        "MC",
        -11.028775215148926
      ],
      [
        "structure",
        -12.98611545562744
      ],
      [
        "one",
        -10.39057731628418
      ],
      [
        "RPC",
        -11.394822120666504
      ],
      [
        "▁program",
        -11.006510734558104
      ],
      [
        "Sub",
        -11.158865928649902
      ],
      [
        "RM",
        -11.845977783203123
      ],
      [
        "VM",
        -11.280397415161133
      ],
      [
        "▁notice",
        -11.110434532165527
      ],
      [
        "PER",
        -11.233430862426758
      ],
      [
        "usb",
        -11.442010879516602
      ],
      [
        "▁rights",
        -10.61888313293457
      ],
      [
        "Un",
        -11.15595531463623
      ],
      [
        "Use",
        -12.051209449768066
      ],
      [
        "ord",
        -12.695167541503906
      ],
      [
        "LONG",
        -11.18430519104004
      ],
      [
        "▁my",
        -10.369168281555176
      ],
      [
        "UP",
        -11.205484390258787
      ],
      [
        "▁xA",
        -18.012046813964844
      ],
      [
        "It",
        -11.497998237609863
      ],
      [
        "BLOCK",
        -11.376526832580566
      ],
      [
        "▁global",
        -11.601819038391112
      ],
      [
        "clk",
        -11.569890022277832
      ],
      [
        "ssl",
        -11.332200050354004
      ],
      [
        "TH",
        -11.226126670837402
      ],
      [
        "read",
        -9.904170036315918
      ],
      [
        "ctrl",
        -11.401485443115234
      ],
      [
        "▁returns",
        -11.236441612243652
      ],
      [
        "▁specified",
        -11.17591953277588
      ],
      [
        "▁there",
        -10.058327674865724
      ],
      [
        "et",
        -10.435141563415527
      ],
      [
        "▁STM",
        -12.30678939819336
      ],
      [
        "bp",
        -11.45913314819336
      ],
      [
        "sum",
        -10.8844633102417
      ],
      [
        "COLOR",
        -11.222817420959473
      ],
      [
        "EC",
        -11.171374320983888
      ],
      [
        "▁nullptr",
        -11.280409812927246
      ],
      [
        "OF",
        -11.194823265075684
      ],
      [
        "Group",
        -11.144877433776855
      ],
      [
        "▁filename",
        -12.23390007019043
      ],
      [
        "trace",
        -11.329859733581545
      ],
      [
        "test",
        -10.15314483642578
      ],
      [
        "fail",
        -11.194039344787598
      ],
      [
        "flags",
        -10.047674179077148
      ],
      [
        "BUFFER",
        -11.34607219696045
      ],
      [
        "TIME",
        -11.291122436523438
      ],
      [
        "bus",
        -11.178177833557127
      ],
      [
        "Element",
        -11.21603012084961
      ],
      [
        "▁NONE",
        -14.067893981933594
      ],
      [
        "OFFSET",
        -11.61909294128418
      ],
      [
        "▁pragma",
        -13.614083290100098
      ],
      [
        "ret",
        -9.242923736572266
      ],
      [
        "▁linux",
        -13.685539245605469
      ],
      [
        "expr",
        -11.469547271728516
      ],
      [
        "reference",
        -11.743986129760742
      ],
      [
        "rb",
        -11.336091995239258
      ],
      [
        "User",
        -11.166013717651367
      ],
      [
        "▁response",
        -11.232314109802246
      ],
      [
        "▁INCLUDING",
        -11.847341537475586
      ],
      [
        "▁than",
        -10.251551628112791
      ],
      [
        "SW",
        -11.38562297821045
      ],
      [
        "▁total",
        -11.242072105407717
      ],
      [
        "tm",
        -11.52547836303711
      ],
      [
        "BT",
        -11.48233127593994
      ],
      [
        "▁exception",
        -11.763622283935549
      ],
      [
        "EP",
        -11.176596641540527
      ],
      [
        "None",
        -11.556212425231934
      ],
      [
        "VAR",
        -11.365130424499512
      ],
      [
        "Thread",
        -11.158018112182615
      ],
      [
        "support",
        -12.221263885498049
      ],
      [
        "ABLE",
        -11.11223602294922
      ],
      [
        "TRACE",
        -11.445708274841309
      ],
      [
        "sd",
        -11.381855964660645
      ],
      [
        "ature",
        -12.03724765777588
      ],
      [
        "sync",
        -11.097704887390137
      ],
      [
        "▁provided",
        -10.824684143066406
      ],
      [
        "tuple",
        -11.43526554107666
      ],
      [
        "scale",
        -11.458242416381836
      ],
      [
        "ARB",
        -11.544696807861328
      ],
      [
        "▁binary",
        -11.313081741333008
      ],
      [
        "slot",
        -11.622722625732422
      ],
      [
        "WIN",
        -11.04017162322998
      ],
      [
        "ALL",
        -11.23610496520996
      ],
      [
        "Range",
        -11.255806922912598
      ],
      [
        "Core",
        -11.297372817993164
      ],
      [
        "tmp",
        -10.333250045776367
      ],
      [
        "IR",
        -11.26024341583252
      ],
      [
        "mc",
        -11.592631340026855
      ],
      [
        "Expr",
        -11.477063179016112
      ],
      [
        "LIST",
        -11.331625938415527
      ],
      [
        "pass",
        -11.406723022460938
      ],
      [
        "save",
        -11.361377716064451
      ],
      [
        "TS",
        -11.323472023010254
      ],
      [
        "Str",
        -11.294927597045898
      ],
      [
        "change",
        -11.47402286529541
      ],
      [
        "DR",
        -11.549524307250977
      ],
      [
        "MM",
        -11.521838188171388
      ],
      [
        "▁copyright",
        -11.05246925354004
      ],
      [
        "▁raw",
        -12.86921501159668
      ],
      [
        "ust",
        -12.106794357299805
      ],
      [
        "em",
        -10.854887008666992
      ],
      [
        "Foundation",
        -12.094205856323242
      ],
      [
        "▁memcpy",
        -12.153868675231934
      ],
      [
        "AN",
        -11.40045928955078
      ],
      [
        "api",
        -11.25634479522705
      ],
      [
        "Module",
        -11.276229858398438
      ],
      [
        "inter",
        -10.099579811096191
      ],
      [
        "rev",
        -11.720202445983888
      ],
      [
        "PP",
        -11.48997402191162
      ],
      [
        "▁signal",
        -11.804034233093262
      ],
      [
        "ping",
        -11.720284461975098
      ],
      [
        "FUNCTION",
        -11.19740867614746
      ],
      [
        "sb",
        -11.21456241607666
      ],
      [
        "▁HRESULT",
        -11.291909217834473
      ],
      [
        "▁skb",
        -12.8157958984375
      ],
      [
        "Port",
        -11.45137882232666
      ],
      [
        "our",
        -11.485072135925291
      ],
      [
        "CA",
        -11.302734375
      ],
      [
        "▁closed",
        -12.188302993774414
      ],
      [
        "cmd",
        -10.480918884277344
      ],
      [
        "integer",
        -12.277052879333496
      ],
      [
        "cursor",
        -11.66300106048584
      ],
      [
        "bt",
        -11.4759521484375
      ],
      [
        "connect",
        -11.001669883728027
      ],
      [
        "Char",
        -11.313055992126465
      ],
      [
        "Line",
        -11.202528953552246
      ],
      [
        "SP",
        -11.108540534973145
      ],
      [
        "PG",
        -11.38468074798584
      ],
      [
        "▁common",
        -11.369812965393066
      ],
      [
        "tx",
        -10.602689743041992
      ],
      [
        "▁iParam",
        -12.70155143737793
      ],
      [
        "sample",
        -11.480021476745604
      ],
      [
        "▁operation",
        -11.252321243286133
      ],
      [
        "start",
        -9.695464134216309
      ],
      [
        "font",
        -11.381495475769045
      ],
      [
        "NET",
        -11.092912673950195
      ],
      [
        "▁DWORD",
        -11.245027542114258
      ],
      [
        "CP",
        -11.432012557983398
      ],
      [
        "CLASS",
        -11.400877952575684
      ],
      [
        "model",
        -11.611268043518066
      ],
      [
        "Task",
        -11.37011432647705
      ],
      [
        "names",
        -11.68999481201172
      ],
      [
        "Property",
        -11.263165473937988
      ],
      [
        "BUF",
        -11.443883895874023
      ],
      [
        "▁here",
        -10.45298957824707
      ],
      [
        "▁parameters",
        -11.291292190551758
      ],
      [
        "spi",
        -11.324249267578123
      ],
      [
        "limit",
        -11.384509086608888
      ],
      [
        "nd",
        -10.4116792678833
      ],
      [
        "Local",
        -11.346898078918455
      ],
      [
        "ec",
        -11.124395370483398
      ],
      [
        "stop",
        -11.469704627990724
      ],
      [
        "HANDLE",
        -11.328580856323242
      ],
      [
        "pl",
        -11.36196517944336
      ],
      [
        "ADD",
        -11.506632804870604
      ],
      [
        "impl",
        -11.434290885925291
      ],
      [
        "▁distributed",
        -11.379075050354004
      ],
      [
        "Hash",
        -11.375866889953612
      ],
      [
        "Val",
        -11.466965675354004
      ],
      [
        "act",
        -11.02748680114746
      ],
      [
        "flow",
        -11.31205940246582
      ],
      [
        "▁You",
        -10.412107467651367
      ],
      [
        "▁required",
        -10.996602058410645
      ],
      [
        "▁resource",
        -11.929274559020996
      ],
      [
        "▁THIS",
        -11.405858993530272
      ],
      [
        "DT",
        -11.734654426574709
      ],
      [
        "json",
        -11.67627239227295
      ],
      [
        "STATUS",
        -10.564286231994627
      ],
      [
        "add",
        -9.992486000061035
      ],
      [
        "GEN",
        -11.529255867004396
      ],
      [
        "config",
        -10.320574760437012
      ],
      [
        "nr",
        -11.428964614868164
      ],
      [
        "▁release",
        -11.54505729675293
      ],
      [
        "▁GLint",
        -12.254738807678224
      ],
      [
        "LEVEL",
        -11.50235366821289
      ],
      [
        "pkt",
        -11.650579452514648
      ],
      [
        "EV",
        -11.79959201812744
      ],
      [
        "error",
        -9.566649436950684
      ],
      [
        "▁enabled",
        -11.767707824707031
      ],
      [
        "DF",
        -11.506640434265137
      ],
      [
        "multi",
        -11.67929744720459
      ],
      [
        "Open",
        -11.569849967956545
      ],
      [
        "stride",
        -11.808268547058104
      ],
      [
        "ber",
        -11.430218696594238
      ],
      [
        "▁available",
        -10.983464241027832
      ],
      [
        "CL",
        -11.141922950744627
      ],
      [
        "Options",
        -11.316702842712402
      ],
      [
        "RC",
        -11.343934059143066
      ],
      [
        "write",
        -10.116445541381836
      ],
      [
        "NI",
        -11.26622200012207
      ],
      [
        "py",
        -9.870153427124023
      ],
      [
        "Param",
        -10.783846855163574
      ],
      [
        "display",
        -11.69647979736328
      ],
      [
        "amp",
        -12.034955024719238
      ],
      [
        "▁been",
        -9.943720817565918
      ],
      [
        "FC",
        -10.703760147094728
      ],
      [
        "sw",
        -11.253376960754396
      ],
      [
        "PWM",
        -11.942538261413574
      ],
      [
        "dump",
        -11.4263916015625
      ],
      [
        "PM",
        -11.183547019958496
      ],
      [
        "sm",
        -11.303105354309082
      ],
      [
        "Manager",
        -11.07738208770752
      ],
      [
        "MD",
        -11.456377029418944
      ],
      [
        "Public",
        -12.824960708618164
      ],
      [
        "Interface",
        -11.23087215423584
      ],
      [
        "Load",
        -11.302604675292969
      ],
      [
        "▁NRF",
        -11.611014366149902
      ],
      [
        "pd",
        -11.464221954345703
      ],
      [
        "rv",
        -11.21767807006836
      ],
      [
        "TURN",
        -11.550475120544434
      ],
      [
        "prefix",
        -11.953765869140623
      ],
      [
        "CM",
        -10.705986976623535
      ],
      [
        "▁undef",
        -13.007028579711914
      ],
      [
        "GC",
        -11.462442398071287
      ],
      [
        "now",
        -11.962778091430664
      ],
      [
        "fmt",
        -11.738450050354004
      ],
      [
        "▁xB",
        -17.999576568603516
      ],
      [
        "AP",
        -11.110672950744627
      ],
      [
        "DIV",
        -12.05475902557373
      ],
      [
        "PI",
        -11.097200393676758
      ],
      [
        "Lock",
        -11.234333038330078
      ],
      [
        "▁fields",
        -11.434967041015623
      ],
      [
        "shift",
        -11.468339920043944
      ],
      [
        "tr",
        -10.802727699279783
      ],
      [
        "fb",
        -11.758488655090332
      ],
      [
        "chan",
        -11.616063117980955
      ],
      [
        "▁argument",
        -11.44231414794922
      ],
      [
        "Position",
        -11.515951156616213
      ],
      [
        "search",
        -11.860260009765623
      ],
      [
        "CONST",
        -11.584168434143066
      ],
      [
        "CON",
        -11.33865737915039
      ],
      [
        "Tx",
        -11.56972312927246
      ],
      [
        "select",
        -11.392578125
      ],
      [
        "IE",
        -11.523879051208496
      ],
      [
        "▁texture",
        -12.28841495513916
      ],
      [
        "place",
        -11.631462097167969
      ],
      [
        "Timer",
        -11.567703247070312
      ],
      [
        "SHA",
        -11.695094108581545
      ],
      [
        "▁either",
        -10.95872402191162
      ],
      [
        "▁inode",
        -12.41245460510254
      ],
      [
        "chunk",
        -11.89937686920166
      ],
      [
        "Obj",
        -11.628368377685549
      ],
      [
        "IRQ",
        -11.397710800170898
      ],
      [
        "thr",
        -12.576315879821776
      ],
      [
        "del",
        -10.88352394104004
      ],
      [
        "pm",
        -11.430150985717772
      ],
      [
        "TC",
        -11.46479606628418
      ],
      [
        "▁PRS",
        -13.26717758178711
      ],
      [
        "LA",
        -11.022814750671388
      ],
      [
        "DEV",
        -11.491069793701172
      ],
      [
        "dd",
        -11.354512214660645
      ],
      [
        "context",
        -10.292384147644045
      ],
      [
        "EM",
        -11.586856842041016
      ],
      [
        "proto",
        -10.79886245727539
      ],
      [
        "HW",
        -11.60182285308838
      ],
      [
        "▁SDL",
        -11.767182350158691
      ],
      [
        "FIELD",
        -11.375575065612791
      ],
      [
        "ri",
        -11.149386405944824
      ],
      [
        "TAG",
        -11.595154762268066
      ],
      [
        "ear",
        -11.415637969970703
      ],
      [
        "▁Shifted",
        -12.523802757263184
      ],
      [
        "LOCK",
        -11.569300651550291
      ],
      [
        "xml",
        -11.296822547912598
      ],
      [
        "PT",
        -11.609095573425291
      ],
      [
        "rh",
        -11.64671516418457
      ],
      [
        "Level",
        -11.415754318237305
      ],
      [
        "cf",
        -11.674934387207031
      ],
      [
        "ator",
        -10.350038528442385
      ],
      [
        "▁variable",
        -11.522751808166504
      ],
      [
        "ge",
        -10.623485565185549
      ],
      [
        "acc",
        -11.82683277130127
      ],
      [
        "▁xD",
        -16.906230926513672
      ],
      [
        "depth",
        -11.763413429260254
      ],
      [
        "DECL",
        -11.144190788269045
      ],
      [
        "▁disable",
        -12.10698127746582
      ],
      [
        "priv",
        -10.3438081741333
      ],
      [
        "Release",
        -10.754599571228027
      ],
      [
        "Of",
        -11.188578605651855
      ],
      [
        "▁GNU",
        -11.237796783447266
      ],
      [
        "gh",
        -12.84500503540039
      ],
      [
        "▁GLAPI",
        -11.305657386779783
      ],
      [
        "Arg",
        -11.452676773071287
      ],
      [
        "REF",
        -10.560243606567385
      ],
      [
        "AM",
        -11.225464820861816
      ],
      [
        "INTER",
        -11.457018852233888
      ],
      [
        "dict",
        -11.475425720214844
      ],
      [
        "Header",
        -11.411771774291992
      ],
      [
        "heap",
        -11.583717346191406
      ],
      [
        "crypt",
        -11.62124252319336
      ],
      [
        "so",
        -10.823857307434082
      ],
      [
        "Desc",
        -11.52806282043457
      ],
      [
        "column",
        -11.853020668029783
      ],
      [
        "MT",
        -11.605984687805176
      ],
      [
        "Service",
        -11.33588409423828
      ],
      [
        "MODULE",
        -11.380471229553224
      ],
      [
        "tcp",
        -11.677071571350098
      ],
      [
        "▁does",
        -10.806270599365234
      ],
      [
        "FB",
        -11.771449089050291
      ],
      [
        "FD",
        -11.405803680419922
      ],
      [
        "Query",
        -11.312163352966309
      ],
      [
        "START",
        -11.51555633544922
      ],
      [
        "IM",
        -11.19690227508545
      ],
      [
        "ee",
        -11.059259414672852
      ],
      [
        "pack",
        -11.452407836914062
      ],
      [
        "OBJECT",
        -11.393075942993164
      ],
      [
        "COUNT",
        -11.571908950805664
      ],
      [
        "xx",
        -11.74887466430664
      ],
      [
        "style",
        -10.947623252868652
      ],
      [
        "SUB",
        -11.513764381408691
      ],
      [
        "cmp",
        -10.984105110168455
      ],
      [
        "▁location",
        -11.540811538696287
      ],
      [
        "▁returned",
        -11.18325138092041
      ],
      [
        "Current",
        -11.054495811462402
      ],
      [
        "▁protocol",
        -11.963951110839844
      ],
      [
        "BC",
        -11.42487621307373
      ],
      [
        "RAM",
        -11.712903022766112
      ],
      [
        "If",
        -11.43030071258545
      ],
      [
        "Response",
        -11.451757431030272
      ],
      [
        "da",
        -10.476632118225098
      ],
      [
        "let",
        -11.479331016540527
      ],
      [
        "ial",
        -10.996466636657717
      ],
      [
        "SL",
        -11.372445106506348
      ],
      [
        "dim",
        -11.593953132629396
      ],
      [
        "ie",
        -10.85529899597168
      ],
      [
        "cr",
        -11.364439964294434
      ],
      [
        "▁license",
        -11.477618217468262
      ],
      [
        "sl",
        -11.108251571655272
      ],
      [
        "SS",
        -11.42956829071045
      ],
      [
        "CK",
        -11.821096420288086
      ],
      [
        "BYTE",
        -11.562255859375
      ],
      [
        "▁don",
        -10.965091705322266
      ],
      [
        "▁two",
        -10.101733207702637
      ],
      [
        "di",
        -10.630393028259276
      ],
      [
        "exp",
        -11.162500381469728
      ],
      [
        "item",
        -10.624892234802246
      ],
      [
        "pid",
        -11.469815254211426
      ],
      [
        "Debug",
        -11.42257308959961
      ],
      [
        "ti",
        -11.251405715942385
      ],
      [
        "sort",
        -11.70875072479248
      ],
      [
        "ir",
        -10.914036750793455
      ],
      [
        "USER",
        -11.531789779663086
      ],
      [
        "▁wpa",
        -12.695878982543944
      ],
      [
        "ak",
        -11.238890647888184
      ],
      [
        "term",
        -11.54325008392334
      ],
      [
        "Send",
        -11.49753761291504
      ],
      [
        "De",
        -11.248520851135254
      ],
      [
        "▁some",
        -10.334004402160645
      ],
      [
        "TABLE",
        -11.497820854187012
      ],
      [
        "DI",
        -11.54774284362793
      ],
      [
        "FE",
        -11.45054054260254
      ],
      [
        "▁www",
        -13.892849922180176
      ],
      [
        "CI",
        -11.608648300170898
      ],
      [
        "Queue",
        -11.611452102661133
      ],
      [
        "se",
        -9.056328773498535
      ],
      [
        "tv",
        -11.617236137390137
      ],
      [
        "ct",
        -11.606772422790527
      ],
      [
        "cd",
        -11.675710678100586
      ],
      [
        "round",
        -11.95640468597412
      ],
      [
        "PARAM",
        -11.664758682250977
      ],
      [
        "regs",
        -11.758026123046877
      ],
      [
        "▁WTIMER",
        -13.33298683166504
      ],
      [
        "written",
        -12.41613483428955
      ],
      [
        "▁memset",
        -12.150616645812988
      ],
      [
        "Cache",
        -11.42763328552246
      ],
      [
        "Texture",
        -11.598366737365724
      ],
      [
        "tc",
        -11.624295234680176
      ],
      [
        "▁strcmp",
        -13.459980010986328
      ],
      [
        "draw",
        -11.613240242004396
      ],
      [
        "Exception",
        -11.185789108276367
      ],
      [
        "shape",
        -11.814044952392578
      ],
      [
        "region",
        -11.69326877593994
      ],
      [
        "Page",
        -11.102935791015623
      ],
      [
        "ME",
        -11.363357543945312
      ],
      [
        "tra",
        -11.45998191833496
      ],
      [
        "Len",
        -11.45007038116455
      ],
      [
        "freq",
        -12.082486152648926
      ],
      [
        "▁strlen",
        -11.97170639038086
      ],
      [
        "mul",
        -11.858786582946776
      ],
      [
        "files",
        -12.33191204071045
      ],
      [
        "FORMAT",
        -11.683571815490724
      ],
      [
        "Flag",
        -11.595829963684082
      ],
      [
        "▁invalid",
        -11.900191307067873
      ],
      [
        "▁configuration",
        -11.368274688720703
      ],
      [
        "General",
        -12.745523452758787
      ],
      [
        "COMP",
        -11.68380355834961
      ],
      [
        "Clear",
        -11.28575038909912
      ],
      [
        "BLE",
        -11.80002212524414
      ],
      [
        "▁EFI",
        -11.306777000427246
      ],
      [
        "CHAR",
        -11.314109802246094
      ],
      [
        "CE",
        -11.425164222717283
      ],
      [
        "ATTR",
        -11.598374366760254
      ],
      [
        "frame",
        -10.6818265914917
      ],
      [
        "DO",
        -11.290445327758787
      ],
      [
        "▁already",
        -11.088424682617188
      ],
      [
        "dt",
        -11.590867042541504
      ],
      [
        "OC",
        -11.729544639587402
      ],
      [
        "ne",
        -10.487430572509766
      ],
      [
        "elem",
        -11.666892051696776
      ],
      [
        "▁implementation",
        -11.399582862854004
      ],
      [
        "PL",
        -11.370978355407717
      ],
      [
        "event",
        -10.361854553222656
      ],
      [
        "▁where",
        -10.353963851928713
      ],
      [
        "ION",
        -11.187541961669922
      ],
      [
        "ive",
        -10.798967361450195
      ],
      [
        "DS",
        -11.304166793823242
      ],
      [
        "lua",
        -11.675376892089844
      ],
      [
        "hip",
        -11.683073043823242
      ],
      [
        "▁expected",
        -11.63292407989502
      ],
      [
        "CD",
        -10.709138870239258
      ],
      [
        "TR",
        -11.535298347473145
      ],
      [
        "▁IMPLIED",
        -11.432413101196287
      ],
      [
        "NODE",
        -11.45828342437744
      ],
      [
        "▁APIENTRYP",
        -16.59526252746582
      ],
      [
        "df",
        -11.71006965637207
      ],
      [
        "▁stderr",
        -13.47530746459961
      ],
      [
        "▁xffff",
        -44.4240608215332
      ],
      [
        "Server",
        -11.434897422790527
      ],
      [
        "symbol",
        -12.077503204345703
      ],
      [
        "PE",
        -11.630738258361816
      ],
      [
        "▁elements",
        -11.598085403442385
      ],
      [
        "step",
        -11.93172836303711
      ],
      [
        "counter",
        -11.914102554321287
      ],
      [
        "Token",
        -11.54733657836914
      ],
      [
        "MAX",
        -10.00684928894043
      ],
      [
        "loc",
        -11.327624320983888
      ],
      [
        "▁success",
        -11.31867790222168
      ],
      [
        "sur",
        -12.247268676757812
      ],
      [
        "ia",
        -10.476056098937988
      ],
      [
        "DA",
        -11.475225448608398
      ],
      [
        "est",
        -10.688508987426758
      ],
      [
        "AE",
        -11.99648094177246
      ],
      [
        "As",
        -11.351993560791016
      ],
      [
        "And",
        -11.144091606140137
      ],
      [
        "▁single",
        -11.03817081451416
      ],
      [
        "ter",
        -10.764321327209473
      ],
      [
        "pair",
        -11.91146469116211
      ],
      [
        "blk",
        -11.794190406799316
      ],
      [
        "PLL",
        -12.128820419311523
      ],
      [
        "bb",
        -11.284581184387209
      ],
      [
        "▁try",
        -11.345831871032717
      ],
      [
        "buff",
        -11.757551193237305
      ],
      [
        "kind",
        -11.834484100341797
      ],
      [
        "dv",
        -11.957261085510254
      ],
      [
        "Initialize",
        -11.338340759277344
      ],
      [
        "▁unique",
        -12.18601894378662
      ],
      [
        "▁constexpr",
        -11.701863288879396
      ],
      [
        "▁iface",
        -13.233826637268066
      ],
      [
        "rp",
        -11.699914932250977
      ],
      [
        "level",
        -10.83992862701416
      ],
      [
        "▁argc",
        -12.012551307678224
      ],
      [
        "Process",
        -11.335164070129396
      ],
      [
        "▁mono",
        -12.319025039672852
      ],
      [
        "il",
        -11.182254791259766
      ],
      [
        "hs",
        -11.573673248291016
      ],
      [
        "▁once",
        -10.619427680969238
      ],
      [
        "enc",
        -11.723288536071776
      ],
      [
        "TE",
        -11.586986541748049
      ],
      [
        "LOAD",
        -11.79592514038086
      ],
      [
        "pro",
        -11.066596031188965
      ],
      [
        "Description",
        -10.237154960632324
      ],
      [
        "▁orig",
        -13.167675018310549
      ],
      [
        "INPUT",
        -11.837894439697266
      ],
      [
        "INDEX",
        -11.719310760498049
      ],
      [
        "RA",
        -11.591291427612305
      ],
      [
        "ending",
        -12.024724960327148
      ],
      [
        "chain",
        -11.93999481201172
      ],
      [
        "sf",
        -11.74402904510498
      ],
      [
        "DBG",
        -11.843974113464355
      ],
      [
        "sequence",
        -12.219165802001951
      ],
      [
        "▁LIMITED",
        -11.459071159362791
      ],
      [
        "GP",
        -10.921043395996094
      ],
      [
        "pa",
        -10.894417762756348
      ],
      [
        "STAT",
        -11.425885200500488
      ],
      [
        "▁entries",
        -12.015938758850098
      ],
      [
        "▁epi",
        -14.39325714111328
      ],
      [
        "▁LICENSE",
        -11.920801162719728
      ],
      [
        "▁asn",
        -13.041687965393066
      ],
      [
        "Attribute",
        -11.612950325012209
      ],
      [
        "Float",
        -11.647128105163574
      ],
      [
        "layer",
        -12.086359977722168
      ],
      [
        "ast",
        -11.291295051574709
      ],
      [
        "domain",
        -11.98987102508545
      ],
      [
        "Copy",
        -11.14047145843506
      ],
      [
        "page",
        -10.682266235351562
      ],
      [
        "pixel",
        -11.897504806518556
      ],
      [
        "ls",
        -11.260323524475098
      ],
      [
        "pf",
        -11.729425430297852
      ],
      [
        "▁BUT",
        -11.492841720581056
      ],
      [
        "App",
        -11.539942741394045
      ],
      [
        "Bits",
        -11.684866905212402
      ],
      [
        "Resource",
        -11.571701049804688
      ],
      [
        "▁PCI",
        -12.43310546875
      ],
      [
        "second",
        -11.544262886047363
      ],
      [
        "ue",
        -10.52206039428711
      ],
      [
        "edge",
        -12.108344078063965
      ],
      [
        "▁WITHOUT",
        -11.394280433654783
      ],
      [
        "Inc",
        -13.305432319641112
      ],
      [
        "Mem",
        -11.63624668121338
      ],
      [
        "NG",
        -11.647872924804688
      ],
      [
        "▁platform",
        -11.973669052124023
      ],
      [
        "Func",
        -11.638704299926758
      ],
      [
        "mat",
        -11.56432056427002
      ],
      [
        "factor",
        -12.069202423095703
      ],
      [
        "pad",
        -11.435419082641602
      ],
      [
        "ity",
        -10.369046211242676
      ],
      [
        "▁peer",
        -12.264511108398438
      ],
      [
        "bin",
        -11.313650131225586
      ],
      [
        "SI",
        -11.440313339233398
      ],
      [
        "dm",
        -11.896711349487305
      ],
      [
        "Meta",
        -11.86451530456543
      ],
      [
        "bd",
        -11.78104305267334
      ],
      [
        "Struct",
        -11.701127052307127
      ],
      [
        "gc",
        -11.807442665100098
      ],
      [
        "rect",
        -11.713088989257812
      ],
      [
        "OPT",
        -11.783923149108888
      ],
      [
        "PHY",
        -11.902010917663574
      ],
      [
        "Ex",
        -11.6183443069458
      ],
      [
        "points",
        -12.17823314666748
      ],
      [
        "AA",
        -11.956789016723633
      ],
      [
        "▁just",
        -10.510193824768066
      ],
      [
        "METHOD",
        -11.448342323303224
      ],
      [
        "▁WITH",
        -12.401264190673828
      ],
      [
        "field",
        -10.295394897460938
      ],
      [
        "assign",
        -11.887646675109863
      ],
      [
        "PAGE",
        -11.77636432647705
      ],
      [
        "Target",
        -11.535802841186523
      ],
      [
        "MOD",
        -11.829682350158691
      ],
      [
        "Min",
        -11.466714859008787
      ],
      [
        "inst",
        -11.24408721923828
      ],
      [
        "pipe",
        -11.570239067077637
      ],
      [
        "▁content",
        -11.436878204345703
      ],
      [
        "Iterator",
        -11.630762100219728
      ],
      [
        "tt",
        -11.49563217163086
      ],
      [
        "Media",
        -11.83112621307373
      ],
      [
        "build",
        -12.010613441467283
      ],
      [
        "uc",
        -11.589041709899902
      ],
      [
        "▁sqlite",
        -12.04473114013672
      ],
      [
        "OBJ",
        -11.823348999023438
      ],
      [
        "ni",
        -11.11237907409668
      ],
      [
        "▁append",
        -12.387900352478027
      ],
      [
        "fill",
        -11.53213119506836
      ],
      [
        "▁final",
        -11.038558959960938
      ],
      [
        "NT",
        -11.350652694702148
      ],
      [
        "Method",
        -11.417436599731444
      ],
      [
        "asm",
        -11.549339294433594
      ],
      [
        "nb",
        -11.814642906188965
      ],
      [
        "▁ULONG",
        -11.610763549804688
      ],
      [
        "mk",
        -11.941676139831545
      ],
      [
        "SH",
        -11.49834156036377
      ],
      [
        "MI",
        -11.415213584899902
      ],
      [
        "▁atomic",
        -12.83017635345459
      ],
      [
        "By",
        -11.485963821411133
      ],
      [
        "TLS",
        -11.523897171020508
      ],
      [
        "keys",
        -11.936080932617188
      ],
      [
        "abs",
        -11.841238021850586
      ],
      [
        "bc",
        -11.806235313415527
      ],
      [
        "status",
        -9.994007110595703
      ],
      [
        "queue",
        -10.761354446411133
      ],
      [
        "GR",
        -11.843579292297363
      ],
      [
        "▁PURPOSE",
        -11.392362594604492
      ],
      [
        "▁supported",
        -11.590599060058594
      ],
      [
        "Button",
        -11.534551620483398
      ],
      [
        "age",
        -10.308219909667969
      ],
      [
        "ATION",
        -11.26841640472412
      ],
      [
        "RD",
        -11.74799346923828
      ],
      [
        "HI",
        -11.810919761657717
      ],
      [
        "▁show",
        -11.376827239990234
      ],
      [
        "Action",
        -11.364872932434082
      ],
      [
        "ough",
        -12.284796714782717
      ],
      [
        "card",
        -11.3948335647583
      ],
      [
        "RESET",
        -11.856822967529297
      ],
      [
        "delay",
        -11.771677017211914
      ],
      [
        "BY",
        -11.475057601928713
      ],
      [
        "Delete",
        -11.50006866455078
      ],
      [
        "param",
        -9.158394813537598
      ],
      [
        "lt",
        -11.788030624389648
      ],
      [
        "ack",
        -11.82296085357666
      ],
      [
        "▁LIABILITY",
        -11.83445930480957
      ],
      [
        "format",
        -10.740386962890623
      ],
      [
        "Byte",
        -11.664003372192385
      ],
      [
        "nl",
        -11.724441528320312
      ],
      [
        "SE",
        -10.789498329162598
      ],
      [
        "track",
        -11.71463108062744
      ],
      [
        "lc",
        -11.78604507446289
      ],
      [
        "BA",
        -11.447386741638184
      ],
      [
        "bi",
        -11.02480411529541
      ],
      [
        "EE",
        -11.787351608276367
      ],
      [
        "byte",
        -10.964835166931152
      ],
      [
        "alpha",
        -11.851037979125977
      ],
      [
        "DIR",
        -11.744613647460938
      ],
      [
        "Access",
        -11.430123329162598
      ],
      [
        "Next",
        -11.34399127960205
      ],
      [
        "by",
        -10.563596725463867
      ],
      [
        "ib",
        -11.439661979675291
      ],
      [
        "PROTO",
        -11.39297580718994
      ],
      [
        "Do",
        -11.75972843170166
      ],
      [
        "Tag",
        -11.516780853271484
      ],
      [
        "WM",
        -11.728076934814451
      ],
      [
        "MB",
        -11.47905445098877
      ],
      [
        "AND",
        -11.375399589538574
      ],
      [
        "▁modify",
        -11.647156715393066
      ],
      [
        "lv",
        -12.000741004943848
      ],
      [
        "vp",
        -11.930557250976562
      ],
      [
        "▁FITNESS",
        -11.380814552307127
      ],
      [
        "sel",
        -11.59208869934082
      ],
      [
        "AB",
        -11.614262580871582
      ],
      [
        "ALT",
        -12.211954116821287
      ],
      [
        "▁details",
        -11.280706405639648
      ],
      [
        "DP",
        -11.761828422546388
      ],
      [
        "CTX",
        -11.893452644348145
      ],
      [
        "FAIL",
        -11.092547416687012
      ],
      [
        "▁MERCHANTABILITY",
        -11.356045722961426
      ],
      [
        "OFF",
        -11.79366683959961
      ],
      [
        "▁also",
        -8.389569282531738
      ],
      [
        "ise",
        -11.664713859558104
      ],
      [
        "Buf",
        -11.854740142822266
      ],
      [
        "help",
        -11.828243255615234
      ],
      [
        "BR",
        -11.668327331542969
      ],
      [
        "IL",
        -11.563700675964355
      ],
      [
        "ram",
        -11.447596549987791
      ],
      [
        "dr",
        -11.395610809326172
      ],
      [
        "equal",
        -11.922030448913574
      ],
      [
        "bf",
        -11.791411399841309
      ],
      [
        "px",
        -11.36825942993164
      ],
      [
        "Msg",
        -11.807000160217283
      ],
      [
        "fl",
        -11.717206954956056
      ],
      [
        "use",
        -9.808798789978027
      ],
      [
        "▁union",
        -10.80123805999756
      ],
      [
        "PD",
        -11.84116268157959
      ],
      [
        "auth",
        -11.366877555847168
      ],
      [
        "▁Elab",
        -17.960216522216797
      ],
      [
        "graph",
        -11.445481300354004
      ],
      [
        "body",
        -11.417078018188477
      ],
      [
        "▁unlikely",
        -13.81147289276123
      ],
      [
        "oid",
        -10.06122589111328
      ],
      [
        "group",
        -10.457308769226074
      ],
      [
        "RX",
        -11.06712532043457
      ],
      [
        "▁because",
        -10.70433235168457
      ],
      [
        "Reset",
        -11.607276916503906
      ],
      [
        "Descriptor",
        -11.709418296813965
      ],
      [
        "CMP",
        -12.126751899719238
      ],
      [
        "ant",
        -10.966599464416504
      ],
      [
        "entry",
        -10.34885311126709
      ],
      [
        "XML",
        -11.533870697021484
      ],
      [
        "▁uParam",
        -14.092427253723145
      ],
      [
        "ROM",
        -11.99227237701416
      ],
      [
        "rows",
        -11.926488876342772
      ],
      [
        "sect",
        -12.844200134277344
      ],
      [
        "Vec",
        -12.041309356689451
      ],
      [
        "▁xFFFF",
        -21.807052612304688
      ],
      [
        "▁PARTICULAR",
        -11.41086483001709
      ],
      [
        "▁png",
        -12.552201271057127
      ],
      [
        "▁transfer",
        -11.770744323730469
      ],
      [
        "▁php",
        -13.063796043395996
      ],
      [
        "FIFO",
        -12.062957763671877
      ],
      [
        "float",
        -10.234647750854492
      ],
      [
        "screen",
        -12.016536712646484
      ],
      [
        "▁ssize",
        -12.440818786621094
      ],
      [
        "lu",
        -8.985904693603516
      ],
      [
        "▁MBEDTLS",
        -12.18393898010254
      ],
      [
        "son",
        -10.52603530883789
      ],
      [
        "Internal",
        -11.55966091156006
      ],
      [
        "ARGS",
        -11.773874282836914
      ],
      [
        "▁VK",
        -12.21017837524414
      ],
      [
        "PB",
        -11.960384368896484
      ],
      [
        "Pre",
        -11.623618125915527
      ],
      [
        "url",
        -11.426233291625977
      ],
      [
        "COL",
        -11.809206008911133
      ],
      [
        "result",
        -9.85030460357666
      ],
      [
        "nv",
        -11.742074966430664
      ],
      [
        "br",
        -11.352181434631348
      ],
      [
        "ho",
        -11.762187004089355
      ],
      [
        "▁adapter",
        -12.916584968566896
      ],
      [
        "ctl",
        -11.585675239562988
      ],
      [
        "HTTP",
        -11.701191902160645
      ],
      [
        "master",
        -11.710514068603516
      ],
      [
        "▁your",
        -10.12375259399414
      ],
      [
        "pb",
        -11.91569995880127
      ],
      [
        "▁received",
        -11.104022979736328
      ],
      [
        "digit",
        -12.286065101623535
      ],
      [
        "eep",
        -12.96021842956543
      ],
      [
        "complete",
        -12.001052856445312
      ],
      [
        "▁want",
        -11.03528118133545
      ],
      [
        "ba",
        -10.849726676940918
      ],
      [
        "▁snd",
        -12.442316055297852
      ],
      [
        "check",
        -10.511374473571776
      ],
      [
        "SA",
        -11.390914916992188
      ],
      [
        "cell",
        -11.720788955688477
      ],
      [
        "▁XF",
        -14.733112335205078
      ],
      [
        "TDMETHODCALLTYPE",
        -11.706443786621094
      ],
      [
        "ur",
        -10.562651634216309
      ],
      [
        "▁bad",
        -11.711705207824709
      ],
      [
        "swap",
        -11.70350456237793
      ],
      [
        "src",
        -10.545903205871582
      ],
      [
        "SRC",
        -12.030754089355469
      ],
      [
        "Rect",
        -11.865601539611816
      ],
      [
        "Tensor",
        -12.094579696655272
      ],
      [
        "blocks",
        -12.302827835083008
      ],
      [
        "Parse",
        -11.66385555267334
      ],
      [
        "tile",
        -11.248238563537598
      ],
      [
        "uni",
        -11.28598690032959
      ],
      [
        "Record",
        -11.425521850585938
      ],
      [
        "thread",
        -10.660362243652344
      ],
      [
        "ig",
        -11.347641944885254
      ],
      [
        "▁library",
        -11.485227584838867
      ],
      [
        "bind",
        -11.77841091156006
      ],
      [
        "Invalid",
        -11.696561813354492
      ],
      [
        "mt",
        -11.933146476745604
      ],
      [
        "PUT",
        -11.86176586151123
      ],
      [
        "▁events",
        -10.98041820526123
      ],
      [
        "▁failure",
        -11.580575942993164
      ],
      [
        "▁UNUSED",
        -12.747867584228516
      ],
      [
        "Display",
        -11.684704780578612
      ],
      [
        "ET",
        -11.641386985778809
      ],
      [
        "initialize",
        -11.372476577758787
      ],
      [
        "fi",
        -10.935480117797852
      ],
      [
        "LENGTH",
        -11.923251152038574
      ],
      [
        "Store",
        -11.625959396362305
      ],
      [
        "▁application",
        -11.505061149597168
      ],
      [
        "CO",
        -11.524896621704102
      ],
      [
        "APP",
        -11.67424201965332
      ],
      [
        "flush",
        -11.598692893981934
      ],
      [
        "Params",
        -11.813419342041016
      ],
      [
        "ft",
        -11.550884246826172
      ],
      [
        "CT",
        -11.530240058898926
      ],
      [
        "doc",
        -11.485401153564451
      ],
      [
        "nt",
        -11.341232299804688
      ],
      [
        "force",
        -12.025959014892578
      ],
      [
        "▁GLsizei",
        -12.701796531677246
      ],
      [
        "ABI",
        -12.009925842285156
      ],
      [
        "Stack",
        -11.625799179077148
      ],
      [
        "▁whether",
        -11.212247848510742
      ],
      [
        "storage",
        -12.19108772277832
      ],
      [
        "▁otherwise",
        -11.447004318237305
      ],
      [
        "TCP",
        -11.792604446411133
      ],
      [
        "▁PIO",
        -13.160147666931152
      ],
      [
        "par",
        -10.997653007507324
      ],
      [
        "Disable",
        -11.79005527496338
      ],
      [
        "Packet",
        -11.883355140686035
      ],
      [
        "Clock",
        -11.889836311340332
      ],
      [
        "▁ngx",
        -12.162943840026855
      ],
      [
        "bar",
        -11.107830047607422
      ],
      [
        "▁always",
        -11.309537887573242
      ],
      [
        "CRC",
        -12.326297760009766
      ],
      [
        "TEXTURE",
        -11.829595565795898
      ],
      [
        "ea",
        -11.427638053894045
      ],
      [
        "recv",
        -11.98302936553955
      ],
      [
        "WORD",
        -11.45020866394043
      ],
      [
        "ix",
        -11.530126571655272
      ],
      [
        "lhs",
        -12.159878730773926
      ],
      [
        "ward",
        -11.609612464904783
      ],
      [
        "SIG",
        -11.789081573486328
      ],
      [
        "direct",
        -11.659016609191896
      ],
      [
        "Connection",
        -11.615757942199709
      ],
      [
        "print",
        -10.719058990478516
      ],
      [
        "uv",
        -11.835241317749023
      ],
      [
        "Multi",
        -11.386611938476562
      ],
      [
        "Web",
        -11.051383018493652
      ],
      [
        "BITS",
        -12.005687713623049
      ],
      [
        "▁xFFFFFFFF",
        -87.80282592773438
      ],
      [
        "Pin",
        -12.341245651245115
      ],
      [
        "Label",
        -11.61166763305664
      ],
      [
        "tb",
        -11.99195671081543
      ],
      [
        "CORE",
        -11.831618309020996
      ],
      [
        "PATH",
        -11.748173713684082
      ],
      [
        "mov",
        -11.76206874847412
      ],
      [
        "Parameter",
        -11.70602321624756
      ],
      [
        "work",
        -10.727599143981934
      ],
      [
        "▁BEGIN",
        -12.208542823791504
      ],
      [
        "FP",
        -11.804970741271973
      ],
      [
        "▁spin",
        -12.97010612487793
      ],
      [
        "▁emit",
        -12.45531940460205
      ],
      [
        "MA",
        -11.168306350708008
      ],
      [
        "area",
        -12.19006633758545
      ],
      [
        "curr",
        -10.860418319702148
      ],
      [
        "▁noexcept",
        -11.957212448120115
      ],
      [
        "EA",
        -11.72012710571289
      ],
      [
        "RO",
        -11.634023666381836
      ],
      [
        "US",
        -11.07785987854004
      ],
      [
        "Draw",
        -11.180862426757812
      ],
      [
        "fa",
        -11.245477676391602
      ],
      [
        "layout",
        -11.76867961883545
      ],
      [
        "LD",
        -11.76624584197998
      ],
      [
        "Impl",
        -11.711627006530762
      ],
      [
        "handle",
        -10.509608268737791
      ],
      [
        "eb",
        -11.632696151733398
      ],
      [
        "Width",
        -11.77131462097168
      ],
      [
        "▁KIND",
        -11.788521766662598
      ],
      [
        "Shift",
        -12.160911560058594
      ],
      [
        "ai",
        -11.388815879821776
      ],
      [
        "rm",
        -11.260765075683594
      ],
      [
        "object",
        -9.967227935791016
      ],
      [
        "ance",
        -10.521251678466797
      ],
      [
        "Link",
        -11.400794982910156
      ],
      [
        "pattern",
        -12.237174987792969
      ],
      [
        "REQ",
        -12.060433387756348
      ],
      [
        "LO",
        -11.813876152038574
      ],
      [
        "Parser",
        -11.991963386535645
      ],
      [
        "util",
        -11.383851051330566
      ],
      [
        "Print",
        -11.58431625366211
      ],
      [
        "Kind",
        -11.794683456420898
      ],
      [
        "uart",
        -11.997920989990234
      ],
      [
        "Addr",
        -11.96395492553711
      ],
      [
        "post",
        -11.688864707946776
      ],
      [
        "side",
        -11.34128761291504
      ],
      [
        "date",
        -10.625348091125488
      ],
      [
        "▁Aws",
        -12.056222915649414
      ],
      [
        "ml",
        -11.64815616607666
      ],
      [
        "▁container",
        -12.22358512878418
      ],
      [
        "▁network",
        -11.582148551940918
      ],
      [
        "bytes",
        -10.934571266174316
      ],
      [
        "man",
        -9.913146018981934
      ],
      [
        "BIT",
        -10.845171928405762
      ],
      [
        "nodes",
        -12.25032901763916
      ],
      [
        "text",
        -10.161673545837402
      ],
      [
        "DEFINE",
        -11.410162925720217
      ],
      [
        "JS",
        -11.790371894836426
      ],
      [
        "Change",
        -11.4534330368042
      ],
      [
        "▁contains",
        -11.50589656829834
      ],
      [
        "▁settings",
        -12.087854385375977
      ],
      [
        "Bool",
        -11.743060111999512
      ],
      [
        "ht",
        -12.055842399597168
      ],
      [
        "RGB",
        -11.99989128112793
      ],
      [
        "shade",
        -12.80648708343506
      ],
      [
        "ate",
        -10.30506706237793
      ],
      [
        "BB",
        -11.847707748413086
      ],
      [
        "NAL",
        -11.681550979614258
      ],
      [
        "▁wx",
        -12.385276794433594
      ],
      [
        "▁bcm",
        -12.61151885986328
      ],
      [
        "Decl",
        -11.89277458190918
      ],
      [
        "▁since",
        -10.98078441619873
      ],
      [
        "DD",
        -11.909482955932615
      ],
      [
        "diff",
        -11.97978401184082
      ],
      [
        "mon",
        -10.869049072265623
      ],
      [
        "FLAGS",
        -12.01972770690918
      ],
      [
        "▁runtime",
        -12.769034385681152
      ],
      [
        "sg",
        -12.15417194366455
      ],
      [
        "ence",
        -11.471604347229004
      ],
      [
        "af",
        -11.328546524047852
      ],
      [
        "new",
        -9.908385276794434
      ],
      [
        "FLOAT",
        -11.939814567565918
      ],
      [
        "HASH",
        -11.842808723449709
      ],
      [
        "conv",
        -12.008878707885742
      ],
      [
        "Failed",
        -11.936992645263672
      ],
      [
        "np",
        -11.744585990905762
      ],
      [
        "mv",
        -12.219571113586426
      ],
      [
        "▁transaction",
        -11.936128616333008
      ],
      [
        "▁readonly",
        -12.78946590423584
      ],
      [
        "FLASH",
        -12.124226570129396
      ],
      [
        "Select",
        -11.712617874145508
      ],
      [
        "INTERFACE",
        -11.68699836730957
      ],
      [
        "bitmap",
        -12.002442359924316
      ],
      [
        "Storage",
        -11.88321304321289
      ],
      [
        "RES",
        -11.894603729248049
      ],
      [
        "▁EINVAL",
        -13.177323341369627
      ],
      [
        "exec",
        -11.479132652282717
      ],
      [
        "▁needed",
        -11.531513214111328
      ],
      [
        "less",
        -11.110042572021484
      ],
      [
        "▁glGet",
        -13.01035213470459
      ],
      [
        "dl",
        -11.751360893249512
      ],
      [
        "ADC",
        -11.827305793762209
      ],
      [
        "sta",
        -11.760750770568848
      ],
      [
        "▁between",
        -10.539231300354004
      ],
      [
        "NOT",
        -10.867199897766112
      ],
      [
        "MR",
        -12.055834770202637
      ],
      [
        "lower",
        -12.439841270446776
      ],
      [
        "pix",
        -12.201223373413086
      ],
      [
        "GE",
        -11.74427604675293
      ],
      [
        "entity",
        -12.4124174118042
      ],
      [
        "Find",
        -12.391668319702148
      ],
      [
        "▁except",
        -11.461700439453123
      ],
      [
        "▁description",
        -11.496091842651367
      ],
      [
        "CONTROL",
        -12.035990715026855
      ],
      [
        "stmt",
        -11.989723205566406
      ],
      [
        "CHANNEL",
        -12.04074001312256
      ],
      [
        "decode",
        -11.918305397033691
      ],
      [
        "arm",
        -11.698596954345703
      ],
      [
        "Or",
        -11.573923110961914
      ],
      [
        "DAC",
        -12.382562637329102
      ],
      [
        "VT",
        -11.999795913696287
      ],
      [
        "Session",
        -11.743288040161133
      ],
      [
        "RS",
        -11.69837760925293
      ],
      [
        "CU",
        -11.891749382019045
      ],
      [
        "Tree",
        -11.560851097106934
      ],
      [
        "Layout",
        -11.618144989013672
      ],
      [
        "conn",
        -10.87051486968994
      ],
      [
        "▁ss",
        -12.461329460144045
      ],
      [
        "cond",
        -11.809651374816896
      ],
      [
        "ERROR",
        -9.892885208129885
      ],
      [
        "SEC",
        -11.519000053405762
      ],
      [
        "um",
        -10.430607795715332
      ],
      [
        "FORM",
        -11.79991340637207
      ],
      [
        "CAP",
        -11.774909019470217
      ],
      [
        "throw",
        -12.144403457641602
      ],
      [
        "ag",
        -11.350817680358888
      ],
      [
        "LCD",
        -12.246224403381348
      ],
      [
        "URL",
        -11.608251571655272
      ],
      [
        "tch",
        -12.604900360107422
      ],
      [
        "▁elif",
        -13.36782455444336
      ],
      [
        "align",
        -10.113286018371582
      ],
      [
        "gt",
        -11.958426475524902
      ],
      [
        "▁expression",
        -11.590197563171388
      ],
      [
        "slice",
        -12.22628116607666
      ],
      [
        "aa",
        -12.083386421203612
      ],
      [
        "At",
        -11.572294235229492
      ],
      [
        "▁implied",
        -11.505191802978516
      ],
      [
        "STACK",
        -11.867966651916504
      ],
      [
        "▁generated",
        -11.74712371826172
      ],
      [
        "eq",
        -11.589256286621094
      ],
      [
        "old",
        -10.590847969055176
      ],
      [
        "sens",
        -12.228029251098633
      ],
      [
        "Controller",
        -11.754111289978027
      ],
      [
        "▁optional",
        -12.336286544799805
      ],
      [
        "Null",
        -11.814557075500488
      ],
      [
        "XXX",
        -12.295035362243652
      ],
      [
        "vector",
        -10.320508003234863
      ],
      [
        "▁arguments",
        -11.687146186828612
      ],
      [
        "safe",
        -12.15456771850586
      ],
      [
        "tls",
        -12.01535987854004
      ],
      [
        "case",
        -8.565414428710938
      ],
      [
        "FROM",
        -12.409229278564451
      ],
      [
        "▁lpVtbl",
        -16.465396881103516
      ],
      [
        "tail",
        -11.551438331604004
      ],
      [
        "delta",
        -12.122190475463867
      ],
      [
        "▁NEXT",
        -14.74124240875244
      ],
      [
        "mesh",
        -12.002565383911133
      ],
      [
        "▁documentation",
        -11.578591346740724
      ],
      [
        "▁retain",
        -12.077703475952148
      ],
      [
        "Reserved",
        -11.824721336364746
      ],
      [
        "CONTRACT",
        -11.862812995910645
      ],
      [
        "Operation",
        -11.530770301818848
      ],
      [
        "oc",
        -11.170804023742676
      ],
      [
        "arr",
        -11.789710998535156
      ],
      [
        "Remove",
        -11.715567588806152
      ],
      [
        "▁reply",
        -12.586286544799805
      ],
      [
        "Reference",
        -11.564632415771484
      ],
      [
        "▁COPYRIGHT",
        -11.816964149475098
      ],
      [
        "POS",
        -11.960687637329102
      ],
      [
        "sr",
        -11.912223815917969
      ],
      [
        "▁lookup",
        -12.701687812805176
      ],
      [
        "ENTRY",
        -11.142454147338867
      ],
      [
        "nc",
        -11.98770809173584
      ],
      [
        "▁protected",
        -10.305334091186523
      ],
      [
        "PROP",
        -12.192188262939451
      ],
      [
        "Space",
        -11.455177307128906
      ],
      [
        "Protocol",
        -11.762029647827148
      ],
      [
        "ha",
        -10.668095588684082
      ],
      [
        "AUTO",
        -12.125707626342772
      ],
      [
        "▁basic",
        -12.210323333740234
      ],
      [
        "fixed",
        -12.385427474975586
      ],
      [
        "hal",
        -11.682930946350098
      ],
      [
        "prod",
        -12.994229316711426
      ],
      [
        "Bytes",
        -11.85609531402588
      ],
      [
        "TP",
        -11.61935329437256
      ],
      [
        "random",
        -12.338788032531738
      ],
      [
        "LT",
        -12.062501907348633
      ],
      [
        "CONNECT",
        -11.94621467590332
      ],
      [
        "Identifier",
        -11.822147369384766
      ],
      [
        "VA",
        -12.00123405456543
      ],
      [
        "Cell",
        -11.619552612304688
      ],
      [
        "FA",
        -11.079100608825684
      ],
      [
        "SYNC",
        -12.04831886291504
      ],
      [
        "USB",
        -11.353493690490724
      ],
      [
        "assert",
        -10.347333908081056
      ],
      [
        "Args",
        -11.922788619995115
      ],
      [
        "rep",
        -11.549695014953612
      ],
      [
        "Parameters",
        -11.551199913024902
      ],
      [
        "poll",
        -11.793867111206056
      ],
      [
        "speed",
        -12.221731185913086
      ],
      [
        "▁character",
        -11.387103080749512
      ],
      [
        "Define",
        -13.193615913391112
      ],
      [
        "▁vtk",
        -11.99748992919922
      ],
      [
        "Host",
        -11.671564102172852
      ],
      [
        "▁payload",
        -12.637704849243164
      ],
      [
        "YTHON",
        -12.019805908203123
      ],
      [
        "board",
        -11.532052993774414
      ],
      [
        "▁associated",
        -11.437652587890623
      ],
      [
        "bound",
        -11.513484001159668
      ],
      [
        "Font",
        -11.823612213134766
      ],
      [
        "▁llvm",
        -12.661018371582031
      ],
      [
        "▁could",
        -10.65959644317627
      ],
      [
        "Enum",
        -11.96328353881836
      ],
      [
        "bool",
        -9.664681434631348
      ],
      [
        "dbg",
        -12.14803409576416
      ],
      [
        "vt",
        -12.182424545288086
      ],
      [
        "▁being",
        -10.668437004089355
      ],
      [
        "FR",
        -11.962957382202148
      ],
      [
        "▁directory",
        -11.867772102355955
      ],
      [
        "pop",
        -11.588409423828123
      ],
      [
        "▁objects",
        -11.756264686584473
      ],
      [
        "▁terms",
        -11.283605575561523
      ],
      [
        "▁remote",
        -12.37026596069336
      ],
      [
        "vi",
        -11.49840259552002
      ],
      [
        "▁disclaimer",
        -11.665416717529297
      ],
      [
        "red",
        -10.92889404296875
      ],
      [
        "Content",
        -11.37331485748291
      ],
      [
        "HOST",
        -12.011438369750977
      ],
      [
        "copy",
        -10.78886890411377
      ],
      [
        "Cmd",
        -11.98392391204834
      ],
      [
        "First",
        -11.867627143859863
      ],
      [
        "STREAM",
        -12.01977252960205
      ],
      [
        "▁compiler",
        -12.327211380004885
      ],
      [
        "normal",
        -12.328518867492676
      ],
      [
        "▁vscale",
        -16.231210708618164
      ],
      [
        "priority",
        -12.683411598205566
      ],
      [
        "COM",
        -11.722064018249512
      ],
      [
        "Match",
        -11.859148979187012
      ],
      [
        "▁sent",
        -11.719633102416992
      ],
      [
        "FIX",
        -12.093003273010254
      ],
      [
        "▁opcode",
        -12.784839630126951
      ],
      [
        "When",
        -12.815881729125977
      ],
      [
        "Loc",
        -11.971551895141602
      ],
      [
        "ating",
        -11.15332317352295
      ],
      [
        "ost",
        -12.787089347839355
      ],
      [
        "LED",
        -11.94981861114502
      ],
      [
        "▁allow",
        -11.926519393920898
      ],
      [
        "FL",
        -11.75589656829834
      ],
      [
        "scope",
        -11.449825286865234
      ],
      [
        "cert",
        -11.951923370361328
      ],
      [
        "cons",
        -11.926955223083496
      ],
      [
        "Component",
        -11.69614028930664
      ],
      [
        "FRAME",
        -12.15170669555664
      ],
      [
        "▁STATIC",
        -12.350680351257324
      ],
      [
        "TI",
        -11.830912590026855
      ],
      [
        "▁about",
        -9.919174194335938
      ],
      [
        "Pool",
        -11.60986614227295
      ],
      [
        "EL",
        -11.47475242614746
      ],
      [
        "LINK",
        -11.928850173950195
      ],
      [
        "join",
        -12.2440185546875
      ],
      [
        "div",
        -10.676776885986328
      ],
      [
        "Inst",
        -12.137660026550291
      ],
      [
        "vl",
        -12.28226375579834
      ],
      [
        "OPEN",
        -11.766698837280272
      ],
      [
        "serial",
        -11.71435546875
      ],
      [
        "encoding",
        -12.398758888244627
      ],
      [
        "merge",
        -12.653117179870604
      ],
      [
        "EQ",
        -12.038041114807127
      ],
      [
        "Async",
        -12.189162254333496
      ],
      [
        "CNT",
        -12.46865177154541
      ],
      [
        "Box",
        -11.412429809570312
      ],
      [
        "▁PHP",
        -12.121710777282717
      ],
      [
        "vc",
        -12.116788864135742
      ],
      [
        "meta",
        -11.605506896972656
      ],
      [
        "ITEM",
        -12.0989408493042
      ],
      [
        "ND",
        -11.698979377746582
      ],
      [
        "STD",
        -11.939345359802246
      ],
      [
        "length",
        -10.296525955200195
      ],
      [
        "▁cleanup",
        -11.771397590637209
      ],
      [
        "width",
        -10.667266845703123
      ],
      [
        "ANT",
        -11.848437309265137
      ],
      [
        "ency",
        -11.751709938049316
      ],
      [
        "Template",
        -11.93449878692627
      ],
      [
        "Rx",
        -12.189491271972656
      ],
      [
        "Audio",
        -11.776991844177246
      ],
      [
        "▁stbi",
        -12.607061386108398
      ],
      [
        "usage",
        -12.267393112182615
      ],
      [
        "att",
        -11.825592041015623
      ],
      [
        "ga",
        -11.111997604370115
      ],
      [
        "rx",
        -10.99940299987793
      ],
      [
        "Configuration",
        -11.861076354980469
      ],
      [
        "Vk",
        -11.76149845123291
      ],
      [
        "pages",
        -12.247632026672363
      ],
      [
        "LOW",
        -12.076210975646973
      ],
      [
        "rule",
        -12.24856185913086
      ],
      [
        "▁scalar",
        -12.63166046142578
      ],
      [
        "ting",
        -10.84157371520996
      ],
      [
        "eval",
        -12.23537254333496
      ],
      [
        "Active",
        -11.852208137512209
      ],
      [
        "audio",
        -12.343381881713867
      ],
      [
        "▁warning",
        -12.139958381652832
      ],
      [
        "COPY",
        -11.863021850585938
      ],
      [
        "complex",
        -12.329771995544434
      ],
      [
        "BACK",
        -11.776700019836426
      ],
      [
        "▁these",
        -10.605806350708008
      ],
      [
        "▁EXTI",
        -13.32394027709961
      ],
      [
        "▁ASN",
        -12.90925121307373
      ],
      [
        "▁Redistributions",
        -11.752596855163574
      ],
      [
        "▁licenses",
        -13.517635345458984
      ],
      [
        "plan",
        -12.096617698669434
      ],
      [
        "ry",
        -9.736536026000977
      ],
      [
        "▁cplusplus",
        -18.594823837280273
      ],
      [
        "Close",
        -11.514074325561523
      ],
      [
        "▁HAS",
        -13.27271842956543
      ],
      [
        "CONF",
        -12.177770614624023
      ],
      [
        "RNA",
        -11.971253395080566
      ],
      [
        "ve",
        -11.041687965393066
      ],
      [
        "▁changed",
        -11.761513710021973
      ],
      [
        "▁created",
        -11.186232566833496
      ],
      [
        "VER",
        -11.892407417297363
      ],
      [
        "uct",
        -13.760335922241213
      ],
      [
        "▁language",
        -11.14583683013916
      ],
      [
        "wm",
        -12.168049812316896
      ],
      [
        "Transform",
        -11.909436225891112
      ],
      [
        "HEADER",
        -11.93881130218506
      ],
      [
        "wp",
        -11.84335231781006
      ],
      [
        "Unit",
        -11.671443939208984
      ],
      [
        "TARGET",
        -11.96144676208496
      ],
      [
        "▁fast",
        -12.29274559020996
      ],
      [
        "like",
        -11.331916809082031
      ],
      [
        "▁DAMAGES",
        -11.957454681396484
      ],
      [
        "RET",
        -11.41790008544922
      ],
      [
        "mx",
        -12.460535049438477
      ],
      [
        "Make",
        -12.714831352233888
      ],
      [
        "CLOCK",
        -12.196822166442873
      ],
      [
        "▁pthread",
        -12.490022659301758
      ],
      [
        "DL",
        -11.639996528625488
      ],
      [
        "▁permission",
        -11.549020767211914
      ],
      [
        "BUS",
        -12.18044376373291
      ],
      [
        "tor",
        -11.240363121032717
      ],
      [
        "▁cannot",
        -11.63249397277832
      ],
      [
        "rea",
        -12.17108154296875
      ],
      [
        "pv",
        -12.016714096069336
      ],
      [
        "ind",
        -11.567716598510742
      ],
      [
        "engine",
        -12.20629596710205
      ],
      [
        "▁YY",
        -12.314763069152832
      ],
      [
        "ort",
        -11.164955139160156
      ],
      [
        "rq",
        -12.300422668457031
      ],
      [
        "STRUCT",
        -12.090344429016112
      ],
      [
        "Row",
        -11.636592864990234
      ],
      [
        "ers",
        -9.784690856933594
      ],
      [
        "Layer",
        -11.9969482421875
      ],
      [
        "OID",
        -11.949338912963867
      ],
      [
        "GET",
        -10.67572784423828
      ],
      [
        "▁DECLARE",
        -12.514653205871582
      ],
      [
        "img",
        -12.289414405822754
      ],
      [
        "▁google",
        -13.482884407043455
      ],
      [
        "NL",
        -12.08953094482422
      ],
      [
        "fix",
        -11.694047927856444
      ],
      [
        "MUX",
        -12.229693412780762
      ],
      [
        "Private",
        -11.575203895568848
      ],
      [
        "RESULT",
        -11.833942413330078
      ],
      [
        "▁CRYPTO",
        -13.358346939086914
      ],
      [
        "▁codec",
        -13.428208351135254
      ],
      [
        "BF",
        -12.134126663208008
      ],
      [
        "EW",
        -12.261603355407717
      ],
      [
        "PAD",
        -12.44477653503418
      ],
      [
        "FREE",
        -11.871224403381348
      ],
      [
        "RB",
        -11.99103832244873
      ],
      [
        "ization",
        -11.083953857421877
      ],
      [
        "sv",
        -12.040167808532717
      ],
      [
        "video",
        -12.132037162780762
      ],
      [
        "Def",
        -11.850510597229004
      ],
      [
        "arch",
        -11.596277236938477
      ],
      [
        "button",
        -12.213595390319824
      ],
      [
        "EB",
        -12.107569694519045
      ],
      [
        "ger",
        -11.30799674987793
      ],
      [
        "▁bfd",
        -12.430521965026855
      ],
      [
        "▁them",
        -10.44198513031006
      ],
      [
        "added",
        -13.007914543151855
      ],
      [
        "Video",
        -11.919733047485352
      ],
      [
        "CONTEXT",
        -12.145622253417969
      ],
      [
        "▁EVP",
        -12.662853240966797
      ],
      [
        "pe",
        -10.94857406616211
      ],
      [
        "Run",
        -12.265178680419922
      ],
      [
        "ated",
        -10.743677139282228
      ],
      [
        "ii",
        -11.636012077331545
      ],
      [
        "CAL",
        -12.645681381225586
      ],
      [
        "GROUP",
        -12.105072021484377
      ],
      [
        "Style",
        -11.65472412109375
      ],
      [
        "PF",
        -11.593705177307127
      ],
      [
        "TMP",
        -12.78818702697754
      ],
      [
        "ept",
        -12.73112964630127
      ],
      [
        "way",
        -11.355162620544434
      ],
      [
        "LY",
        -11.721067428588867
      ],
      [
        "USE",
        -11.018857955932615
      ],
      [
        "Library",
        -12.190539360046388
      ],
      [
        "constant",
        -12.522516250610352
      ],
      [
        "WR",
        -12.148639678955078
      ],
      [
        "next",
        -10.137042045593262
      ],
      [
        "RF",
        -11.994104385375977
      ],
      [
        "▁they",
        -10.052565574645996
      ],
      [
        "led",
        -11.225859642028809
      ],
      [
        "CLIENT",
        -12.155046463012695
      ],
      [
        "CSR",
        -12.360992431640623
      ],
      [
        "temp",
        -10.662070274353027
      ],
      [
        "receive",
        -12.388065338134766
      ],
      [
        "ist",
        -10.842802047729492
      ],
      [
        "▁friend",
        -11.80203342437744
      ],
      [
        "rpc",
        -12.15212345123291
      ],
      [
        "POINT",
        -12.045257568359377
      ],
      [
        "IMAGE",
        -11.926615715026855
      ],
      [
        "▁generic",
        -12.549647331237791
      ],
      [
        "▁EXPRESS",
        -11.971209526062012
      ],
      [
        "plane",
        -11.92513656616211
      ],
      [
        "od",
        -11.413756370544434
      ],
      [
        "▁extension",
        -12.212791442871094
      ],
      [
        "▁metadata",
        -12.680541038513184
      ],
      [
        "ef",
        -9.79538917541504
      ],
      [
        "WAIT",
        -12.18393898010254
      ],
      [
        "nk",
        -12.058232307434082
      ],
      [
        "ize",
        -11.329726219177246
      ],
      [
        "ACTION",
        -12.023136138916016
      ],
      [
        "que",
        -11.204001426696776
      ],
      [
        "cu",
        -11.719282150268556
      ],
      [
        "cycle",
        -11.837002754211426
      ],
      [
        "drv",
        -12.031310081481934
      ],
      [
        "▁OTHER",
        -12.315773963928224
      ],
      [
        "opts",
        -12.0743989944458
      ],
      [
        "edit",
        -11.858895301818848
      ],
      [
        "Render",
        -12.014766693115234
      ],
      [
        "▁writing",
        -11.45559787750244
      ],
      [
        "wr",
        -12.002874374389648
      ],
      [
        "cv",
        -12.155674934387209
      ],
      [
        "policy",
        -12.40560817718506
      ],
      [
        "Container",
        -11.937796592712402
      ],
      [
        "▁based",
        -10.61607837677002
      ],
      [
        "ASSERT",
        -10.78884983062744
      ],
      [
        "PRI",
        -12.242856979370115
      ],
      [
        "Rec",
        -11.889300346374512
      ],
      [
        "sem",
        -12.046170234680176
      ],
      [
        "▁controller",
        -12.207361221313477
      ],
      [
        "tri",
        -11.922557830810549
      ],
      [
        "Shader",
        -12.137459754943848
      ],
      [
        "FILTER",
        -12.166651725769045
      ],
      [
        "RANGE",
        -12.173681259155272
      ],
      [
        "▁drm",
        -12.589259147644045
      ],
      [
        "disk",
        -12.60622501373291
      ],
      [
        "NF",
        -12.613665580749512
      ],
      [
        "ut",
        -11.246792793273926
      ],
      [
        "CACHE",
        -12.16218376159668
      ],
      [
        "▁both",
        -10.850444793701172
      ],
      [
        "menu",
        -12.218036651611328
      ],
      [
        "ole",
        -11.92323398590088
      ],
      [
        "lines",
        -11.949191093444824
      ],
      [
        "▁different",
        -11.061659812927246
      ],
      [
        "gre",
        -12.375850677490234
      ],
      [
        "dx",
        -12.302906036376951
      ],
      [
        "LS",
        -11.67943286895752
      ],
      [
        "MEMORY",
        -11.95680046081543
      ],
      [
        "lf",
        -12.45249843597412
      ],
      [
        "HD",
        -11.983614921569824
      ],
      [
        "tk",
        -12.107008934020996
      ],
      [
        "nam",
        -12.736650466918944
      ],
      [
        "Idx",
        -12.264730453491213
      ],
      [
        "mu",
        -11.622218132019045
      ],
      [
        "▁netdev",
        -13.066622734069824
      ],
      [
        "▁winrt",
        -13.636102676391602
      ],
      [
        "Co",
        -11.683652877807615
      ],
      [
        "▁selected",
        -11.831707000732422
      ],
      [
        "▁setting",
        -11.936793327331545
      ],
      [
        "DM",
        -11.980758666992188
      ],
      [
        "Term",
        -12.184965133666992
      ],
      [
        "split",
        -12.088212013244627
      ],
      [
        "▁verify",
        -12.735437393188477
      ],
      [
        "adj",
        -12.455101013183594
      ],
      [
        "FMT",
        -12.228687286376951
      ],
      [
        "oy",
        -11.569207191467283
      ],
      [
        "▁distribution",
        -11.337201118469238
      ],
      [
        "Last",
        -11.921080589294434
      ],
      [
        "ids",
        -11.79736614227295
      ],
      [
        "ARE",
        -11.505821228027344
      ],
      [
        "half",
        -12.672048568725586
      ],
      [
        "trigger",
        -12.665271759033203
      ],
      [
        "▁passed",
        -11.730718612670898
      ],
      [
        "Vertex",
        -12.03794765472412
      ],
      [
        "▁LIABLE",
        -12.021729469299316
      ],
      [
        "▁PROVIDED",
        -12.045683860778809
      ],
      [
        "PK",
        -12.251148223876951
      ],
      [
        "Location",
        -11.326860427856444
      ],
      [
        "▁explicit",
        -12.100882530212402
      ],
      [
        "CY",
        -12.157008171081545
      ],
      [
        "▁endpoint",
        -12.50793743133545
      ],
      [
        "wl",
        -12.132052421569824
      ],
      [
        "▁GLfloat",
        -12.902175903320312
      ],
      [
        "Wait",
        -11.868685722351074
      ],
      [
        "Pixel",
        -12.141698837280272
      ],
      [
        "Net",
        -11.759588241577148
      ],
      [
        "ng",
        -11.089707374572754
      ],
      [
        "▁SHALL",
        -12.051886558532717
      ],
      [
        "ACT",
        -11.89968490600586
      ],
      [
        "▁instead",
        -11.573814392089844
      ],
      [
        "▁later",
        -10.91924285888672
      ],
      [
        "Socket",
        -12.030566215515137
      ],
      [
        "om",
        -11.677932739257812
      ],
      [
        "▁pdev",
        -14.32711124420166
      ],
      [
        "EXIT",
        -11.806997299194336
      ],
      [
        "▁original",
        -11.26522445678711
      ],
      [
        "DEBUG",
        -10.482693672180176
      ],
      [
        "Double",
        -11.648072242736816
      ],
      [
        "Network",
        -12.130910873413086
      ],
      [
        "Mono",
        -12.160454750061035
      ],
      [
        "▁WHETHER",
        -12.052456855773926
      ],
      [
        "Non",
        -12.084516525268556
      ],
      [
        "OT",
        -11.96445083618164
      ],
      [
        "partition",
        -12.697588920593262
      ],
      [
        "▁channels",
        -12.302520751953123
      ],
      [
        "▁compute",
        -12.361076354980469
      ],
      [
        "REGISTER",
        -12.19866943359375
      ],
      [
        "Auto",
        -11.656450271606444
      ],
      [
        "▁DECREF",
        -17.5269718170166
      ],
      [
        "▁maximum",
        -11.947954177856444
      ],
      [
        "compress",
        -12.190093040466309
      ],
      [
        "SCAN",
        -12.466238975524902
      ],
      [
        "Only",
        -12.411114692687988
      ],
      [
        "Height",
        -11.955918312072754
      ],
      [
        "▁such",
        -10.61133861541748
      ],
      [
        "Err",
        -11.779501914978027
      ],
      [
        "BD",
        -12.02805995941162
      ],
      [
        "ty",
        -10.196500778198242
      ],
      [
        "▁ImGui",
        -12.459285736083984
      ],
      [
        "▁FAILURE",
        -13.199051856994627
      ],
      [
        "bm",
        -12.225090026855469
      ],
      [
        "Compare",
        -12.143026351928713
      ],
      [
        "pic",
        -12.02948760986328
      ],
      [
        "▁simple",
        -11.856082916259766
      ],
      [
        "qp",
        -12.511045455932615
      ],
      [
        "ver",
        -10.772178649902344
      ],
      [
        "boot",
        -11.8270845413208
      ],
      [
        "pw",
        -12.330034255981444
      ],
      [
        "bs",
        -11.622830390930176
      ],
      [
        "fr",
        -11.85360336303711
      ],
      [
        "hp",
        -11.560803413391112
      ],
      [
        "Generic",
        -12.037941932678224
      ],
      [
        "Up",
        -11.873563766479492
      ],
      [
        "▁previous",
        -11.722919464111328
      ],
      [
        "ck",
        -11.386387825012209
      ],
      [
        "Option",
        -12.103498458862305
      ],
      [
        "▁actual",
        -11.972100257873535
      ],
      [
        "TEXT",
        -12.10862159729004
      ],
      [
        "▁methods",
        -11.626338005065918
      ],
      [
        "▁errors",
        -12.131637573242188
      ],
      [
        "LOCAL",
        -12.0817232131958
      ],
      [
        "FI",
        -11.774456977844238
      ],
      [
        "cipher",
        -12.082915306091309
      ],
      [
        "sup",
        -12.72247314453125
      ],
      [
        "EXP",
        -11.817258834838867
      ],
      [
        "bg",
        -11.957205772399902
      ],
      [
        "▁PYX",
        -18.751344680786133
      ],
      [
        "▁possible",
        -11.374670028686523
      ],
      [
        "AST",
        -11.962130546569824
      ],
      [
        "angle",
        -11.848563194274902
      ],
      [
        "IA",
        -11.678625106811523
      ],
      [
        "ADDRESS",
        -12.252470016479492
      ],
      [
        "Counter",
        -12.064270973205566
      ],
      [
        "▁timestamp",
        -12.658344268798828
      ],
      [
        "▁ARISING",
        -12.204724311828612
      ],
      [
        "▁Apache",
        -11.977006912231444
      ],
      [
        "PH",
        -11.813507080078123
      ],
      [
        "family",
        -12.019892692565918
      ],
      [
        "IB",
        -11.865543365478516
      ],
      [
        "NR",
        -11.961185455322266
      ],
      [
        "Widget",
        -11.947855949401855
      ],
      [
        "FN",
        -11.93188762664795
      ],
      [
        "ol",
        -11.330562591552734
      ],
      [
        "FEATURE",
        -12.152393341064451
      ],
      [
        "generate",
        -12.464227676391602
      ],
      [
        "TIMEOUT",
        -12.23409938812256
      ],
      [
        "Program",
        -12.15263843536377
      ],
      [
        "na",
        -10.630026817321776
      ],
      [
        "NC",
        -11.85342502593994
      ],
      [
        "mo",
        -11.015899658203123
      ],
      [
        "ay",
        -11.65324878692627
      ],
      [
        "▁custom",
        -12.166581153869627
      ],
      [
        "render",
        -12.131632804870604
      ],
      [
        "nat",
        -11.979952812194824
      ],
      [
        "Settings",
        -12.045173645019531
      ],
      [
        "BSD",
        -11.944881439208984
      ],
      [
        "▁async",
        -12.955219268798828
      ],
      [
        "▁sin",
        -13.503623008728027
      ],
      [
        "most",
        -12.539599418640137
      ],
      [
        "BU",
        -12.261775016784668
      ],
      [
        "routine",
        -12.952322959899902
      ],
      [
        "BM",
        -12.394003868103027
      ],
      [
        "IV",
        -11.52480411529541
      ],
      [
        "WS",
        -12.270527839660645
      ],
      [
        "Ret",
        -11.993081092834473
      ],
      [
        "vars",
        -12.217066764831545
      ],
      [
        "▁builtin",
        -13.72028636932373
      ],
      [
        "SOURCE",
        -12.268924713134766
      ],
      [
        "Graph",
        -11.96810817718506
      ],
      [
        "manager",
        -12.282022476196287
      ],
      [
        "fw",
        -12.04485034942627
      ],
      [
        "HAL",
        -11.373822212219238
      ],
      [
        "dot",
        -11.792755126953123
      ],
      [
        "▁too",
        -11.246017456054688
      ],
      [
        "COMMAND",
        -12.312226295471191
      ],
      [
        "▁WINAPI",
        -11.913620948791504
      ],
      [
        "▁external",
        -12.19459629058838
      ],
      [
        "snprintf",
        -12.376977920532228
      ],
      [
        "ub",
        -11.909221649169922
      ],
      [
        "ws",
        -11.895631790161133
      ],
      [
        "▁what",
        -10.427281379699709
      ],
      [
        "zone",
        -11.960281372070312
      ],
      [
        "▁CONTRIBUTORS",
        -12.076003074645996
      ],
      [
        "▁identifier",
        -12.382332801818848
      ],
      [
        "light",
        -11.621886253356934
      ],
      [
        "Build",
        -11.874638557434082
      ],
      [
        "proxy",
        -12.444781303405762
      ],
      [
        "Enabled",
        -12.12120246887207
      ],
      [
        "Sample",
        -12.062211990356444
      ],
      [
        "Convert",
        -11.922725677490234
      ],
      [
        "POWER",
        -12.21469497680664
      ],
      [
        "▁xFE",
        -19.22776222229004
      ],
      [
        "▁including",
        -10.965025901794434
      ],
      [
        "ov",
        -11.428067207336426
      ],
      [
        "CG",
        -11.718939781188965
      ],
      [
        "aux",
        -12.048495292663574
      ],
      [
        "▁multiple",
        -11.457571029663086
      ],
      [
        "▁apply",
        -12.196927070617676
      ],
      [
        "Has",
        -12.324807167053224
      ],
      [
        "SO",
        -11.603225708007812
      ],
      [
        "▁would",
        -10.220767974853516
      ],
      [
        "ble",
        -11.779553413391112
      ],
      [
        "mr",
        -12.170188903808594
      ],
      [
        "▁TODO",
        -12.034696578979492
      ],
      [
        "boolean",
        -12.012458801269531
      ],
      [
        "Word",
        -11.924439430236816
      ],
      [
        "hci",
        -12.456107139587402
      ],
      [
        "▁machine",
        -12.22035312652588
      ],
      [
        "cx",
        -12.378355026245115
      ],
      [
        "eth",
        -11.79909610748291
      ],
      [
        "upper",
        -12.60855770111084
      ],
      [
        "condition",
        -12.180357933044434
      ],
      [
        "dis",
        -10.309202194213867
      ],
      [
        "bucket",
        -12.49639129638672
      ],
      [
        "NEW",
        -12.000415802001951
      ],
      [
        "own",
        -12.390819549560549
      ],
      [
        "bio",
        -12.089513778686523
      ],
      [
        "PRINT",
        -12.188051223754885
      ],
      [
        "HP",
        -12.08315086364746
      ],
      [
        "NE",
        -11.498796463012695
      ],
      [
        "▁apache",
        -14.628478050231934
      ],
      [
        "▁dispatch",
        -12.81091594696045
      ],
      [
        "▁BAD",
        -13.736522674560549
      ],
      [
        "MESSAGE",
        -12.237924575805664
      ],
      [
        "vf",
        -12.549172401428224
      ],
      [
        "bot",
        -11.527658462524414
      ],
      [
        "RST",
        -12.735540390014648
      ],
      [
        "Save",
        -11.927774429321287
      ],
      [
        "▁caller",
        -12.175580024719238
      ],
      [
        "▁xffffff",
        -42.41978454589844
      ],
      [
        "Real",
        -12.27931785583496
      ],
      [
        "▁ipv",
        -13.608723640441896
      ],
      [
        "cpu",
        -10.983670234680176
      ],
      [
        "SQL",
        -11.726923942565918
      ],
      [
        "OD",
        -12.284618377685549
      ],
      [
        "▁QString",
        -12.422446250915527
      ],
      [
        "▁execute",
        -12.317008972167969
      ],
      [
        "Scalar",
        -12.258917808532717
      ],
      [
        "day",
        -11.403429985046388
      ],
      [
        "PRO",
        -12.053921699523926
      ],
      [
        "SK",
        -11.900851249694824
      ],
      [
        "▁https",
        -12.055017471313477
      ],
      [
        "ud",
        -11.893264770507812
      ],
      [
        "der",
        -10.905196189880373
      ],
      [
        "Attr",
        -12.25265121459961
      ],
      [
        "Pass",
        -11.830697059631348
      ],
      [
        "WIDTH",
        -12.264328956604004
      ],
      [
        "▁signed",
        -11.888776779174805
      ],
      [
        "▁insn",
        -13.369120597839355
      ],
      [
        "BL",
        -11.847167015075684
      ],
      [
        "HT",
        -12.3927583694458
      ],
      [
        "▁PyErr",
        -12.342767715454102
      ],
      [
        "▁database",
        -11.868372917175291
      ],
      [
        "Sync",
        -12.12844181060791
      ],
      [
        "Assert",
        -11.978002548217772
      ],
      [
        "BN",
        -12.17888355255127
      ],
      [
        "▁OTHERWISE",
        -12.244491577148438
      ],
      [
        "Stop",
        -11.89435863494873
      ],
      [
        "ling",
        -11.02818202972412
      ],
      [
        "SAM",
        -12.793573379516602
      ],
      [
        "VI",
        -11.762251853942873
      ],
      [
        "SYSTEM",
        -12.241713523864746
      ],
      [
        "▁copies",
        -11.778379440307615
      ],
      [
        "ae",
        -11.345858573913574
      ],
      [
        "▁attributes",
        -12.263111114501951
      ],
      [
        "Move",
        -12.012580871582031
      ],
      [
        "▁Tcl",
        -12.439212799072266
      ],
      [
        "Destroy",
        -11.867082595825195
      ],
      [
        "Spec",
        -11.867680549621582
      ],
      [
        "SG",
        -12.219008445739746
      ],
      [
        "Delegate",
        -12.110243797302246
      ],
      [
        "▁zval",
        -14.024577140808104
      ],
      [
        "Application",
        -11.66038703918457
      ],
      [
        "unused",
        -12.624037742614746
      ],
      [
        "owner",
        -12.177929878234863
      ],
      [
        "ISR",
        -12.587997436523438
      ],
      [
        "▁registers",
        -12.195573806762695
      ],
      [
        "rl",
        -12.011735916137695
      ],
      [
        "▁until",
        -11.102355003356934
      ],
      [
        "og",
        -11.900297164916992
      ],
      [
        "abi",
        -12.11463737487793
      ],
      [
        "St",
        -11.918386459350586
      ],
      [
        "pu",
        -11.84678554534912
      ],
      [
        "▁instruction",
        -12.2175931930542
      ],
      [
        "ACTIVE",
        -12.339390754699709
      ],
      [
        "▁TORT",
        -12.161738395690918
      ],
      [
        "ele",
        -11.689510345458984
      ],
      [
        "▁AWS",
        -12.980572700500488
      ],
      [
        "Const",
        -12.026723861694336
      ],
      [
        "aw",
        -11.68709659576416
      ],
      [
        "▁APB",
        -14.299379348754885
      ],
      [
        "▁wchar",
        -13.066611289978027
      ],
      [
        "Scan",
        -12.005995750427246
      ],
      [
        "THREAD",
        -12.07347011566162
      ],
      [
        "▁NRFX",
        -12.098421096801758
      ],
      [
        "▁calls",
        -12.05673599243164
      ],
      [
        "SUPPORT",
        -11.509836196899414
      ],
      [
        "CLR",
        -12.615275382995604
      ],
      [
        "uid",
        -12.070825576782228
      ],
      [
        "DESC",
        -12.27553367614746
      ],
      [
        "we",
        -11.737406730651855
      ],
      [
        "ies",
        -10.68964672088623
      ],
      [
        "▁during",
        -10.731607437133787
      ],
      [
        "CLEAR",
        -12.284192085266112
      ],
      [
        "fv",
        -12.46694278717041
      ],
      [
        "comm",
        -11.779348373413086
      ],
      [
        "▁SOC",
        -13.60933780670166
      ],
      [
        "Compute",
        -12.234940528869627
      ],
      [
        "big",
        -12.179889678955078
      ],
      [
        "tex",
        -11.929323196411133
      ],
      [
        "Extension",
        -12.152645111083984
      ],
      [
        "▁WARRANTY",
        -11.953797340393066
      ],
      [
        "axis",
        -12.654470443725586
      ],
      [
        "device",
        -10.197905540466309
      ],
      [
        "color",
        -10.861194610595703
      ],
      [
        "dist",
        -11.756356239318848
      ],
      [
        "tbl",
        -12.36202907562256
      ],
      [
        "LC",
        -11.963000297546388
      ],
      [
        "Stmt",
        -12.117568969726562
      ],
      [
        "SYMBOL",
        -12.111072540283203
      ],
      [
        "▁sha",
        -13.281328201293944
      ],
      [
        "JSON",
        -11.931038856506348
      ],
      [
        "Variable",
        -12.13766384124756
      ],
      [
        "▁xfe",
        -20.704118728637695
      ],
      [
        "STOP",
        -12.39193058013916
      ],
      [
        "▁EXTERN",
        -12.684476852416992
      ],
      [
        "flash",
        -12.682025909423828
      ],
      [
        "TA",
        -11.753999710083008
      ],
      [
        "Col",
        -12.00035572052002
      ],
      [
        "ei",
        -11.765209197998049
      ],
      [
        "sleep",
        -12.208529472351074
      ],
      [
        "txt",
        -12.190434455871582
      ],
      [
        "grid",
        -12.122876167297363
      ],
      [
        "▁mbedtls",
        -12.671195030212402
      ],
      [
        "NA",
        -11.688331604003906
      ],
      [
        "decl",
        -11.881891250610352
      ],
      [
        "▁pixels",
        -12.78528118133545
      ],
      [
        "CREATE",
        -12.330036163330078
      ],
      [
        "mf",
        -12.252948760986328
      ],
      [
        "Long",
        -11.79061508178711
      ],
      [
        "RATE",
        -12.30778980255127
      ],
      [
        "wc",
        -12.391366004943848
      ],
      [
        "media",
        -11.94785213470459
      ],
      [
        "ALIGN",
        -12.210320472717283
      ],
      [
        "▁running",
        -11.78123378753662
      ],
      [
        "▁special",
        -11.580859184265137
      ],
      [
        "▁within",
        -11.151849746704102
      ],
      [
        "probe",
        -12.48276710510254
      ],
      [
        "notify",
        -12.162022590637209
      ],
      [
        "hd",
        -12.353285789489746
      ],
      [
        "gr",
        -11.81391429901123
      ],
      [
        "rf",
        -12.195232391357422
      ],
      [
        "hook",
        -12.149019241333008
      ],
      [
        "he",
        -11.645430564880373
      ],
      [
        "▁doesn",
        -11.679567337036133
      ],
      [
        "tick",
        -12.292585372924805
      ],
      [
        "lineno",
        -12.924249649047852
      ],
      [
        "alt",
        -11.965020179748535
      ],
      [
        "LV",
        -12.313732147216797
      ],
      [
        "VP",
        -12.221466064453123
      ],
      [
        "ULL",
        -12.53960132598877
      ],
      [
        "Shape",
        -12.238137245178224
      ],
      [
        "▁sprintf",
        -12.8945951461792
      ],
      [
        "▁below",
        -11.41018295288086
      ],
      [
        "cost",
        -12.55869960784912
      ],
      [
        "inv",
        -12.10562515258789
      ],
      [
        "True",
        -12.233799934387209
      ],
      [
        "▁direction",
        -12.098394393920898
      ],
      [
        "Region",
        -12.27183723449707
      ],
      [
        "▁obtain",
        -11.647994995117188
      ],
      [
        "ren",
        -11.979377746582031
      ],
      [
        "GPU",
        -12.247027397155762
      ],
      [
        "UTF",
        -12.305852890014648
      ],
      [
        "This",
        -10.46970558166504
      ],
      [
        "▁DIRECT",
        -12.615498542785645
      ],
      [
        "▁fff",
        -20.444656372070312
      ],
      [
        "HS",
        -12.256305694580078
      ],
      [
        "title",
        -11.856592178344728
      ],
      [
        "struct",
        -8.536299705505371
      ],
      [
        "▁express",
        -11.86931037902832
      ],
      [
        "drop",
        -11.7484712600708
      ],
      [
        "wi",
        -11.920953750610352
      ],
      [
        "ML",
        -11.814618110656738
      ],
      [
        "Types",
        -11.783702850341797
      ],
      [
        "Heap",
        -12.31427001953125
      ],
      [
        "▁slave",
        -12.864225387573242
      ],
      [
        "resp",
        -11.751264572143556
      ],
      [
        "▁protobuf",
        -14.335288047790527
      ],
      [
        "IX",
        -11.859453201293944
      ],
      [
        "Alloc",
        -12.285140991210938
      ],
      [
        "Off",
        -11.682912826538086
      ],
      [
        "unk",
        -12.326942443847656
      ],
      [
        "left",
        -10.275959968566896
      ],
      [
        "UInt",
        -12.327594757080078
      ],
      [
        "SELECT",
        -12.275176048278809
      ],
      [
        "▁best",
        -11.278688430786133
      ],
      [
        "HasBeenSet",
        -12.462489128112791
      ],
      [
        "FFF",
        -12.165461540222168
      ],
      [
        "▁ESP",
        -12.626165390014648
      ],
      [
        "po",
        -11.321388244628906
      ],
      [
        "SV",
        -12.104931831359863
      ],
      [
        "frames",
        -12.697775840759276
      ],
      [
        "cat",
        -11.721351623535156
      ],
      [
        "Any",
        -12.467900276184082
      ],
      [
        "▁take",
        -11.260452270507812
      ],
      [
        "▁avoid",
        -11.947783470153809
      ],
      [
        "▁NVIC",
        -12.810661315917969
      ],
      [
        "Allocate",
        -12.164361000061035
      ],
      [
        "▁allocation",
        -12.212905883789062
      ],
      [
        "ENUM",
        -12.27828884124756
      ],
      [
        "Allocator",
        -12.258728981018066
      ],
      [
        "▁WARNING",
        -13.730825424194336
      ],
      [
        "play",
        -11.494601249694824
      ],
      [
        "math",
        -10.834134101867676
      ],
      [
        "Provider",
        -12.316520690917969
      ],
      [
        "▁disabled",
        -12.344029426574709
      ],
      [
        "long",
        -10.616089820861816
      ],
      [
        "Builder",
        -11.955647468566896
      ],
      [
        "▁sure",
        -11.532341003417969
      ],
      [
        "disp",
        -12.451955795288086
      ],
      [
        "ally",
        -11.434361457824709
      ],
      [
        "BS",
        -11.54848289489746
      ],
      [
        "closure",
        -12.182480812072754
      ],
      [
        "▁MONO",
        -12.68635082244873
      ],
      [
        "inf",
        -12.160682678222656
      ],
      [
        "▁PY",
        -13.418936729431152
      ],
      [
        "tty",
        -12.021673202514648
      ],
      [
        "ONLY",
        -12.171643257141112
      ],
      [
        "rand",
        -12.185412406921388
      ],
      [
        "▁variables",
        -11.91697120666504
      ],
      [
        "▁SPECIAL",
        -12.343295097351074
      ],
      [
        "dh",
        -12.21832275390625
      ],
      [
        "Common",
        -12.263757705688477
      ],
      [
        "ENT",
        -11.603143692016602
      ],
      [
        "Ext",
        -12.290773391723633
      ],
      [
        "cy",
        -11.77171230316162
      ],
      [
        "▁results",
        -10.78847885131836
      ],
      [
        "number",
        -10.918557167053224
      ],
      [
        "sql",
        -11.89866828918457
      ],
      [
        "ACK",
        -12.23198127746582
      ],
      [
        "KHR",
        -12.511492729187012
      ],
      [
        "weight",
        -11.784899711608888
      ],
      [
        "▁unknown",
        -11.847015380859377
      ],
      [
        "▁PFNGLGET",
        -12.406123161315918
      ],
      [
        "▁synthesize",
        -15.93927001953125
      ],
      [
        "Sequence",
        -12.219094276428224
      ],
      [
        "NB",
        -12.45900535583496
      ],
      [
        "▁SQLITE",
        -12.544450759887695
      ],
      [
        "ped",
        -11.836216926574709
      ],
      [
        "tom",
        -11.78306770324707
      ],
      [
        "▁prior",
        -11.631085395812988
      ],
      [
        "Lib",
        -12.048015594482422
      ],
      [
        "ACC",
        -12.459856986999512
      ],
      [
        "Power",
        -12.45167064666748
      ],
      [
        "cos",
        -12.126131057739258
      ],
      [
        "operand",
        -12.243890762329102
      ],
      [
        "Ch",
        -12.024666786193848
      ],
      [
        "Capture",
        -12.405566215515137
      ],
      [
        "PWR",
        -12.679835319519045
      ],
      [
        "▁stored",
        -12.159712791442873
      ],
      [
        "Cluster",
        -12.273776054382324
      ],
      [
        "Zero",
        -12.073723793029783
      ],
      [
        "▁APIENTRY",
        -12.501795768737791
      ],
      [
        "Begin",
        -12.155329704284668
      ],
      [
        "rr",
        -11.926727294921877
      ],
      [
        "Oid",
        -12.18443202972412
      ],
      [
        "▁algorithm",
        -12.41621208190918
      ],
      [
        "▁needs",
        -11.849308967590332
      ],
      [
        "clip",
        -12.173378944396973
      ],
      [
        "▁NAMESPACE",
        -15.146089553833008
      ],
      [
        "▁stm",
        -13.191472053527832
      ],
      [
        "▁none",
        -11.976284980773926
      ],
      [
        "▁properties",
        -11.875630378723145
      ],
      [
        "Json",
        -12.182211875915527
      ],
      [
        "BO",
        -12.205653190612791
      ],
      [
        "wrap",
        -11.9628267288208
      ],
      [
        "HIGH",
        -12.397500991821287
      ],
      [
        "▁overflow",
        -12.469097137451172
      ],
      [
        "MIT",
        -11.926031112670898
      ],
      [
        "▁permissions",
        -11.811319351196287
      ],
      [
        "▁stdio",
        -15.088937759399414
      ],
      [
        "ENC",
        -12.588775634765623
      ],
      [
        "lex",
        -12.676091194152832
      ],
      [
        "ave",
        -11.948596954345703
      ],
      [
        "eat",
        -12.285446166992188
      ],
      [
        "SOCKET",
        -12.221500396728516
      ],
      [
        "mux",
        -12.576805114746094
      ],
      [
        "batch",
        -12.77434539794922
      ],
      [
        "rg",
        -12.395527839660645
      ],
      [
        "alias",
        -12.77193832397461
      ],
      [
        "Surface",
        -12.284734725952148
      ],
      [
        "atom",
        -11.704487800598145
      ],
      [
        "ax",
        -12.12171745300293
      ],
      [
        "Loop",
        -12.123329162597656
      ],
      [
        "Properties",
        -12.012571334838867
      ],
      [
        "Rate",
        -12.294028282165527
      ],
      [
        "hw",
        -10.92691135406494
      ],
      [
        "ACCESS",
        -12.250121116638184
      ],
      [
        "GO",
        -11.799278259277344
      ],
      [
        "mg",
        -12.68364429473877
      ],
      [
        "PARAMETER",
        -12.139713287353516
      ],
      [
        "KERNEL",
        -12.286800384521484
      ],
      [
        "▁FAR",
        -13.160978317260742
      ],
      [
        "Macro",
        -12.066425323486328
      ],
      [
        "LABEL",
        -12.349076271057127
      ],
      [
        "ALLOC",
        -12.349764823913574
      ],
      [
        "▁native",
        -12.314360618591309
      ],
      [
        "iod",
        -13.319901466369627
      ],
      [
        "▁modification",
        -11.9740629196167
      ],
      [
        "▁DEFINED",
        -16.339435577392578
      ],
      [
        "▁allowed",
        -11.985795974731444
      ],
      [
        "TF",
        -12.006133079528809
      ],
      [
        "OB",
        -11.86830234527588
      ],
      [
        "wrapper",
        -12.239582061767578
      ],
      [
        "▁subject",
        -11.671798706054688
      ],
      [
        "sq",
        -12.080055236816406
      ],
      [
        "▁ACPI",
        -12.544669151306152
      ],
      [
        "Proc",
        -12.120515823364258
      ],
      [
        "mit",
        -11.455062866210938
      ],
      [
        "dup",
        -12.44338607788086
      ],
      [
        "Insert",
        -12.207978248596191
      ],
      [
        "agg",
        -12.419445991516112
      ],
      [
        "html",
        -11.57768440246582
      ],
      [
        "Main",
        -12.15347957611084
      ],
      [
        "SB",
        -12.190817832946776
      ],
      [
        "Edge",
        -12.185103416442873
      ],
      [
        "nn",
        -11.973910331726074
      ],
      [
        "▁operations",
        -11.770036697387695
      ],
      [
        "▁how",
        -10.901593208312988
      ],
      [
        "CV",
        -12.192622184753418
      ],
      [
        "dns",
        -12.526402473449709
      ],
      [
        "Reader",
        -12.12258529663086
      ],
      [
        "▁buffers",
        -12.606685638427734
      ],
      [
        "SN",
        -11.903860092163086
      ],
      [
        "▁StringCopy",
        -17.636112213134766
      ],
      [
        "Bar",
        -11.832090377807615
      ],
      [
        "gs",
        -11.611054420471191
      ],
      [
        "PNG",
        -12.303319931030272
      ],
      [
        "ill",
        -11.905679702758787
      ],
      [
        "▁transport",
        -12.127389907836914
      ],
      [
        "Scale",
        -12.209943771362305
      ],
      [
        "CONFIG",
        -10.225253105163574
      ],
      [
        "Relation",
        -12.079019546508787
      ],
      [
        "ONE",
        -11.62775421142578
      ],
      [
        "Mesh",
        -12.314101219177246
      ],
      [
        "acl",
        -12.697996139526367
      ],
      [
        "IMPL",
        -12.289283752441406
      ],
      [
        "MOVE",
        -12.494179725646973
      ],
      [
        "Column",
        -12.166406631469728
      ],
      [
        "ph",
        -11.151744842529297
      ],
      [
        "ident",
        -11.8749418258667
      ],
      [
        "Script",
        -11.997217178344728
      ],
      [
        "▁destination",
        -12.192623138427734
      ],
      [
        "▁columns",
        -12.52680492401123
      ],
      [
        "INDIRECT",
        -12.25156307220459
      ],
      [
        "Policy",
        -12.008913040161133
      ],
      [
        "Transaction",
        -12.029134750366213
      ],
      [
        "Part",
        -12.204859733581545
      ],
      [
        "VPROC",
        -12.365234375
      ],
      [
        "cause",
        -13.040031433105469
      ],
      [
        "▁allocator",
        -13.041337013244627
      ],
      [
        "Search",
        -11.798460960388184
      ],
      [
        "▁fini",
        -15.753567695617676
      ],
      [
        "CHECK",
        -11.04331111907959
      ],
      [
        "▁threads",
        -12.716398239135742
      ],
      [
        "Setup",
        -12.253181457519531
      ],
      [
        "ness",
        -11.042600631713867
      ],
      [
        "▁initialized",
        -12.42782974243164
      ],
      [
        "blob",
        -12.721429824829102
      ],
      [
        "guard",
        -12.1467924118042
      ],
      [
        "dec",
        -10.178666114807127
      ],
      [
        "ta",
        -10.97443389892578
      ],
      [
        "cpp",
        -12.33092212677002
      ],
      [
        "Changed",
        -12.203880310058594
      ],
      [
        "Pro",
        -11.851192474365234
      ],
      [
        "inner",
        -11.937108039855955
      ],
      [
        "mouse",
        -12.70069980621338
      ],
      [
        "client",
        -10.788285255432127
      ],
      [
        "imm",
        -12.369394302368164
      ],
      [
        "Factory",
        -12.054574012756348
      ],
      [
        "Step",
        -11.976765632629396
      ],
      [
        "fx",
        -12.412890434265137
      ],
      [
        "GT",
        -11.974964141845703
      ],
      [
        "Profile",
        -11.512160301208496
      ],
      [
        "hex",
        -12.391159057617188
      ],
      [
        "Driver",
        -12.01448917388916
      ],
      [
        "REQUEST",
        -12.353548049926758
      ],
      [
        "▁esp",
        -13.334458351135254
      ],
      [
        "Helper",
        -12.154135704040527
      ],
      [
        "export",
        -12.4483060836792
      ],
      [
        "sets",
        -12.523423194885254
      ],
      [
        "▁relation",
        -12.821969032287598
      ],
      [
        "Win",
        -11.712650299072266
      ],
      [
        "ted",
        -10.93594455718994
      ],
      [
        "SF",
        -11.58843994140625
      ],
      [
        "frag",
        -12.110872268676758
      ],
      [
        "▁uses",
        -11.42655086517334
      ],
      [
        "Trace",
        -12.182073593139648
      ],
      [
        "Game",
        -12.362521171569824
      ],
      [
        "▁lambda",
        -13.934992790222168
      ],
      [
        "Order",
        -12.07190990447998
      ],
      [
        "MX",
        -12.115650177001951
      ],
      [
        "ready",
        -12.463682174682615
      ],
      [
        "ified",
        -11.75168228149414
      ],
      [
        "Temp",
        -12.152559280395508
      ],
      [
        "MF",
        -12.113702774047852
      ],
      [
        "▁BCM",
        -12.752216339111328
      ],
      [
        "▁aws",
        -14.227974891662598
      ],
      [
        "▁backend",
        -12.94688892364502
      ],
      [
        "▁headers",
        -12.706798553466797
      ],
      [
        "DIO",
        -12.970078468322754
      ],
      [
        "▁derived",
        -12.03617000579834
      ],
      [
        "zip",
        -12.420243263244627
      ],
      [
        "Dir",
        -12.136560440063477
      ],
      [
        "last",
        -10.73705005645752
      ],
      [
        "ized",
        -11.360954284667969
      ],
      [
        "▁IDirect",
        -12.65131378173828
      ],
      [
        "TREE",
        -12.37238311767578
      ],
      [
        "ess",
        -11.666459083557127
      ],
      [
        "Attributes",
        -12.188596725463867
      ],
      [
        "▁STRICT",
        -12.45486068725586
      ],
      [
        "Con",
        -11.86168384552002
      ],
      [
        "tensor",
        -12.652750015258787
      ],
      [
        "Can",
        -12.097158432006836
      ],
      [
        "GLOBAL",
        -12.34611701965332
      ],
      [
        "EF",
        -11.989173889160156
      ],
      [
        "vk",
        -12.501779556274414
      ],
      [
        "Mod",
        -12.11052703857422
      ],
      [
        "RSA",
        -12.470251083374023
      ],
      [
        "TT",
        -12.109293937683104
      ],
      [
        "Operand",
        -12.452662467956545
      ],
      [
        "▁restrict",
        -13.457145690917969
      ],
      [
        "Values",
        -12.13527774810791
      ],
      [
        "▁soc",
        -13.582758903503418
      ],
      [
        "WARN",
        -11.82923412322998
      ],
      [
        "Priority",
        -12.478995323181152
      ],
      [
        "tl",
        -12.050416946411133
      ],
      [
        "uri",
        -11.819414138793944
      ],
      [
        "rank",
        -12.088726043701172
      ],
      [
        "Integer",
        -11.991765022277832
      ],
      [
        "ary",
        -10.458046913146973
      ],
      [
        "ible",
        -11.549013137817385
      ],
      [
        "fifo",
        -12.533685684204102
      ],
      [
        "Gen",
        -12.182785987854004
      ],
      [
        "MULTI",
        -12.278804779052734
      ],
      [
        "One",
        -12.037663459777832
      ],
      [
        "▁extract",
        -12.74750518798828
      ],
      [
        "ctxt",
        -12.41808795928955
      ],
      [
        "▁uuid",
        -13.900408744812012
      ],
      [
        "typ",
        -12.344315528869627
      ],
      [
        "Root",
        -12.10700511932373
      ],
      [
        "nx",
        -12.58713722229004
      ],
      [
        "indices",
        -13.055724143981934
      ],
      [
        "exc",
        -12.496777534484863
      ],
      [
        "▁amount",
        -11.965946197509766
      ],
      [
        "IER",
        -12.776726722717283
      ],
      [
        "method",
        -11.184959411621094
      ],
      [
        "reader",
        -12.575509071350098
      ],
      [
        "▁completion",
        -12.57130527496338
      ],
      [
        "▁might",
        -11.357003211975098
      ],
      [
        "ine",
        -8.209827423095703
      ],
      [
        "DEC",
        -11.155091285705566
      ],
      [
        "Left",
        -12.021445274353027
      ],
      [
        "PART",
        -12.444514274597168
      ],
      [
        "UPDATE",
        -12.417819023132324
      ],
      [
        "▁means",
        -11.603212356567385
      ],
      [
        "Slot",
        -12.286766052246094
      ],
      [
        "ATTRIBUTE",
        -12.493582725524902
      ],
      [
        "Report",
        -11.705404281616213
      ],
      [
        "Information",
        -12.25533390045166
      ],
      [
        "params",
        -10.976967811584473
      ],
      [
        "Symbol",
        -12.195033073425291
      ],
      [
        "dummy",
        -12.279906272888184
      ],
      [
        "Tuple",
        -12.183809280395508
      ],
      [
        "version",
        -10.9415922164917
      ],
      [
        "QUEUE",
        -12.402289390563965
      ],
      [
        "Screen",
        -12.005332946777344
      ],
      [
        "▁applicable",
        -11.839096069335938
      ],
      [
        "return",
        -7.3285322189331055
      ],
      [
        "POINTER",
        -12.480104446411133
      ],
      [
        "Sp",
        -12.39077377319336
      ],
      [
        "cont",
        -11.274054527282717
      ],
      [
        "Menu",
        -12.078389167785645
      ],
      [
        "Trigger",
        -12.39788055419922
      ],
      [
        "GS",
        -12.17110824584961
      ],
      [
        "▁XK",
        -13.10703182220459
      ],
      [
        "detail",
        -11.88625144958496
      ],
      [
        "fm",
        -12.49261474609375
      ],
      [
        "NUMBER",
        -12.388190269470217
      ],
      [
        "▁threshold",
        -12.785085678100586
      ],
      [
        "band",
        -11.873291969299316
      ],
      [
        "▁utf",
        -13.40781593322754
      ],
      [
        "▁Sk",
        -11.900818824768066
      ],
      [
        "▁compliance",
        -12.035148620605469
      ],
      [
        "Date",
        -11.685857772827148
      ],
      [
        "Valid",
        -12.17111110687256
      ],
      [
        "FAILED",
        -12.212972640991213
      ],
      [
        "▁grpc",
        -13.289878845214844
      ],
      [
        "Used",
        -12.249860763549805
      ],
      [
        "▁uintptr",
        -13.418834686279297
      ],
      [
        "Metadata",
        -12.341208457946776
      ],
      [
        "▁contents",
        -12.428818702697754
      ],
      [
        "WAY",
        -12.350665092468262
      ],
      [
        "▁via",
        -11.868575096130373
      ],
      [
        "adc",
        -12.695966720581056
      ],
      [
        "▁statement",
        -12.027679443359377
      ],
      [
        "▁ignore",
        -12.486767768859863
      ],
      [
        "▁included",
        -11.393818855285645
      ],
      [
        "▁strong",
        -12.0603666305542
      ],
      [
        "▁least",
        -11.543862342834473
      ],
      [
        "nic",
        -12.267836570739746
      ],
      [
        "▁expect",
        -12.280916213989258
      ],
      [
        "fname",
        -12.453697204589844
      ],
      [
        "DLL",
        -12.333301544189451
      ],
      [
        "DOWN",
        -12.385712623596191
      ],
      [
        "RING",
        -12.314634323120115
      ],
      [
        "Instruction",
        -12.000988006591797
      ],
      [
        "Runtime",
        -12.247296333312988
      ],
      [
        "▁ieee",
        -13.05917739868164
      ],
      [
        "DRV",
        -12.602631568908691
      ],
      [
        "▁currently",
        -11.691113471984863
      ],
      [
        "Structure",
        -11.765084266662598
      ],
      [
        "Document",
        -11.994150161743164
      ],
      [
        "neg",
        -12.020983695983888
      ],
      [
        "cancel",
        -12.589181900024414
      ],
      [
        "Low",
        -12.709742546081545
      ],
      [
        "cookie",
        -12.714377403259276
      ],
      [
        "bh",
        -12.304801940917969
      ],
      [
        "SERVER",
        -12.075940132141112
      ],
      [
        "ru",
        -11.631962776184082
      ],
      [
        "ify",
        -11.624807357788086
      ],
      [
        "▁sockaddr",
        -12.49557876586914
      ],
      [
        "Work",
        -11.655439376831056
      ],
      [
        "lx",
[...]
